unsigned char lmfe_int8_tflite[] = {
  0x1c, 0x00, 0x00, 0x00, 0x54, 0x46, 0x4c, 0x33, 0x14, 0x00, 0x20, 0x00,
  0x04, 0x00, 0x08, 0x00, 0x0c, 0x00, 0x10, 0x00, 0x14, 0x00, 0x00, 0x00,
  0x18, 0x00, 0x1c, 0x00, 0x14, 0x00, 0x00, 0x00, 0x03, 0x00, 0x00, 0x00,
  0xb8, 0x00, 0x00, 0x00, 0xac, 0x00, 0x00, 0x00, 0xac, 0x01, 0x00, 0x00,
  0x0c, 0x00, 0x00, 0x00, 0x54, 0x01, 0x00, 0x00, 0xcc, 0x00, 0x00, 0x00,
  0x25, 0x00, 0x00, 0x00, 0x64, 0x23, 0x00, 0x00, 0x60, 0x23, 0x00, 0x00,
  0x50, 0x22, 0x00, 0x00, 0xdc, 0x21, 0x00, 0x00, 0x80, 0x21, 0x00, 0x00,
  0x24, 0x21, 0x00, 0x00, 0xc4, 0x20, 0x00, 0x00, 0x5c, 0x20, 0x00, 0x00,
  0xfc, 0x1f, 0x00, 0x00, 0x94, 0x1f, 0x00, 0x00, 0x2c, 0x1f, 0x00, 0x00,
  0xd0, 0x1e, 0x00, 0x00, 0x90, 0x1b, 0x00, 0x00, 0xb8, 0x1a, 0x00, 0x00,
  0x08, 0x18, 0x00, 0x00, 0xac, 0x16, 0x00, 0x00, 0x78, 0x11, 0x00, 0x00,
  0x10, 0x11, 0x00, 0x00, 0x1c, 0x23, 0x00, 0x00, 0x18, 0x23, 0x00, 0x00,
  0x14, 0x23, 0x00, 0x00, 0x10, 0x23, 0x00, 0x00, 0x0c, 0x23, 0x00, 0x00,
  0x08, 0x23, 0x00, 0x00, 0x04, 0x23, 0x00, 0x00, 0x00, 0x23, 0x00, 0x00,
  0xfc, 0x22, 0x00, 0x00, 0xf8, 0x22, 0x00, 0x00, 0xf4, 0x22, 0x00, 0x00,
  0xf0, 0x22, 0x00, 0x00, 0xec, 0x22, 0x00, 0x00, 0xe8, 0x22, 0x00, 0x00,
  0xe4, 0x22, 0x00, 0x00, 0xe0, 0x22, 0x00, 0x00, 0xdc, 0x22, 0x00, 0x00,
  0xd8, 0x22, 0x00, 0x00, 0xec, 0x00, 0x00, 0x00, 0x01, 0x00, 0x00, 0x00,
  0x24, 0x01, 0x00, 0x00, 0x09, 0x00, 0x00, 0x00, 0x60, 0x10, 0x00, 0x00,
  0xb4, 0x0f, 0x00, 0x00, 0xf8, 0x0e, 0x00, 0x00, 0x20, 0x0e, 0x00, 0x00,
  0x4c, 0x0d, 0x00, 0x00, 0x24, 0x0c, 0x00, 0x00, 0x8c, 0x09, 0x00, 0x00,
  0xf8, 0x02, 0x00, 0x00, 0x3c, 0x02, 0x00, 0x00, 0x01, 0x00, 0x00, 0x00,
  0x10, 0x00, 0x00, 0x00, 0x00, 0x00, 0x0a, 0x00, 0x10, 0x00, 0x0c, 0x00,
  0x08, 0x00, 0x04, 0x00, 0x0a, 0x00, 0x00, 0x00, 0x0c, 0x00, 0x00, 0x00,
  0x1c, 0x00, 0x00, 0x00, 0x20, 0x00, 0x00, 0x00, 0x0f, 0x00, 0x00, 0x00,
  0x73, 0x65, 0x72, 0x76, 0x69, 0x6e, 0x67, 0x5f, 0x64, 0x65, 0x66, 0x61,
  0x75, 0x6c, 0x74, 0x00, 0x01, 0x00, 0x00, 0x00, 0x14, 0x00, 0x00, 0x00,
  0x01, 0x00, 0x00, 0x00, 0x24, 0x00, 0x00, 0x00, 0x08, 0x00, 0x0c, 0x00,
  0x08, 0x00, 0x04, 0x00, 0x08, 0x00, 0x00, 0x00, 0x22, 0x00, 0x00, 0x00,
  0x04, 0x00, 0x00, 0x00, 0x06, 0x00, 0x00, 0x00, 0x79, 0x5f, 0x70, 0x72,
  0x65, 0x64, 0x00, 0x00, 0xda, 0xde, 0xff, 0xff, 0x04, 0x00, 0x00, 0x00,
  0x0d, 0x00, 0x00, 0x00, 0x72, 0x65, 0x73, 0x68, 0x61, 0x70, 0x65, 0x5f,
  0x69, 0x6e, 0x70, 0x75, 0x74, 0x00, 0x00, 0x00, 0x01, 0x00, 0x00, 0x00,
  0x0c, 0x00, 0x00, 0x00, 0x08, 0x00, 0x0c, 0x00, 0x04, 0x00, 0x08, 0x00,
  0x08, 0x00, 0x00, 0x00, 0x08, 0x00, 0x00, 0x00, 0x24, 0x00, 0x00, 0x00,
  0x13, 0x00, 0x00, 0x00, 0x6d, 0x69, 0x6e, 0x5f, 0x72, 0x75, 0x6e, 0x74,
  0x69, 0x6d, 0x65, 0x5f, 0x76, 0x65, 0x72, 0x73, 0x69, 0x6f, 0x6e, 0x00,
  0x2a, 0xdf, 0xff, 0xff, 0x04, 0x00, 0x00, 0x00, 0x10, 0x00, 0x00, 0x00,
  0x31, 0x2e, 0x31, 0x34, 0x2e, 0x30, 0x00, 0x00, 0x00, 0x00, 0x00, 0x00,
  0x00, 0x00, 0x00, 0x00, 0x0f, 0x00, 0x00, 0x00, 0x4d, 0x4c, 0x49, 0x52,
  0x20, 0x43, 0x6f, 0x6e, 0x76, 0x65, 0x72, 0x74, 0x65, 0x64, 0x2e, 0x00,
  0x00, 0x00, 0x0e, 0x00, 0x18, 0x00, 0x04, 0x00, 0x08, 0x00, 0x0c, 0x00,
  0x10, 0x00, 0x14, 0x00, 0x0e, 0x00, 0x00, 0x00, 0x7c, 0x00, 0x00, 0x00,
  0x70, 0x00, 0x00, 0x00, 0x64, 0x00, 0x00, 0x00, 0x14, 0x00, 0x00, 0x00,
  0x04, 0x00, 0x00, 0x00, 0x04, 0x00, 0x00, 0x00, 0x6d, 0x61, 0x69, 0x6e,
  0x00, 0x00, 0x00, 0x00, 0x12, 0x00, 0x00, 0x00, 0xdc, 0x0e, 0x00, 0x00,
  0x24, 0x0e, 0x00, 0x00, 0x7c, 0x0d, 0x00, 0x00, 0xb8, 0x0c, 0x00, 0x00,
  0xd8, 0x0b, 0x00, 0x00, 0x94, 0x0a, 0x00, 0x00, 0xa8, 0x09, 0x00, 0x00,
  0xe4, 0x08, 0x00, 0x00, 0xf4, 0x07, 0x00, 0x00, 0x48, 0x07, 0x00, 0x00,
  0x84, 0x06, 0x00, 0x00, 0x54, 0x05, 0x00, 0x00, 0x60, 0x04, 0x00, 0x00,
  0x98, 0x03, 0x00, 0x00, 0xcc, 0x02, 0x00, 0x00, 0x30, 0x02, 0x00, 0x00,
  0x5c, 0x01, 0x00, 0x00, 0xa4, 0x00, 0x00, 0x00, 0x01, 0x00, 0x00, 0x00,
  0x22, 0x00, 0x00, 0x00, 0x01, 0x00, 0x00, 0x00, 0x00, 0x00, 0x00, 0x00,
  0x23, 0x00, 0x00, 0x00, 0x9c, 0x20, 0x00, 0x00, 0x34, 0x20, 0x00, 0x00,
  0xb0, 0x1f, 0x00, 0x00, 0x54, 0x1f, 0x00, 0x00, 0xf8, 0x1e, 0x00, 0x00,
  0x98, 0x1e, 0x00, 0x00, 0x38, 0x1e, 0x00, 0x00, 0xd0, 0x1d, 0x00, 0x00,
  0x70, 0x1d, 0x00, 0x00, 0x08, 0x1d, 0x00, 0x00, 0xa8, 0x1c, 0x00, 0x00,
  0xd0, 0x1b, 0x00, 0x00, 0xa8, 0x18, 0x00, 0x00, 0x58, 0x17, 0x00, 0x00,
  0xbc, 0x14, 0x00, 0x00, 0x08, 0x14, 0x00, 0x00, 0xe8, 0x0e, 0x00, 0x00,
  0x8c, 0x0e, 0x00, 0x00, 0xe0, 0x0d, 0x00, 0x00, 0x24, 0x0d, 0x00, 0x00,
  0x4c, 0x0c, 0x00, 0x00, 0x78, 0x0b, 0x00, 0x00, 0x50, 0x0a, 0x00, 0x00,
  0x2c, 0x09, 0x00, 0x00, 0x74, 0x08, 0x00, 0x00, 0xb0, 0x07, 0x00, 0x00,
  0xcc, 0x06, 0x00, 0x00, 0x14, 0x06, 0x00, 0x00, 0xf4, 0x04, 0x00, 0x00,
  0xe4, 0x03, 0x00, 0x00, 0x28, 0x03, 0x00, 0x00, 0x68, 0x02, 0x00, 0x00,
  0xb4, 0x01, 0x00, 0x00, 0x00, 0x01, 0x00, 0x00, 0x44, 0x00, 0x00, 0x00,
  0x72, 0xf3, 0xff, 0xff, 0x00, 0x00, 0x00, 0x09, 0x08, 0x00, 0x00, 0x00,
  0x1c, 0x00, 0x00, 0x00, 0x10, 0x00, 0x00, 0x00, 0x04, 0x00, 0x00, 0x00,
  0x92, 0xe0, 0xff, 0xff, 0x00, 0x00, 0x80, 0x3f, 0x01, 0x00, 0x00, 0x00,
  0x22, 0x00, 0x00, 0x00, 0x01, 0x00, 0x00, 0x00, 0x21, 0x00, 0x00, 0x00,
  0x08, 0xf2, 0xff, 0xff, 0x19, 0x00, 0x00, 0x00, 0x00, 0x00, 0x00, 0x19,
  0x02, 0x00, 0x00, 0x00, 0x44, 0xe0, 0xff, 0xff, 0x00, 0x00, 0x00, 0x09,
  0x40, 0x00, 0x00, 0x00, 0x23, 0x00, 0x00, 0x00, 0x18, 0x00, 0x00, 0x00,
  0x40, 0x00, 0x00, 0x00, 0x04, 0x00, 0x00, 0x00, 0x02, 0x00, 0x00, 0x00,
  0xff, 0xff, 0xff, 0xff, 0x02, 0x00, 0x00, 0x00, 0x19, 0x00, 0x00, 0x00,
  0x53, 0x74, 0x61, 0x74, 0x65, 0x66, 0x75, 0x6c, 0x50, 0x61, 0x72, 0x74,
  0x69, 0x74, 0x69, 0x6f, 0x6e, 0x65, 0x64, 0x43, 0x61, 0x6c, 0x6c, 0x3a,
  0x30, 0x00, 0x00, 0x00, 0x02, 0x00, 0x00, 0x00, 0x01, 0x00, 0x00, 0x00,
  0x02, 0x00, 0x00, 0x00, 0x2c, 0xe0, 0xff, 0xff, 0x14, 0x00, 0x00, 0x00,
  0x04, 0x00, 0x00, 0x00, 0x01, 0x00, 0x00, 0x00, 0x80, 0xff, 0xff, 0xff,
  0xff, 0xff, 0xff, 0xff, 0x01, 0x00, 0x00, 0x00, 0x00, 0x00, 0x80, 0x3b,
  0x26, 0xf4, 0xff, 0xff, 0x00, 0x00, 0x00, 0x08, 0x07, 0x00, 0x00, 0x00,
  0x18, 0x00, 0x00, 0x00, 0x0c, 0x00, 0x00, 0x00, 0x04, 0x00, 0x00, 0x00,
  0x38, 0xe0, 0xff, 0xff, 0x01, 0x00, 0x00, 0x00, 0x21, 0x00, 0x00, 0x00,
  0x03, 0x00, 0x00, 0x00, 0x20, 0x00, 0x00, 0x00, 0x0f, 0x00, 0x00, 0x00,
  0x10, 0x00, 0x00, 0x00, 0xc0, 0xf2, 0xff, 0xff, 0x09, 0x00, 0x00, 0x00,
  0x00, 0x00, 0x00, 0x09, 0x04, 0x00, 0x00, 0x00, 0xfc, 0xe0, 0xff, 0xff,
  0x00, 0x00, 0x00, 0x09, 0x58, 0x00, 0x00, 0x00, 0x22, 0x00, 0x00, 0x00,
  0x18, 0x00, 0x00, 0x00, 0x58, 0x00, 0x00, 0x00, 0x04, 0x00, 0x00, 0x00,
  0x02, 0x00, 0x00, 0x00, 0xff, 0xff, 0xff, 0xff, 0x02, 0x00, 0x00, 0x00,
  0x32, 0x00, 0x00, 0x00, 0x73, 0x65, 0x71, 0x75, 0x65, 0x6e, 0x74, 0x69,
  0x61, 0x6c, 0x2f, 0x79, 0x5f, 0x70, 0x72, 0x65, 0x64, 0x2f, 0x4d, 0x61,
  0x74, 0x4d, 0x75, 0x6c, 0x3b, 0x73, 0x65, 0x71, 0x75, 0x65, 0x6e, 0x74,
  0x69, 0x61, 0x6c, 0x2f, 0x79, 0x5f, 0x70, 0x72, 0x65, 0x64, 0x2f, 0x42,
  0x69, 0x61, 0x73, 0x41, 0x64, 0x64, 0x00, 0x00, 0x02, 0x00, 0x00, 0x00,
  0x01, 0x00, 0x00, 0x00, 0x02, 0x00, 0x00, 0x00, 0xfc, 0xe0, 0xff, 0xff,
  0x14, 0x00, 0x00, 0x00, 0x04, 0x00, 0x00, 0x00, 0x01, 0x00, 0x00, 0x00,
  0x01, 0x00, 0x00, 0x00, 0x00, 0x00, 0x00, 0x00, 0x01, 0x00, 0x00, 0x00,
  0x40, 0xb6, 0xe4, 0x3c, 0xb2, 0xf5, 0xff, 0xff, 0x03, 0x00, 0x00, 0x00,
  0x10, 0x00, 0x00, 0x00, 0x04, 0x00, 0x00, 0x00, 0x01, 0x00, 0x00, 0x00,
  0x20, 0x00, 0x00, 0x00, 0x02, 0x00, 0x00, 0x00, 0x1f, 0x00, 0x00, 0x00,
  0x0a, 0x00, 0x00, 0x00, 0xac, 0xe1, 0xff, 0xff, 0x00, 0x00, 0x00, 0x09,
  0x40, 0x00, 0x00, 0x00, 0x21, 0x00, 0x00, 0x00, 0x18, 0x00, 0x00, 0x00,
  0x40, 0x00, 0x00, 0x00, 0x04, 0x00, 0x00, 0x00, 0x02, 0x00, 0x00, 0x00,
  0xff, 0xff, 0xff, 0xff, 0x60, 0x02, 0x00, 0x00, 0x1a, 0x00, 0x00, 0x00,
  0x73, 0x65, 0x71, 0x75, 0x65, 0x6e, 0x74, 0x69, 0x61, 0x6c, 0x2f, 0x66,
  0x6c, 0x61, 0x74, 0x74, 0x65, 0x6e, 0x2f, 0x52, 0x65, 0x73, 0x68, 0x61,
  0x70, 0x65, 0x00, 0x00, 0x02, 0x00, 0x00, 0x00, 0x01, 0x00, 0x00, 0x00,
  0x60, 0x02, 0x00, 0x00, 0x94, 0xe1, 0xff, 0xff, 0x14, 0x00, 0x00, 0x00,
  0x04, 0x00, 0x00, 0x00, 0x01, 0x00, 0x00, 0x00, 0x80, 0xff, 0xff, 0xff,
  0xff, 0xff, 0xff, 0xff, 0x01, 0x00, 0x00, 0x00, 0x2a, 0x8a, 0x02, 0x3d,
  0x8e, 0xf5, 0xff, 0xff, 0x00, 0x00, 0x00, 0x05, 0x06, 0x00, 0x00, 0x00,
  0x28, 0x00, 0x00, 0x00, 0x1c, 0x00, 0x00, 0x00, 0x04, 0x00, 0x00, 0x00,
  0xee, 0xfa, 0xff, 0xff, 0x02, 0x00, 0x00, 0x00, 0x01, 0x00, 0x00, 0x00,
  0x02, 0x00, 0x00, 0x00, 0x01, 0x00, 0x00, 0x00, 0x01, 0x00, 0x00, 0x00,
  0x1f, 0x00, 0x00, 0x00, 0x01, 0x00, 0x00, 0x00, 0x1e, 0x00, 0x00, 0x00,
  0x5c, 0xe2, 0xff, 0xff, 0x00, 0x00, 0x00, 0x09, 0x50, 0x00, 0x00, 0x00,
  0x20, 0x00, 0x00, 0x00, 0x20, 0x00, 0x00, 0x00, 0x58, 0x00, 0x00, 0x00,
  0x04, 0x00, 0x00, 0x00, 0x04, 0x00, 0x00, 0x00, 0xff, 0xff, 0xff, 0xff,
  0x26, 0x00, 0x00, 0x00, 0x01, 0x00, 0x00, 0x00, 0x10, 0x00, 0x00, 0x00,
  0x22, 0x00, 0x00, 0x00, 0x73, 0x65, 0x71, 0x75, 0x65, 0x6e, 0x74, 0x69,
  0x61, 0x6c, 0x2f, 0x6d, 0x61, 0x78, 0x5f, 0x70, 0x6f, 0x6f, 0x6c, 0x69,
  0x6e, 0x67, 0x31, 0x64, 0x5f, 0x31, 0x2f, 0x4d, 0x61, 0x78, 0x50, 0x6f,
  0x6f, 0x6c, 0x00, 0x00, 0x04, 0x00, 0x00, 0x00, 0x01, 0x00, 0x00, 0x00,
  0x26, 0x00, 0x00, 0x00, 0x01, 0x00, 0x00, 0x00, 0x10, 0x00, 0x00, 0x00,
  0x5c, 0xe2, 0xff, 0xff, 0x14, 0x00, 0x00, 0x00, 0x04, 0x00, 0x00, 0x00,
  0x01, 0x00, 0x00, 0x00, 0x80, 0xff, 0xff, 0xff, 0xff, 0xff, 0xff, 0xff,
  0x01, 0x00, 0x00, 0x00, 0x2a, 0x8a, 0x02, 0x3d, 0x56, 0xf6, 0xff, 0xff,
  0x00, 0x00, 0x00, 0x34, 0x04, 0x00, 0x00, 0x00, 0x18, 0x00, 0x00, 0x00,
  0x0c, 0x00, 0x00, 0x00, 0x04, 0x00, 0x00, 0x00, 0x68, 0xe2, 0xff, 0xff,
  0x01, 0x00, 0x00, 0x00, 0x1e, 0x00, 0x00, 0x00, 0x02, 0x00, 0x00, 0x00,
  0x1d, 0x00, 0x00, 0x00, 0x07, 0x00, 0x00, 0x00, 0x18, 0xe3, 0xff, 0xff,
  0x00, 0x00, 0x00, 0x09, 0x54, 0x00, 0x00, 0x00, 0x1f, 0x00, 0x00, 0x00,
  0x20, 0x00, 0x00, 0x00, 0x5c, 0x00, 0x00, 0x00, 0x04, 0x00, 0x00, 0x00,
  0x04, 0x00, 0x00, 0x00, 0xff, 0xff, 0xff, 0xff, 0x4b, 0x00, 0x00, 0x00,
  0x01, 0x00, 0x00, 0x00, 0x10, 0x00, 0x00, 0x00, 0x25, 0x00, 0x00, 0x00,
  0x73, 0x65, 0x71, 0x75, 0x65, 0x6e, 0x74, 0x69, 0x61, 0x6c, 0x2f, 0x6d,
  0x61, 0x78, 0x5f, 0x70, 0x6f, 0x6f, 0x6c, 0x69, 0x6e, 0x67, 0x31, 0x64,
  0x5f, 0x31, 0x2f, 0x45, 0x78, 0x70, 0x61, 0x6e, 0x64, 0x44, 0x69, 0x6d,
  0x73, 0x00, 0x00, 0x00, 0x04, 0x00, 0x00, 0x00, 0x01, 0x00, 0x00, 0x00,
  0x4b, 0x00, 0x00, 0x00, 0x01, 0x00, 0x00, 0x00, 0x10, 0x00, 0x00, 0x00,
  0x1c, 0xe3, 0xff, 0xff, 0x18, 0x00, 0x00, 0x00, 0x04, 0x00, 0x00, 0x00,
  0x01, 0x00, 0x00, 0x00, 0x80, 0xff, 0xff, 0xff, 0xff, 0xff, 0xff, 0xff,
  0x00, 0x00, 0x00, 0x00, 0x01, 0x00, 0x00, 0x00, 0x2a, 0x8a, 0x02, 0x3d,
  0xd6, 0xf7, 0xff, 0xff, 0x03, 0x00, 0x00, 0x00, 0x10, 0x00, 0x00, 0x00,
  0x04, 0x00, 0x00, 0x00, 0x01, 0x00, 0x00, 0x00, 0x1d, 0x00, 0x00, 0x00,
  0x02, 0x00, 0x00, 0x00, 0x1c, 0x00, 0x00, 0x00, 0x09, 0x00, 0x00, 0x00,
  0xd0, 0xe3, 0xff, 0xff, 0x00, 0x00, 0x00, 0x09, 0x90, 0x00, 0x00, 0x00,
  0x1e, 0x00, 0x00, 0x00, 0x1c, 0x00, 0x00, 0x00, 0x94, 0x00, 0x00, 0x00,
  0x04, 0x00, 0x00, 0x00, 0x03, 0x00, 0x00, 0x00, 0xff, 0xff, 0xff, 0xff,
  0x4b, 0x00, 0x00, 0x00, 0x10, 0x00, 0x00, 0x00, 0x65, 0x00, 0x00, 0x00,
  0x73, 0x65, 0x71, 0x75, 0x65, 0x6e, 0x74, 0x69, 0x61, 0x6c, 0x2f, 0x63,
  0x6f, 0x6e, 0x76, 0x31, 0x64, 0x5f, 0x31, 0x2f, 0x52, 0x65, 0x6c, 0x75,
  0x3b, 0x73, 0x65, 0x71, 0x75, 0x65, 0x6e, 0x74, 0x69, 0x61, 0x6c, 0x2f,
  0x63, 0x6f, 0x6e, 0x76, 0x31, 0x64, 0x5f, 0x31, 0x2f, 0x42, 0x69, 0x61,
  0x73, 0x41, 0x64, 0x64, 0x3b, 0x73, 0x65, 0x71, 0x75, 0x65, 0x6e, 0x74,
  0x69, 0x61, 0x6c, 0x2f, 0x63, 0x6f, 0x6e, 0x76, 0x31, 0x64, 0x5f, 0x31,
  0x2f, 0x43, 0x6f, 0x6e, 0x76, 0x31, 0x44, 0x2f, 0x53, 0x71, 0x75, 0x65,
  0x65, 0x7a, 0x65, 0x3b, 0x63, 0x6f, 0x6e, 0x76, 0x31, 0x64, 0x5f, 0x31,
  0x2f, 0x62, 0x69, 0x61, 0x73, 0x00, 0x00, 0x00, 0x03, 0x00, 0x00, 0x00,
  0x01, 0x00, 0x00, 0x00, 0x4b, 0x00, 0x00, 0x00, 0x10, 0x00, 0x00, 0x00,
  0x0c, 0xe4, 0xff, 0xff, 0x18, 0x00, 0x00, 0x00, 0x04, 0x00, 0x00, 0x00,
  0x01, 0x00, 0x00, 0x00, 0x80, 0xff, 0xff, 0xff, 0xff, 0xff, 0xff, 0xff,
  0x00, 0x00, 0x00, 0x00, 0x01, 0x00, 0x00, 0x00, 0x2a, 0x8a, 0x02, 0x3d,
  0x0a, 0xf8, 0xff, 0xff, 0x00, 0x00, 0x00, 0x01, 0x05, 0x00, 0x00, 0x00,
  0x24, 0x00, 0x00, 0x00, 0x18, 0x00, 0x00, 0x00, 0x04, 0x00, 0x00, 0x00,
  0xd8, 0xfa, 0xff, 0xff, 0x01, 0x00, 0x00, 0x00, 0x01, 0x00, 0x00, 0x00,
  0x00, 0x00, 0x00, 0x01, 0x01, 0x00, 0x00, 0x00, 0x1c, 0x00, 0x00, 0x00,
  0x03, 0x00, 0x00, 0x00, 0x1b, 0x00, 0x00, 0x00, 0x0d, 0x00, 0x00, 0x00,
  0x0e, 0x00, 0x00, 0x00, 0xdc, 0xe4, 0xff, 0xff, 0x00, 0x00, 0x00, 0x09,
  0xb0, 0x00, 0x00, 0x00, 0x1d, 0x00, 0x00, 0x00, 0x20, 0x00, 0x00, 0x00,
  0xb8, 0x00, 0x00, 0x00, 0x04, 0x00, 0x00, 0x00, 0x04, 0x00, 0x00, 0x00,
  0xff, 0xff, 0xff, 0xff, 0x01, 0x00, 0x00, 0x00, 0x4b, 0x00, 0x00, 0x00,
  0x10, 0x00, 0x00, 0x00, 0x80, 0x00, 0x00, 0x00, 0x73, 0x65, 0x71, 0x75,
  0x65, 0x6e, 0x74, 0x69, 0x61, 0x6c, 0x2f, 0x63, 0x6f, 0x6e, 0x76, 0x31,
  0x64, 0x5f, 0x31, 0x2f, 0x52, 0x65, 0x6c, 0x75, 0x3b, 0x73, 0x65, 0x71,
  0x75, 0x65, 0x6e, 0x74, 0x69, 0x61, 0x6c, 0x2f, 0x63, 0x6f, 0x6e, 0x76,
  0x31, 0x64, 0x5f, 0x31, 0x2f, 0x42, 0x69, 0x61, 0x73, 0x41, 0x64, 0x64,
  0x3b, 0x73, 0x65, 0x71, 0x75, 0x65, 0x6e, 0x74, 0x69, 0x61, 0x6c, 0x2f,
  0x63, 0x6f, 0x6e, 0x76, 0x31, 0x64, 0x5f, 0x31, 0x2f, 0x43, 0x6f, 0x6e,
  0x76, 0x31, 0x44, 0x2f, 0x53, 0x71, 0x75, 0x65, 0x65, 0x7a, 0x65, 0x3b,
  0x63, 0x6f, 0x6e, 0x76, 0x31, 0x64, 0x5f, 0x31, 0x2f, 0x62, 0x69, 0x61,
  0x73, 0x3b, 0x73, 0x65, 0x71, 0x75, 0x65, 0x6e, 0x74, 0x69, 0x61, 0x6c,
  0x2f, 0x63, 0x6f, 0x6e, 0x76, 0x31, 0x64, 0x5f, 0x31, 0x2f, 0x43, 0x6f,
  0x6e, 0x76, 0x31, 0x44, 0x00, 0x00, 0x00, 0x00, 0x04, 0x00, 0x00, 0x00,
  0x01, 0x00, 0x00, 0x00, 0x01, 0x00, 0x00, 0x00, 0x4b, 0x00, 0x00, 0x00,
  0x10, 0x00, 0x00, 0x00, 0x3c, 0xe5, 0xff, 0xff, 0x14, 0x00, 0x00, 0x00,
  0x04, 0x00, 0x00, 0x00, 0x01, 0x00, 0x00, 0x00, 0x80, 0xff, 0xff, 0xff,
  0xff, 0xff, 0xff, 0xff, 0x01, 0x00, 0x00, 0x00, 0x2a, 0x8a, 0x02, 0x3d,
  0x36, 0xf9, 0xff, 0xff, 0x00, 0x00, 0x00, 0x34, 0x04, 0x00, 0x00, 0x00,
  0x18, 0x00, 0x00, 0x00, 0x0c, 0x00, 0x00, 0x00, 0x04, 0x00, 0x00, 0x00,
  0x48, 0xe5, 0xff, 0xff, 0x01, 0x00, 0x00, 0x00, 0x1b, 0x00, 0x00, 0x00,
  0x02, 0x00, 0x00, 0x00, 0x1a, 0x00, 0x00, 0x00, 0x05, 0x00, 0x00, 0x00,
  0xf8, 0xe5, 0xff, 0xff, 0x00, 0x00, 0x00, 0x09, 0x54, 0x00, 0x00, 0x00,
  0x1c, 0x00, 0x00, 0x00, 0x20, 0x00, 0x00, 0x00, 0x5c, 0x00, 0x00, 0x00,
  0x04, 0x00, 0x00, 0x00, 0x04, 0x00, 0x00, 0x00, 0xff, 0xff, 0xff, 0xff,
  0x01, 0x00, 0x00, 0x00, 0x4b, 0x00, 0x00, 0x00, 0x08, 0x00, 0x00, 0x00,
  0x25, 0x00, 0x00, 0x00, 0x73, 0x65, 0x71, 0x75, 0x65, 0x6e, 0x74, 0x69,
  0x61, 0x6c, 0x2f, 0x63, 0x6f, 0x6e, 0x76, 0x31, 0x64, 0x5f, 0x31, 0x2f,
  0x43, 0x6f, 0x6e, 0x76, 0x31, 0x44, 0x2f, 0x45, 0x78, 0x70, 0x61, 0x6e,
  0x64, 0x44, 0x69, 0x6d, 0x73, 0x00, 0x00, 0x00, 0x04, 0x00, 0x00, 0x00,
  0x01, 0x00, 0x00, 0x00, 0x01, 0x00, 0x00, 0x00, 0x4b, 0x00, 0x00, 0x00,
  0x08, 0x00, 0x00, 0x00, 0xfc, 0xe5, 0xff, 0xff, 0x14, 0x00, 0x00, 0x00,
  0x04, 0x00, 0x00, 0x00, 0x01, 0x00, 0x00, 0x00, 0x80, 0xff, 0xff, 0xff,
  0xff, 0xff, 0xff, 0xff, 0x01, 0x00, 0x00, 0x00, 0xf0, 0x04, 0x4e, 0x3d,
  0xb2, 0xfa, 0xff, 0xff, 0x03, 0x00, 0x00, 0x00, 0x10, 0x00, 0x00, 0x00,
  0x04, 0x00, 0x00, 0x00, 0x01, 0x00, 0x00, 0x00, 0x1a, 0x00, 0x00, 0x00,
  0x02, 0x00, 0x00, 0x00, 0x19, 0x00, 0x00, 0x00, 0x08, 0x00, 0x00, 0x00,
  0xac, 0xe6, 0xff, 0xff, 0x00, 0x00, 0x00, 0x09, 0x4c, 0x00, 0x00, 0x00,
  0x1b, 0x00, 0x00, 0x00, 0x1c, 0x00, 0x00, 0x00, 0x50, 0x00, 0x00, 0x00,
  0x04, 0x00, 0x00, 0x00, 0x03, 0x00, 0x00, 0x00, 0xff, 0xff, 0xff, 0xff,
  0x4b, 0x00, 0x00, 0x00, 0x08, 0x00, 0x00, 0x00, 0x21, 0x00, 0x00, 0x00,
  0x73, 0x65, 0x71, 0x75, 0x65, 0x6e, 0x74, 0x69, 0x61, 0x6c, 0x2f, 0x6d,
  0x61, 0x78, 0x5f, 0x70, 0x6f, 0x6f, 0x6c, 0x69, 0x6e, 0x67, 0x31, 0x64,
  0x2f, 0x53, 0x71, 0x75, 0x65, 0x65, 0x7a, 0x65, 0x31, 0x00, 0x00, 0x00,
  0x03, 0x00, 0x00, 0x00, 0x01, 0x00, 0x00, 0x00, 0x4b, 0x00, 0x00, 0x00,
  0x08, 0x00, 0x00, 0x00, 0xa4, 0xe6, 0xff, 0xff, 0x14, 0x00, 0x00, 0x00,
  0x04, 0x00, 0x00, 0x00, 0x01, 0x00, 0x00, 0x00, 0x80, 0xff, 0xff, 0xff,
  0xff, 0xff, 0xff, 0xff, 0x01, 0x00, 0x00, 0x00, 0xf0, 0x04, 0x4e, 0x3d,
  0xfa, 0xf9, 0xff, 0xff, 0x00, 0x00, 0x00, 0x05, 0x06, 0x00, 0x00, 0x00,
  0x38, 0x00, 0x00, 0x00, 0x2c, 0x00, 0x00, 0x00, 0x14, 0x00, 0x00, 0x00,
  0x00, 0x00, 0x0e, 0x00, 0x14, 0x00, 0x00, 0x00, 0x10, 0x00, 0x0c, 0x00,
  0x08, 0x00, 0x04, 0x00, 0x0e, 0x00, 0x00, 0x00, 0x02, 0x00, 0x00, 0x00,
  0x01, 0x00, 0x00, 0x00, 0x02, 0x00, 0x00, 0x00, 0x01, 0x00, 0x00, 0x00,
  0x01, 0x00, 0x00, 0x00, 0x19, 0x00, 0x00, 0x00, 0x01, 0x00, 0x00, 0x00,
  0x18, 0x00, 0x00, 0x00, 0x50, 0xf9, 0xff, 0xff, 0x11, 0x00, 0x00, 0x00,
  0x00, 0x00, 0x00, 0x11, 0x02, 0x00, 0x00, 0x00, 0x8c, 0xe7, 0xff, 0xff,
  0x00, 0x00, 0x00, 0x09, 0x50, 0x00, 0x00, 0x00, 0x1a, 0x00, 0x00, 0x00,
  0x20, 0x00, 0x00, 0x00, 0x58, 0x00, 0x00, 0x00, 0x04, 0x00, 0x00, 0x00,
  0x04, 0x00, 0x00, 0x00, 0xff, 0xff, 0xff, 0xff, 0x4b, 0x00, 0x00, 0x00,
  0x01, 0x00, 0x00, 0x00, 0x08, 0x00, 0x00, 0x00, 0x20, 0x00, 0x00, 0x00,
  0x73, 0x65, 0x71, 0x75, 0x65, 0x6e, 0x74, 0x69, 0x61, 0x6c, 0x2f, 0x6d,
  0x61, 0x78, 0x5f, 0x70, 0x6f, 0x6f, 0x6c, 0x69, 0x6e, 0x67, 0x31, 0x64,
  0x2f, 0x4d, 0x61, 0x78, 0x50, 0x6f, 0x6f, 0x6c, 0x00, 0x00, 0x00, 0x00,
  0x04, 0x00, 0x00, 0x00, 0x01, 0x00, 0x00, 0x00, 0x4b, 0x00, 0x00, 0x00,
  0x01, 0x00, 0x00, 0x00, 0x08, 0x00, 0x00, 0x00, 0x8c, 0xe7, 0xff, 0xff,
  0x18, 0x00, 0x00, 0x00, 0x04, 0x00, 0x00, 0x00, 0x01, 0x00, 0x00, 0x00,
  0x80, 0xff, 0xff, 0xff, 0xff, 0xff, 0xff, 0xff, 0x00, 0x00, 0x00, 0x00,
  0x01, 0x00, 0x00, 0x00, 0xf0, 0x04, 0x4e, 0x3d, 0x8a, 0xfb, 0xff, 0xff,
  0x00, 0x00, 0x00, 0x34, 0x04, 0x00, 0x00, 0x00, 0x18, 0x00, 0x00, 0x00,
  0x0c, 0x00, 0x00, 0x00, 0x04, 0x00, 0x00, 0x00, 0x9c, 0xe7, 0xff, 0xff,
  0x01, 0x00, 0x00, 0x00, 0x18, 0x00, 0x00, 0x00, 0x02, 0x00, 0x00, 0x00,
  0x17, 0x00, 0x00, 0x00, 0x07, 0x00, 0x00, 0x00, 0x4c, 0xe8, 0xff, 0xff,
  0x00, 0x00, 0x00, 0x09, 0x50, 0x00, 0x00, 0x00, 0x19, 0x00, 0x00, 0x00,
  0x20, 0x00, 0x00, 0x00, 0x58, 0x00, 0x00, 0x00, 0x04, 0x00, 0x00, 0x00,
  0x04, 0x00, 0x00, 0x00, 0xff, 0xff, 0xff, 0xff, 0x96, 0x00, 0x00, 0x00,
  0x01, 0x00, 0x00, 0x00, 0x08, 0x00, 0x00, 0x00, 0x23, 0x00, 0x00, 0x00,
  0x73, 0x65, 0x71, 0x75, 0x65, 0x6e, 0x74, 0x69, 0x61, 0x6c, 0x2f, 0x6d,
  0x61, 0x78, 0x5f, 0x70, 0x6f, 0x6f, 0x6c, 0x69, 0x6e, 0x67, 0x31, 0x64,
  0x2f, 0x45, 0x78, 0x70, 0x61, 0x6e, 0x64, 0x44, 0x69, 0x6d, 0x73, 0x00,
  0x04, 0x00, 0x00, 0x00, 0x01, 0x00, 0x00, 0x00, 0x96, 0x00, 0x00, 0x00,
  0x01, 0x00, 0x00, 0x00, 0x08, 0x00, 0x00, 0x00, 0x4c, 0xe8, 0xff, 0xff,
  0x18, 0x00, 0x00, 0x00, 0x04, 0x00, 0x00, 0x00, 0x01, 0x00, 0x00, 0x00,
  0x80, 0xff, 0xff, 0xff, 0xff, 0xff, 0xff, 0xff, 0x00, 0x00, 0x00, 0x00,
  0x01, 0x00, 0x00, 0x00, 0xf0, 0x04, 0x4e, 0x3d, 0x06, 0xfd, 0xff, 0xff,
  0x03, 0x00, 0x00, 0x00, 0x10, 0x00, 0x00, 0x00, 0x04, 0x00, 0x00, 0x00,
  0x01, 0x00, 0x00, 0x00, 0x17, 0x00, 0x00, 0x00, 0x02, 0x00, 0x00, 0x00,
  0x16, 0x00, 0x00, 0x00, 0x06, 0x00, 0x00, 0x00, 0x00, 0xe9, 0xff, 0xff,
  0x00, 0x00, 0x00, 0x09, 0x88, 0x00, 0x00, 0x00, 0x18, 0x00, 0x00, 0x00,
  0x1c, 0x00, 0x00, 0x00, 0x8c, 0x00, 0x00, 0x00, 0x04, 0x00, 0x00, 0x00,
  0x03, 0x00, 0x00, 0x00, 0xff, 0xff, 0xff, 0xff, 0x96, 0x00, 0x00, 0x00,
  0x08, 0x00, 0x00, 0x00, 0x5d, 0x00, 0x00, 0x00, 0x73, 0x65, 0x71, 0x75,
  0x65, 0x6e, 0x74, 0x69, 0x61, 0x6c, 0x2f, 0x63, 0x6f, 0x6e, 0x76, 0x31,
  0x64, 0x2f, 0x52, 0x65, 0x6c, 0x75, 0x3b, 0x73, 0x65, 0x71, 0x75, 0x65,
  0x6e, 0x74, 0x69, 0x61, 0x6c, 0x2f, 0x63, 0x6f, 0x6e, 0x76, 0x31, 0x64,
  0x2f, 0x42, 0x69, 0x61, 0x73, 0x41, 0x64, 0x64, 0x3b, 0x73, 0x65, 0x71,
  0x75, 0x65, 0x6e, 0x74, 0x69, 0x61, 0x6c, 0x2f, 0x63, 0x6f, 0x6e, 0x76,
  0x31, 0x64, 0x2f, 0x43, 0x6f, 0x6e, 0x76, 0x31, 0x44, 0x2f, 0x53, 0x71,
  0x75, 0x65, 0x65, 0x7a, 0x65, 0x3b, 0x63, 0x6f, 0x6e, 0x76, 0x31, 0x64,
  0x2f, 0x62, 0x69, 0x61, 0x73, 0x00, 0x00, 0x00, 0x03, 0x00, 0x00, 0x00,
  0x01, 0x00, 0x00, 0x00, 0x96, 0x00, 0x00, 0x00, 0x08, 0x00, 0x00, 0x00,
  0x34, 0xe9, 0xff, 0xff, 0x18, 0x00, 0x00, 0x00, 0x04, 0x00, 0x00, 0x00,
  0x01, 0x00, 0x00, 0x00, 0x80, 0xff, 0xff, 0xff, 0xff, 0xff, 0xff, 0xff,
  0x00, 0x00, 0x00, 0x00, 0x01, 0x00, 0x00, 0x00, 0xf0, 0x04, 0x4e, 0x3d,
  0x32, 0xfd, 0xff, 0xff, 0x00, 0x00, 0x00, 0x01, 0x05, 0x00, 0x00, 0x00,
  0x30, 0x00, 0x00, 0x00, 0x24, 0x00, 0x00, 0x00, 0x10, 0x00, 0x00, 0x00,
  0x0c, 0x00, 0x10, 0x00, 0x00, 0x00, 0x04, 0x00, 0x08, 0x00, 0x0f, 0x00,
  0x0c, 0x00, 0x00, 0x00, 0x01, 0x00, 0x00, 0x00, 0x01, 0x00, 0x00, 0x00,
  0x00, 0x00, 0x00, 0x01, 0x01, 0x00, 0x00, 0x00, 0x16, 0x00, 0x00, 0x00,
  0x03, 0x00, 0x00, 0x00, 0x15, 0x00, 0x00, 0x00, 0x0b, 0x00, 0x00, 0x00,
  0x0c, 0x00, 0x00, 0x00, 0xe4, 0xfb, 0xff, 0xff, 0x03, 0x00, 0x00, 0x00,
  0x00, 0x00, 0x00, 0x03, 0x03, 0x00, 0x00, 0x00, 0x20, 0xea, 0xff, 0xff,
  0x00, 0x00, 0x00, 0x09, 0xa4, 0x00, 0x00, 0x00, 0x17, 0x00, 0x00, 0x00,
  0x20, 0x00, 0x00, 0x00, 0xac, 0x00, 0x00, 0x00, 0x04, 0x00, 0x00, 0x00,
  0x04, 0x00, 0x00, 0x00, 0xff, 0xff, 0xff, 0xff, 0x01, 0x00, 0x00, 0x00,
  0x96, 0x00, 0x00, 0x00, 0x08, 0x00, 0x00, 0x00, 0x76, 0x00, 0x00, 0x00,
  0x73, 0x65, 0x71, 0x75, 0x65, 0x6e, 0x74, 0x69, 0x61, 0x6c, 0x2f, 0x63,
  0x6f, 0x6e, 0x76, 0x31, 0x64, 0x2f, 0x52, 0x65, 0x6c, 0x75, 0x3b, 0x73,
  0x65, 0x71, 0x75, 0x65, 0x6e, 0x74, 0x69, 0x61, 0x6c, 0x2f, 0x63, 0x6f,
  0x6e, 0x76, 0x31, 0x64, 0x2f, 0x42, 0x69, 0x61, 0x73, 0x41, 0x64, 0x64,
  0x3b, 0x73, 0x65, 0x71, 0x75, 0x65, 0x6e, 0x74, 0x69, 0x61, 0x6c, 0x2f,
  0x63, 0x6f, 0x6e, 0x76, 0x31, 0x64, 0x2f, 0x43, 0x6f, 0x6e, 0x76, 0x31,
  0x44, 0x2f, 0x53, 0x71, 0x75, 0x65, 0x65, 0x7a, 0x65, 0x3b, 0x63, 0x6f,
  0x6e, 0x76, 0x31, 0x64, 0x2f, 0x62, 0x69, 0x61, 0x73, 0x3b, 0x73, 0x65,
  0x71, 0x75, 0x65, 0x6e, 0x74, 0x69, 0x61, 0x6c, 0x2f, 0x63, 0x6f, 0x6e,
  0x76, 0x31, 0x64, 0x2f, 0x43, 0x6f, 0x6e, 0x76, 0x31, 0x44, 0x00, 0x00,
  0x04, 0x00, 0x00, 0x00, 0x01, 0x00, 0x00, 0x00, 0x01, 0x00, 0x00, 0x00,
  0x96, 0x00, 0x00, 0x00, 0x08, 0x00, 0x00, 0x00, 0x74, 0xea, 0xff, 0xff,
  0x18, 0x00, 0x00, 0x00, 0x04, 0x00, 0x00, 0x00, 0x01, 0x00, 0x00, 0x00,
  0x80, 0xff, 0xff, 0xff, 0xff, 0xff, 0xff, 0xff, 0x00, 0x00, 0x00, 0x00,
  0x01, 0x00, 0x00, 0x00, 0xf0, 0x04, 0x4e, 0x3d, 0x72, 0xfe, 0xff, 0xff,
  0x00, 0x00, 0x00, 0x34, 0x04, 0x00, 0x00, 0x00, 0x18, 0x00, 0x00, 0x00,
  0x0c, 0x00, 0x00, 0x00, 0x04, 0x00, 0x00, 0x00, 0x84, 0xea, 0xff, 0xff,
  0x01, 0x00, 0x00, 0x00, 0x15, 0x00, 0x00, 0x00, 0x02, 0x00, 0x00, 0x00,
  0x14, 0x00, 0x00, 0x00, 0x05, 0x00, 0x00, 0x00, 0x08, 0xfd, 0xff, 0xff,
  0x46, 0x00, 0x00, 0x00, 0x00, 0x00, 0x00, 0x46, 0x01, 0x00, 0x00, 0x00,
  0x44, 0xeb, 0xff, 0xff, 0x00, 0x00, 0x00, 0x09, 0x50, 0x00, 0x00, 0x00,
  0x16, 0x00, 0x00, 0x00, 0x20, 0x00, 0x00, 0x00, 0x58, 0x00, 0x00, 0x00,
  0x04, 0x00, 0x00, 0x00, 0x04, 0x00, 0x00, 0x00, 0xff, 0xff, 0xff, 0xff,
  0x01, 0x00, 0x00, 0x00, 0x96, 0x00, 0x00, 0x00, 0x1a, 0x00, 0x00, 0x00,
  0x23, 0x00, 0x00, 0x00, 0x73, 0x65, 0x71, 0x75, 0x65, 0x6e, 0x74, 0x69,
  0x61, 0x6c, 0x2f, 0x63, 0x6f, 0x6e, 0x76, 0x31, 0x64, 0x2f, 0x43, 0x6f,
  0x6e, 0x76, 0x31, 0x44, 0x2f, 0x45, 0x78, 0x70, 0x61, 0x6e, 0x64, 0x44,
  0x69, 0x6d, 0x73, 0x00, 0x04, 0x00, 0x00, 0x00, 0x01, 0x00, 0x00, 0x00,
  0x01, 0x00, 0x00, 0x00, 0x96, 0x00, 0x00, 0x00, 0x1a, 0x00, 0x00, 0x00,
  0x44, 0xeb, 0xff, 0xff, 0x18, 0x00, 0x00, 0x00, 0x04, 0x00, 0x00, 0x00,
  0x01, 0x00, 0x00, 0x00, 0x7f, 0x00, 0x00, 0x00, 0x00, 0x00, 0x00, 0x00,
  0x00, 0x00, 0x00, 0x00, 0x01, 0x00, 0x00, 0x00, 0xf1, 0x4f, 0x0f, 0x3e,
  0x00, 0x00, 0x0a, 0x00, 0x10, 0x00, 0x04, 0x00, 0x08, 0x00, 0x0c, 0x00,
  0x0a, 0x00, 0x00, 0x00, 0x03, 0x00, 0x00, 0x00, 0x10, 0x00, 0x00, 0x00,
  0x04, 0x00, 0x00, 0x00, 0x01, 0x00, 0x00, 0x00, 0x14, 0x00, 0x00, 0x00,
  0x02, 0x00, 0x00, 0x00, 0x00, 0x00, 0x00, 0x00, 0x13, 0x00, 0x00, 0x00,
  0xd8, 0xfd, 0xff, 0xff, 0x16, 0x00, 0x00, 0x00, 0x00, 0x00, 0x00, 0x16,
  0x01, 0x00, 0x00, 0x00, 0x14, 0xec, 0xff, 0xff, 0x00, 0x00, 0x00, 0x09,
  0x44, 0x00, 0x00, 0x00, 0x15, 0x00, 0x00, 0x00, 0x1c, 0x00, 0x00, 0x00,
  0x48, 0x00, 0x00, 0x00, 0x04, 0x00, 0x00, 0x00, 0x03, 0x00, 0x00, 0x00,
  0xff, 0xff, 0xff, 0xff, 0x96, 0x00, 0x00, 0x00, 0x1a, 0x00, 0x00, 0x00,
  0x1a, 0x00, 0x00, 0x00, 0x73, 0x65, 0x71, 0x75, 0x65, 0x6e, 0x74, 0x69,
  0x61, 0x6c, 0x2f, 0x72, 0x65, 0x73, 0x68, 0x61, 0x70, 0x65, 0x2f, 0x52,
  0x65, 0x73, 0x68, 0x61, 0x70, 0x65, 0x00, 0x00, 0x03, 0x00, 0x00, 0x00,
  0x01, 0x00, 0x00, 0x00, 0x96, 0x00, 0x00, 0x00, 0x1a, 0x00, 0x00, 0x00,
  0x04, 0xec, 0xff, 0xff, 0x14, 0x00, 0x00, 0x00, 0x04, 0x00, 0x00, 0x00,
  0x01, 0x00, 0x00, 0x00, 0x7f, 0x00, 0x00, 0x00, 0x00, 0x00, 0x00, 0x00,
  0x01, 0x00, 0x00, 0x00, 0xf1, 0x4f, 0x0f, 0x3e, 0x00, 0x00, 0x0e, 0x00,
  0x18, 0x00, 0x08, 0x00, 0x0c, 0x00, 0x10, 0x00, 0x07, 0x00, 0x14, 0x00,
  0x0e, 0x00, 0x00, 0x00, 0x00, 0x00, 0x00, 0x3b, 0x02, 0x00, 0x00, 0x00,
  0x1c, 0x00, 0x00, 0x00, 0x10, 0x00, 0x00, 0x00, 0x04, 0x00, 0x00, 0x00,
  0x2e, 0xed, 0xff, 0xff, 0x03, 0x00, 0x00, 0x00, 0x01, 0x00, 0x00, 0x00,
  0x13, 0x00, 0x00, 0x00, 0x03, 0x00, 0x00, 0x00, 0x12, 0x00, 0x00, 0x00,
  0x03, 0x00, 0x00, 0x00, 0x04, 0x00, 0x00, 0x00, 0xac, 0xfe, 0xff, 0xff,
  0x53, 0x00, 0x00, 0x00, 0x00, 0x00, 0x00, 0x53, 0x01, 0x00, 0x00, 0x00,
  0x46, 0xed, 0xff, 0xff, 0x00, 0x00, 0x00, 0x02, 0x38, 0x00, 0x00, 0x00,
  0x14, 0x00, 0x00, 0x00, 0x08, 0x00, 0x00, 0x00, 0x34, 0x00, 0x00, 0x00,
  0x20, 0x00, 0x00, 0x00, 0x73, 0x65, 0x71, 0x75, 0x65, 0x6e, 0x74, 0x69,
  0x61, 0x6c, 0x2f, 0x72, 0x65, 0x73, 0x68, 0x61, 0x70, 0x65, 0x2f, 0x52,
  0x65, 0x73, 0x68, 0x61, 0x70, 0x65, 0x2f, 0x73, 0x68, 0x61, 0x70, 0x65,
  0x00, 0x00, 0x00, 0x00, 0x01, 0x00, 0x00, 0x00, 0x03, 0x00, 0x00, 0x00,
  0xb0, 0xed, 0xff, 0xff, 0x00, 0x00, 0x0e, 0x00, 0x1a, 0x00, 0x08, 0x00,
  0x0c, 0x00, 0x10, 0x00, 0x07, 0x00, 0x14, 0x00, 0x0e, 0x00, 0x00, 0x00,
  0x00, 0x00, 0x00, 0x20, 0x01, 0x00, 0x00, 0x00, 0x2c, 0x00, 0x00, 0x00,
  0x20, 0x00, 0x00, 0x00, 0x14, 0x00, 0x00, 0x00, 0x00, 0x00, 0x0e, 0x00,
  0x08, 0x00, 0x00, 0x00, 0x00, 0x00, 0x00, 0x00, 0x00, 0x00, 0x04, 0x00,
  0x0e, 0x00, 0x00, 0x00, 0x01, 0x00, 0x00, 0x00, 0x01, 0x00, 0x00, 0x00,
  0x12, 0x00, 0x00, 0x00, 0x04, 0x00, 0x00, 0x00, 0x11, 0x00, 0x00, 0x00,
  0x01, 0x00, 0x00, 0x00, 0x02, 0x00, 0x00, 0x00, 0x02, 0x00, 0x00, 0x00,
  0x64, 0xff, 0xff, 0xff, 0x2d, 0x00, 0x00, 0x00, 0x00, 0x00, 0x00, 0x2d,
  0x01, 0x00, 0x00, 0x00, 0xfe, 0xed, 0xff, 0xff, 0x00, 0x00, 0x00, 0x02,
  0x38, 0x00, 0x00, 0x00, 0x13, 0x00, 0x00, 0x00, 0x08, 0x00, 0x00, 0x00,
  0x30, 0x00, 0x00, 0x00, 0x20, 0x00, 0x00, 0x00, 0x73, 0x65, 0x71, 0x75,
  0x65, 0x6e, 0x74, 0x69, 0x61, 0x6c, 0x2f, 0x72, 0x65, 0x73, 0x68, 0x61,
  0x70, 0x65, 0x2f, 0x73, 0x74, 0x72, 0x69, 0x64, 0x65, 0x64, 0x5f, 0x73,
  0x6c, 0x69, 0x63, 0x65, 0x00, 0x00, 0x00, 0x00, 0x00, 0x00, 0x00, 0x00,
  0x64, 0xee, 0xff, 0xff, 0x00, 0x00, 0x0e, 0x00, 0x16, 0x00, 0x00, 0x00,
  0x08, 0x00, 0x0c, 0x00, 0x07, 0x00, 0x10, 0x00, 0x0e, 0x00, 0x00, 0x00,
  0x00, 0x00, 0x00, 0x37, 0x24, 0x00, 0x00, 0x00, 0x18, 0x00, 0x00, 0x00,
  0x0c, 0x00, 0x00, 0x00, 0x00, 0x00, 0x06, 0x00, 0x08, 0x00, 0x07, 0x00,
  0x06, 0x00, 0x00, 0x00, 0x00, 0x00, 0x00, 0x02, 0x01, 0x00, 0x00, 0x00,
  0x11, 0x00, 0x00, 0x00, 0x01, 0x00, 0x00, 0x00, 0x00, 0x00, 0x00, 0x00,
  0x0c, 0x00, 0x10, 0x00, 0x0b, 0x00, 0x00, 0x00, 0x0c, 0x00, 0x04, 0x00,
  0x0c, 0x00, 0x00, 0x00, 0x4d, 0x00, 0x00, 0x00, 0x00, 0x00, 0x00, 0x4d,
  0x01, 0x00, 0x00, 0x00, 0xa6, 0xee, 0xff, 0xff, 0x00, 0x00, 0x00, 0x02,
  0x30, 0x00, 0x00, 0x00, 0x12, 0x00, 0x00, 0x00, 0x08, 0x00, 0x00, 0x00,
  0x2c, 0x00, 0x00, 0x00, 0x18, 0x00, 0x00, 0x00, 0x73, 0x65, 0x71, 0x75,
  0x65, 0x6e, 0x74, 0x69, 0x61, 0x6c, 0x2f, 0x72, 0x65, 0x73, 0x68, 0x61,
  0x70, 0x65, 0x2f, 0x53, 0x68, 0x61, 0x70, 0x65, 0x00, 0x00, 0x00, 0x00,
  0x01, 0x00, 0x00, 0x00, 0x02, 0x00, 0x00, 0x00, 0xf0, 0xed, 0xff, 0xff,
  0x02, 0xef, 0xff, 0xff, 0x04, 0x00, 0x00, 0x00, 0x08, 0x00, 0x00, 0x00,
  0x7e, 0xeb, 0xff, 0xff, 0x82, 0x14, 0x00, 0x00, 0xfe, 0xee, 0xff, 0xff,
  0x00, 0x00, 0x00, 0x02, 0x20, 0x00, 0x00, 0x00, 0x11, 0x00, 0x00, 0x00,
  0x08, 0x00, 0x00, 0x00, 0x1c, 0x00, 0x00, 0x00, 0x0b, 0x00, 0x00, 0x00,
  0x79, 0x5f, 0x70, 0x72, 0x65, 0x64, 0x2f, 0x62, 0x69, 0x61, 0x73, 0x00,
  0x01, 0x00, 0x00, 0x00, 0x02, 0x00, 0x00, 0x00, 0x64, 0xee, 0xff, 0xff,
  0x14, 0x00, 0x00, 0x00, 0x04, 0x00, 0x00, 0x00, 0x01, 0x00, 0x00, 0x00,
  0x00, 0x00, 0x00, 0x00, 0x00, 0x00, 0x00, 0x00, 0x01, 0x00, 0x00, 0x00,
  0x39, 0x08, 0x62, 0x38, 0x66, 0xef, 0xff, 0xff, 0x04, 0x00, 0x00, 0x00,
  0xc0, 0x04, 0x00, 0x00, 0xf7, 0xdd, 0x0a, 0xe4, 0xfd, 0xcb, 0xd7, 0x22,
  0xd0, 0x02, 0x31, 0x33, 0x18, 0xd0, 0xda, 0xd3, 0x25, 0xb4, 0x33, 0xeb,
  0x07, 0xe4, 0xfc, 0x28, 0xe9, 0x0b, 0xf3, 0xfb, 0x1a, 0xea, 0xd7, 0x22,
  0xf7, 0xe1, 0xf7, 0xff, 0xdd, 0xf6, 0xe5, 0x09, 0xcb, 0xd3, 0x06, 0x1b,
  0x38, 0x20, 0xd2, 0x46, 0xf0, 0x13, 0xe1, 0x30, 0x0b, 0xe1, 0x19, 0xfa,
  0x1b, 0x06, 0xcf, 0xde, 0xe0, 0x02, 0x1c, 0x3b, 0x2c, 0xf4, 0x0a, 0xdd,
  0xf6, 0x37, 0xf9, 0x29, 0x3a, 0xde, 0x24, 0x0e, 0x38, 0x14, 0xf6, 0x2e,
  0x03, 0xec, 0x30, 0x0a, 0xbd, 0x1d, 0xec, 0xdd, 0xfb, 0x0e, 0xe7, 0xe7,
  0x31, 0x21, 0x1e, 0x01, 0x18, 0x3d, 0xf8, 0x4b, 0x29, 0x07, 0x38, 0x09,
  0x33, 0x1a, 0x31, 0x0d, 0x1c, 0x2d, 0xfd, 0x21, 0x22, 0x4e, 0x1d, 0x1e,
  0x48, 0x18, 0x2e, 0x28, 0xe7, 0xd3, 0x32, 0xd0, 0x06, 0xe0, 0xfa, 0x09,
  0x07, 0x2c, 0xe5, 0x3b, 0xfb, 0xe0, 0xde, 0xff, 0x1f, 0x04, 0x27, 0x12,
  0x28, 0x1d, 0x07, 0xab, 0x02, 0x0f, 0xeb, 0xdb, 0xe3, 0xf0, 0x25, 0x25,
  0xeb, 0xef, 0xe6, 0xe6, 0xeb, 0x32, 0x09, 0x42, 0xf4, 0x05, 0xf7, 0x09,
  0x4a, 0x2c, 0x19, 0xed, 0x38, 0xdf, 0xcd, 0x1c, 0xfa, 0xf1, 0xc0, 0xd0,
  0x35, 0x01, 0xe7, 0x37, 0xf4, 0xe8, 0xd2, 0x06, 0xdf, 0xc2, 0x0d, 0x0b,
  0x0c, 0xe6, 0x03, 0x41, 0x2c, 0x24, 0xf0, 0x14, 0xf3, 0x05, 0x2d, 0x35,
  0xef, 0x1a, 0xf5, 0xfc, 0xf5, 0x39, 0xd5, 0x23, 0x0d, 0xfa, 0xf3, 0xf1,
  0x17, 0xe3, 0x27, 0xce, 0x2e, 0xf5, 0xe4, 0x22, 0x08, 0xd2, 0xf5, 0x02,
  0xda, 0x17, 0xcf, 0xd0, 0xc0, 0xe3, 0x16, 0x42, 0x05, 0x1f, 0xd2, 0xcc,
  0x42, 0xf5, 0x12, 0xfc, 0xe8, 0x22, 0x3f, 0x1d, 0x50, 0x35, 0xce, 0x48,
  0x39, 0x0f, 0x0e, 0x0b, 0x38, 0x13, 0x30, 0x28, 0x3e, 0x59, 0xde, 0x4a,
  0xc7, 0xe6, 0xe2, 0x1d, 0x01, 0x2f, 0x2f, 0xd0, 0x42, 0xee, 0xe9, 0xf0,
  0x01, 0xd2, 0xfd, 0xd5, 0x15, 0x30, 0x0f, 0x2c, 0x2b, 0xd1, 0xc4, 0xd7,
  0x1f, 0x0f, 0x3a, 0x44, 0x7f, 0x0b, 0x0d, 0x2c, 0x53, 0xd9, 0x0c, 0x08,
  0xd4, 0xcb, 0x33, 0x0a, 0xca, 0xe3, 0x23, 0x06, 0xc3, 0xd5, 0x18, 0xe9,
  0x14, 0xff, 0xfe, 0x25, 0xdc, 0xcd, 0x12, 0x26, 0xec, 0xfd, 0xde, 0x34,
  0x21, 0x44, 0xe0, 0x45, 0xd4, 0xe9, 0x17, 0x06, 0x21, 0x0d, 0x2b, 0xee,
  0x2c, 0xce, 0xd3, 0x1c, 0x40, 0x06, 0x24, 0x24, 0xee, 0xd5, 0xe9, 0x41,
  0xff, 0xee, 0x2b, 0x06, 0x1a, 0xd4, 0x01, 0x32, 0xd9, 0xef, 0x13, 0xea,
  0x0d, 0x20, 0xfb, 0x09, 0x11, 0xcf, 0x05, 0x07, 0xf4, 0x2d, 0xcd, 0x31,
  0xfa, 0xdc, 0xd7, 0x24, 0x05, 0xca, 0x24, 0xd5, 0x0c, 0xae, 0x0d, 0x05,
  0xf4, 0xe6, 0x29, 0x1a, 0xe8, 0x02, 0x02, 0xe7, 0xfb, 0x2b, 0x1a, 0xdf,
  0xeb, 0xad, 0xe8, 0x23, 0xf5, 0xdb, 0x0d, 0x13, 0xfb, 0x1b, 0x2e, 0x1e,
  0x0a, 0x16, 0x02, 0x2b, 0x1c, 0xaf, 0xcc, 0xcb, 0xcd, 0x2a, 0x08, 0x09,
  0x23, 0x02, 0x40, 0xd1, 0x00, 0xcf, 0x19, 0xf7, 0xdb, 0xcd, 0x20, 0x22,
  0x0a, 0x0d, 0xd6, 0x1f, 0xdd, 0x0c, 0x0a, 0xdf, 0x4b, 0x2f, 0xe6, 0x2b,
  0xc7, 0xa5, 0xf8, 0x07, 0xd1, 0x30, 0xea, 0x20, 0xe3, 0xe5, 0x32, 0x20,
  0x18, 0x10, 0xcc, 0x09, 0x19, 0xcb, 0xd8, 0x39, 0x25, 0xfc, 0xd3, 0xfd,
  0x2a, 0x2b, 0x16, 0x0a, 0xe1, 0x1e, 0x08, 0xe9, 0x0b, 0xd2, 0xd6, 0xda,
  0x3b, 0x2b, 0xe8, 0x46, 0xf0, 0x10, 0x14, 0x00, 0x3f, 0xdf, 0x1d, 0x2c,
  0xe3, 0x32, 0x13, 0x1c, 0xc9, 0xda, 0xe3, 0x05, 0xdb, 0x34, 0xdb, 0xd8,
  0x23, 0xdd, 0x36, 0x0d, 0xe5, 0x06, 0xcf, 0x21, 0x40, 0x30, 0x07, 0x0a,
  0xe5, 0x37, 0x29, 0x05, 0x41, 0xd1, 0x0d, 0x34, 0x34, 0xd5, 0xe1, 0xec,
  0x24, 0x0d, 0xdf, 0xfe, 0xec, 0xfe, 0x48, 0x07, 0x44, 0xd8, 0xd7, 0x11,
  0xc5, 0x12, 0xdf, 0xcd, 0x0c, 0x36, 0x1c, 0x11, 0xe1, 0x01, 0x09, 0x05,
  0x2f, 0xce, 0xcd, 0x37, 0xec, 0x4c, 0x32, 0x11, 0xdc, 0xec, 0xed, 0x01,
  0x10, 0xf9, 0xd3, 0xe0, 0xe9, 0xf4, 0x05, 0x1c, 0xf3, 0xd6, 0x19, 0xf4,
  0xef, 0x33, 0xdb, 0xdd, 0x28, 0xe3, 0x2a, 0xf7, 0x3e, 0xd0, 0x1e, 0x2d,
  0x0c, 0xf8, 0xfa, 0x0a, 0xf6, 0x01, 0xff, 0x12, 0xd8, 0xdb, 0x38, 0x13,
  0x38, 0xfc, 0xdf, 0x0a, 0xec, 0xc9, 0xee, 0x0e, 0xf5, 0xf9, 0x2f, 0xd2,
  0xd1, 0xd5, 0xee, 0xd3, 0xe6, 0x14, 0xca, 0xfb, 0xf0, 0x03, 0x25, 0x05,
  0xdf, 0x17, 0x09, 0x3a, 0x07, 0xfb, 0xf6, 0x3a, 0x09, 0x2f, 0xce, 0xfa,
  0x33, 0xf7, 0x25, 0xc9, 0xe0, 0xde, 0x25, 0x06, 0x2c, 0x0b, 0xdb, 0xd3,
  0x1c, 0xff, 0x21, 0x13, 0xe8, 0x3a, 0xcf, 0x28, 0x24, 0x14, 0x09, 0x1f,
  0xc5, 0x4f, 0xc8, 0x19, 0xfd, 0x16, 0xf8, 0x1f, 0x10, 0x34, 0x02, 0xe5,
  0xe2, 0x38, 0xfe, 0x1e, 0x2a, 0x3a, 0x00, 0xe7, 0xab, 0x0f, 0xd0, 0x28,
  0x01, 0x21, 0x37, 0xed, 0x22, 0x29, 0xd4, 0x30, 0xea, 0x39, 0x06, 0xe6,
  0x0c, 0xd6, 0x2f, 0x2f, 0xf3, 0x12, 0xe5, 0x37, 0xfc, 0x31, 0xe3, 0x29,
  0x03, 0x06, 0xf4, 0xd2, 0x23, 0xf9, 0xf6, 0xf3, 0x20, 0x20, 0x16, 0xd2,
  0x2c, 0x28, 0x16, 0x13, 0x15, 0x9e, 0xeb, 0x09, 0xaf, 0x33, 0xf4, 0xe1,
  0xd3, 0x26, 0xd3, 0x13, 0xc6, 0x13, 0x20, 0xde, 0x39, 0xa1, 0x05, 0x10,
  0xb2, 0xe2, 0x1f, 0xfc, 0xd7, 0x54, 0x09, 0x25, 0xe3, 0x2d, 0xff, 0xf4,
  0xbb, 0x1f, 0x01, 0x25, 0x0f, 0xc9, 0x0f, 0xe5, 0xb9, 0x33, 0xcc, 0xe6,
  0x38, 0x16, 0xd7, 0xef, 0x48, 0xbd, 0x0d, 0xcc, 0xf3, 0xdd, 0xc9, 0xde,
  0xda, 0x37, 0x31, 0xe2, 0x08, 0x26, 0xea, 0xcb, 0xeb, 0x05, 0xb8, 0xf4,
  0x38, 0x13, 0xfa, 0x40, 0xcf, 0x01, 0x3b, 0xdf, 0x1d, 0xdd, 0x2e, 0x12,
  0xd7, 0xb7, 0x33, 0xbc, 0x03, 0x05, 0xd6, 0x14, 0x0c, 0xd2, 0xec, 0xcf,
  0x2f, 0x33, 0x19, 0xf0, 0xdc, 0x03, 0x4d, 0x00, 0x17, 0xce, 0x16, 0xe9,
  0x21, 0x47, 0x1e, 0xf7, 0x1c, 0xe3, 0x19, 0x17, 0xce, 0x2a, 0xdd, 0xc4,
  0x26, 0xfb, 0xd0, 0x25, 0xe5, 0xff, 0xce, 0xf3, 0xca, 0xeb, 0xcf, 0xe8,
  0xe7, 0xab, 0xb8, 0xa0, 0xbc, 0x34, 0x1a, 0x95, 0x17, 0x19, 0xea, 0xfc,
  0xba, 0x30, 0xd3, 0xe7, 0x16, 0xa9, 0x35, 0xa0, 0x45, 0xef, 0xce, 0xfd,
  0xf3, 0xeb, 0x03, 0xe3, 0x07, 0xc8, 0xd3, 0x01, 0x06, 0xca, 0x43, 0x0b,
  0x2d, 0xd6, 0x04, 0xe6, 0xe5, 0xe3, 0x04, 0x34, 0xf6, 0x25, 0x01, 0xdb,
  0xdb, 0xc7, 0x9e, 0xef, 0xd6, 0xdc, 0xe7, 0x10, 0x1e, 0x1d, 0x27, 0xd5,
  0xd5, 0xea, 0xd3, 0x3b, 0x06, 0x1c, 0x32, 0x31, 0xec, 0x32, 0x2d, 0x0d,
  0xc4, 0x26, 0x21, 0xf8, 0x0d, 0xcc, 0xea, 0xd2, 0xd6, 0xbb, 0xe7, 0xbf,
  0x01, 0xc4, 0xf5, 0xd9, 0x3a, 0xfa, 0x33, 0xeb, 0xc9, 0xc9, 0xfe, 0x23,
  0xe4, 0x09, 0xea, 0xca, 0x59, 0x21, 0x29, 0xec, 0x24, 0x07, 0xf1, 0xce,
  0x06, 0x1f, 0x18, 0xee, 0xcd, 0xb7, 0x00, 0xd7, 0xfb, 0x02, 0x1f, 0xe3,
  0xf0, 0xf6, 0x0e, 0x07, 0xe4, 0x23, 0x15, 0x2a, 0x31, 0x17, 0x37, 0x42,
  0x13, 0x2a, 0x07, 0x08, 0xf3, 0x25, 0x20, 0xd8, 0x1f, 0xfa, 0x20, 0xd8,
  0x21, 0xf8, 0xef, 0x05, 0xd0, 0x25, 0xf8, 0xfb, 0x0b, 0x39, 0xc2, 0x18,
  0x30, 0xec, 0xef, 0x01, 0x04, 0x18, 0xcf, 0x16, 0x20, 0xd2, 0x1d, 0x3d,
  0x36, 0x03, 0x07, 0xf2, 0xe6, 0xd5, 0xd5, 0x00, 0xff, 0xf2, 0x0a, 0xd8,
  0xeb, 0xe3, 0x06, 0xfa, 0xe3, 0xf7, 0x04, 0x27, 0x00, 0xd2, 0xfd, 0xff,
  0x06, 0x09, 0xfe, 0xf3, 0x08, 0x1d, 0xe7, 0xf5, 0x09, 0x42, 0xd3, 0x16,
  0xe4, 0x1d, 0x30, 0xf8, 0xe3, 0x0d, 0xb1, 0xd3, 0xea, 0xfe, 0xd9, 0xcb,
  0xb8, 0xec, 0x26, 0xff, 0xe4, 0x1c, 0xf0, 0x03, 0x02, 0xcd, 0xfb, 0x05,
  0x35, 0xe0, 0xfd, 0x0b, 0xda, 0x09, 0x04, 0xf0, 0x29, 0x07, 0x13, 0xef,
  0xd0, 0x19, 0x2f, 0xf5, 0x22, 0x2b, 0xe8, 0x2c, 0x2b, 0x14, 0x2b, 0xd4,
  0x26, 0x34, 0xe2, 0xf8, 0xf6, 0x02, 0xd5, 0x30, 0x23, 0xd5, 0xe9, 0x09,
  0xc4, 0x1d, 0xf4, 0xfd, 0x0c, 0xe9, 0x26, 0xd6, 0x17, 0xfd, 0xe2, 0xff,
  0xec, 0x1d, 0xd8, 0xd6, 0xca, 0x20, 0xf9, 0xf3, 0x08, 0xe2, 0xdd, 0xec,
  0x1d, 0xf2, 0xf4, 0x0b, 0x13, 0xeb, 0xda, 0x0e, 0x02, 0xfc, 0x02, 0x2e,
  0xc6, 0xd2, 0xca, 0xeb, 0xfc, 0xff, 0x06, 0xf0, 0xfe, 0x36, 0xda, 0xf9,
  0x21, 0xbd, 0x14, 0x1a, 0xf6, 0xf2, 0xc6, 0x22, 0xfa, 0xfd, 0x03, 0x47,
  0x0a, 0xcd, 0x03, 0x20, 0x01, 0x3b, 0xd2, 0xe0, 0x1f, 0x22, 0xed, 0xfc,
  0xcd, 0xb2, 0x0e, 0xe3, 0xfd, 0xd4, 0xf0, 0x17, 0x10, 0x21, 0xe1, 0x05,
  0xf4, 0x10, 0xf0, 0xfc, 0xeb, 0x1c, 0xa8, 0x46, 0xf7, 0xf4, 0xf1, 0xd4,
  0xe9, 0x1a, 0xd0, 0x0c, 0x09, 0x06, 0x17, 0x16, 0x1a, 0xf4, 0xff, 0xff,
  0x00, 0x00, 0x00, 0x09, 0x30, 0x00, 0x00, 0x00, 0x10, 0x00, 0x00, 0x00,
  0x08, 0x00, 0x00, 0x00, 0x30, 0x00, 0x00, 0x00, 0x18, 0x00, 0x00, 0x00,
  0x73, 0x65, 0x71, 0x75, 0x65, 0x6e, 0x74, 0x69, 0x61, 0x6c, 0x2f, 0x79,
  0x5f, 0x70, 0x72, 0x65, 0x64, 0x2f, 0x4d, 0x61, 0x74, 0x4d, 0x75, 0x6c,
  0x00, 0x00, 0x00, 0x00, 0x02, 0x00, 0x00, 0x00, 0x02, 0x00, 0x00, 0x00,
  0x60, 0x02, 0x00, 0x00, 0x94, 0xf3, 0xff, 0xff, 0x14, 0x00, 0x00, 0x00,
  0x04, 0x00, 0x00, 0x00, 0x01, 0x00, 0x00, 0x00, 0x00, 0x00, 0x00, 0x00,
  0x00, 0x00, 0x00, 0x00, 0x01, 0x00, 0x00, 0x00, 0x73, 0xa2, 0xdd, 0x3a,
  0x96, 0xf4, 0xff, 0xff, 0x04, 0x00, 0x00, 0x00, 0x40, 0x00, 0x00, 0x00,
  0xab, 0xff, 0xff, 0xff, 0xea, 0xfe, 0xff, 0xff, 0x23, 0xfe, 0xff, 0xff,
  0x9f, 0xff, 0xff, 0xff, 0xb9, 0xfe, 0xff, 0xff, 0x1c, 0x02, 0x00, 0x00,
  0x79, 0x00, 0x00, 0x00, 0x0d, 0xfd, 0xff, 0xff, 0xa9, 0xff, 0xff, 0xff,
  0x73, 0x04, 0x00, 0x00, 0xfb, 0xfe, 0xff, 0xff, 0x1b, 0xfe, 0xff, 0xff,
  0x82, 0xff, 0xff, 0xff, 0xf6, 0x00, 0x00, 0x00, 0xf2, 0xfe, 0xff, 0xff,
  0xfd, 0xfd, 0xff, 0xff, 0xca, 0xf4, 0xff, 0xff, 0x00, 0x00, 0x00, 0x02,
  0x24, 0x00, 0x00, 0x00, 0x0f, 0x00, 0x00, 0x00, 0x08, 0x00, 0x00, 0x00,
  0x20, 0x00, 0x00, 0x00, 0x0d, 0x00, 0x00, 0x00, 0x63, 0x6f, 0x6e, 0x76,
  0x31, 0x64, 0x5f, 0x31, 0x2f, 0x62, 0x69, 0x61, 0x73, 0x00, 0x00, 0x00,
  0x01, 0x00, 0x00, 0x00, 0x10, 0x00, 0x00, 0x00, 0x34, 0xf4, 0xff, 0xff,
  0x90, 0x00, 0x00, 0x00, 0x04, 0x00, 0x00, 0x00, 0x10, 0x00, 0x00, 0x00,
  0x00, 0x00, 0x00, 0x00, 0x00, 0x00, 0x00, 0x00, 0x00, 0x00, 0x00, 0x00,
  0x00, 0x00, 0x00, 0x00, 0x00, 0x00, 0x00, 0x00, 0x00, 0x00, 0x00, 0x00,
  0x00, 0x00, 0x00, 0x00, 0x00, 0x00, 0x00, 0x00, 0x00, 0x00, 0x00, 0x00,
  0x00, 0x00, 0x00, 0x00, 0x00, 0x00, 0x00, 0x00, 0x00, 0x00, 0x00, 0x00,
  0x00, 0x00, 0x00, 0x00, 0x00, 0x00, 0x00, 0x00, 0x00, 0x00, 0x00, 0x00,
  0x00, 0x00, 0x00, 0x00, 0x00, 0x00, 0x00, 0x00, 0x00, 0x00, 0x00, 0x00,
  0x00, 0x00, 0x00, 0x00, 0x00, 0x00, 0x00, 0x00, 0x00, 0x00, 0x00, 0x00,
  0x00, 0x00, 0x00, 0x00, 0x00, 0x00, 0x00, 0x00, 0x00, 0x00, 0x00, 0x00,
  0x00, 0x00, 0x00, 0x00, 0x00, 0x00, 0x00, 0x00, 0x00, 0x00, 0x00, 0x00,
  0x00, 0x00, 0x00, 0x00, 0x00, 0x00, 0x00, 0x00, 0x00, 0x00, 0x00, 0x00,
  0x00, 0x00, 0x00, 0x00, 0x00, 0x00, 0x00, 0x00, 0x00, 0x00, 0x00, 0x00,
  0x10, 0x00, 0x00, 0x00, 0x0e, 0x38, 0x06, 0x39, 0x16, 0x9a, 0x13, 0x39,
  0x9a, 0xe7, 0x0f, 0x39, 0x52, 0x16, 0x54, 0x39, 0xec, 0x08, 0x45, 0x39,
  0x0a, 0x6f, 0xe1, 0x38, 0x64, 0x66, 0xec, 0x38, 0x19, 0x10, 0x21, 0x39,
  0xae, 0xd7, 0x4f, 0x39, 0xa9, 0xaf, 0x0b, 0x39, 0x5b, 0xd3, 0x01, 0x39,
  0x9e, 0xb0, 0x0f, 0x39, 0xfa, 0xc6, 0x03, 0x39, 0xdf, 0x62, 0xf1, 0x38,
  0xce, 0x19, 0xf4, 0x38, 0x68, 0xb2, 0x16, 0x39, 0xee, 0xf5, 0xff, 0xff,
  0x04, 0x00, 0x00, 0x00, 0x80, 0x01, 0x00, 0x00, 0xfe, 0xff, 0x2f, 0xb1,
  0xdc, 0x20, 0x07, 0xe6, 0xa3, 0x33, 0xa3, 0xd5, 0xa6, 0x7f, 0xef, 0x1f,
  0xc5, 0xd3, 0xf6, 0xd7, 0xa1, 0x2f, 0x49, 0x13, 0xbb, 0x31, 0xc7, 0xe3,
  0x61, 0x34, 0x71, 0xe7, 0xce, 0x4e, 0xa4, 0x0f, 0x00, 0xbf, 0x7f, 0x3a,
  0x15, 0xe8, 0xbd, 0xc0, 0x4b, 0xa9, 0xc8, 0xc2, 0xb4, 0x04, 0xfd, 0x36,
  0x9f, 0x30, 0xf6, 0x1c, 0xc5, 0x7f, 0x26, 0x13, 0xe8, 0x01, 0x8c, 0xf9,
  0x13, 0x27, 0xf2, 0x38, 0xa7, 0xa8, 0x74, 0x55, 0x00, 0xf7, 0xec, 0xeb,
  0x41, 0x45, 0x7f, 0xc2, 0xbe, 0x34, 0xbe, 0x00, 0xcd, 0x45, 0xde, 0xfb,
  0x3b, 0xfa, 0x0c, 0xbc, 0xcf, 0xc7, 0x37, 0x3a, 0xcd, 0x7f, 0xd1, 0xf5,
  0x30, 0x45, 0xe8, 0xf0, 0x1a, 0xdf, 0x1b, 0x0d, 0xd6, 0xd0, 0x10, 0x1f,
  0xba, 0xb0, 0xcc, 0x36, 0xb7, 0xde, 0x22, 0xcb, 0x39, 0x97, 0x1d, 0x66,
  0x55, 0xf8, 0x4a, 0x7b, 0x77, 0xf7, 0x06, 0x27, 0xd5, 0xf7, 0x15, 0xdf,
  0x52, 0x11, 0x71, 0x81, 0x77, 0xb1, 0x57, 0xe6, 0x81, 0xae, 0x4c, 0x3b,
  0x85, 0x66, 0x7c, 0xce, 0x73, 0xdf, 0xce, 0x4f, 0x62, 0x75, 0xfa, 0x38,
  0xe8, 0x2d, 0xdc, 0xd0, 0x1d, 0xfb, 0xce, 0xa1, 0xee, 0x31, 0xbf, 0xfa,
  0x4f, 0x5e, 0x31, 0x34, 0x40, 0xc6, 0xd0, 0xc1, 0x1b, 0xb7, 0xd4, 0x0b,
  0x4f, 0x1c, 0xb1, 0xf6, 0xed, 0x48, 0x7f, 0x45, 0x15, 0xd0, 0x0b, 0xe4,
  0x14, 0xcf, 0x19, 0xf8, 0x29, 0xdf, 0xfe, 0x0f, 0xd9, 0x1b, 0x06, 0x03,
  0x05, 0xdb, 0xd9, 0xf2, 0x40, 0x13, 0x7f, 0xcb, 0x15, 0x81, 0xfb, 0x58,
  0x29, 0xb8, 0x32, 0x97, 0x9a, 0xb7, 0xe1, 0x4f, 0x9a, 0x5b, 0x92, 0x07,
  0x0c, 0xb7, 0x96, 0xea, 0xf7, 0xd5, 0xee, 0xa2, 0xfb, 0xc2, 0x6a, 0x8e,
  0xcb, 0x4b, 0x81, 0xaa, 0x53, 0x91, 0xcf, 0xca, 0xda, 0xe3, 0xc8, 0x2c,
  0x1b, 0xd2, 0xf2, 0x8a, 0xe8, 0x18, 0x95, 0xa8, 0x4a, 0x4c, 0xb2, 0xd0,
  0x38, 0x2b, 0xb7, 0xe7, 0x50, 0xca, 0x4e, 0xcd, 0x64, 0xa2, 0x15, 0xf9,
  0xf5, 0xf9, 0x53, 0xe0, 0xa9, 0xfb, 0x7f, 0x6e, 0xef, 0xfe, 0x9e, 0xa8,
  0x90, 0x7f, 0x13, 0xc3, 0x51, 0xd7, 0x55, 0xa5, 0xa2, 0x2d, 0x7e, 0x1d,
  0xaa, 0xd8, 0xba, 0x2e, 0xb1, 0x4b, 0x44, 0x15, 0xa4, 0x82, 0x73, 0x78,
  0xfe, 0xfe, 0xbc, 0x81, 0xd6, 0xb1, 0x70, 0x17, 0xe5, 0x03, 0xbd, 0x78,
  0x66, 0xb8, 0x1d, 0xa8, 0x53, 0x5a, 0xb5, 0x3c, 0x1b, 0x9d, 0x6c, 0x3a,
  0xc1, 0x68, 0x90, 0x81, 0x63, 0x17, 0x43, 0x40, 0x21, 0x11, 0xd2, 0x29,
  0xea, 0x56, 0xfd, 0x11, 0x26, 0x6e, 0xcf, 0x58, 0x5d, 0x10, 0x47, 0x06,
  0xa2, 0xdc, 0x6e, 0x15, 0x9e, 0x00, 0xb7, 0x46, 0x1d, 0xcd, 0x56, 0x0a,
  0xb5, 0x37, 0xaa, 0x15, 0x13, 0x7f, 0x70, 0x4a, 0x62, 0xf7, 0xff, 0xff,
  0x00, 0x00, 0x00, 0x09, 0x30, 0x00, 0x00, 0x00, 0x0e, 0x00, 0x00, 0x00,
  0x08, 0x00, 0x00, 0x00, 0x38, 0x00, 0x00, 0x00, 0x1a, 0x00, 0x00, 0x00,
  0x73, 0x65, 0x71, 0x75, 0x65, 0x6e, 0x74, 0x69, 0x61, 0x6c, 0x2f, 0x63,
  0x6f, 0x6e, 0x76, 0x31, 0x64, 0x5f, 0x31, 0x2f, 0x43, 0x6f, 0x6e, 0x76,
  0x31, 0x44, 0x00, 0x00, 0x04, 0x00, 0x00, 0x00, 0x10, 0x00, 0x00, 0x00,
  0x01, 0x00, 0x00, 0x00, 0x03, 0x00, 0x00, 0x00, 0x08, 0x00, 0x00, 0x00,
  0xe4, 0xf6, 0xff, 0xff, 0x8c, 0x00, 0x00, 0x00, 0x04, 0x00, 0x00, 0x00,
  0x10, 0x00, 0x00, 0x00, 0x00, 0x00, 0x00, 0x00, 0x00, 0x00, 0x00, 0x00,
  0x00, 0x00, 0x00, 0x00, 0x00, 0x00, 0x00, 0x00, 0x00, 0x00, 0x00, 0x00,
  0x00, 0x00, 0x00, 0x00, 0x00, 0x00, 0x00, 0x00, 0x00, 0x00, 0x00, 0x00,
  0x00, 0x00, 0x00, 0x00, 0x00, 0x00, 0x00, 0x00, 0x00, 0x00, 0x00, 0x00,
  0x00, 0x00, 0x00, 0x00, 0x00, 0x00, 0x00, 0x00, 0x00, 0x00, 0x00, 0x00,
  0x00, 0x00, 0x00, 0x00, 0x00, 0x00, 0x00, 0x00, 0x00, 0x00, 0x00, 0x00,
  0x00, 0x00, 0x00, 0x00, 0x00, 0x00, 0x00, 0x00, 0x00, 0x00, 0x00, 0x00,
  0x00, 0x00, 0x00, 0x00, 0x00, 0x00, 0x00, 0x00, 0x00, 0x00, 0x00, 0x00,
  0x00, 0x00, 0x00, 0x00, 0x00, 0x00, 0x00, 0x00, 0x00, 0x00, 0x00, 0x00,
  0x00, 0x00, 0x00, 0x00, 0x00, 0x00, 0x00, 0x00, 0x00, 0x00, 0x00, 0x00,
  0x00, 0x00, 0x00, 0x00, 0x00, 0x00, 0x00, 0x00, 0x00, 0x00, 0x00, 0x00,
  0x10, 0x00, 0x00, 0x00, 0xe0, 0xc7, 0x26, 0x3b, 0x12, 0x69, 0x37, 0x3b,
  0xf7, 0xd0, 0x32, 0x3b, 0x1e, 0xc5, 0x83, 0x3b, 0xff, 0xd5, 0x74, 0x3b,
  0xee, 0x0f, 0x0c, 0x3b, 0x24, 0xe0, 0x12, 0x3b, 0x18, 0x23, 0x48, 0x3b,
  0xfd, 0x21, 0x81, 0x3b, 0x08, 0x93, 0x2d, 0x3b, 0x53, 0x52, 0x21, 0x3b,
  0xa5, 0x8c, 0x32, 0x3b, 0x27, 0xbf, 0x23, 0x3b, 0x38, 0xf9, 0x15, 0x3b,
  0xfb, 0xa8, 0x17, 0x3b, 0x9c, 0x41, 0x3b, 0x3b, 0x9a, 0xf8, 0xff, 0xff,
  0x04, 0x00, 0x00, 0x00, 0x20, 0x00, 0x00, 0x00, 0x68, 0xff, 0xff, 0xff,
  0x21, 0xff, 0xff, 0xff, 0x89, 0xff, 0xff, 0xff, 0xc5, 0x00, 0x00, 0x00,
  0x02, 0x00, 0x00, 0x00, 0xd8, 0x00, 0x00, 0x00, 0xc6, 0x00, 0x00, 0x00,
  0x45, 0x00, 0x00, 0x00, 0xae, 0xf8, 0xff, 0xff, 0x00, 0x00, 0x00, 0x02,
  0x20, 0x00, 0x00, 0x00, 0x0d, 0x00, 0x00, 0x00, 0x08, 0x00, 0x00, 0x00,
  0x1c, 0x00, 0x00, 0x00, 0x0b, 0x00, 0x00, 0x00, 0x63, 0x6f, 0x6e, 0x76,
  0x31, 0x64, 0x2f, 0x62, 0x69, 0x61, 0x73, 0x00, 0x01, 0x00, 0x00, 0x00,
  0x08, 0x00, 0x00, 0x00, 0x14, 0xf8, 0xff, 0xff, 0x50, 0x00, 0x00, 0x00,
  0x04, 0x00, 0x00, 0x00, 0x08, 0x00, 0x00, 0x00, 0x00, 0x00, 0x00, 0x00,
  0x00, 0x00, 0x00, 0x00, 0x00, 0x00, 0x00, 0x00, 0x00, 0x00, 0x00, 0x00,
  0x00, 0x00, 0x00, 0x00, 0x00, 0x00, 0x00, 0x00, 0x00, 0x00, 0x00, 0x00,
  0x00, 0x00, 0x00, 0x00, 0x00, 0x00, 0x00, 0x00, 0x00, 0x00, 0x00, 0x00,
  0x00, 0x00, 0x00, 0x00, 0x00, 0x00, 0x00, 0x00, 0x00, 0x00, 0x00, 0x00,
  0x00, 0x00, 0x00, 0x00, 0x00, 0x00, 0x00, 0x00, 0x00, 0x00, 0x00, 0x00,
  0x00, 0x00, 0x00, 0x00, 0x08, 0x00, 0x00, 0x00, 0x21, 0x77, 0x98, 0x39,
  0x56, 0x45, 0x9c, 0x39, 0x8e, 0x3b, 0x9c, 0x39, 0x5a, 0x61, 0x94, 0x39,
  0x74, 0xbb, 0x89, 0x39, 0x2a, 0x52, 0x93, 0x39, 0xa2, 0x4a, 0xb3, 0x39,
  0xc4, 0x04, 0x94, 0x39, 0x6e, 0xf9, 0xff, 0xff, 0x04, 0x00, 0x00, 0x00,
  0x70, 0x02, 0x00, 0x00, 0xf3, 0x56, 0x9f, 0xec, 0xa4, 0x9d, 0xaa, 0x28,
  0xa6, 0xca, 0xdb, 0xc6, 0x2d, 0x7f, 0xe3, 0xb0, 0xf6, 0xe2, 0x21, 0x24,
  0x40, 0xbc, 0x63, 0x52, 0x3c, 0xe1, 0xd1, 0x12, 0xd8, 0x24, 0xce, 0x30,
  0xbf, 0x59, 0x3f, 0xf8, 0x6a, 0xd7, 0x3f, 0x49, 0x41, 0xda, 0xc2, 0x47,
  0x3b, 0xb7, 0xe3, 0x06, 0x10, 0x03, 0xce, 0xc0, 0x34, 0xd8, 0x61, 0x13,
  0xd4, 0xf5, 0x71, 0x41, 0x5d, 0x08, 0xf0, 0xbd, 0xed, 0x58, 0x69, 0x3b,
  0x4f, 0x53, 0xe2, 0x41, 0x3b, 0x46, 0xfd, 0x42, 0xc8, 0xfe, 0x67, 0xd7,
  0x6c, 0x01, 0xc7, 0x0d, 0x4f, 0xf0, 0xe3, 0x49, 0xd8, 0x81, 0xd1, 0xad,
  0x20, 0x6d, 0x0c, 0x24, 0x5a, 0x29, 0x29, 0xe0, 0x12, 0x95, 0xb1, 0xf9,
  0x26, 0xd4, 0xef, 0xd7, 0x11, 0x4e, 0x35, 0x26, 0x53, 0x57, 0xa1, 0x23,
  0xca, 0x68, 0xf5, 0x34, 0x28, 0x96, 0x18, 0xe9, 0x79, 0x45, 0xf4, 0x0d,
  0x59, 0x43, 0xcb, 0x5a, 0x6a, 0x38, 0xc0, 0xd6, 0xaa, 0xfb, 0xf9, 0xec,
  0xd0, 0xe7, 0x9a, 0x24, 0x36, 0xcc, 0x37, 0xfb, 0x95, 0x9c, 0x91, 0x8c,
  0x04, 0xac, 0x17, 0x20, 0x37, 0xff, 0xe3, 0xde, 0xb4, 0x44, 0xb8, 0xc4,
  0x00, 0xf3, 0x4c, 0xfa, 0x5f, 0xfa, 0x06, 0xfd, 0xce, 0xc6, 0x5c, 0x05,
  0x7f, 0x18, 0x00, 0x66, 0x0c, 0xbc, 0xd4, 0xf3, 0xc1, 0x41, 0xe3, 0x53,
  0x2f, 0x19, 0xb7, 0x63, 0xc2, 0x73, 0xa7, 0xa4, 0xd6, 0xac, 0xa9, 0xa2,
  0x25, 0x07, 0x2c, 0xe8, 0x3d, 0x71, 0x14, 0x58, 0x50, 0x48, 0xa4, 0xe7,
  0x03, 0xb0, 0x7b, 0xc3, 0x50, 0xc4, 0x3c, 0x5b, 0x52, 0x57, 0x08, 0xb1,
  0xd5, 0xe8, 0x59, 0x6f, 0xd2, 0xb6, 0xdc, 0xd2, 0xb3, 0x1b, 0x2e, 0x2b,
  0x45, 0xf7, 0x41, 0x52, 0x72, 0xf4, 0x1a, 0xc5, 0x05, 0xa9, 0xbd, 0x0f,
  0xa0, 0x0d, 0x4d, 0x6b, 0x56, 0x5a, 0xd4, 0x40, 0x35, 0x14, 0xa5, 0xf9,
  0x2c, 0x28, 0xa1, 0xc0, 0x1c, 0x10, 0xed, 0xcb, 0x37, 0xa5, 0x5e, 0xab,
  0xbc, 0x68, 0xcc, 0xb9, 0x56, 0x2c, 0x07, 0xe6, 0xf7, 0xfd, 0x8c, 0xf1,
  0x48, 0x6f, 0x03, 0xd9, 0xf5, 0x4f, 0x78, 0xec, 0xeb, 0xc2, 0xea, 0xc3,
  0xd4, 0x04, 0xb7, 0xb4, 0xf7, 0xd9, 0x78, 0x54, 0x9c, 0x1a, 0x7f, 0x12,
  0x54, 0x57, 0x95, 0x1f, 0x0c, 0x77, 0x2b, 0x59, 0x7f, 0xad, 0xa7, 0x98,
  0x46, 0xec, 0xad, 0xc0, 0x33, 0xf9, 0xcb, 0x53, 0xc4, 0xa8, 0xc6, 0x6e,
  0x31, 0x5d, 0xfa, 0xb5, 0x7d, 0xe5, 0x58, 0xec, 0xed, 0x2f, 0xb0, 0x8f,
  0x26, 0x30, 0x69, 0x9a, 0x58, 0xca, 0xc1, 0x77, 0x76, 0xa9, 0x8c, 0x5e,
  0x06, 0xfb, 0x3d, 0x07, 0x11, 0x3a, 0x21, 0xd7, 0x51, 0x2e, 0x3a, 0x37,
  0x52, 0x3c, 0x91, 0x04, 0x94, 0x0a, 0xd3, 0x9e, 0x2a, 0xd0, 0xcb, 0x08,
  0xef, 0x1c, 0xf0, 0xeb, 0xa5, 0x01, 0x5a, 0xa9, 0x40, 0xaf, 0xdc, 0xd8,
  0x15, 0x0e, 0x64, 0xea, 0x15, 0xb8, 0x8d, 0xcd, 0xfb, 0x73, 0xf3, 0x61,
  0xe2, 0x6b, 0x22, 0xe5, 0xa4, 0x52, 0xf1, 0x50, 0x2b, 0x43, 0xd1, 0xb0,
  0xbf, 0x45, 0x22, 0x7f, 0x7f, 0x2b, 0x36, 0x8d, 0xed, 0xce, 0x65, 0x39,
  0x02, 0xf3, 0xa1, 0x48, 0x5d, 0x2f, 0xb5, 0x7c, 0xb4, 0x0c, 0x13, 0xe9,
  0xa7, 0x2d, 0xeb, 0x98, 0x44, 0xe9, 0xe4, 0xf2, 0xf7, 0x38, 0xaf, 0xa1,
  0xf5, 0x4d, 0xc4, 0xf6, 0xde, 0x3a, 0xf5, 0x91, 0xd2, 0xfe, 0xff, 0x30,
  0x00, 0xb3, 0x03, 0x2f, 0xba, 0x81, 0x26, 0xa3, 0xf7, 0xcf, 0xbf, 0x55,
  0xe9, 0x2b, 0xe0, 0x47, 0xdf, 0x52, 0x0a, 0x1f, 0x17, 0xf2, 0xf0, 0xf7,
  0xf9, 0xc7, 0xfb, 0x2f, 0x41, 0xfa, 0xcd, 0xb4, 0xd7, 0x47, 0x4d, 0x3c,
  0x33, 0xbc, 0x27, 0x38, 0x18, 0x56, 0x14, 0xa6, 0x4e, 0x05, 0x11, 0xee,
  0x24, 0x27, 0xa0, 0xe9, 0x42, 0xc5, 0xa2, 0x01, 0x0a, 0xfa, 0xdd, 0x06,
  0x0c, 0x19, 0x9c, 0x09, 0x16, 0xbf, 0x2a, 0x2d, 0x36, 0xc6, 0xa5, 0xd3,
  0xe4, 0x1d, 0x32, 0x22, 0xfe, 0x25, 0xf2, 0x60, 0xe5, 0x48, 0xa5, 0xa8,
  0xee, 0xe7, 0x9b, 0xdb, 0xa2, 0x36, 0xec, 0xe5, 0x24, 0x06, 0xae, 0x2c,
  0xb0, 0x77, 0x34, 0x21, 0x40, 0x06, 0x6f, 0x65, 0x4e, 0xbd, 0x62, 0x6c,
  0x96, 0xdf, 0x19, 0x6a, 0x0b, 0x58, 0x32, 0x9c, 0x40, 0xea, 0xbb, 0xcf,
  0x37, 0xd6, 0x0d, 0xcb, 0x61, 0xbf, 0x62, 0x5e, 0x00, 0xd3, 0x69, 0x79,
  0xc4, 0x12, 0x23, 0x2b, 0x81, 0x39, 0x1d, 0xd0, 0xaa, 0xdf, 0x90, 0x3e,
  0x59, 0xe8, 0x3f, 0x29, 0x71, 0x59, 0x16, 0x01, 0x2a, 0xe1, 0x4f, 0xf8,
  0x37, 0x65, 0x22, 0xe2, 0xd2, 0xfb, 0xff, 0xff, 0x00, 0x00, 0x00, 0x09,
  0x30, 0x00, 0x00, 0x00, 0x0c, 0x00, 0x00, 0x00, 0x08, 0x00, 0x00, 0x00,
  0x38, 0x00, 0x00, 0x00, 0x18, 0x00, 0x00, 0x00, 0x73, 0x65, 0x71, 0x75,
  0x65, 0x6e, 0x74, 0x69, 0x61, 0x6c, 0x2f, 0x63, 0x6f, 0x6e, 0x76, 0x31,
  0x64, 0x2f, 0x43, 0x6f, 0x6e, 0x76, 0x31, 0x44, 0x00, 0x00, 0x00, 0x00,
  0x04, 0x00, 0x00, 0x00, 0x08, 0x00, 0x00, 0x00, 0x01, 0x00, 0x00, 0x00,
  0x03, 0x00, 0x00, 0x00, 0x1a, 0x00, 0x00, 0x00, 0x54, 0xfb, 0xff, 0xff,
  0x4c, 0x00, 0x00, 0x00, 0x04, 0x00, 0x00, 0x00, 0x08, 0x00, 0x00, 0x00,
  0x00, 0x00, 0x00, 0x00, 0x00, 0x00, 0x00, 0x00, 0x00, 0x00, 0x00, 0x00,
  0x00, 0x00, 0x00, 0x00, 0x00, 0x00, 0x00, 0x00, 0x00, 0x00, 0x00, 0x00,
  0x00, 0x00, 0x00, 0x00, 0x00, 0x00, 0x00, 0x00, 0x00, 0x00, 0x00, 0x00,
  0x00, 0x00, 0x00, 0x00, 0x00, 0x00, 0x00, 0x00, 0x00, 0x00, 0x00, 0x00,
  0x00, 0x00, 0x00, 0x00, 0x00, 0x00, 0x00, 0x00, 0x00, 0x00, 0x00, 0x00,
  0x00, 0x00, 0x00, 0x00, 0x08, 0x00, 0x00, 0x00, 0xd4, 0x2c, 0x08, 0x3b,
  0xf2, 0x92, 0x0b, 0x3b, 0x36, 0x8a, 0x0b, 0x3b, 0xca, 0x86, 0x04, 0x3b,
  0x47, 0x08, 0xf6, 0x3a, 0x93, 0x94, 0x03, 0x3b, 0x92, 0x22, 0x20, 0x3b,
  0x18, 0x34, 0x04, 0x3b, 0xaa, 0xfc, 0xff, 0xff, 0x04, 0x00, 0x00, 0x00,
  0x08, 0x00, 0x00, 0x00, 0xff, 0xff, 0xff, 0xff, 0x60, 0x02, 0x00, 0x00,
  0xa6, 0xfc, 0xff, 0xff, 0x00, 0x00, 0x00, 0x02, 0x30, 0x00, 0x00, 0x00,
  0x0b, 0x00, 0x00, 0x00, 0x08, 0x00, 0x00, 0x00, 0x2c, 0x00, 0x00, 0x00,
  0x18, 0x00, 0x00, 0x00, 0x73, 0x65, 0x71, 0x75, 0x65, 0x6e, 0x74, 0x69,
  0x61, 0x6c, 0x2f, 0x66, 0x6c, 0x61, 0x74, 0x74, 0x65, 0x6e, 0x2f, 0x43,
  0x6f, 0x6e, 0x73, 0x74, 0x00, 0x00, 0x00, 0x00, 0x01, 0x00, 0x00, 0x00,
  0x02, 0x00, 0x00, 0x00, 0xf0, 0xfb, 0xff, 0xff, 0x02, 0xfd, 0xff, 0xff,
  0x04, 0x00, 0x00, 0x00, 0x0c, 0x00, 0x00, 0x00, 0xff, 0xff, 0xff, 0xff,
  0x4b, 0x00, 0x00, 0x00, 0x10, 0x00, 0x00, 0x00, 0x02, 0xfd, 0xff, 0xff,
  0x00, 0x00, 0x00, 0x02, 0x38, 0x00, 0x00, 0x00, 0x0a, 0x00, 0x00, 0x00,
  0x08, 0x00, 0x00, 0x00, 0x34, 0x00, 0x00, 0x00, 0x22, 0x00, 0x00, 0x00,
  0x73, 0x65, 0x71, 0x75, 0x65, 0x6e, 0x74, 0x69, 0x61, 0x6c, 0x2f, 0x63,
  0x6f, 0x6e, 0x76, 0x31, 0x64, 0x5f, 0x31, 0x2f, 0x43, 0x6f, 0x6e, 0x76,
  0x31, 0x44, 0x2f, 0x53, 0x71, 0x75, 0x65, 0x65, 0x7a, 0x65, 0x00, 0x00,
  0x01, 0x00, 0x00, 0x00, 0x03, 0x00, 0x00, 0x00, 0x54, 0xfc, 0xff, 0xff,
  0x66, 0xfd, 0xff, 0xff, 0x04, 0x00, 0x00, 0x00, 0x0c, 0x00, 0x00, 0x00,
  0xff, 0xff, 0xff, 0xff, 0x4b, 0x00, 0x00, 0x00, 0x08, 0x00, 0x00, 0x00,
  0x66, 0xfd, 0xff, 0xff, 0x00, 0x00, 0x00, 0x02, 0x38, 0x00, 0x00, 0x00,
  0x09, 0x00, 0x00, 0x00, 0x08, 0x00, 0x00, 0x00, 0x34, 0x00, 0x00, 0x00,
  0x20, 0x00, 0x00, 0x00, 0x73, 0x65, 0x71, 0x75, 0x65, 0x6e, 0x74, 0x69,
  0x61, 0x6c, 0x2f, 0x6d, 0x61, 0x78, 0x5f, 0x70, 0x6f, 0x6f, 0x6c, 0x69,
  0x6e, 0x67, 0x31, 0x64, 0x2f, 0x53, 0x71, 0x75, 0x65, 0x65, 0x7a, 0x65,
  0x00, 0x00, 0x00, 0x00, 0x01, 0x00, 0x00, 0x00, 0x03, 0x00, 0x00, 0x00,
  0xb8, 0xfc, 0xff, 0xff, 0xca, 0xfd, 0xff, 0xff, 0x04, 0x00, 0x00, 0x00,
  0x04, 0x00, 0x00, 0x00, 0x02, 0x00, 0x00, 0x00, 0xc2, 0xfd, 0xff, 0xff,
  0x00, 0x00, 0x00, 0x02, 0x3c, 0x00, 0x00, 0x00, 0x08, 0x00, 0x00, 0x00,
  0x08, 0x00, 0x00, 0x00, 0x34, 0x00, 0x00, 0x00, 0x27, 0x00, 0x00, 0x00,
  0x73, 0x65, 0x71, 0x75, 0x65, 0x6e, 0x74, 0x69, 0x61, 0x6c, 0x2f, 0x6d,
  0x61, 0x78, 0x5f, 0x70, 0x6f, 0x6f, 0x6c, 0x69, 0x6e, 0x67, 0x31, 0x64,
  0x2f, 0x45, 0x78, 0x70, 0x61, 0x6e, 0x64, 0x44, 0x69, 0x6d, 0x73, 0x2f,
  0x64, 0x69, 0x6d, 0x00, 0x00, 0x00, 0x00, 0x00, 0x14, 0xfd, 0xff, 0xff,
  0x26, 0xfe, 0xff, 0xff, 0x04, 0x00, 0x00, 0x00, 0x0c, 0x00, 0x00, 0x00,
  0xff, 0xff, 0xff, 0xff, 0x96, 0x00, 0x00, 0x00, 0x08, 0x00, 0x00, 0x00,
  0x26, 0xfe, 0xff, 0xff, 0x00, 0x00, 0x00, 0x02, 0x38, 0x00, 0x00, 0x00,
  0x07, 0x00, 0x00, 0x00, 0x08, 0x00, 0x00, 0x00, 0x34, 0x00, 0x00, 0x00,
  0x20, 0x00, 0x00, 0x00, 0x73, 0x65, 0x71, 0x75, 0x65, 0x6e, 0x74, 0x69,
  0x61, 0x6c, 0x2f, 0x63, 0x6f, 0x6e, 0x76, 0x31, 0x64, 0x2f, 0x43, 0x6f,
  0x6e, 0x76, 0x31, 0x44, 0x2f, 0x53, 0x71, 0x75, 0x65, 0x65, 0x7a, 0x65,
  0x00, 0x00, 0x00, 0x00, 0x01, 0x00, 0x00, 0x00, 0x03, 0x00, 0x00, 0x00,
  0x78, 0xfd, 0xff, 0xff, 0x8a, 0xfe, 0xff, 0xff, 0x04, 0x00, 0x00, 0x00,
  0x04, 0x00, 0x00, 0x00, 0xfd, 0xff, 0xff, 0xff, 0x82, 0xfe, 0xff, 0xff,
  0x00, 0x00, 0x00, 0x02, 0x3c, 0x00, 0x00, 0x00, 0x06, 0x00, 0x00, 0x00,
  0x08, 0x00, 0x00, 0x00, 0x34, 0x00, 0x00, 0x00, 0x27, 0x00, 0x00, 0x00,
  0x73, 0x65, 0x71, 0x75, 0x65, 0x6e, 0x74, 0x69, 0x61, 0x6c, 0x2f, 0x63,
  0x6f, 0x6e, 0x76, 0x31, 0x64, 0x2f, 0x43, 0x6f, 0x6e, 0x76, 0x31, 0x44,
  0x2f, 0x45, 0x78, 0x70, 0x61, 0x6e, 0x64, 0x44, 0x69, 0x6d, 0x73, 0x2f,
  0x64, 0x69, 0x6d, 0x00, 0x00, 0x00, 0x00, 0x00, 0xd4, 0xfd, 0xff, 0xff,
  0xe6, 0xfe, 0xff, 0xff, 0x04, 0x00, 0x00, 0x00, 0x04, 0x00, 0x00, 0x00,
  0x1a, 0x00, 0x00, 0x00, 0xde, 0xfe, 0xff, 0xff, 0x00, 0x00, 0x00, 0x02,
  0x38, 0x00, 0x00, 0x00, 0x05, 0x00, 0x00, 0x00, 0x08, 0x00, 0x00, 0x00,
  0x30, 0x00, 0x00, 0x00, 0x22, 0x00, 0x00, 0x00, 0x73, 0x65, 0x71, 0x75,
  0x65, 0x6e, 0x74, 0x69, 0x61, 0x6c, 0x2f, 0x72, 0x65, 0x73, 0x68, 0x61,
  0x70, 0x65, 0x2f, 0x52, 0x65, 0x73, 0x68, 0x61, 0x70, 0x65, 0x2f, 0x73,
  0x68, 0x61, 0x70, 0x65, 0x2f, 0x32, 0x00, 0x00, 0x00, 0x00, 0x00, 0x00,
  0x2c, 0xfe, 0xff, 0xff, 0x3e, 0xff, 0xff, 0xff, 0x04, 0x00, 0x00, 0x00,
  0x04, 0x00, 0x00, 0x00, 0x96, 0x00, 0x00, 0x00, 0x36, 0xff, 0xff, 0xff,
  0x00, 0x00, 0x00, 0x02, 0x38, 0x00, 0x00, 0x00, 0x04, 0x00, 0x00, 0x00,
  0x08, 0x00, 0x00, 0x00, 0x30, 0x00, 0x00, 0x00, 0x22, 0x00, 0x00, 0x00,
  0x73, 0x65, 0x71, 0x75, 0x65, 0x6e, 0x74, 0x69, 0x61, 0x6c, 0x2f, 0x72,
  0x65, 0x73, 0x68, 0x61, 0x70, 0x65, 0x2f, 0x52, 0x65, 0x73, 0x68, 0x61,
  0x70, 0x65, 0x2f, 0x73, 0x68, 0x61, 0x70, 0x65, 0x2f, 0x31, 0x00, 0x00,
  0x00, 0x00, 0x00, 0x00, 0x84, 0xfe, 0xff, 0xff, 0x96, 0xff, 0xff, 0xff,
  0x04, 0x00, 0x00, 0x00, 0x04, 0x00, 0x00, 0x00, 0x01, 0x00, 0x00, 0x00,
  0x8e, 0xff, 0xff, 0xff, 0x00, 0x00, 0x00, 0x02, 0x40, 0x00, 0x00, 0x00,
  0x03, 0x00, 0x00, 0x00, 0x08, 0x00, 0x00, 0x00, 0x40, 0x00, 0x00, 0x00,
  0x28, 0x00, 0x00, 0x00, 0x73, 0x65, 0x71, 0x75, 0x65, 0x6e, 0x74, 0x69,
  0x61, 0x6c, 0x2f, 0x72, 0x65, 0x73, 0x68, 0x61, 0x70, 0x65, 0x2f, 0x73,
  0x74, 0x72, 0x69, 0x64, 0x65, 0x64, 0x5f, 0x73, 0x6c, 0x69, 0x63, 0x65,
  0x2f, 0x73, 0x74, 0x61, 0x63, 0x6b, 0x5f, 0x31, 0x00, 0x00, 0x00, 0x00,
  0x01, 0x00, 0x00, 0x00, 0x01, 0x00, 0x00, 0x00, 0x04, 0x00, 0x06, 0x00,
  0x04, 0x00, 0x00, 0x00, 0x00, 0x00, 0x06, 0x00, 0x08, 0x00, 0x04, 0x00,
  0x06, 0x00, 0x00, 0x00, 0x04, 0x00, 0x00, 0x00, 0x04, 0x00, 0x00, 0x00,
  0x00, 0x00, 0x00, 0x00, 0x00, 0x00, 0x0e, 0x00, 0x18, 0x00, 0x08, 0x00,
  0x07, 0x00, 0x0c, 0x00, 0x10, 0x00, 0x14, 0x00, 0x0e, 0x00, 0x00, 0x00,
  0x00, 0x00, 0x00, 0x02, 0x3c, 0x00, 0x00, 0x00, 0x02, 0x00, 0x00, 0x00,
  0x08, 0x00, 0x00, 0x00, 0x38, 0x00, 0x00, 0x00, 0x26, 0x00, 0x00, 0x00,
  0x73, 0x65, 0x71, 0x75, 0x65, 0x6e, 0x74, 0x69, 0x61, 0x6c, 0x2f, 0x72,
  0x65, 0x73, 0x68, 0x61, 0x70, 0x65, 0x2f, 0x73, 0x74, 0x72, 0x69, 0x64,
  0x65, 0x64, 0x5f, 0x73, 0x6c, 0x69, 0x63, 0x65, 0x2f, 0x73, 0x74, 0x61,
  0x63, 0x6b, 0x00, 0x00, 0x01, 0x00, 0x00, 0x00, 0x01, 0x00, 0x00, 0x00,
  0x64, 0xff, 0xff, 0xff, 0x14, 0x00, 0x1c, 0x00, 0x08, 0x00, 0x07, 0x00,
  0x0c, 0x00, 0x10, 0x00, 0x14, 0x00, 0x00, 0x00, 0x00, 0x00, 0x18, 0x00,
  0x14, 0x00, 0x00, 0x00, 0x00, 0x00, 0x00, 0x09, 0x44, 0x00, 0x00, 0x00,
  0x01, 0x00, 0x00, 0x00, 0x18, 0x00, 0x00, 0x00, 0x50, 0x00, 0x00, 0x00,
  0x04, 0x00, 0x00, 0x00, 0x02, 0x00, 0x00, 0x00, 0xff, 0xff, 0xff, 0xff,
  0x3c, 0x0f, 0x00, 0x00, 0x1f, 0x00, 0x00, 0x00, 0x73, 0x65, 0x72, 0x76,
  0x69, 0x6e, 0x67, 0x5f, 0x64, 0x65, 0x66, 0x61, 0x75, 0x6c, 0x74, 0x5f,
  0x72, 0x65, 0x73, 0x68, 0x61, 0x70, 0x65, 0x5f, 0x69, 0x6e, 0x70, 0x75,
  0x74, 0x3a, 0x30, 0x00, 0x02, 0x00, 0x00, 0x00, 0x01, 0x00, 0x00, 0x00,
  0x3c, 0x0f, 0x00, 0x00, 0x0c, 0x00, 0x0c, 0x00, 0x00, 0x00, 0x00, 0x00,
  0x04, 0x00, 0x08, 0x00, 0x0c, 0x00, 0x00, 0x00, 0x14, 0x00, 0x00, 0x00,
  0x04, 0x00, 0x00, 0x00, 0x01, 0x00, 0x00, 0x00, 0x7f, 0x00, 0x00, 0x00,
  0x00, 0x00, 0x00, 0x00, 0x01, 0x00, 0x00, 0x00, 0xf1, 0x4f, 0x0f, 0x3e,
  0x04, 0x00, 0x04, 0x00, 0x04, 0x00, 0x00, 0x00
};
unsigned int lmfe_int8_tflite_len = 9128;
