unsigned char saved_tflite_model_mfcc_default_tflite[] = {
  0x28, 0x00, 0x00, 0x00, 0x54, 0x46, 0x4c, 0x33, 0x00, 0x00, 0x00, 0x00,
  0x00, 0x00, 0x00, 0x00, 0x00, 0x00, 0x00, 0x00, 0x14, 0x00, 0x20, 0x00,
  0x04, 0x00, 0x08, 0x00, 0x0c, 0x00, 0x10, 0x00, 0x14, 0x00, 0x00, 0x00,
  0x18, 0x00, 0x1c, 0x00, 0x14, 0x00, 0x00, 0x00, 0x03, 0x00, 0x00, 0x00,
  0x9c, 0x2b, 0x00, 0x00, 0xc8, 0x18, 0x00, 0x00, 0xb0, 0x18, 0x00, 0x00,
  0xb0, 0x00, 0x00, 0x00, 0x78, 0x00, 0x00, 0x00, 0x04, 0x00, 0x00, 0x00,
  0x01, 0x00, 0x00, 0x00, 0x04, 0x00, 0x00, 0x00, 0xf2, 0xe3, 0xff, 0xff,
  0x40, 0x00, 0x00, 0x00, 0x1c, 0x00, 0x00, 0x00, 0x04, 0x00, 0x00, 0x00,
  0x0f, 0x00, 0x00, 0x00, 0x73, 0x65, 0x72, 0x76, 0x69, 0x6e, 0x67, 0x5f,
  0x64, 0x65, 0x66, 0x61, 0x75, 0x6c, 0x74, 0x00, 0x01, 0x00, 0x00, 0x00,
  0x04, 0x00, 0x00, 0x00, 0xbc, 0xff, 0xff, 0xff, 0x08, 0x00, 0x00, 0x00,
  0x22, 0x00, 0x00, 0x00, 0x06, 0x00, 0x00, 0x00, 0x79, 0x5f, 0x70, 0x72,
  0x65, 0x64, 0x00, 0x00, 0x01, 0x00, 0x00, 0x00, 0x04, 0x00, 0x00, 0x00,
  0xf6, 0xe3, 0xff, 0xff, 0x04, 0x00, 0x00, 0x00, 0x0d, 0x00, 0x00, 0x00,
  0x72, 0x65, 0x73, 0x68, 0x61, 0x70, 0x65, 0x5f, 0x69, 0x6e, 0x70, 0x75,
  0x74, 0x00, 0x00, 0x00, 0x01, 0x00, 0x00, 0x00, 0x0c, 0x00, 0x00, 0x00,
  0x08, 0x00, 0x0c, 0x00, 0x04, 0x00, 0x08, 0x00, 0x08, 0x00, 0x00, 0x00,
  0x08, 0x00, 0x00, 0x00, 0x24, 0x00, 0x00, 0x00, 0x13, 0x00, 0x00, 0x00,
  0x6d, 0x69, 0x6e, 0x5f, 0x72, 0x75, 0x6e, 0x74, 0x69, 0x6d, 0x65, 0x5f,
  0x76, 0x65, 0x72, 0x73, 0x69, 0x6f, 0x6e, 0x00, 0x25, 0x00, 0x00, 0x00,
  0xec, 0x17, 0x00, 0x00, 0xd8, 0x17, 0x00, 0x00, 0xbc, 0x17, 0x00, 0x00,
  0x68, 0x17, 0x00, 0x00, 0x34, 0x17, 0x00, 0x00, 0x20, 0x17, 0x00, 0x00,
  0x0c, 0x17, 0x00, 0x00, 0xf8, 0x16, 0x00, 0x00, 0xe4, 0x16, 0x00, 0x00,
  0xd0, 0x16, 0x00, 0x00, 0xac, 0x16, 0x00, 0x00, 0x98, 0x16, 0x00, 0x00,
  0x04, 0x0d, 0x00, 0x00, 0x10, 0x08, 0x00, 0x00, 0xfc, 0x01, 0x00, 0x00,
  0xd8, 0x01, 0x00, 0x00, 0xb4, 0x01, 0x00, 0x00, 0x90, 0x01, 0x00, 0x00,
  0x84, 0x01, 0x00, 0x00, 0x70, 0x01, 0x00, 0x00, 0x5c, 0x01, 0x00, 0x00,
  0x48, 0x01, 0x00, 0x00, 0x34, 0x01, 0x00, 0x00, 0x20, 0x01, 0x00, 0x00,
  0x0c, 0x01, 0x00, 0x00, 0xf8, 0x00, 0x00, 0x00, 0xe4, 0x00, 0x00, 0x00,
  0xd0, 0x00, 0x00, 0x00, 0xbc, 0x00, 0x00, 0x00, 0xa8, 0x00, 0x00, 0x00,
  0x94, 0x00, 0x00, 0x00, 0x80, 0x00, 0x00, 0x00, 0x6c, 0x00, 0x00, 0x00,
  0x58, 0x00, 0x00, 0x00, 0x44, 0x00, 0x00, 0x00, 0x30, 0x00, 0x00, 0x00,
  0x04, 0x00, 0x00, 0x00, 0xde, 0xe4, 0xff, 0xff, 0x04, 0x00, 0x00, 0x00,
  0x10, 0x00, 0x00, 0x00, 0x31, 0x2e, 0x31, 0x31, 0x2e, 0x30, 0x00, 0x00,
  0x00, 0x00, 0x00, 0x00, 0x00, 0x00, 0x00, 0x00, 0x00, 0x00, 0x00, 0x00,
  0x00, 0x00, 0x00, 0x00, 0x00, 0x00, 0x00, 0x00, 0x18, 0xd6, 0xff, 0xff,
  0x00, 0x00, 0x00, 0x00, 0x00, 0x00, 0x00, 0x00, 0x00, 0x00, 0x00, 0x00,
  0x28, 0xd6, 0xff, 0xff, 0x00, 0x00, 0x00, 0x00, 0x00, 0x00, 0x00, 0x00,
  0x00, 0x00, 0x00, 0x00, 0x38, 0xd6, 0xff, 0xff, 0x00, 0x00, 0x00, 0x00,
  0x00, 0x00, 0x00, 0x00, 0x00, 0x00, 0x00, 0x00, 0x48, 0xd6, 0xff, 0xff,
  0x00, 0x00, 0x00, 0x00, 0x00, 0x00, 0x00, 0x00, 0x00, 0x00, 0x00, 0x00,
  0x58, 0xd6, 0xff, 0xff, 0x00, 0x00, 0x00, 0x00, 0x00, 0x00, 0x00, 0x00,
  0x00, 0x00, 0x00, 0x00, 0x68, 0xd6, 0xff, 0xff, 0x00, 0x00, 0x00, 0x00,
  0x00, 0x00, 0x00, 0x00, 0x00, 0x00, 0x00, 0x00, 0x78, 0xd6, 0xff, 0xff,
  0x00, 0x00, 0x00, 0x00, 0x00, 0x00, 0x00, 0x00, 0x00, 0x00, 0x00, 0x00,
  0x88, 0xd6, 0xff, 0xff, 0x00, 0x00, 0x00, 0x00, 0x00, 0x00, 0x00, 0x00,
  0x00, 0x00, 0x00, 0x00, 0x98, 0xd6, 0xff, 0xff, 0x00, 0x00, 0x00, 0x00,
  0x00, 0x00, 0x00, 0x00, 0x00, 0x00, 0x00, 0x00, 0xa8, 0xd6, 0xff, 0xff,
  0x00, 0x00, 0x00, 0x00, 0x00, 0x00, 0x00, 0x00, 0x00, 0x00, 0x00, 0x00,
  0xb8, 0xd6, 0xff, 0xff, 0x00, 0x00, 0x00, 0x00, 0x00, 0x00, 0x00, 0x00,
  0x00, 0x00, 0x00, 0x00, 0xc8, 0xd6, 0xff, 0xff, 0x00, 0x00, 0x00, 0x00,
  0x00, 0x00, 0x00, 0x00, 0x00, 0x00, 0x00, 0x00, 0xd8, 0xd6, 0xff, 0xff,
  0x00, 0x00, 0x00, 0x00, 0x00, 0x00, 0x00, 0x00, 0x00, 0x00, 0x00, 0x00,
  0xe8, 0xd6, 0xff, 0xff, 0x00, 0x00, 0x00, 0x00, 0x00, 0x00, 0x00, 0x00,
  0x00, 0x00, 0x00, 0x00, 0xf8, 0xd6, 0xff, 0xff, 0x00, 0x00, 0x00, 0x00,
  0x00, 0x00, 0x00, 0x00, 0x00, 0x00, 0x00, 0x00, 0x08, 0xd7, 0xff, 0xff,
  0x00, 0x00, 0x00, 0x00, 0x00, 0x00, 0x00, 0x00, 0x00, 0x00, 0x00, 0x00,
  0x18, 0xd7, 0xff, 0xff, 0x00, 0x00, 0x00, 0x00, 0x00, 0x00, 0x00, 0x00,
  0x00, 0x00, 0x00, 0x00, 0x28, 0xd7, 0xff, 0xff, 0x00, 0x00, 0x00, 0x00,
  0x1e, 0xe6, 0xff, 0xff, 0x04, 0x00, 0x00, 0x00, 0x0c, 0x00, 0x00, 0x00,
  0xff, 0xff, 0xff, 0xff, 0x26, 0x00, 0x00, 0x00, 0x10, 0x00, 0x00, 0x00,
  0x00, 0x00, 0x00, 0x00, 0x00, 0x00, 0x00, 0x00, 0x3e, 0xe6, 0xff, 0xff,
  0x04, 0x00, 0x00, 0x00, 0x0c, 0x00, 0x00, 0x00, 0xff, 0xff, 0xff, 0xff,
  0x26, 0x00, 0x00, 0x00, 0x08, 0x00, 0x00, 0x00, 0x00, 0x00, 0x00, 0x00,
  0x00, 0x00, 0x00, 0x00, 0x5e, 0xe6, 0xff, 0xff, 0x04, 0x00, 0x00, 0x00,
  0x0c, 0x00, 0x00, 0x00, 0xff, 0xff, 0xff, 0xff, 0x4b, 0x00, 0x00, 0x00,
  0x08, 0x00, 0x00, 0x00, 0x00, 0x00, 0x00, 0x00, 0x00, 0x00, 0x00, 0x00,
  0x7e, 0xe6, 0xff, 0xff, 0x04, 0x00, 0x00, 0x00, 0x00, 0x06, 0x00, 0x00,
  0x8e, 0x60, 0x3e, 0xbe, 0xf7, 0x60, 0x7a, 0xbe, 0x98, 0xe5, 0xb3, 0xbe,
  0x96, 0x9b, 0xd3, 0x3e, 0xac, 0x51, 0x41, 0xbe, 0xec, 0x65, 0xb7, 0xbd,
  0xfb, 0xa2, 0x72, 0xbe, 0x14, 0x91, 0x6a, 0xbe, 0x5e, 0x53, 0x41, 0xbe,
  0x54, 0xc3, 0x37, 0xbe, 0x2c, 0x9c, 0x83, 0xbe, 0x61, 0x9e, 0x4a, 0x3d,
  0x66, 0x6c, 0x3d, 0xbe, 0x9d, 0x02, 0x08, 0x3f, 0x8e, 0x8e, 0x89, 0xbd,
  0x78, 0xd0, 0x5f, 0xbe, 0x2c, 0x4e, 0x8d, 0x3e, 0x6b, 0x1b, 0xab, 0x3d,
  0xa2, 0x38, 0xab, 0x3e, 0xc6, 0x0e, 0x31, 0x3e, 0xd6, 0x07, 0x16, 0xbe,
  0x3e, 0x9a, 0xe7, 0xbe, 0x04, 0x98, 0xa1, 0x3e, 0x72, 0x5c, 0x97, 0x3e,
  0x27, 0xf2, 0x10, 0xbd, 0xc8, 0xa8, 0xd1, 0xbd, 0xe9, 0x38, 0xff, 0x3d,
  0xad, 0x91, 0x7d, 0xbe, 0xec, 0x88, 0x18, 0xbe, 0xd1, 0xff, 0x8a, 0xbe,
  0x89, 0xc9, 0x91, 0xbd, 0xb0, 0xe0, 0x89, 0xbd, 0x61, 0x5b, 0x2c, 0x3f,
  0xac, 0x73, 0x9e, 0x3e, 0x91, 0x27, 0x0c, 0x3e, 0x18, 0x4b, 0x01, 0xbd,
  0x69, 0x4b, 0x73, 0xbe, 0x46, 0x42, 0xa5, 0xbe, 0x65, 0x27, 0xa3, 0xbe,
  0x9d, 0x93, 0xda, 0xbd, 0xb1, 0x1b, 0xd5, 0xbd, 0x87, 0xac, 0xa0, 0x3d,
  0xde, 0x53, 0xad, 0xbe, 0x87, 0xa7, 0xd6, 0xbe, 0xf6, 0x88, 0x97, 0xbb,
  0xdd, 0x0e, 0x03, 0xbe, 0x33, 0xac, 0x4c, 0x3e, 0x86, 0x67, 0xe3, 0xbe,
  0x43, 0x41, 0xa1, 0xbc, 0xf7, 0xde, 0x9b, 0xbe, 0xf8, 0x29, 0xff, 0x3e,
  0x0f, 0x73, 0x9a, 0x3b, 0x46, 0x33, 0x37, 0xbe, 0x6e, 0xf1, 0x29, 0x3e,
  0x5c, 0x5a, 0xeb, 0x3d, 0xf0, 0x68, 0xf9, 0xbd, 0x04, 0x76, 0x0c, 0xbe,
  0x79, 0x43, 0x95, 0xbe, 0x1a, 0xc9, 0x7c, 0x3d, 0x58, 0xe0, 0x52, 0x3d,
  0x52, 0x79, 0x84, 0xbe, 0xe7, 0x4f, 0xa0, 0x3e, 0xac, 0x24, 0x04, 0xbe,
  0xba, 0xc2, 0x9c, 0x3d, 0x56, 0x7b, 0xbd, 0x3a, 0x76, 0xf5, 0xc0, 0xbe,
  0x24, 0x48, 0xc2, 0x3e, 0x22, 0x10, 0xa8, 0x3e, 0x4b, 0xbf, 0x01, 0xbe,
  0xf8, 0xf6, 0x76, 0x3e, 0xa9, 0x09, 0x9c, 0xbd, 0x80, 0xe4, 0xd8, 0x3d,
  0xb6, 0xa9, 0x97, 0xbd, 0x34, 0x52, 0x0e, 0xbe, 0xba, 0x0b, 0xbe, 0x3e,
  0x7e, 0xe6, 0x5c, 0xbe, 0x14, 0xb7, 0x87, 0x3d, 0x29, 0x05, 0x1d, 0x3e,
  0x8c, 0x94, 0xbf, 0x3c, 0x32, 0x59, 0x69, 0x3d, 0xaf, 0xfe, 0xd6, 0x3e,
  0x12, 0x54, 0xaa, 0xbe, 0xae, 0x1a, 0xc0, 0x3e, 0x2d, 0xb7, 0x75, 0xbd,
  0xf4, 0x99, 0x9c, 0xbe, 0x51, 0x1f, 0x80, 0xbe, 0x13, 0xba, 0x21, 0xbd,
  0x47, 0x80, 0xe5, 0xbd, 0x54, 0xc4, 0x4f, 0x3e, 0x38, 0x8d, 0x7e, 0x3d,
  0x84, 0xa8, 0xbe, 0x3d, 0xd6, 0x51, 0xcc, 0x3e, 0xef, 0x58, 0x63, 0xbe,
  0x21, 0x61, 0x44, 0xbd, 0x79, 0x14, 0x2d, 0x3d, 0xfa, 0xc9, 0x5f, 0x3e,
  0xa9, 0x73, 0xc5, 0xbd, 0xad, 0x3c, 0xcc, 0xbd, 0x46, 0x9b, 0xd0, 0xbe,
  0x3f, 0x9c, 0x89, 0xbd, 0x67, 0xbb, 0xf5, 0xbc, 0xbe, 0x27, 0x1d, 0xbe,
  0x0a, 0x28, 0xb7, 0x3e, 0xa1, 0xb5, 0xad, 0x3d, 0xfe, 0xc0, 0x31, 0xbe,
  0x4f, 0x8a, 0xdb, 0xbd, 0x4b, 0x8f, 0x02, 0xbe, 0x64, 0xf5, 0xf1, 0xbd,
  0xd3, 0x28, 0xe5, 0xbc, 0x36, 0xe2, 0x8c, 0xbe, 0x1e, 0x0d, 0x77, 0x3e,
  0xde, 0x98, 0x3e, 0xbe, 0x2a, 0x48, 0x1a, 0x3e, 0xde, 0x30, 0x41, 0x3d,
  0xa9, 0xd1, 0x03, 0x3e, 0x67, 0xb1, 0x39, 0xbc, 0x95, 0xb8, 0x06, 0x3f,
  0x14, 0xe4, 0x01, 0xbd, 0x63, 0x5a, 0x53, 0xbe, 0xd1, 0x27, 0x94, 0xbe,
  0x3b, 0xed, 0x83, 0xbe, 0xc4, 0x42, 0x9a, 0x3c, 0x8b, 0x26, 0x0a, 0x3e,
  0x01, 0x35, 0x41, 0xbc, 0x3e, 0x6e, 0x91, 0x3e, 0x28, 0x8c, 0x4c, 0x3e,
  0xd3, 0xd2, 0x12, 0xbe, 0x2b, 0x9b, 0x43, 0x3e, 0x60, 0xbe, 0x2c, 0x3d,
  0x9c, 0x2e, 0x51, 0xbe, 0x81, 0x03, 0x2c, 0x3e, 0x46, 0x00, 0x1a, 0x3b,
  0x40, 0x38, 0x2c, 0x3e, 0x95, 0x89, 0x82, 0xbe, 0x2b, 0x9f, 0xd5, 0xbd,
  0xf3, 0xd9, 0xa4, 0xbe, 0x3a, 0x8b, 0x82, 0xbe, 0xd4, 0x71, 0x1a, 0x3d,
  0x7d, 0xf5, 0x98, 0x3e, 0x4a, 0xc1, 0x53, 0xbe, 0x21, 0x97, 0xcf, 0xbd,
  0xc6, 0x0e, 0x7a, 0x3d, 0x20, 0xea, 0x05, 0xbe, 0xb1, 0xdc, 0x24, 0xbe,
  0x7f, 0x85, 0x2e, 0x3e, 0xe3, 0xd3, 0x5e, 0x3e, 0x9e, 0x37, 0xb7, 0x3c,
  0x4d, 0xbe, 0x4b, 0xbd, 0x6c, 0xb1, 0xcd, 0x3d, 0x68, 0x85, 0xab, 0xbe,
  0x96, 0xa2, 0x8d, 0xbe, 0xa3, 0x4e, 0x36, 0x3e, 0xd3, 0xb5, 0x10, 0x3e,
  0x59, 0x97, 0x81, 0x3e, 0x44, 0xdd, 0xc4, 0xbe, 0xb0, 0xd2, 0x8f, 0xbe,
  0xa4, 0x21, 0xa1, 0x3c, 0xc3, 0xd1, 0x82, 0x3e, 0xff, 0xe3, 0x88, 0xbe,
  0xd4, 0xea, 0x85, 0xbe, 0xec, 0xf9, 0x87, 0xbe, 0x55, 0x36, 0x78, 0xbe,
  0xe7, 0xe8, 0x03, 0x3e, 0x94, 0x7c, 0x3e, 0x3e, 0x3c, 0x61, 0x73, 0x3d,
  0xbc, 0xf1, 0x09, 0xbe, 0xde, 0xf3, 0x41, 0x3e, 0xeb, 0xc2, 0xe9, 0x3d,
  0x29, 0x5a, 0xaa, 0xbd, 0x08, 0x94, 0x99, 0x3e, 0xdb, 0xde, 0x9b, 0xbe,
  0x05, 0x0a, 0x97, 0x3c, 0xb4, 0x0f, 0x61, 0x3d, 0xf1, 0xaf, 0xea, 0xbd,
  0xf7, 0xd4, 0x7d, 0xbe, 0x8a, 0x6b, 0x41, 0x3d, 0x29, 0xa1, 0xf7, 0x3c,
  0x26, 0xcd, 0xc7, 0xbd, 0x7c, 0xe8, 0xc7, 0xbe, 0x7b, 0x34, 0x5e, 0xbc,
  0x40, 0x8f, 0x2d, 0xba, 0xe1, 0x60, 0x88, 0x3c, 0xf3, 0x63, 0x1d, 0x3e,
  0x5f, 0xcf, 0xba, 0x3e, 0xf9, 0xd4, 0x37, 0xbe, 0x18, 0xdf, 0x7f, 0xbe,
  0xa5, 0xd7, 0x82, 0xbe, 0x9f, 0x0f, 0x69, 0x3d, 0x85, 0x40, 0x35, 0x3e,
  0x46, 0x3d, 0xea, 0x3b, 0x84, 0xe8, 0xb7, 0xbd, 0xe6, 0xcb, 0xce, 0x3e,
  0x8c, 0xba, 0x11, 0xbe, 0xce, 0x7b, 0x55, 0x3e, 0xb8, 0xf8, 0x94, 0xbe,
  0x74, 0x7b, 0x27, 0xbc, 0x49, 0xb6, 0x51, 0x3e, 0xc8, 0x47, 0x9c, 0xbd,
  0xba, 0xa5, 0x3d, 0xbd, 0x03, 0x27, 0xfb, 0xbd, 0xb8, 0xee, 0x80, 0x3c,
  0x06, 0xd1, 0xee, 0xbc, 0xa1, 0xe4, 0xce, 0xbe, 0xac, 0xce, 0xba, 0xbd,
  0x13, 0x98, 0x84, 0xbe, 0xc6, 0x94, 0xcd, 0x3e, 0x3e, 0x0a, 0x87, 0x3e,
  0x80, 0xd2, 0xd0, 0xb6, 0xd3, 0xc0, 0x2b, 0xbe, 0x4d, 0xf0, 0x57, 0x3e,
  0x78, 0x6f, 0xd6, 0xbe, 0xfe, 0x9b, 0x2b, 0xbd, 0xe4, 0x7c, 0x4e, 0x3e,
  0xff, 0x9c, 0x37, 0xbe, 0x6d, 0x7a, 0x9b, 0x3e, 0x0c, 0x28, 0x42, 0x3e,
  0xf8, 0x89, 0xfd, 0x3d, 0x80, 0x48, 0x21, 0x3e, 0x40, 0x78, 0x6e, 0xbe,
  0x2a, 0x7e, 0x8e, 0xbe, 0x51, 0xd1, 0xd8, 0x3d, 0xf3, 0xb5, 0x22, 0xbe,
  0x40, 0x47, 0x9e, 0xbe, 0xec, 0x00, 0x60, 0xbe, 0x2f, 0x62, 0xb9, 0x3e,
  0xa5, 0x56, 0xa8, 0x3e, 0x73, 0x3e, 0x05, 0x3e, 0x2b, 0xce, 0xd9, 0xbb,
  0x96, 0xa9, 0x6e, 0xbe, 0xea, 0x40, 0x3b, 0xbe, 0xd0, 0x03, 0x94, 0xbe,
  0x3c, 0xef, 0xf5, 0x3d, 0xb9, 0x7d, 0x28, 0x3e, 0x03, 0x27, 0x40, 0x3e,
  0xb6, 0x1f, 0xe1, 0xbe, 0xe7, 0x51, 0xa2, 0xbe, 0x07, 0x11, 0x33, 0xbe,
  0x60, 0x65, 0x87, 0xbc, 0xe7, 0xec, 0xc7, 0xbd, 0x9d, 0x45, 0x20, 0xbd,
  0xfc, 0xc5, 0xe3, 0x3e, 0x72, 0x06, 0x8c, 0xbc, 0xd9, 0xf9, 0x73, 0x3d,
  0x31, 0xb4, 0xa0, 0x3e, 0x66, 0xeb, 0x87, 0xbe, 0x32, 0x10, 0xbc, 0xbd,
  0x84, 0x4f, 0xc0, 0xbc, 0xef, 0x35, 0x9c, 0x3e, 0xe0, 0x34, 0x8a, 0xbe,
  0x4b, 0xa6, 0x90, 0x3e, 0xdc, 0xef, 0xc6, 0xbd, 0xd5, 0x6b, 0x32, 0xbe,
  0x10, 0x31, 0x0e, 0xbe, 0xa5, 0x91, 0x37, 0x3e, 0x6e, 0xd9, 0x30, 0x3d,
  0x1a, 0x3e, 0x91, 0xbd, 0xaf, 0x9a, 0x19, 0xbe, 0xf9, 0x28, 0x4f, 0xbd,
  0x73, 0xd2, 0x47, 0xbe, 0xd0, 0x52, 0xa2, 0x3d, 0xf4, 0xab, 0x32, 0x3e,
  0x65, 0xc8, 0xf8, 0xbe, 0x40, 0x0a, 0x63, 0x3e, 0xbb, 0xf2, 0x7a, 0xbe,
  0x1a, 0x8b, 0xc4, 0x3e, 0x38, 0x8d, 0x91, 0xbe, 0xf0, 0xf6, 0x8c, 0xbd,
  0x11, 0xaa, 0x85, 0xbc, 0x07, 0x85, 0xba, 0xbd, 0x86, 0xf9, 0xad, 0x3d,
  0x37, 0xdd, 0x8a, 0xbe, 0xbd, 0x6c, 0x53, 0x3d, 0x29, 0x1e, 0xb6, 0xbe,
  0x6e, 0x44, 0xc3, 0xbd, 0x55, 0xe7, 0x9d, 0x3d, 0x7e, 0x00, 0xa1, 0xbe,
  0x52, 0x08, 0x04, 0x3d, 0xbf, 0x4f, 0xfd, 0x3e, 0x26, 0x3a, 0x12, 0x3e,
  0xbc, 0x67, 0xae, 0xbb, 0xb3, 0xa0, 0xb2, 0xbe, 0xe4, 0x62, 0x6a, 0x3e,
  0x60, 0xa9, 0xa1, 0xbe, 0x4a, 0xd0, 0x05, 0x3e, 0xae, 0x82, 0x67, 0x3d,
  0x72, 0x07, 0x6b, 0xbe, 0x34, 0x51, 0x5d, 0x3e, 0x2e, 0x2e, 0x76, 0x3e,
  0x94, 0x82, 0x5b, 0xbe, 0x45, 0x4b, 0x5d, 0xbe, 0xf6, 0xbc, 0x5f, 0x3d,
  0x49, 0xa6, 0x22, 0x3e, 0xdc, 0x16, 0x9d, 0x3d, 0xbf, 0xc6, 0x05, 0x3e,
  0xc5, 0xaa, 0x60, 0x3e, 0xeb, 0xfb, 0x84, 0x3e, 0xb9, 0xc3, 0x52, 0xbe,
  0x84, 0xd4, 0xe7, 0x3d, 0xa7, 0x32, 0xac, 0xbe, 0xad, 0x90, 0x1c, 0x3c,
  0x11, 0x7f, 0x8c, 0x3e, 0xdf, 0xeb, 0xcd, 0xbe, 0x48, 0xb2, 0x83, 0x3e,
  0x15, 0x3b, 0x29, 0x3e, 0x67, 0xa3, 0x8a, 0xbe, 0x8a, 0x00, 0x73, 0x3d,
  0xa2, 0x22, 0x98, 0xbe, 0x41, 0xbd, 0xd7, 0x3d, 0x1f, 0xb5, 0x3a, 0x3e,
  0xf0, 0xb6, 0x08, 0xbe, 0xd9, 0xa5, 0x52, 0xbe, 0x09, 0x09, 0x37, 0xbd,
  0xd6, 0x25, 0x95, 0xbe, 0x46, 0x0e, 0x0e, 0xbd, 0x30, 0x4c, 0xb2, 0xbe,
  0x64, 0x49, 0x16, 0x3e, 0x49, 0xd6, 0x1b, 0x3e, 0xbb, 0x67, 0xf4, 0xbc,
  0x12, 0xc3, 0xa3, 0xbc, 0xe0, 0x10, 0x49, 0xbe, 0x7a, 0xed, 0xc3, 0x3d,
  0x34, 0x09, 0xf8, 0xbd, 0x99, 0x86, 0xb4, 0xbe, 0xe1, 0x53, 0xa2, 0xbe,
  0x14, 0x55, 0x82, 0x3d, 0xbc, 0x1c, 0x2a, 0x3e, 0x9d, 0x23, 0x46, 0xbe,
  0x3f, 0xd9, 0x97, 0xbe, 0xb1, 0x21, 0xf4, 0x3d, 0xf0, 0xe2, 0xa1, 0xbc,
  0x60, 0x9d, 0xac, 0xbe, 0x10, 0x43, 0x01, 0xbd, 0xf0, 0x7e, 0x3c, 0x3d,
  0xdc, 0x94, 0xaf, 0x3e, 0x86, 0x5c, 0xb6, 0x3e, 0x6c, 0x7e, 0x09, 0x3f,
  0xac, 0x5f, 0x7b, 0xbe, 0x7d, 0x84, 0x50, 0xbe, 0x3c, 0x2e, 0x27, 0x3e,
  0xcc, 0x35, 0xf9, 0x3e, 0x98, 0x3d, 0xa7, 0xbd, 0xa2, 0x2f, 0xb1, 0xbd,
  0x43, 0x0b, 0x42, 0xbe, 0x5d, 0x3b, 0x87, 0xbd, 0x7f, 0xe2, 0x97, 0x3d,
  0x28, 0x99, 0x87, 0xbe, 0x3a, 0x34, 0x7e, 0x3e, 0xbf, 0x17, 0x45, 0xbe,
  0x54, 0x9d, 0x6b, 0xbe, 0x09, 0x33, 0xf2, 0x3e, 0xdc, 0x49, 0x2a, 0x3e,
  0x4d, 0x99, 0x19, 0x3e, 0xca, 0x5f, 0xe0, 0x3b, 0xdc, 0xe2, 0x2f, 0x3e,
  0x8a, 0x3a, 0x1b, 0xbe, 0x35, 0x04, 0xc5, 0x3e, 0x54, 0x26, 0x45, 0xbe,
  0x6c, 0xc2, 0x4c, 0x3e, 0x67, 0xea, 0x73, 0x3e, 0xc4, 0x29, 0x50, 0x3e,
  0xc1, 0x5a, 0x9d, 0xbe, 0x3c, 0x53, 0x15, 0xbe, 0x1c, 0x74, 0x92, 0x3e,
  0xd4, 0x93, 0x09, 0xbe, 0xfa, 0xed, 0x91, 0xbe, 0x7f, 0x6e, 0xa0, 0x3d,
  0x42, 0x4c, 0xdd, 0xbd, 0x1c, 0x59, 0x7a, 0x3e, 0x18, 0x82, 0xc9, 0xbc,
  0x40, 0x8a, 0x81, 0x3e, 0x16, 0x63, 0x27, 0x3d, 0xb4, 0x30, 0x0d, 0x3e,
  0x8c, 0x29, 0x89, 0xbe, 0x8f, 0x11, 0xd7, 0xbd, 0x85, 0xe3, 0x41, 0x3d,
  0x93, 0x67, 0x30, 0xbe, 0xed, 0x6c, 0xeb, 0x3d, 0x2c, 0x23, 0x95, 0xbe,
  0xbe, 0x7e, 0x8e, 0x3e, 0x7a, 0xd4, 0x0c, 0xbe, 0xdb, 0x5e, 0xd1, 0xbd,
  0x72, 0xf6, 0x9b, 0x3e, 0xf9, 0x35, 0x88, 0x3c, 0xa4, 0x2a, 0xb7, 0xbe,
  0x00, 0x00, 0x00, 0x00, 0x8e, 0xec, 0xff, 0xff, 0x04, 0x00, 0x00, 0x00,
  0xe0, 0x04, 0x00, 0x00, 0x3c, 0xc4, 0xfb, 0xf4, 0x37, 0x1a, 0x3f, 0xec,
  0x98, 0xbf, 0x83, 0xf2, 0x25, 0x18, 0xd9, 0xc5, 0xb8, 0xe3, 0x58, 0x1f,
  0xdf, 0x26, 0xfc, 0x1c, 0x38, 0xdc, 0x13, 0xd2, 0xdf, 0x10, 0x1a, 0x04,
  0x4d, 0xde, 0xdb, 0x16, 0xa8, 0xde, 0x2b, 0x1e, 0xf9, 0xf6, 0x0e, 0xbe,
  0x48, 0x45, 0xfc, 0x72, 0xfc, 0x00, 0x78, 0xf7, 0xfe, 0xe2, 0xe4, 0xd9,
  0x08, 0xf9, 0x1f, 0xbd, 0x1b, 0x15, 0xed, 0xc9, 0xbb, 0xfc, 0x15, 0x3a,
  0xe7, 0xf3, 0x29, 0xd5, 0x29, 0x25, 0x0d, 0x33, 0x5d, 0x1f, 0xf7, 0xd3,
  0xef, 0xfd, 0x3f, 0xf8, 0x25, 0x3b, 0xbb, 0x11, 0xa7, 0xb2, 0x81, 0xaa,
  0x43, 0xe1, 0x03, 0x06, 0x1f, 0x0a, 0x10, 0x37, 0x05, 0x3e, 0x5b, 0x07,
  0x24, 0x2b, 0xfa, 0xb5, 0xbf, 0xfa, 0xe6, 0xf0, 0x1d, 0xcc, 0xb8, 0x95,
  0xf5, 0xff, 0xca, 0xae, 0xff, 0x25, 0x64, 0x3b, 0xeb, 0xe4, 0xc4, 0x01,
  0x46, 0xb0, 0xf6, 0x20, 0x21, 0x1c, 0xd9, 0xee, 0x44, 0x1f, 0xf0, 0xd1,
  0x21, 0xcb, 0xd0, 0xa8, 0x1e, 0x98, 0x04, 0x48, 0xf6, 0x1a, 0xb8, 0x32,
  0x5c, 0x39, 0x42, 0x10, 0xf0, 0xe2, 0x10, 0x34, 0x1a, 0x5d, 0xf6, 0xe0,
  0x02, 0xec, 0xfe, 0x11, 0xc4, 0xbb, 0x4c, 0x35, 0xfe, 0xc0, 0x14, 0x1d,
  0xf8, 0x1f, 0xf9, 0x45, 0x6e, 0x14, 0x0d, 0xf1, 0x00, 0xa9, 0xd2, 0x47,
  0x33, 0x1d, 0x0c, 0xef, 0x2d, 0x22, 0x6c, 0xea, 0x4c, 0xd8, 0x05, 0x18,
  0x03, 0x12, 0xcf, 0xc8, 0x0b, 0x5c, 0x3f, 0xe7, 0xdb, 0xe7, 0x44, 0xf8,
  0xdf, 0x30, 0x0b, 0xc8, 0xbe, 0x8c, 0xed, 0xfe, 0xca, 0x2c, 0x36, 0xd4,
  0x36, 0xed, 0xb5, 0x23, 0xf4, 0x28, 0x47, 0x06, 0x98, 0xd4, 0x22, 0xde,
  0x24, 0xcb, 0x20, 0x0b, 0x0e, 0x44, 0x20, 0x0b, 0xa6, 0xf0, 0xf1, 0x2b,
  0xe1, 0x07, 0xf2, 0x95, 0x35, 0x54, 0xe0, 0x18, 0x18, 0x06, 0xf6, 0xec,
  0x19, 0x1c, 0xd9, 0xc5, 0x0f, 0x01, 0x28, 0xaf, 0x0e, 0x24, 0xcd, 0xb4,
  0x12, 0x31, 0x36, 0xf0, 0x3b, 0x4f, 0xf0, 0xa5, 0xf2, 0xc8, 0x12, 0xdd,
  0xa1, 0xd7, 0xec, 0x37, 0xcb, 0x00, 0x0f, 0xdd, 0xe8, 0x2a, 0x03, 0xea,
  0xc9, 0x22, 0x7b, 0xd2, 0x1b, 0x21, 0x7f, 0xed, 0x9e, 0x1c, 0xfe, 0x07,
  0xeb, 0xe7, 0x12, 0x09, 0x1b, 0xf4, 0xfe, 0xea, 0x0b, 0xc1, 0x0c, 0x00,
  0x1b, 0xf7, 0xef, 0x34, 0xeb, 0xfd, 0xbe, 0x20, 0x18, 0xc3, 0x29, 0x38,
  0x05, 0x2d, 0xcf, 0x2a, 0x4b, 0xf3, 0x0d, 0xfc, 0x15, 0xe0, 0xf0, 0x05,
  0x1c, 0x22, 0x43, 0x09, 0x20, 0xf1, 0x27, 0xfb, 0xbd, 0xff, 0xcc, 0xe2,
  0x12, 0x31, 0xf0, 0x1e, 0xe3, 0xfe, 0x30, 0xef, 0x04, 0xed, 0xe9, 0xf5,
  0xce, 0xe5, 0xf9, 0xfd, 0xfa, 0x09, 0xe7, 0x0c, 0xc3, 0xed, 0xcf, 0x13,
  0xd7, 0xe6, 0x04, 0x0a, 0xd6, 0x1c, 0xdc, 0xe3, 0x0e, 0xec, 0x15, 0xf3,
  0xe9, 0x01, 0x22, 0x17, 0xf8, 0xf6, 0xfe, 0xfe, 0x20, 0x31, 0xeb, 0xdc,
  0xbd, 0x5c, 0xa5, 0xd6, 0x22, 0x05, 0xf2, 0xd1, 0xe5, 0xe6, 0xd2, 0xf1,
  0x24, 0x03, 0x22, 0x1a, 0x1c, 0x0e, 0xfe, 0xd9, 0xc6, 0x04, 0xfc, 0x39,
  0xf1, 0xe7, 0x81, 0xf0, 0xac, 0xae, 0xfa, 0xff, 0xed, 0xe8, 0x0b, 0x02,
  0x56, 0x36, 0x18, 0xfe, 0xed, 0x0d, 0xfa, 0x23, 0x07, 0xd0, 0xf7, 0xf7,
  0xf1, 0x65, 0xe8, 0xd7, 0xe2, 0x58, 0xa9, 0x0a, 0x00, 0x01, 0xd1, 0xc8,
  0xfb, 0x1d, 0x19, 0x13, 0x26, 0xfd, 0x19, 0x28, 0x1b, 0x10, 0x17, 0x05,
  0xfe, 0x15, 0xf3, 0x1c, 0x06, 0x07, 0x21, 0xe1, 0xe4, 0xfe, 0xfa, 0xfb,
  0xfe, 0x2f, 0x0c, 0xdf, 0x1a, 0x4f, 0x04, 0xe8, 0xec, 0x02, 0x06, 0xcc,
  0xd6, 0xf1, 0xcd, 0xf0, 0xfa, 0xf3, 0xc6, 0xf8, 0x1b, 0x28, 0xd7, 0xd7,
  0xec, 0x0d, 0x2b, 0x01, 0xd1, 0x05, 0x4b, 0x56, 0x19, 0x00, 0xf9, 0xf4,
  0x23, 0xbf, 0xe2, 0x30, 0xf5, 0x08, 0x02, 0x28, 0x17, 0x22, 0xe7, 0x37,
  0xf5, 0xee, 0xf4, 0xe0, 0xe9, 0x01, 0xf5, 0xfd, 0x14, 0xf4, 0x0a, 0x21,
  0xf6, 0x23, 0x20, 0x0d, 0x0a, 0x2e, 0x26, 0x2e, 0x04, 0x20, 0xd8, 0xd3,
  0xf9, 0x03, 0xb6, 0xd2, 0xa4, 0x15, 0x11, 0xf4, 0xee, 0x7f, 0x19, 0x06,
  0xeb, 0x07, 0xda, 0x09, 0x11, 0xf8, 0xde, 0xff, 0xcd, 0x1b, 0xf7, 0x24,
  0x04, 0x29, 0xf8, 0xf3, 0x13, 0xf9, 0xee, 0xde, 0xe0, 0x07, 0x12, 0x1e,
  0xe6, 0xe5, 0xf0, 0x05, 0x11, 0xed, 0x10, 0x1f, 0xe0, 0xaa, 0x19, 0x21,
  0xdc, 0xfa, 0xe4, 0xdc, 0x06, 0x2a, 0xf3, 0x26, 0xd3, 0x1c, 0x1e, 0x05,
  0xcb, 0x03, 0xe2, 0x35, 0xed, 0xec, 0xef, 0xf3, 0xda, 0x04, 0x05, 0x05,
  0x33, 0x21, 0xe9, 0xf0, 0x17, 0xc3, 0xe8, 0x0b, 0x3f, 0xeb, 0xe8, 0xe9,
  0xfb, 0xe4, 0x17, 0x04, 0x11, 0xe3, 0x0d, 0x30, 0x0a, 0x33, 0x02, 0xd4,
  0xe9, 0xbc, 0xd5, 0xd6, 0xc9, 0xf0, 0x17, 0x0b, 0x39, 0xce, 0x2e, 0xe6,
  0xba, 0x02, 0xfe, 0x0e, 0x4b, 0x20, 0xc8, 0x81, 0x1a, 0xfe, 0x0b, 0xc6,
  0xc6, 0xe6, 0x33, 0xe6, 0xf5, 0xff, 0x17, 0x24, 0x27, 0xe2, 0x5a, 0xae,
  0x33, 0xdf, 0x95, 0xe7, 0xee, 0xe9, 0xce, 0xcf, 0xf2, 0x1c, 0xef, 0xc7,
  0xee, 0xd8, 0xea, 0xe3, 0x24, 0xd7, 0xcb, 0xc4, 0x37, 0x07, 0x15, 0xd5,
  0x11, 0xbc, 0x25, 0xe2, 0x03, 0xc8, 0xcc, 0xde, 0x2f, 0xec, 0xdf, 0xec,
  0x10, 0xe8, 0x1b, 0x0e, 0x00, 0xe7, 0x30, 0x1c, 0xdd, 0xfe, 0x1f, 0x30,
  0xf9, 0xa1, 0x50, 0xbc, 0x00, 0xdd, 0xce, 0x1b, 0xed, 0xe6, 0xda, 0xbe,
  0xa8, 0xf9, 0xf7, 0x23, 0xba, 0xf2, 0x39, 0xf2, 0xe3, 0xc8, 0xec, 0x09,
  0xde, 0xef, 0x0f, 0xc2, 0x11, 0x1d, 0x2d, 0xa2, 0x2f, 0x16, 0xfb, 0xe9,
  0xfe, 0xd6, 0x65, 0x08, 0x17, 0x23, 0x07, 0xf1, 0x03, 0xf5, 0xf9, 0xd6,
  0xf8, 0xbe, 0xe9, 0xf1, 0x22, 0x60, 0x9e, 0xf2, 0x00, 0xde, 0x3d, 0x0c,
  0xe4, 0x17, 0x3b, 0xfa, 0xfb, 0x00, 0x11, 0x20, 0x14, 0x08, 0xff, 0xc1,
  0xd7, 0xff, 0x35, 0xbb, 0xc5, 0xf4, 0x23, 0x29, 0xdc, 0xdb, 0x23, 0xe0,
  0xc5, 0x2a, 0xf5, 0x02, 0x37, 0xfe, 0xf4, 0xf4, 0xfe, 0x25, 0x04, 0xdb,
  0x0d, 0xe8, 0xe8, 0xd6, 0xec, 0x9e, 0xfa, 0xfd, 0x44, 0x33, 0x0e, 0xf2,
  0xbe, 0x12, 0x00, 0xd9, 0xdd, 0xda, 0xdc, 0x28, 0x77, 0x1a, 0x15, 0xf9,
  0x12, 0xc6, 0x3e, 0x3a, 0xe1, 0xca, 0xf2, 0xd5, 0xe2, 0xf7, 0x2b, 0xfa,
  0xc7, 0x16, 0xfe, 0xea, 0xeb, 0xe5, 0xab, 0xd0, 0x29, 0x3b, 0xfa, 0xa9,
  0xf8, 0xe9, 0xc3, 0xe0, 0xfc, 0xe9, 0xc9, 0xbb, 0xd0, 0xc5, 0xc4, 0xc7,
  0xd7, 0x17, 0xf7, 0x3e, 0xe6, 0xdd, 0xe0, 0xf0, 0xe9, 0x4a, 0x36, 0x04,
  0x40, 0x2f, 0x2d, 0xe2, 0x03, 0x16, 0x23, 0xc5, 0x0d, 0xf4, 0x16, 0x08,
  0x3b, 0x0f, 0xe5, 0xe8, 0x20, 0x14, 0x99, 0x81, 0xf1, 0x24, 0x24, 0x37,
  0xd9, 0x2d, 0x1d, 0xfd, 0x08, 0x19, 0xf8, 0x91, 0xd4, 0xe8, 0x09, 0x08,
  0x0f, 0x06, 0x12, 0x27, 0x3a, 0xcb, 0x34, 0x43, 0xf9, 0x1a, 0x3c, 0x15,
  0xfa, 0x11, 0x31, 0x10, 0xd7, 0x31, 0xe8, 0x0f, 0x1c, 0xf6, 0xdf, 0xec,
  0x04, 0xfd, 0xeb, 0x2c, 0xeb, 0x65, 0xc7, 0xc0, 0xeb, 0x25, 0x1c, 0xc5,
  0x1a, 0xf7, 0xe4, 0xc6, 0x26, 0x03, 0xce, 0x37, 0xfe, 0x0e, 0xea, 0x05,
  0x00, 0xe0, 0xea, 0xdb, 0xe3, 0xee, 0x64, 0x40, 0xe4, 0xf8, 0xff, 0x0e,
  0x51, 0x17, 0x11, 0x21, 0x2a, 0x14, 0x39, 0x0b, 0xef, 0x10, 0xf1, 0xf1,
  0xd0, 0xf0, 0xe1, 0xfb, 0xd6, 0x0d, 0xfd, 0x2c, 0xf9, 0xfa, 0xf3, 0xdd,
  0xf9, 0xf7, 0xda, 0xfa, 0xce, 0x40, 0x4d, 0x0b, 0x04, 0x0e, 0xdf, 0xee,
  0x03, 0xe1, 0xf1, 0x21, 0xd3, 0xf5, 0x06, 0x2c, 0x0e, 0xed, 0xe6, 0x14,
  0x1d, 0x88, 0xd8, 0x35, 0xf0, 0xe6, 0xdb, 0x2f, 0x02, 0x53, 0x31, 0x37,
  0xa6, 0xd3, 0x1d, 0xe8, 0x3a, 0x04, 0x31, 0xe4, 0xf5, 0xff, 0x15, 0x26,
  0x1c, 0xff, 0x06, 0x08, 0x2d, 0x6c, 0x25, 0x17, 0xab, 0x09, 0x23, 0x17,
  0x3a, 0x08, 0xee, 0x81, 0x05, 0xe6, 0x0e, 0x13, 0xe0, 0xc7, 0xeb, 0xd6,
  0xc9, 0x18, 0x42, 0x2c, 0x1f, 0xb8, 0x38, 0xf6, 0xc8, 0xa1, 0x54, 0x0e,
  0xf2, 0x81, 0xf4, 0x73, 0xd4, 0x09, 0x25, 0xe7, 0x12, 0xe5, 0xcf, 0x2a,
  0xc9, 0xe0, 0x19, 0xd8, 0x33, 0xff, 0xe8, 0x00, 0x16, 0xef, 0xcd, 0xc1,
  0xf7, 0x22, 0x3a, 0x67, 0xd5, 0x68, 0xf1, 0x4a, 0xe1, 0xb5, 0x19, 0x26,
  0xea, 0xd8, 0x2c, 0xf1, 0xe2, 0x2f, 0xda, 0x16, 0x36, 0x0e, 0x62, 0x0b,
  0xf8, 0x00, 0xd2, 0xba, 0x1a, 0xc0, 0xdf, 0x3f, 0x96, 0xb4, 0x43, 0xf7,
  0x18, 0x0c, 0x33, 0x07, 0x15, 0x1f, 0xef, 0xd3, 0xd6, 0x3b, 0x1a, 0xe7,
  0x09, 0xea, 0x4a, 0x3c, 0x42, 0x26, 0xf6, 0x15, 0xf5, 0x50, 0xe7, 0xe7,
  0xf6, 0xd1, 0x15, 0x06, 0x47, 0x16, 0x1d, 0x73, 0x46, 0xfb, 0xeb, 0xd7,
  0xdd, 0x1c, 0xd4, 0xfc, 0xe8, 0x10, 0x1f, 0x0e, 0x02, 0xc9, 0x0d, 0x1c,
  0xe8, 0x05, 0x33, 0x26, 0x2b, 0xf9, 0x02, 0x2c, 0x2f, 0x3c, 0x5f, 0xfc,
  0xd8, 0x00, 0xee, 0xe2, 0x1a, 0x55, 0x1f, 0xcf, 0xe9, 0x59, 0xb6, 0xbf,
  0x26, 0x0b, 0xc2, 0xef, 0x00, 0x00, 0x00, 0x00, 0x7e, 0xf1, 0xff, 0xff,
  0x04, 0x00, 0x00, 0x00, 0x80, 0x09, 0x00, 0x00, 0x37, 0x8e, 0x8a, 0x3d,
  0x7a, 0x48, 0x98, 0x3d, 0xb7, 0x12, 0x35, 0xbe, 0xb1, 0xde, 0x61, 0x3c,
  0xd0, 0x4d, 0x99, 0xbd, 0x34, 0x64, 0xed, 0xbc, 0x27, 0x11, 0x53, 0xbc,
  0xd8, 0x6a, 0x12, 0xbd, 0x1f, 0x9c, 0xb7, 0xbc, 0x73, 0x82, 0x08, 0x3e,
  0x45, 0xdc, 0x16, 0x3e, 0xfd, 0xb7, 0xac, 0x3c, 0xab, 0x96, 0xf9, 0xbc,
  0xbb, 0x5a, 0xcb, 0xbc, 0xb5, 0xc1, 0xed, 0x3d, 0xca, 0x79, 0xdb, 0x3b,
  0xfb, 0x5b, 0xf5, 0xbd, 0xf4, 0xbb, 0x0b, 0x3e, 0x00, 0x3f, 0x99, 0x3c,
  0x7e, 0x27, 0x60, 0xbe, 0x1b, 0x0d, 0x2b, 0x3e, 0x95, 0x27, 0x1c, 0x3d,
  0x11, 0xec, 0x2b, 0x3e, 0x01, 0xd9, 0x13, 0x3e, 0xc7, 0x12, 0x82, 0x3d,
  0xa3, 0x4d, 0xd4, 0x3b, 0x64, 0xa8, 0xa1, 0x3d, 0x84, 0x40, 0x69, 0x3d,
  0x26, 0x10, 0x73, 0xbd, 0x93, 0xb0, 0x81, 0x3c, 0x83, 0x1b, 0x5d, 0xbd,
  0x4e, 0x13, 0x55, 0x3e, 0x27, 0xa4, 0x80, 0x3d, 0x27, 0x3e, 0x12, 0x3d,
  0x0c, 0xbe, 0x2f, 0x3e, 0x7f, 0xf1, 0x62, 0x3d, 0x43, 0x76, 0xd8, 0xbd,
  0xc7, 0x8b, 0x70, 0x3e, 0x43, 0x41, 0xcf, 0xbd, 0x55, 0x66, 0x1e, 0xbe,
  0x33, 0xd9, 0x01, 0xbe, 0x9a, 0x9e, 0xd4, 0x3c, 0x1d, 0xaf, 0x4e, 0xbe,
  0x1d, 0xbe, 0xd9, 0xbd, 0xf3, 0xcb, 0xc6, 0xbd, 0x38, 0x14, 0x32, 0xbe,
  0x18, 0x95, 0xcb, 0xbc, 0x9a, 0xac, 0x98, 0xbc, 0x81, 0x42, 0xe7, 0x3d,
  0x7a, 0x86, 0x65, 0x3d, 0x5f, 0xc5, 0x8b, 0x3e, 0x8a, 0x08, 0xe8, 0x3d,
  0x54, 0x56, 0x12, 0x3b, 0x8f, 0x26, 0x79, 0x3d, 0xe4, 0xf8, 0xfe, 0x3d,
  0xf2, 0xae, 0x8e, 0xbe, 0x5c, 0xdb, 0x3c, 0xbe, 0x26, 0x77, 0xc3, 0xbb,
  0x25, 0x1f, 0x9f, 0xbc, 0x85, 0x17, 0x1c, 0xbe, 0x0f, 0x6a, 0x48, 0xbe,
  0x70, 0x14, 0x8f, 0xbd, 0x6b, 0xd4, 0xef, 0xb9, 0xc8, 0x26, 0x14, 0x3e,
  0xa3, 0x9d, 0x36, 0x3e, 0xdc, 0x8b, 0xf5, 0x3c, 0xf5, 0xfd, 0xa8, 0x3e,
  0xb8, 0x3a, 0xbf, 0x3d, 0x3a, 0x3a, 0x93, 0xbe, 0x56, 0x38, 0x14, 0x3d,
  0xd1, 0xb3, 0x03, 0xbc, 0x9f, 0x35, 0x66, 0xbe, 0x6a, 0xb1, 0x55, 0xbe,
  0x69, 0xbe, 0x26, 0xbd, 0xd7, 0x35, 0x3c, 0xbd, 0xf6, 0x07, 0xa2, 0x3d,
  0x4f, 0x53, 0x4b, 0xbe, 0x4b, 0xa4, 0xc1, 0x3c, 0xcf, 0x39, 0xa2, 0x3d,
  0x6e, 0x0c, 0x0c, 0xbd, 0xc6, 0x88, 0x97, 0x3e, 0xf7, 0xa2, 0xf6, 0x3d,
  0xc5, 0x36, 0xf9, 0x3e, 0x64, 0xad, 0xa0, 0x3d, 0x25, 0xeb, 0x25, 0xbe,
  0x2f, 0x23, 0x23, 0xbe, 0xc3, 0x21, 0x20, 0xbc, 0xe5, 0x13, 0x57, 0xbd,
  0x56, 0xe3, 0x47, 0xbd, 0xaa, 0x74, 0x4c, 0xbd, 0xc2, 0x2f, 0xf7, 0xbc,
  0xa4, 0x13, 0xc9, 0xbd, 0xc8, 0xf6, 0x5e, 0x3c, 0x1e, 0x73, 0x3c, 0xbd,
  0xcb, 0xfe, 0x92, 0x3e, 0x4f, 0xfe, 0xb6, 0x3d, 0x4f, 0x48, 0x90, 0x3e,
  0x47, 0xbd, 0xd7, 0xbd, 0x6e, 0xcb, 0x12, 0x3e, 0x18, 0x91, 0x90, 0xbd,
  0xae, 0x08, 0x00, 0x3e, 0xfd, 0x46, 0x2a, 0xbe, 0xdb, 0xa9, 0x88, 0x3c,
  0xe3, 0x5d, 0xbd, 0xbd, 0xb9, 0x7f, 0x6b, 0x3c, 0x1c, 0xe9, 0x72, 0xbe,
  0x89, 0xc4, 0x23, 0x3e, 0x5f, 0x6d, 0x92, 0x3d, 0xef, 0xe6, 0x2b, 0x3d,
  0x5b, 0x92, 0xbf, 0x3c, 0x26, 0xe5, 0xa1, 0x3d, 0x84, 0x74, 0xe0, 0xbc,
  0x62, 0xec, 0xc1, 0xbd, 0xb9, 0x16, 0x1f, 0x3e, 0x70, 0x50, 0xaf, 0xbd,
  0x05, 0xb5, 0xa9, 0xbd, 0xfa, 0x19, 0x0e, 0xbd, 0x75, 0x6a, 0x64, 0xbc,
  0x44, 0xca, 0xde, 0xbb, 0x63, 0xe5, 0x73, 0xbe, 0xbe, 0xfa, 0x9d, 0xbd,
  0x4a, 0x8f, 0xd3, 0xbd, 0x5d, 0x30, 0x08, 0x3e, 0x45, 0xc1, 0x41, 0xbe,
  0x07, 0x91, 0x3b, 0x3d, 0x68, 0xbd, 0x3f, 0x3d, 0x4a, 0x06, 0xa3, 0x3c,
  0xbb, 0x5a, 0xad, 0x3d, 0x94, 0x55, 0x22, 0x3e, 0xee, 0x34, 0xa5, 0xbe,
  0xed, 0x31, 0x25, 0x3e, 0x3d, 0x11, 0xa4, 0x3d, 0xa5, 0x0c, 0x23, 0xbe,
  0x8e, 0xc5, 0x96, 0xbe, 0xb0, 0x1d, 0x15, 0xbe, 0x2d, 0x9e, 0xfd, 0xbd,
  0x22, 0xbf, 0xe0, 0x3d, 0x98, 0xec, 0x25, 0xbe, 0x75, 0x8f, 0x0e, 0xbe,
  0x3e, 0xc3, 0x0c, 0x3e, 0x0f, 0x4f, 0x0a, 0xbe, 0x02, 0x5e, 0xfe, 0xbd,
  0x41, 0xa8, 0x86, 0xbd, 0x2b, 0x2b, 0x1e, 0x3c, 0xaf, 0xa1, 0x0a, 0x3e,
  0x67, 0x79, 0xd6, 0xbe, 0xad, 0xdc, 0xe1, 0x3d, 0x83, 0x27, 0xa3, 0xbd,
  0x9d, 0x15, 0x22, 0x3c, 0x64, 0x8b, 0x0b, 0x3d, 0xd0, 0xdd, 0x1f, 0xbd,
  0x01, 0xd7, 0x95, 0xbd, 0x84, 0x5b, 0xaa, 0x3b, 0x1d, 0x8d, 0x85, 0xbd,
  0x2b, 0xcc, 0x68, 0xbd, 0xd1, 0xa6, 0xa4, 0xbe, 0x5d, 0xbf, 0x12, 0x3e,
  0x1a, 0x9d, 0xeb, 0xbd, 0x26, 0x4e, 0x05, 0xbe, 0xcf, 0x5c, 0xac, 0x3d,
  0x84, 0x90, 0x5e, 0xbe, 0x03, 0xf6, 0xd9, 0x3d, 0x13, 0x64, 0x0a, 0x3e,
  0xb8, 0xc7, 0x3c, 0xbd, 0x74, 0xe0, 0x05, 0xbe, 0x70, 0xa7, 0xc8, 0x3d,
  0xff, 0x3c, 0x3d, 0xbc, 0x60, 0x80, 0x14, 0xbe, 0xf4, 0xeb, 0xe6, 0xbd,
  0x12, 0x93, 0xc2, 0x3c, 0x64, 0x83, 0xa9, 0x3b, 0x1b, 0xa7, 0xd1, 0xbb,
  0x19, 0x59, 0x2d, 0xbe, 0x33, 0x87, 0xd1, 0xbd, 0xf9, 0x23, 0xee, 0xbc,
  0xd3, 0x8a, 0x4d, 0x3d, 0x2d, 0x32, 0x15, 0xbe, 0xd8, 0xe9, 0x94, 0x3d,
  0x60, 0x4d, 0x06, 0x3e, 0x62, 0x71, 0x8c, 0xbd, 0xbd, 0x85, 0xc8, 0xbd,
  0x26, 0xb1, 0xc9, 0x3d, 0x91, 0x4a, 0xa6, 0xbd, 0x88, 0x49, 0x9a, 0xbe,
  0xa6, 0x74, 0xdd, 0xbd, 0x4e, 0xfb, 0xb9, 0x3d, 0xd7, 0x0e, 0x21, 0xbd,
  0x5d, 0x71, 0x44, 0x3d, 0x4a, 0xa4, 0xa2, 0xbd, 0x51, 0xc7, 0x1e, 0x3d,
  0xa0, 0x93, 0x29, 0xbe, 0xff, 0x05, 0x11, 0x3e, 0x2b, 0xce, 0x18, 0xbe,
  0x12, 0x7b, 0x87, 0x3e, 0x13, 0x17, 0xe8, 0xbd, 0x6e, 0x10, 0xbf, 0x3d,
  0xc1, 0x90, 0x3f, 0xbd, 0x10, 0x0b, 0x12, 0x3d, 0xe2, 0x21, 0xcf, 0xbd,
  0xab, 0x12, 0xb6, 0xbb, 0xc6, 0x02, 0x5b, 0xbd, 0xd1, 0xdf, 0x4f, 0x3e,
  0x95, 0xfb, 0x00, 0x3d, 0xf8, 0x84, 0x23, 0xbd, 0x28, 0xa1, 0x1d, 0xbe,
  0xd1, 0x33, 0x51, 0xbc, 0x6b, 0x31, 0xdd, 0xbc, 0x33, 0x89, 0x0c, 0x3e,
  0x39, 0x58, 0x91, 0xbe, 0xc7, 0x82, 0x44, 0xbe, 0xd8, 0x94, 0x82, 0x3e,
  0xf0, 0xf2, 0xd0, 0xbd, 0x9d, 0xb2, 0x0a, 0x3e, 0xcb, 0xb1, 0x96, 0xbd,
  0x90, 0x4c, 0x87, 0xbb, 0x29, 0x81, 0x95, 0xbc, 0x76, 0x6b, 0x77, 0xbd,
  0x68, 0xc2, 0x15, 0xbe, 0x3b, 0xab, 0x31, 0xbe, 0x45, 0xae, 0x3b, 0xbe,
  0x5c, 0xda, 0x07, 0xbe, 0xaf, 0x3e, 0x0b, 0x3d, 0x98, 0x67, 0xbd, 0xbd,
  0x18, 0xda, 0x98, 0xbc, 0xbd, 0x4a, 0x84, 0x3e, 0x97, 0x83, 0xf1, 0x3c,
  0x03, 0x50, 0x27, 0x3e, 0xe2, 0x2a, 0x84, 0x3e, 0x01, 0xff, 0x66, 0xbe,
  0x1d, 0xcd, 0x96, 0xbb, 0xa9, 0x32, 0xf8, 0xbd, 0x9f, 0xc2, 0x19, 0xbe,
  0x99, 0x01, 0x2b, 0xbd, 0x84, 0x19, 0x86, 0xbd, 0xe1, 0x5d, 0x72, 0x3d,
  0xd0, 0x25, 0x4f, 0xbc, 0xaf, 0xb1, 0xba, 0xbd, 0xf3, 0x4f, 0x71, 0xbc,
  0x84, 0x53, 0x03, 0x3e, 0x9e, 0xbf, 0x0e, 0x3e, 0x8d, 0x55, 0x26, 0xbe,
  0x9a, 0x9a, 0x02, 0xbd, 0x22, 0x8b, 0x3d, 0x3e, 0x08, 0x4b, 0xbe, 0xbd,
  0xb8, 0xa2, 0x43, 0x3d, 0x87, 0xad, 0x25, 0x3e, 0x2b, 0xf9, 0x7d, 0xbd,
  0x46, 0x2b, 0x34, 0xbe, 0x72, 0x0c, 0x1d, 0xbe, 0x2f, 0xc3, 0x09, 0xbe,
  0x0d, 0xa0, 0x03, 0x3e, 0x75, 0x2b, 0xef, 0x3d, 0x0a, 0xb6, 0xea, 0x3d,
  0xf2, 0xf3, 0x85, 0xbe, 0xd3, 0xa7, 0xc8, 0xbc, 0xdf, 0xaf, 0x90, 0x3c,
  0x7f, 0x36, 0x70, 0x3e, 0x6a, 0xc7, 0x25, 0x3e, 0x59, 0x54, 0x2c, 0x3e,
  0x90, 0xe9, 0x5c, 0xbd, 0x16, 0x29, 0x16, 0x3d, 0xbc, 0x60, 0x84, 0xbd,
  0xb3, 0xea, 0x85, 0xbc, 0x36, 0x2a, 0x4b, 0x3d, 0x3b, 0x8c, 0x32, 0x3e,
  0xd8, 0x4b, 0xd0, 0xbc, 0x9a, 0x3b, 0x5b, 0xbc, 0xae, 0xf2, 0x54, 0x3e,
  0xd2, 0xab, 0x03, 0xbe, 0x6c, 0x2f, 0x2e, 0x3e, 0x69, 0xc9, 0x74, 0x3e,
  0x9b, 0x0d, 0x33, 0x3e, 0xe1, 0x59, 0x24, 0x3d, 0xea, 0x05, 0x96, 0xbe,
  0x01, 0xfe, 0x38, 0x3e, 0xca, 0x4d, 0x2d, 0x3e, 0xf3, 0x88, 0xf7, 0xbd,
  0x3e, 0xab, 0x5e, 0x3d, 0x9a, 0xc2, 0x4b, 0x3e, 0xa5, 0x71, 0x45, 0x3e,
  0x8c, 0xa0, 0x67, 0x3d, 0xeb, 0x76, 0xf9, 0xbd, 0x28, 0x44, 0x09, 0xbd,
  0xf9, 0x04, 0x84, 0xbc, 0x75, 0xed, 0x6b, 0xbc, 0x80, 0x8a, 0xab, 0x3d,
  0xfd, 0x31, 0x2a, 0xbc, 0x9c, 0xb8, 0x8e, 0x3d, 0x11, 0xa1, 0x89, 0x3e,
  0x5b, 0xc3, 0x30, 0xbe, 0x56, 0x6a, 0x5e, 0x3e, 0x36, 0x32, 0xf7, 0x3c,
  0xcb, 0x8b, 0x4c, 0x3c, 0x3e, 0x4d, 0x87, 0xbd, 0xd9, 0x91, 0x14, 0xbd,
  0xbe, 0x40, 0xe0, 0xbd, 0x7d, 0xc9, 0xbd, 0x3b, 0xb5, 0x76, 0xad, 0xbd,
  0xb3, 0xe0, 0x27, 0xbd, 0xa3, 0x27, 0x63, 0x3d, 0xde, 0x21, 0xc1, 0xbc,
  0xb8, 0x57, 0x12, 0xbe, 0x89, 0x40, 0x5c, 0x3e, 0x50, 0xf3, 0x66, 0x3d,
  0x34, 0xb5, 0x4d, 0xbe, 0x59, 0xbb, 0x47, 0xbe, 0xd8, 0x28, 0x1d, 0x3e,
  0xb6, 0x64, 0xf9, 0x3d, 0xc3, 0xa1, 0xdd, 0x3d, 0x73, 0x9c, 0xb2, 0x3c,
  0xa1, 0xf1, 0x82, 0x3d, 0x4b, 0xd7, 0x64, 0x3d, 0x76, 0xeb, 0xad, 0x3d,
  0x23, 0xa6, 0xeb, 0xbd, 0x36, 0x04, 0x07, 0xbe, 0x2e, 0xe1, 0x20, 0xbe,
  0xff, 0x15, 0x76, 0x3d, 0xb0, 0xb3, 0xdd, 0x3c, 0x01, 0x40, 0x8e, 0xbd,
  0xfa, 0x2b, 0x79, 0xbe, 0xcf, 0x87, 0x2c, 0x3e, 0xfa, 0xaf, 0x2c, 0xbe,
  0xe9, 0x3e, 0x8a, 0xbc, 0xaf, 0xd9, 0xda, 0x3d, 0xa4, 0x32, 0x1f, 0x3d,
  0xe3, 0x7d, 0xe7, 0x3d, 0x7f, 0xdb, 0x4f, 0xbe, 0x6a, 0xdc, 0x0c, 0xbe,
  0x2f, 0x61, 0xe9, 0xbd, 0x08, 0x79, 0xbf, 0xbd, 0x09, 0xcc, 0x16, 0xbc,
  0x73, 0xf2, 0x21, 0xbe, 0xe0, 0x3b, 0x95, 0xbd, 0x1c, 0xdf, 0xad, 0xbd,
  0x18, 0x6d, 0xae, 0x3d, 0xca, 0x7d, 0x5c, 0xbe, 0xad, 0x16, 0x95, 0xbc,
  0xcb, 0x67, 0x54, 0x3c, 0x63, 0x43, 0xf3, 0xbd, 0xfe, 0xa7, 0xa6, 0x3d,
  0x09, 0x39, 0x36, 0x3e, 0xc2, 0x3c, 0x43, 0xbd, 0x25, 0x07, 0x3e, 0xbc,
  0xcc, 0x45, 0x3b, 0x3e, 0x6a, 0xd7, 0xb4, 0x3b, 0x50, 0xdb, 0x07, 0xbe,
  0xab, 0xce, 0x16, 0x3e, 0x49, 0x1f, 0x30, 0x3e, 0x4a, 0xb3, 0xf9, 0x3d,
  0xca, 0x08, 0x4e, 0x3e, 0xc0, 0xda, 0x71, 0xbd, 0x1f, 0x78, 0x05, 0xbd,
  0x81, 0xa2, 0x96, 0x3c, 0xe9, 0x28, 0x24, 0xbe, 0x6b, 0x04, 0xc3, 0xbe,
  0x75, 0x8b, 0x01, 0xbe, 0x81, 0x7d, 0x45, 0x3e, 0x4f, 0xe1, 0xcb, 0x3d,
  0x00, 0x2e, 0xaa, 0x3d, 0xac, 0xc9, 0x40, 0x3e, 0x7d, 0x5a, 0xed, 0x3d,
  0xfd, 0x45, 0x3d, 0xbe, 0xe5, 0x53, 0xd4, 0xbd, 0xc9, 0xf0, 0x0a, 0x3e,
  0x71, 0x45, 0x66, 0x3e, 0x21, 0x06, 0xb9, 0x3d, 0xe8, 0xea, 0x9b, 0xbd,
  0xcd, 0xa9, 0x93, 0xbe, 0x68, 0x05, 0x82, 0xbe, 0x86, 0xa7, 0xc5, 0xbd,
  0xbe, 0xf6, 0xe5, 0xbe, 0x9a, 0xdb, 0x64, 0xbe, 0x07, 0x05, 0xc9, 0x3d,
  0x40, 0x01, 0x3a, 0x3e, 0x05, 0x40, 0x28, 0xbd, 0xa3, 0xfc, 0x7d, 0x3e,
  0x4a, 0x3e, 0xc4, 0x3d, 0x7d, 0xae, 0x79, 0xbd, 0xea, 0x11, 0x9d, 0x3d,
  0x0d, 0x1b, 0xf8, 0xbd, 0x19, 0x86, 0x51, 0x3e, 0x51, 0xf6, 0x6c, 0xbb,
  0xeb, 0xf6, 0xa4, 0xbd, 0x42, 0x10, 0x01, 0x3e, 0xfa, 0xe5, 0x9d, 0xbe,
  0x96, 0x57, 0x92, 0xbe, 0x25, 0x37, 0xbf, 0xbe, 0x5f, 0xd8, 0xa4, 0xbd,
  0xa4, 0x99, 0x99, 0x3e, 0x01, 0xce, 0x87, 0x3d, 0x40, 0xe7, 0x9d, 0xbc,
  0xa3, 0x01, 0x1f, 0x3e, 0x75, 0x32, 0xf4, 0x3d, 0xae, 0x62, 0x45, 0x3d,
  0x5f, 0x30, 0x26, 0xbd, 0x91, 0xff, 0xdd, 0xbd, 0xd1, 0x25, 0x70, 0x3d,
  0xe6, 0xda, 0x8f, 0x3d, 0x45, 0xc9, 0x60, 0xbe, 0x3b, 0x4c, 0x47, 0xbe,
  0xd5, 0xe2, 0x59, 0xbe, 0x19, 0xd4, 0x86, 0x3d, 0x09, 0x77, 0x34, 0xbe,
  0x2e, 0x63, 0x19, 0x3e, 0xdc, 0x1d, 0x1f, 0x3d, 0xfe, 0x32, 0x9e, 0x3d,
  0xec, 0x3e, 0x9d, 0x3d, 0xa7, 0x98, 0x34, 0x3d, 0x52, 0x4d, 0x94, 0x3c,
  0xe8, 0x07, 0xe0, 0xbc, 0x0e, 0x04, 0x0a, 0xbe, 0xe3, 0xb6, 0x94, 0xbc,
  0x07, 0x3e, 0xf2, 0xbd, 0xac, 0xbf, 0x80, 0x3d, 0xd5, 0xd7, 0xda, 0xbd,
  0xd8, 0x7c, 0x44, 0x3e, 0x3d, 0xc1, 0x08, 0xbd, 0x86, 0xa2, 0xca, 0xbd,
  0x35, 0xa8, 0x08, 0x3e, 0x58, 0xa8, 0x33, 0xbc, 0xe3, 0x67, 0xce, 0x3d,
  0x64, 0x7e, 0xb0, 0xbc, 0x76, 0x9a, 0x0a, 0x3d, 0x70, 0xb9, 0x56, 0x3e,
  0xa2, 0xc5, 0xdc, 0x3d, 0xfb, 0x7d, 0x5e, 0x3d, 0x4a, 0xde, 0xc5, 0x3d,
  0xb6, 0x90, 0xeb, 0x3d, 0x05, 0x13, 0xd9, 0x3c, 0x21, 0x17, 0x91, 0x3d,
  0xc3, 0xdf, 0xea, 0x3d, 0x75, 0x89, 0x91, 0x3a, 0xac, 0x30, 0x5b, 0xbe,
  0xc8, 0xf0, 0x35, 0x3e, 0xde, 0x56, 0x4b, 0xbe, 0x3c, 0xfc, 0xc1, 0xbd,
  0x45, 0x57, 0xa8, 0x3d, 0x6c, 0xe0, 0x91, 0x3d, 0x9d, 0xdb, 0x31, 0x3e,
  0x55, 0xf9, 0xd1, 0x3d, 0x63, 0x55, 0xf3, 0xbc, 0x7f, 0x1a, 0xe2, 0x3d,
  0x3f, 0x5f, 0x76, 0x3d, 0x1d, 0x69, 0x30, 0xbe, 0x86, 0x5a, 0x9e, 0x3d,
  0x26, 0x82, 0xa1, 0xbd, 0x4e, 0xc8, 0x29, 0xbe, 0xb8, 0x03, 0x0b, 0x3e,
  0x0a, 0x4f, 0x0c, 0xbd, 0x90, 0x03, 0xae, 0x3e, 0x5f, 0x6b, 0x04, 0xbe,
  0x89, 0x2f, 0x9f, 0x3c, 0xba, 0x08, 0xed, 0xbd, 0xe3, 0x42, 0xad, 0x3d,
  0x74, 0xe4, 0x06, 0x3e, 0xc7, 0xb4, 0xc6, 0x3d, 0x14, 0xc3, 0x18, 0x3e,
  0xd1, 0x08, 0x91, 0x3e, 0x2e, 0xa7, 0xb2, 0x3d, 0xb0, 0x66, 0x35, 0x3e,
  0xc1, 0xda, 0x4d, 0xbd, 0xa1, 0x5d, 0x88, 0x3d, 0x34, 0x0e, 0x05, 0x3d,
  0x27, 0xc5, 0xa2, 0xbc, 0x2e, 0x8c, 0x43, 0x3e, 0xfc, 0xe8, 0xf7, 0xbd,
  0xf0, 0x8e, 0x1f, 0xbe, 0x5e, 0x18, 0x48, 0xbd, 0xef, 0x19, 0x5e, 0x3e,
  0x98, 0xed, 0xce, 0xbd, 0x6f, 0x6e, 0x2f, 0x3e, 0x03, 0x48, 0xa0, 0x3e,
  0x1b, 0xd8, 0x00, 0xbd, 0xef, 0xb1, 0x6c, 0xbd, 0x56, 0x82, 0x43, 0x3e,
  0x43, 0xf4, 0x2f, 0x3e, 0xd8, 0x70, 0xf8, 0x3d, 0x2f, 0xd0, 0x71, 0x3d,
  0x23, 0xc6, 0x1e, 0x3e, 0xba, 0x75, 0x76, 0x3c, 0xdc, 0x05, 0xa2, 0x3e,
  0x94, 0xfc, 0x77, 0xbe, 0x7e, 0xc7, 0xcb, 0x3d, 0x5f, 0x89, 0xed, 0xbd,
  0x97, 0x85, 0x3b, 0x3d, 0x39, 0xea, 0x50, 0x3d, 0x46, 0xd7, 0xa7, 0xbd,
  0x4c, 0x08, 0xd3, 0x3d, 0x26, 0x58, 0xaa, 0xbd, 0xc2, 0xf7, 0xf7, 0xbd,
  0xd6, 0x37, 0xcd, 0xbd, 0x59, 0x4c, 0xf4, 0xbc, 0x91, 0xd3, 0x41, 0x3e,
  0xd7, 0x47, 0x61, 0x3d, 0x81, 0xfd, 0x8e, 0x3b, 0x37, 0x4c, 0x29, 0xbd,
  0x70, 0x11, 0x89, 0x3e, 0xcc, 0x73, 0x57, 0xbe, 0xe0, 0x4e, 0x69, 0x3d,
  0x7c, 0xc5, 0x8a, 0x3d, 0xff, 0x9d, 0x75, 0xbd, 0x6b, 0x05, 0x39, 0x3e,
  0x4f, 0x2e, 0x65, 0xbd, 0x48, 0xa7, 0x26, 0xbe, 0xdb, 0x44, 0x43, 0xbd,
  0xba, 0x82, 0xd2, 0xbd, 0x82, 0x2a, 0x9a, 0xbd, 0xe8, 0x4f, 0x94, 0x3d,
  0x0f, 0x23, 0xd3, 0x3d, 0xa1, 0x13, 0x6f, 0x3d, 0x33, 0xb4, 0x25, 0x3e,
  0xcb, 0x21, 0x10, 0xbe, 0xfb, 0x3d, 0x8c, 0x3d, 0x98, 0x9b, 0xb9, 0x3e,
  0x25, 0x5b, 0x80, 0xbe, 0xed, 0x45, 0xb9, 0x3d, 0xaa, 0x39, 0x8e, 0xbd,
  0xa3, 0xb7, 0x84, 0x3c, 0x56, 0x04, 0x30, 0xbd, 0x13, 0x93, 0xd7, 0xbc,
  0xd2, 0xbf, 0x11, 0x3e, 0x0c, 0xb2, 0x9b, 0xbc, 0x10, 0xdc, 0x13, 0x3e,
  0x7b, 0x89, 0xf9, 0x3d, 0x3c, 0x34, 0x29, 0x3e, 0xde, 0x85, 0x4e, 0xbd,
  0xd1, 0x84, 0x81, 0x3d, 0xff, 0x96, 0xd8, 0xbd, 0x05, 0x8c, 0xcd, 0xbe,
  0x80, 0x86, 0xb3, 0xbd, 0x87, 0x51, 0x4d, 0xbe, 0x44, 0xe9, 0x19, 0xbe,
  0xfd, 0x72, 0x91, 0x3e, 0x2c, 0x15, 0x1d, 0xbd, 0x73, 0xa1, 0xc0, 0xbc,
  0x10, 0xef, 0x9a, 0xbd, 0xbe, 0x11, 0x25, 0x3d, 0x1c, 0xba, 0x8b, 0xbc,
  0x1b, 0x77, 0x62, 0x3d, 0xf3, 0x42, 0x86, 0xbe, 0x92, 0xd4, 0x0a, 0x3e,
  0xdc, 0xbb, 0x14, 0xbe, 0xe9, 0xe9, 0x4a, 0xbe, 0xe9, 0x85, 0x60, 0x3d,
  0x9a, 0xd3, 0x5e, 0x3e, 0x3b, 0xbb, 0xa0, 0xbd, 0x1b, 0x85, 0x60, 0xbe,
  0x80, 0x54, 0x24, 0xbe, 0x9c, 0x62, 0x54, 0xbe, 0xa0, 0x54, 0x20, 0xbd,
  0x03, 0xc3, 0x01, 0xbe, 0x44, 0x96, 0x27, 0x3e, 0x0c, 0xfe, 0x12, 0x3e,
  0xa8, 0x1f, 0x6e, 0x3d, 0xf9, 0xa7, 0xba, 0xbd, 0x51, 0xce, 0xbd, 0xbd,
  0x1c, 0xee, 0xcb, 0xbd, 0xdb, 0xf4, 0x72, 0x3e, 0x98, 0xb1, 0x91, 0xbc,
  0x99, 0xa6, 0x66, 0xbe, 0x7a, 0xf2, 0x9c, 0xbe, 0xe8, 0x3a, 0xcf, 0x3c,
  0xd9, 0xb2, 0x89, 0xbe, 0x92, 0x25, 0x32, 0xbd, 0x6a, 0x19, 0x2e, 0x3e,
  0x2d, 0x22, 0x0e, 0xbe, 0x29, 0xb6, 0xd3, 0xbd, 0xd2, 0x7a, 0x1d, 0x3e,
  0x27, 0x30, 0x34, 0xbc, 0xa8, 0xe5, 0x76, 0xbc, 0x74, 0x0f, 0xa8, 0xbd,
  0x10, 0x9b, 0x2f, 0x3d, 0x68, 0x0d, 0x35, 0xbb, 0xc5, 0xb7, 0x0d, 0xbe,
  0x1b, 0x5d, 0x62, 0xbe, 0xdd, 0xd2, 0x77, 0xbd, 0xe7, 0xf5, 0xa3, 0xbd,
  0xbf, 0x95, 0xd6, 0x3e, 0xc9, 0x74, 0x04, 0xbe, 0x18, 0xdb, 0xa0, 0xbb,
  0x4e, 0xec, 0x84, 0x3d, 0x8f, 0xd8, 0x27, 0xbd, 0x9c, 0xf8, 0x24, 0xbb,
  0x7d, 0x1a, 0xf3, 0x3c, 0x57, 0x90, 0xa1, 0x3d, 0x53, 0x76, 0xa0, 0x3d,
  0x40, 0x16, 0x80, 0xba, 0x67, 0x05, 0xa9, 0xbd, 0x4e, 0xe1, 0xc7, 0xbd,
  0x87, 0x2b, 0x60, 0xbd, 0xf2, 0xff, 0x99, 0xbd, 0xda, 0xba, 0xe5, 0x3d,
  0x2a, 0x50, 0xaa, 0xbe, 0x1b, 0x06, 0x86, 0x3e, 0x92, 0x8d, 0x1c, 0xbe,
  0xb6, 0x80, 0xca, 0x3d, 0xb1, 0x0b, 0x88, 0xbe, 0xe1, 0x3c, 0x16, 0x3c,
  0x49, 0x39, 0x09, 0x3e, 0xa5, 0xc5, 0x09, 0xbc, 0x6b, 0x61, 0xff, 0xbb,
  0xfd, 0x0f, 0xec, 0x3d, 0x08, 0x6a, 0x05, 0xbe, 0x30, 0x6b, 0x3f, 0xbe,
  0xc1, 0x9e, 0x1c, 0xbc, 0xe0, 0xe0, 0x65, 0xbd, 0xfa, 0xcd, 0x8f, 0xbd,
  0x47, 0xc4, 0x53, 0xbe, 0x00, 0x00, 0x00, 0x00, 0x0e, 0xfb, 0xff, 0xff,
  0x04, 0x00, 0x00, 0x00, 0x04, 0x00, 0x00, 0x00, 0xfd, 0xff, 0xff, 0xff,
  0x1e, 0xfb, 0xff, 0xff, 0x04, 0x00, 0x00, 0x00, 0x08, 0x00, 0x00, 0x00,
  0xff, 0xff, 0xff, 0xff, 0x30, 0x01, 0x00, 0x00, 0x00, 0x00, 0x00, 0x00,
  0x00, 0x00, 0x00, 0x00, 0x00, 0x00, 0x00, 0x00, 0x3e, 0xfb, 0xff, 0xff,
  0x04, 0x00, 0x00, 0x00, 0x04, 0x00, 0x00, 0x00, 0x02, 0x00, 0x00, 0x00,
  0x4e, 0xfb, 0xff, 0xff, 0x04, 0x00, 0x00, 0x00, 0x04, 0x00, 0x00, 0x00,
  0x4b, 0x00, 0x00, 0x00, 0x5e, 0xfb, 0xff, 0xff, 0x04, 0x00, 0x00, 0x00,
  0x04, 0x00, 0x00, 0x00, 0x34, 0x00, 0x00, 0x00, 0x6e, 0xfb, 0xff, 0xff,
  0x04, 0x00, 0x00, 0x00, 0x04, 0x00, 0x00, 0x00, 0x00, 0x00, 0x00, 0x00,
  0x7e, 0xfb, 0xff, 0xff, 0x04, 0x00, 0x00, 0x00, 0x04, 0x00, 0x00, 0x00,
  0x01, 0x00, 0x00, 0x00, 0x8e, 0xfb, 0xff, 0xff, 0x04, 0x00, 0x00, 0x00,
  0x20, 0x00, 0x00, 0x00, 0xdb, 0x95, 0x7e, 0xbc, 0xe3, 0xf7, 0x08, 0xbe,
  0xe0, 0xd2, 0x66, 0x3e, 0xf6, 0x7d, 0x07, 0xbe, 0x6a, 0x30, 0xe1, 0xbd,
  0x8c, 0xe3, 0x55, 0x3c, 0xe0, 0x19, 0x15, 0xbe, 0xcd, 0x83, 0x16, 0xbe,
  0x00, 0x00, 0x00, 0x00, 0xbe, 0xfb, 0xff, 0xff, 0x04, 0x00, 0x00, 0x00,
  0x40, 0x00, 0x00, 0x00, 0x0b, 0x93, 0x85, 0x3d, 0x22, 0x5f, 0x10, 0x3e,
  0xca, 0x6f, 0x95, 0x3e, 0x2f, 0xaf, 0x8b, 0xbd, 0xdd, 0x3a, 0xb9, 0xbb,
  0xa2, 0x77, 0x36, 0xbd, 0x82, 0x4b, 0x13, 0xbe, 0x1e, 0x81, 0xd3, 0xbd,
  0xfc, 0x8b, 0x2a, 0xbd, 0x19, 0x5f, 0x74, 0x3d, 0x3a, 0x6b, 0x3f, 0xbe,
  0x8e, 0xa3, 0x29, 0x3d, 0x1f, 0xef, 0x03, 0xbe, 0x5a, 0x48, 0x5a, 0xbe,
  0xe7, 0x3e, 0x4e, 0xbc, 0xe4, 0xfa, 0x5c, 0x3e, 0x00, 0x00, 0x00, 0x00,
  0x0e, 0xfc, 0xff, 0xff, 0x04, 0x00, 0x00, 0x00, 0x08, 0x00, 0x00, 0x00,
  0x13, 0xf8, 0x2a, 0x3d, 0x0e, 0xf8, 0x2a, 0xbd, 0x00, 0x00, 0x00, 0x00,
  0x38, 0xed, 0xff, 0xff, 0x00, 0x00, 0x00, 0x00, 0x00, 0x00, 0x00, 0x00,
  0x00, 0x00, 0x00, 0x00, 0x48, 0xed, 0xff, 0xff, 0x00, 0x00, 0x00, 0x00,
  0x00, 0x00, 0x00, 0x00, 0x0f, 0x00, 0x00, 0x00, 0x4d, 0x4c, 0x49, 0x52,
  0x20, 0x43, 0x6f, 0x6e, 0x76, 0x65, 0x72, 0x74, 0x65, 0x64, 0x2e, 0x00,
  0x01, 0x00, 0x00, 0x00, 0x14, 0x00, 0x00, 0x00, 0x00, 0x00, 0x0e, 0x00,
  0x18, 0x00, 0x04, 0x00, 0x08, 0x00, 0x0c, 0x00, 0x10, 0x00, 0x14, 0x00,
  0x0e, 0x00, 0x00, 0x00, 0x64, 0x04, 0x00, 0x00, 0x58, 0x04, 0x00, 0x00,
  0x4c, 0x04, 0x00, 0x00, 0x14, 0x00, 0x00, 0x00, 0x04, 0x00, 0x00, 0x00,
  0x04, 0x00, 0x00, 0x00, 0x6d, 0x61, 0x69, 0x6e, 0x00, 0x00, 0x00, 0x00,
  0x12, 0x00, 0x00, 0x00, 0xfc, 0x03, 0x00, 0x00, 0x9c, 0x03, 0x00, 0x00,
  0x48, 0x03, 0x00, 0x00, 0x20, 0x03, 0x00, 0x00, 0xe0, 0x02, 0x00, 0x00,
  0x80, 0x02, 0x00, 0x00, 0x58, 0x02, 0x00, 0x00, 0x24, 0x02, 0x00, 0x00,
  0xd4, 0x01, 0x00, 0x00, 0xac, 0x01, 0x00, 0x00, 0x78, 0x01, 0x00, 0x00,
  0x34, 0x01, 0x00, 0x00, 0x0c, 0x01, 0x00, 0x00, 0xd8, 0x00, 0x00, 0x00,
  0x98, 0x00, 0x00, 0x00, 0x70, 0x00, 0x00, 0x00, 0x38, 0x00, 0x00, 0x00,
  0x04, 0x00, 0x00, 0x00, 0x66, 0xfd, 0xff, 0xff, 0x00, 0x00, 0x00, 0x09,
  0x08, 0x00, 0x00, 0x00, 0x1c, 0x00, 0x00, 0x00, 0x10, 0x00, 0x00, 0x00,
  0x04, 0x00, 0x00, 0x00, 0xf6, 0xfc, 0xff, 0xff, 0x00, 0x00, 0x80, 0x3f,
  0x01, 0x00, 0x00, 0x00, 0x22, 0x00, 0x00, 0x00, 0x01, 0x00, 0x00, 0x00,
  0x21, 0x00, 0x00, 0x00, 0x96, 0xfd, 0xff, 0xff, 0x00, 0x00, 0x00, 0x08,
  0x07, 0x00, 0x00, 0x00, 0x18, 0x00, 0x00, 0x00, 0x0c, 0x00, 0x00, 0x00,
  0x04, 0x00, 0x00, 0x00, 0x38, 0xee, 0xff, 0xff, 0x01, 0x00, 0x00, 0x00,
  0x21, 0x00, 0x00, 0x00, 0x03, 0x00, 0x00, 0x00, 0x20, 0x00, 0x00, 0x00,
  0x0b, 0x00, 0x00, 0x00, 0x01, 0x00, 0x00, 0x00, 0x8a, 0xfd, 0xff, 0xff,
  0x03, 0x00, 0x00, 0x00, 0x10, 0x00, 0x00, 0x00, 0x04, 0x00, 0x00, 0x00,
  0x01, 0x00, 0x00, 0x00, 0x20, 0x00, 0x00, 0x00, 0x02, 0x00, 0x00, 0x00,
  0x1f, 0x00, 0x00, 0x00, 0x09, 0x00, 0x00, 0x00, 0xee, 0xfd, 0xff, 0xff,
  0x00, 0x00, 0x00, 0x05, 0x06, 0x00, 0x00, 0x00, 0x28, 0x00, 0x00, 0x00,
  0x1c, 0x00, 0x00, 0x00, 0x04, 0x00, 0x00, 0x00, 0xda, 0xfe, 0xff, 0xff,
  0x01, 0x00, 0x00, 0x00, 0x02, 0x00, 0x00, 0x00, 0x01, 0x00, 0x00, 0x00,
  0x02, 0x00, 0x00, 0x00, 0x01, 0x00, 0x00, 0x00, 0x1f, 0x00, 0x00, 0x00,
  0x01, 0x00, 0x00, 0x00, 0x1e, 0x00, 0x00, 0x00, 0x2a, 0xfe, 0xff, 0xff,
  0x00, 0x00, 0x00, 0x34, 0x04, 0x00, 0x00, 0x00, 0x18, 0x00, 0x00, 0x00,
  0x0c, 0x00, 0x00, 0x00, 0x04, 0x00, 0x00, 0x00, 0xcc, 0xee, 0xff, 0xff,
  0x01, 0x00, 0x00, 0x00, 0x1e, 0x00, 0x00, 0x00, 0x02, 0x00, 0x00, 0x00,
  0x1d, 0x00, 0x00, 0x00, 0x08, 0x00, 0x00, 0x00, 0x1a, 0xfe, 0xff, 0xff,
  0x03, 0x00, 0x00, 0x00, 0x10, 0x00, 0x00, 0x00, 0x04, 0x00, 0x00, 0x00,
  0x01, 0x00, 0x00, 0x00, 0x1d, 0x00, 0x00, 0x00, 0x02, 0x00, 0x00, 0x00,
  0x1c, 0x00, 0x00, 0x00, 0x10, 0x00, 0x00, 0x00, 0x7e, 0xfe, 0xff, 0xff,
  0x00, 0x00, 0x00, 0x01, 0x05, 0x00, 0x00, 0x00, 0x24, 0x00, 0x00, 0x00,
  0x18, 0x00, 0x00, 0x00, 0x04, 0x00, 0x00, 0x00, 0xcc, 0xfe, 0xff, 0xff,
  0x00, 0x00, 0x00, 0x01, 0x01, 0x00, 0x00, 0x00, 0x01, 0x00, 0x00, 0x00,
  0x01, 0x00, 0x00, 0x00, 0x1c, 0x00, 0x00, 0x00, 0x03, 0x00, 0x00, 0x00,
  0x1b, 0x00, 0x00, 0x00, 0x0d, 0x00, 0x00, 0x00, 0x02, 0x00, 0x00, 0x00,
  0xbe, 0xfe, 0xff, 0xff, 0x00, 0x00, 0x00, 0x34, 0x04, 0x00, 0x00, 0x00,
  0x18, 0x00, 0x00, 0x00, 0x0c, 0x00, 0x00, 0x00, 0x04, 0x00, 0x00, 0x00,
  0x60, 0xef, 0xff, 0xff, 0x01, 0x00, 0x00, 0x00, 0x1b, 0x00, 0x00, 0x00,
  0x02, 0x00, 0x00, 0x00, 0x1a, 0x00, 0x00, 0x00, 0x0a, 0x00, 0x00, 0x00,
  0xae, 0xfe, 0xff, 0xff, 0x03, 0x00, 0x00, 0x00, 0x10, 0x00, 0x00, 0x00,
  0x04, 0x00, 0x00, 0x00, 0x01, 0x00, 0x00, 0x00, 0x1a, 0x00, 0x00, 0x00,
  0x02, 0x00, 0x00, 0x00, 0x19, 0x00, 0x00, 0x00, 0x0f, 0x00, 0x00, 0x00,
  0x62, 0xfe, 0xff, 0xff, 0x00, 0x00, 0x00, 0x05, 0x06, 0x00, 0x00, 0x00,
  0x38, 0x00, 0x00, 0x00, 0x2c, 0x00, 0x00, 0x00, 0x14, 0x00, 0x00, 0x00,
  0x00, 0x00, 0x0e, 0x00, 0x14, 0x00, 0x00, 0x00, 0x04, 0x00, 0x08, 0x00,
  0x0c, 0x00, 0x10, 0x00, 0x0e, 0x00, 0x00, 0x00, 0x01, 0x00, 0x00, 0x00,
  0x02, 0x00, 0x00, 0x00, 0x01, 0x00, 0x00, 0x00, 0x02, 0x00, 0x00, 0x00,
  0x01, 0x00, 0x00, 0x00, 0x19, 0x00, 0x00, 0x00, 0x01, 0x00, 0x00, 0x00,
  0x18, 0x00, 0x00, 0x00, 0x5e, 0xff, 0xff, 0xff, 0x00, 0x00, 0x00, 0x34,
  0x04, 0x00, 0x00, 0x00, 0x18, 0x00, 0x00, 0x00, 0x0c, 0x00, 0x00, 0x00,
  0x04, 0x00, 0x00, 0x00, 0x00, 0xf0, 0xff, 0xff, 0x01, 0x00, 0x00, 0x00,
  0x18, 0x00, 0x00, 0x00, 0x02, 0x00, 0x00, 0x00, 0x17, 0x00, 0x00, 0x00,
  0x08, 0x00, 0x00, 0x00, 0x4e, 0xff, 0xff, 0xff, 0x03, 0x00, 0x00, 0x00,
  0x10, 0x00, 0x00, 0x00, 0x04, 0x00, 0x00, 0x00, 0x01, 0x00, 0x00, 0x00,
  0x17, 0x00, 0x00, 0x00, 0x02, 0x00, 0x00, 0x00, 0x16, 0x00, 0x00, 0x00,
  0x0e, 0x00, 0x00, 0x00, 0xb2, 0xff, 0xff, 0xff, 0x00, 0x00, 0x00, 0x01,
  0x05, 0x00, 0x00, 0x00, 0x30, 0x00, 0x00, 0x00, 0x24, 0x00, 0x00, 0x00,
  0x10, 0x00, 0x00, 0x00, 0x0c, 0x00, 0x10, 0x00, 0x00, 0x00, 0x08, 0x00,
  0x0c, 0x00, 0x07, 0x00, 0x0c, 0x00, 0x00, 0x00, 0x00, 0x00, 0x00, 0x01,
  0x01, 0x00, 0x00, 0x00, 0x01, 0x00, 0x00, 0x00, 0x01, 0x00, 0x00, 0x00,
  0x16, 0x00, 0x00, 0x00, 0x03, 0x00, 0x00, 0x00, 0x15, 0x00, 0x00, 0x00,
  0x0c, 0x00, 0x00, 0x00, 0x03, 0x00, 0x00, 0x00, 0x00, 0x00, 0x0e, 0x00,
  0x18, 0x00, 0x08, 0x00, 0x0c, 0x00, 0x10, 0x00, 0x07, 0x00, 0x14, 0x00,
  0x0e, 0x00, 0x00, 0x00, 0x00, 0x00, 0x00, 0x34, 0x04, 0x00, 0x00, 0x00,
  0x18, 0x00, 0x00, 0x00, 0x0c, 0x00, 0x00, 0x00, 0x04, 0x00, 0x00, 0x00,
  0xb0, 0xf0, 0xff, 0xff, 0x01, 0x00, 0x00, 0x00, 0x15, 0x00, 0x00, 0x00,
  0x02, 0x00, 0x00, 0x00, 0x14, 0x00, 0x00, 0x00, 0x0a, 0x00, 0x00, 0x00,
  0x00, 0x00, 0x0a, 0x00, 0x10, 0x00, 0x04, 0x00, 0x08, 0x00, 0x0c, 0x00,
  0x0a, 0x00, 0x00, 0x00, 0x03, 0x00, 0x00, 0x00, 0x10, 0x00, 0x00, 0x00,
  0x04, 0x00, 0x00, 0x00, 0x01, 0x00, 0x00, 0x00, 0x14, 0x00, 0x00, 0x00,
  0x02, 0x00, 0x00, 0x00, 0x00, 0x00, 0x00, 0x00, 0x13, 0x00, 0x00, 0x00,
  0xbe, 0xff, 0xff, 0xff, 0x00, 0x00, 0x00, 0x3b, 0x02, 0x00, 0x00, 0x00,
  0x24, 0x00, 0x00, 0x00, 0x18, 0x00, 0x00, 0x00, 0x0c, 0x00, 0x00, 0x00,
  0x00, 0x00, 0x06, 0x00, 0x08, 0x00, 0x04, 0x00, 0x06, 0x00, 0x00, 0x00,
  0x03, 0x00, 0x00, 0x00, 0x01, 0x00, 0x00, 0x00, 0x13, 0x00, 0x00, 0x00,
  0x03, 0x00, 0x00, 0x00, 0x12, 0x00, 0x00, 0x00, 0x07, 0x00, 0x00, 0x00,
  0x06, 0x00, 0x00, 0x00, 0x00, 0x00, 0x0e, 0x00, 0x1a, 0x00, 0x08, 0x00,
  0x0c, 0x00, 0x10, 0x00, 0x07, 0x00, 0x14, 0x00, 0x0e, 0x00, 0x00, 0x00,
  0x00, 0x00, 0x00, 0x20, 0x01, 0x00, 0x00, 0x00, 0x2c, 0x00, 0x00, 0x00,
  0x20, 0x00, 0x00, 0x00, 0x14, 0x00, 0x00, 0x00, 0x00, 0x00, 0x0e, 0x00,
  0x08, 0x00, 0x00, 0x00, 0x00, 0x00, 0x00, 0x00, 0x00, 0x00, 0x04, 0x00,
  0x0e, 0x00, 0x00, 0x00, 0x01, 0x00, 0x00, 0x00, 0x01, 0x00, 0x00, 0x00,
  0x12, 0x00, 0x00, 0x00, 0x04, 0x00, 0x00, 0x00, 0x11, 0x00, 0x00, 0x00,
  0x05, 0x00, 0x00, 0x00, 0x04, 0x00, 0x00, 0x00, 0x04, 0x00, 0x00, 0x00,
  0x00, 0x00, 0x0e, 0x00, 0x16, 0x00, 0x00, 0x00, 0x08, 0x00, 0x0c, 0x00,
  0x07, 0x00, 0x10, 0x00, 0x0e, 0x00, 0x00, 0x00, 0x00, 0x00, 0x00, 0x37,
  0x24, 0x00, 0x00, 0x00, 0x18, 0x00, 0x00, 0x00, 0x0c, 0x00, 0x00, 0x00,
  0x00, 0x00, 0x06, 0x00, 0x08, 0x00, 0x07, 0x00, 0x06, 0x00, 0x00, 0x00,
  0x00, 0x00, 0x00, 0x02, 0x01, 0x00, 0x00, 0x00, 0x11, 0x00, 0x00, 0x00,
  0x01, 0x00, 0x00, 0x00, 0x00, 0x00, 0x00, 0x00, 0x01, 0x00, 0x00, 0x00,
  0x22, 0x00, 0x00, 0x00, 0x01, 0x00, 0x00, 0x00, 0x00, 0x00, 0x00, 0x00,
  0x23, 0x00, 0x00, 0x00, 0xf0, 0x0d, 0x00, 0x00, 0xa8, 0x0d, 0x00, 0x00,
  0x60, 0x0d, 0x00, 0x00, 0x2c, 0x0d, 0x00, 0x00, 0xd4, 0x0c, 0x00, 0x00,
  0x70, 0x0c, 0x00, 0x00, 0x2c, 0x0c, 0x00, 0x00, 0xd8, 0x0b, 0x00, 0x00,
  0x90, 0x0b, 0x00, 0x00, 0x48, 0x0b, 0x00, 0x00, 0x00, 0x0b, 0x00, 0x00,
  0xb8, 0x0a, 0x00, 0x00, 0x94, 0x09, 0x00, 0x00, 0x44, 0x09, 0x00, 0x00,
  0xf4, 0x08, 0x00, 0x00, 0xa4, 0x08, 0x00, 0x00, 0x54, 0x08, 0x00, 0x00,
  0x0c, 0x08, 0x00, 0x00, 0xc8, 0x07, 0x00, 0x00, 0x78, 0x07, 0x00, 0x00,
  0x18, 0x07, 0x00, 0x00, 0xa8, 0x06, 0x00, 0x00, 0xe4, 0x05, 0x00, 0x00,
  0x40, 0x05, 0x00, 0x00, 0xd0, 0x04, 0x00, 0x00, 0x60, 0x04, 0x00, 0x00,
  0xf8, 0x03, 0x00, 0x00, 0x84, 0x03, 0x00, 0x00, 0xb4, 0x02, 0x00, 0x00,
  0x08, 0x02, 0x00, 0x00, 0x94, 0x01, 0x00, 0x00, 0x24, 0x01, 0x00, 0x00,
  0xcc, 0x00, 0x00, 0x00, 0x5c, 0x00, 0x00, 0x00, 0x04, 0x00, 0x00, 0x00,
  0xb0, 0xf2, 0xff, 0xff, 0x44, 0x00, 0x00, 0x00, 0x23, 0x00, 0x00, 0x00,
  0x1c, 0x00, 0x00, 0x00, 0x14, 0x00, 0x00, 0x00, 0x04, 0x00, 0x00, 0x00,
  0x02, 0x00, 0x00, 0x00, 0xff, 0xff, 0xff, 0xff, 0x02, 0x00, 0x00, 0x00,
  0x9c, 0xf2, 0xff, 0xff, 0x19, 0x00, 0x00, 0x00, 0x53, 0x74, 0x61, 0x74,
  0x65, 0x66, 0x75, 0x6c, 0x50, 0x61, 0x72, 0x74, 0x69, 0x74, 0x69, 0x6f,
  0x6e, 0x65, 0x64, 0x43, 0x61, 0x6c, 0x6c, 0x3a, 0x30, 0x00, 0x00, 0x00,
  0x02, 0x00, 0x00, 0x00, 0x01, 0x00, 0x00, 0x00, 0x02, 0x00, 0x00, 0x00,
  0x04, 0xf3, 0xff, 0xff, 0x5c, 0x00, 0x00, 0x00, 0x22, 0x00, 0x00, 0x00,
  0x1c, 0x00, 0x00, 0x00, 0x14, 0x00, 0x00, 0x00, 0x04, 0x00, 0x00, 0x00,
  0x02, 0x00, 0x00, 0x00, 0xff, 0xff, 0xff, 0xff, 0x02, 0x00, 0x00, 0x00,
  0xf0, 0xf2, 0xff, 0xff, 0x32, 0x00, 0x00, 0x00, 0x73, 0x65, 0x71, 0x75,
  0x65, 0x6e, 0x74, 0x69, 0x61, 0x6c, 0x2f, 0x79, 0x5f, 0x70, 0x72, 0x65,
  0x64, 0x2f, 0x4d, 0x61, 0x74, 0x4d, 0x75, 0x6c, 0x3b, 0x73, 0x65, 0x71,
  0x75, 0x65, 0x6e, 0x74, 0x69, 0x61, 0x6c, 0x2f, 0x79, 0x5f, 0x70, 0x72,
  0x65, 0x64, 0x2f, 0x42, 0x69, 0x61, 0x73, 0x41, 0x64, 0x64, 0x00, 0x00,
  0x02, 0x00, 0x00, 0x00, 0x01, 0x00, 0x00, 0x00, 0x02, 0x00, 0x00, 0x00,
  0x70, 0xf3, 0xff, 0xff, 0x44, 0x00, 0x00, 0x00, 0x21, 0x00, 0x00, 0x00,
  0x1c, 0x00, 0x00, 0x00, 0x14, 0x00, 0x00, 0x00, 0x04, 0x00, 0x00, 0x00,
  0x02, 0x00, 0x00, 0x00, 0xff, 0xff, 0xff, 0xff, 0x30, 0x01, 0x00, 0x00,
  0x5c, 0xf3, 0xff, 0xff, 0x1a, 0x00, 0x00, 0x00, 0x73, 0x65, 0x71, 0x75,
  0x65, 0x6e, 0x74, 0x69, 0x61, 0x6c, 0x2f, 0x66, 0x6c, 0x61, 0x74, 0x74,
  0x65, 0x6e, 0x2f, 0x52, 0x65, 0x73, 0x68, 0x61, 0x70, 0x65, 0x00, 0x00,
  0x02, 0x00, 0x00, 0x00, 0x01, 0x00, 0x00, 0x00, 0x30, 0x01, 0x00, 0x00,
  0xc4, 0xf3, 0xff, 0xff, 0x54, 0x00, 0x00, 0x00, 0x20, 0x00, 0x00, 0x00,
  0x24, 0x00, 0x00, 0x00, 0x1c, 0x00, 0x00, 0x00, 0x04, 0x00, 0x00, 0x00,
  0x04, 0x00, 0x00, 0x00, 0xff, 0xff, 0xff, 0xff, 0x13, 0x00, 0x00, 0x00,
  0x01, 0x00, 0x00, 0x00, 0x10, 0x00, 0x00, 0x00, 0xb8, 0xf3, 0xff, 0xff,
  0x22, 0x00, 0x00, 0x00, 0x73, 0x65, 0x71, 0x75, 0x65, 0x6e, 0x74, 0x69,
  0x61, 0x6c, 0x2f, 0x6d, 0x61, 0x78, 0x5f, 0x70, 0x6f, 0x6f, 0x6c, 0x69,
  0x6e, 0x67, 0x31, 0x64, 0x5f, 0x31, 0x2f, 0x4d, 0x61, 0x78, 0x50, 0x6f,
  0x6f, 0x6c, 0x00, 0x00, 0x04, 0x00, 0x00, 0x00, 0x01, 0x00, 0x00, 0x00,
  0x13, 0x00, 0x00, 0x00, 0x01, 0x00, 0x00, 0x00, 0x10, 0x00, 0x00, 0x00,
  0x30, 0xf4, 0xff, 0xff, 0x58, 0x00, 0x00, 0x00, 0x1f, 0x00, 0x00, 0x00,
  0x24, 0x00, 0x00, 0x00, 0x1c, 0x00, 0x00, 0x00, 0x04, 0x00, 0x00, 0x00,
  0x04, 0x00, 0x00, 0x00, 0xff, 0xff, 0xff, 0xff, 0x26, 0x00, 0x00, 0x00,
  0x01, 0x00, 0x00, 0x00, 0x10, 0x00, 0x00, 0x00, 0x24, 0xf4, 0xff, 0xff,
  0x25, 0x00, 0x00, 0x00, 0x73, 0x65, 0x71, 0x75, 0x65, 0x6e, 0x74, 0x69,
  0x61, 0x6c, 0x2f, 0x6d, 0x61, 0x78, 0x5f, 0x70, 0x6f, 0x6f, 0x6c, 0x69,
  0x6e, 0x67, 0x31, 0x64, 0x5f, 0x31, 0x2f, 0x45, 0x78, 0x70, 0x61, 0x6e,
  0x64, 0x44, 0x69, 0x6d, 0x73, 0x00, 0x00, 0x00, 0x04, 0x00, 0x00, 0x00,
  0x01, 0x00, 0x00, 0x00, 0x26, 0x00, 0x00, 0x00, 0x01, 0x00, 0x00, 0x00,
  0x10, 0x00, 0x00, 0x00, 0xa0, 0xf4, 0xff, 0xff, 0x94, 0x00, 0x00, 0x00,
  0x1e, 0x00, 0x00, 0x00, 0x20, 0x00, 0x00, 0x00, 0x18, 0x00, 0x00, 0x00,
  0x04, 0x00, 0x00, 0x00, 0x03, 0x00, 0x00, 0x00, 0xff, 0xff, 0xff, 0xff,
  0x26, 0x00, 0x00, 0x00, 0x10, 0x00, 0x00, 0x00, 0x90, 0xf4, 0xff, 0xff,
  0x65, 0x00, 0x00, 0x00, 0x73, 0x65, 0x71, 0x75, 0x65, 0x6e, 0x74, 0x69,
  0x61, 0x6c, 0x2f, 0x63, 0x6f, 0x6e, 0x76, 0x31, 0x64, 0x5f, 0x31, 0x2f,
  0x52, 0x65, 0x6c, 0x75, 0x3b, 0x73, 0x65, 0x71, 0x75, 0x65, 0x6e, 0x74,
  0x69, 0x61, 0x6c, 0x2f, 0x63, 0x6f, 0x6e, 0x76, 0x31, 0x64, 0x5f, 0x31,
  0x2f, 0x42, 0x69, 0x61, 0x73, 0x41, 0x64, 0x64, 0x3b, 0x73, 0x65, 0x71,
  0x75, 0x65, 0x6e, 0x74, 0x69, 0x61, 0x6c, 0x2f, 0x63, 0x6f, 0x6e, 0x76,
  0x31, 0x64, 0x5f, 0x31, 0x2f, 0x43, 0x6f, 0x6e, 0x76, 0x31, 0x44, 0x2f,
  0x53, 0x71, 0x75, 0x65, 0x65, 0x7a, 0x65, 0x3b, 0x63, 0x6f, 0x6e, 0x76,
  0x31, 0x64, 0x5f, 0x31, 0x2f, 0x62, 0x69, 0x61, 0x73, 0x00, 0x00, 0x00,
  0x03, 0x00, 0x00, 0x00, 0x01, 0x00, 0x00, 0x00, 0x26, 0x00, 0x00, 0x00,
  0x10, 0x00, 0x00, 0x00, 0x48, 0xf5, 0xff, 0xff, 0xb4, 0x00, 0x00, 0x00,
  0x1d, 0x00, 0x00, 0x00, 0x24, 0x00, 0x00, 0x00, 0x1c, 0x00, 0x00, 0x00,
  0x04, 0x00, 0x00, 0x00, 0x04, 0x00, 0x00, 0x00, 0xff, 0xff, 0xff, 0xff,
  0x01, 0x00, 0x00, 0x00, 0x26, 0x00, 0x00, 0x00, 0x10, 0x00, 0x00, 0x00,
  0x3c, 0xf5, 0xff, 0xff, 0x80, 0x00, 0x00, 0x00, 0x73, 0x65, 0x71, 0x75,
  0x65, 0x6e, 0x74, 0x69, 0x61, 0x6c, 0x2f, 0x63, 0x6f, 0x6e, 0x76, 0x31,
  0x64, 0x5f, 0x31, 0x2f, 0x52, 0x65, 0x6c, 0x75, 0x3b, 0x73, 0x65, 0x71,
  0x75, 0x65, 0x6e, 0x74, 0x69, 0x61, 0x6c, 0x2f, 0x63, 0x6f, 0x6e, 0x76,
  0x31, 0x64, 0x5f, 0x31, 0x2f, 0x42, 0x69, 0x61, 0x73, 0x41, 0x64, 0x64,
  0x3b, 0x73, 0x65, 0x71, 0x75, 0x65, 0x6e, 0x74, 0x69, 0x61, 0x6c, 0x2f,
  0x63, 0x6f, 0x6e, 0x76, 0x31, 0x64, 0x5f, 0x31, 0x2f, 0x43, 0x6f, 0x6e,
  0x76, 0x31, 0x44, 0x2f, 0x53, 0x71, 0x75, 0x65, 0x65, 0x7a, 0x65, 0x3b,
  0x63, 0x6f, 0x6e, 0x76, 0x31, 0x64, 0x5f, 0x31, 0x2f, 0x62, 0x69, 0x61,
  0x73, 0x3b, 0x73, 0x65, 0x71, 0x75, 0x65, 0x6e, 0x74, 0x69, 0x61, 0x6c,
  0x2f, 0x63, 0x6f, 0x6e, 0x76, 0x31, 0x64, 0x5f, 0x31, 0x2f, 0x43, 0x6f,
  0x6e, 0x76, 0x31, 0x44, 0x00, 0x00, 0x00, 0x00, 0x04, 0x00, 0x00, 0x00,
  0x01, 0x00, 0x00, 0x00, 0x01, 0x00, 0x00, 0x00, 0x26, 0x00, 0x00, 0x00,
  0x10, 0x00, 0x00, 0x00, 0x14, 0xf6, 0xff, 0xff, 0x58, 0x00, 0x00, 0x00,
  0x1c, 0x00, 0x00, 0x00, 0x24, 0x00, 0x00, 0x00, 0x1c, 0x00, 0x00, 0x00,
  0x04, 0x00, 0x00, 0x00, 0x04, 0x00, 0x00, 0x00, 0xff, 0xff, 0xff, 0xff,
  0x01, 0x00, 0x00, 0x00, 0x26, 0x00, 0x00, 0x00, 0x08, 0x00, 0x00, 0x00,
  0x08, 0xf6, 0xff, 0xff, 0x25, 0x00, 0x00, 0x00, 0x73, 0x65, 0x71, 0x75,
  0x65, 0x6e, 0x74, 0x69, 0x61, 0x6c, 0x2f, 0x63, 0x6f, 0x6e, 0x76, 0x31,
  0x64, 0x5f, 0x31, 0x2f, 0x43, 0x6f, 0x6e, 0x76, 0x31, 0x44, 0x2f, 0x45,
  0x78, 0x70, 0x61, 0x6e, 0x64, 0x44, 0x69, 0x6d, 0x73, 0x00, 0x00, 0x00,
  0x04, 0x00, 0x00, 0x00, 0x01, 0x00, 0x00, 0x00, 0x01, 0x00, 0x00, 0x00,
  0x26, 0x00, 0x00, 0x00, 0x08, 0x00, 0x00, 0x00, 0x84, 0xf6, 0xff, 0xff,
  0x50, 0x00, 0x00, 0x00, 0x1b, 0x00, 0x00, 0x00, 0x20, 0x00, 0x00, 0x00,
  0x18, 0x00, 0x00, 0x00, 0x04, 0x00, 0x00, 0x00, 0x03, 0x00, 0x00, 0x00,
  0xff, 0xff, 0xff, 0xff, 0x26, 0x00, 0x00, 0x00, 0x08, 0x00, 0x00, 0x00,
  0x74, 0xf6, 0xff, 0xff, 0x21, 0x00, 0x00, 0x00, 0x73, 0x65, 0x71, 0x75,
  0x65, 0x6e, 0x74, 0x69, 0x61, 0x6c, 0x2f, 0x6d, 0x61, 0x78, 0x5f, 0x70,
  0x6f, 0x6f, 0x6c, 0x69, 0x6e, 0x67, 0x31, 0x64, 0x2f, 0x53, 0x71, 0x75,
  0x65, 0x65, 0x7a, 0x65, 0x31, 0x00, 0x00, 0x00, 0x03, 0x00, 0x00, 0x00,
  0x01, 0x00, 0x00, 0x00, 0x26, 0x00, 0x00, 0x00, 0x08, 0x00, 0x00, 0x00,
  0xe8, 0xf6, 0xff, 0xff, 0x54, 0x00, 0x00, 0x00, 0x1a, 0x00, 0x00, 0x00,
  0x24, 0x00, 0x00, 0x00, 0x1c, 0x00, 0x00, 0x00, 0x04, 0x00, 0x00, 0x00,
  0x04, 0x00, 0x00, 0x00, 0xff, 0xff, 0xff, 0xff, 0x26, 0x00, 0x00, 0x00,
  0x01, 0x00, 0x00, 0x00, 0x08, 0x00, 0x00, 0x00, 0xdc, 0xf6, 0xff, 0xff,
  0x20, 0x00, 0x00, 0x00, 0x73, 0x65, 0x71, 0x75, 0x65, 0x6e, 0x74, 0x69,
  0x61, 0x6c, 0x2f, 0x6d, 0x61, 0x78, 0x5f, 0x70, 0x6f, 0x6f, 0x6c, 0x69,
  0x6e, 0x67, 0x31, 0x64, 0x2f, 0x4d, 0x61, 0x78, 0x50, 0x6f, 0x6f, 0x6c,
  0x00, 0x00, 0x00, 0x00, 0x04, 0x00, 0x00, 0x00, 0x01, 0x00, 0x00, 0x00,
  0x26, 0x00, 0x00, 0x00, 0x01, 0x00, 0x00, 0x00, 0x08, 0x00, 0x00, 0x00,
  0x54, 0xf7, 0xff, 0xff, 0x54, 0x00, 0x00, 0x00, 0x19, 0x00, 0x00, 0x00,
  0x24, 0x00, 0x00, 0x00, 0x1c, 0x00, 0x00, 0x00, 0x04, 0x00, 0x00, 0x00,
  0x04, 0x00, 0x00, 0x00, 0xff, 0xff, 0xff, 0xff, 0x4b, 0x00, 0x00, 0x00,
  0x01, 0x00, 0x00, 0x00, 0x08, 0x00, 0x00, 0x00, 0x48, 0xf7, 0xff, 0xff,
  0x23, 0x00, 0x00, 0x00, 0x73, 0x65, 0x71, 0x75, 0x65, 0x6e, 0x74, 0x69,
  0x61, 0x6c, 0x2f, 0x6d, 0x61, 0x78, 0x5f, 0x70, 0x6f, 0x6f, 0x6c, 0x69,
  0x6e, 0x67, 0x31, 0x64, 0x2f, 0x45, 0x78, 0x70, 0x61, 0x6e, 0x64, 0x44,
  0x69, 0x6d, 0x73, 0x00, 0x04, 0x00, 0x00, 0x00, 0x01, 0x00, 0x00, 0x00,
  0x4b, 0x00, 0x00, 0x00, 0x01, 0x00, 0x00, 0x00, 0x08, 0x00, 0x00, 0x00,
  0xc0, 0xf7, 0xff, 0xff, 0x8c, 0x00, 0x00, 0x00, 0x18, 0x00, 0x00, 0x00,
  0x20, 0x00, 0x00, 0x00, 0x18, 0x00, 0x00, 0x00, 0x04, 0x00, 0x00, 0x00,
  0x03, 0x00, 0x00, 0x00, 0xff, 0xff, 0xff, 0xff, 0x4b, 0x00, 0x00, 0x00,
  0x08, 0x00, 0x00, 0x00, 0xb0, 0xf7, 0xff, 0xff, 0x5d, 0x00, 0x00, 0x00,
  0x73, 0x65, 0x71, 0x75, 0x65, 0x6e, 0x74, 0x69, 0x61, 0x6c, 0x2f, 0x63,
  0x6f, 0x6e, 0x76, 0x31, 0x64, 0x2f, 0x52, 0x65, 0x6c, 0x75, 0x3b, 0x73,
  0x65, 0x71, 0x75, 0x65, 0x6e, 0x74, 0x69, 0x61, 0x6c, 0x2f, 0x63, 0x6f,
  0x6e, 0x76, 0x31, 0x64, 0x2f, 0x42, 0x69, 0x61, 0x73, 0x41, 0x64, 0x64,
  0x3b, 0x73, 0x65, 0x71, 0x75, 0x65, 0x6e, 0x74, 0x69, 0x61, 0x6c, 0x2f,
  0x63, 0x6f, 0x6e, 0x76, 0x31, 0x64, 0x2f, 0x43, 0x6f, 0x6e, 0x76, 0x31,
  0x44, 0x2f, 0x53, 0x71, 0x75, 0x65, 0x65, 0x7a, 0x65, 0x3b, 0x63, 0x6f,
  0x6e, 0x76, 0x31, 0x64, 0x2f, 0x62, 0x69, 0x61, 0x73, 0x00, 0x00, 0x00,
  0x03, 0x00, 0x00, 0x00, 0x01, 0x00, 0x00, 0x00, 0x4b, 0x00, 0x00, 0x00,
  0x08, 0x00, 0x00, 0x00, 0x60, 0xf8, 0xff, 0xff, 0xa8, 0x00, 0x00, 0x00,
  0x17, 0x00, 0x00, 0x00, 0x24, 0x00, 0x00, 0x00, 0x1c, 0x00, 0x00, 0x00,
  0x04, 0x00, 0x00, 0x00, 0x04, 0x00, 0x00, 0x00, 0xff, 0xff, 0xff, 0xff,
  0x01, 0x00, 0x00, 0x00, 0x4b, 0x00, 0x00, 0x00, 0x08, 0x00, 0x00, 0x00,
  0x54, 0xf8, 0xff, 0xff, 0x76, 0x00, 0x00, 0x00, 0x73, 0x65, 0x71, 0x75,
  0x65, 0x6e, 0x74, 0x69, 0x61, 0x6c, 0x2f, 0x63, 0x6f, 0x6e, 0x76, 0x31,
  0x64, 0x2f, 0x52, 0x65, 0x6c, 0x75, 0x3b, 0x73, 0x65, 0x71, 0x75, 0x65,
  0x6e, 0x74, 0x69, 0x61, 0x6c, 0x2f, 0x63, 0x6f, 0x6e, 0x76, 0x31, 0x64,
  0x2f, 0x42, 0x69, 0x61, 0x73, 0x41, 0x64, 0x64, 0x3b, 0x73, 0x65, 0x71,
  0x75, 0x65, 0x6e, 0x74, 0x69, 0x61, 0x6c, 0x2f, 0x63, 0x6f, 0x6e, 0x76,
  0x31, 0x64, 0x2f, 0x43, 0x6f, 0x6e, 0x76, 0x31, 0x44, 0x2f, 0x53, 0x71,
  0x75, 0x65, 0x65, 0x7a, 0x65, 0x3b, 0x63, 0x6f, 0x6e, 0x76, 0x31, 0x64,
  0x2f, 0x62, 0x69, 0x61, 0x73, 0x3b, 0x73, 0x65, 0x71, 0x75, 0x65, 0x6e,
  0x74, 0x69, 0x61, 0x6c, 0x2f, 0x63, 0x6f, 0x6e, 0x76, 0x31, 0x64, 0x2f,
  0x43, 0x6f, 0x6e, 0x76, 0x31, 0x44, 0x00, 0x00, 0x04, 0x00, 0x00, 0x00,
  0x01, 0x00, 0x00, 0x00, 0x01, 0x00, 0x00, 0x00, 0x4b, 0x00, 0x00, 0x00,
  0x08, 0x00, 0x00, 0x00, 0x20, 0xf9, 0xff, 0xff, 0x54, 0x00, 0x00, 0x00,
  0x16, 0x00, 0x00, 0x00, 0x24, 0x00, 0x00, 0x00, 0x1c, 0x00, 0x00, 0x00,
  0x04, 0x00, 0x00, 0x00, 0x04, 0x00, 0x00, 0x00, 0xff, 0xff, 0xff, 0xff,
  0x01, 0x00, 0x00, 0x00, 0x4b, 0x00, 0x00, 0x00, 0x34, 0x00, 0x00, 0x00,
  0x14, 0xf9, 0xff, 0xff, 0x23, 0x00, 0x00, 0x00, 0x73, 0x65, 0x71, 0x75,
  0x65, 0x6e, 0x74, 0x69, 0x61, 0x6c, 0x2f, 0x63, 0x6f, 0x6e, 0x76, 0x31,
  0x64, 0x2f, 0x43, 0x6f, 0x6e, 0x76, 0x31, 0x44, 0x2f, 0x45, 0x78, 0x70,
  0x61, 0x6e, 0x64, 0x44, 0x69, 0x6d, 0x73, 0x00, 0x04, 0x00, 0x00, 0x00,
  0x01, 0x00, 0x00, 0x00, 0x01, 0x00, 0x00, 0x00, 0x4b, 0x00, 0x00, 0x00,
  0x34, 0x00, 0x00, 0x00, 0x8c, 0xf9, 0xff, 0xff, 0x48, 0x00, 0x00, 0x00,
  0x15, 0x00, 0x00, 0x00, 0x20, 0x00, 0x00, 0x00, 0x18, 0x00, 0x00, 0x00,
  0x04, 0x00, 0x00, 0x00, 0x03, 0x00, 0x00, 0x00, 0xff, 0xff, 0xff, 0xff,
  0x4b, 0x00, 0x00, 0x00, 0x34, 0x00, 0x00, 0x00, 0x7c, 0xf9, 0xff, 0xff,
  0x1a, 0x00, 0x00, 0x00, 0x73, 0x65, 0x71, 0x75, 0x65, 0x6e, 0x74, 0x69,
  0x61, 0x6c, 0x2f, 0x72, 0x65, 0x73, 0x68, 0x61, 0x70, 0x65, 0x2f, 0x52,
  0x65, 0x73, 0x68, 0x61, 0x70, 0x65, 0x00, 0x00, 0x03, 0x00, 0x00, 0x00,
  0x01, 0x00, 0x00, 0x00, 0x4b, 0x00, 0x00, 0x00, 0x34, 0x00, 0x00, 0x00,
  0xee, 0xfa, 0xff, 0xff, 0x00, 0x00, 0x00, 0x02, 0x3c, 0x00, 0x00, 0x00,
  0x14, 0x00, 0x00, 0x00, 0x0c, 0x00, 0x00, 0x00, 0x04, 0x00, 0x00, 0x00,
  0xc8, 0xf9, 0xff, 0xff, 0x20, 0x00, 0x00, 0x00, 0x73, 0x65, 0x71, 0x75,
  0x65, 0x6e, 0x74, 0x69, 0x61, 0x6c, 0x2f, 0x72, 0x65, 0x73, 0x68, 0x61,
  0x70, 0x65, 0x2f, 0x52, 0x65, 0x73, 0x68, 0x61, 0x70, 0x65, 0x2f, 0x73,
  0x68, 0x61, 0x70, 0x65, 0x00, 0x00, 0x00, 0x00, 0x01, 0x00, 0x00, 0x00,
  0x03, 0x00, 0x00, 0x00, 0xda, 0xfb, 0xff, 0xff, 0x00, 0x00, 0x00, 0x02,
  0x13, 0x00, 0x00, 0x00, 0x0c, 0x00, 0x00, 0x00, 0x04, 0x00, 0x00, 0x00,
  0x10, 0xfa, 0xff, 0xff, 0x20, 0x00, 0x00, 0x00, 0x73, 0x65, 0x71, 0x75,
  0x65, 0x6e, 0x74, 0x69, 0x61, 0x6c, 0x2f, 0x72, 0x65, 0x73, 0x68, 0x61,
  0x70, 0x65, 0x2f, 0x73, 0x74, 0x72, 0x69, 0x64, 0x65, 0x64, 0x5f, 0x73,
  0x6c, 0x69, 0x63, 0x65, 0x00, 0x00, 0x00, 0x00, 0x7a, 0xfb, 0xff, 0xff,
  0x00, 0x00, 0x00, 0x02, 0x34, 0x00, 0x00, 0x00, 0x12, 0x00, 0x00, 0x00,
  0x0c, 0x00, 0x00, 0x00, 0x04, 0x00, 0x00, 0x00, 0x54, 0xfa, 0xff, 0xff,
  0x18, 0x00, 0x00, 0x00, 0x73, 0x65, 0x71, 0x75, 0x65, 0x6e, 0x74, 0x69,
  0x61, 0x6c, 0x2f, 0x72, 0x65, 0x73, 0x68, 0x61, 0x70, 0x65, 0x2f, 0x53,
  0x68, 0x61, 0x70, 0x65, 0x00, 0x00, 0x00, 0x00, 0x01, 0x00, 0x00, 0x00,
  0x02, 0x00, 0x00, 0x00, 0xbe, 0xfb, 0xff, 0xff, 0x00, 0x00, 0x00, 0x02,
  0x3c, 0x00, 0x00, 0x00, 0x11, 0x00, 0x00, 0x00, 0x0c, 0x00, 0x00, 0x00,
  0x04, 0x00, 0x00, 0x00, 0x98, 0xfa, 0xff, 0xff, 0x22, 0x00, 0x00, 0x00,
  0x73, 0x65, 0x71, 0x75, 0x65, 0x6e, 0x74, 0x69, 0x61, 0x6c, 0x2f, 0x63,
  0x6f, 0x6e, 0x76, 0x31, 0x64, 0x5f, 0x31, 0x2f, 0x43, 0x6f, 0x6e, 0x76,
  0x31, 0x44, 0x2f, 0x53, 0x71, 0x75, 0x65, 0x65, 0x7a, 0x65, 0x00, 0x00,
  0x01, 0x00, 0x00, 0x00, 0x03, 0x00, 0x00, 0x00, 0x0a, 0xfc, 0xff, 0xff,
  0x00, 0x00, 0x00, 0x02, 0x3c, 0x00, 0x00, 0x00, 0x10, 0x00, 0x00, 0x00,
  0x0c, 0x00, 0x00, 0x00, 0x04, 0x00, 0x00, 0x00, 0xe4, 0xfa, 0xff, 0xff,
  0x20, 0x00, 0x00, 0x00, 0x73, 0x65, 0x71, 0x75, 0x65, 0x6e, 0x74, 0x69,
  0x61, 0x6c, 0x2f, 0x6d, 0x61, 0x78, 0x5f, 0x70, 0x6f, 0x6f, 0x6c, 0x69,
  0x6e, 0x67, 0x31, 0x64, 0x2f, 0x53, 0x71, 0x75, 0x65, 0x65, 0x7a, 0x65,
  0x00, 0x00, 0x00, 0x00, 0x01, 0x00, 0x00, 0x00, 0x03, 0x00, 0x00, 0x00,
  0x56, 0xfc, 0xff, 0xff, 0x00, 0x00, 0x00, 0x02, 0x3c, 0x00, 0x00, 0x00,
  0x0f, 0x00, 0x00, 0x00, 0x0c, 0x00, 0x00, 0x00, 0x04, 0x00, 0x00, 0x00,
  0x30, 0xfb, 0xff, 0xff, 0x20, 0x00, 0x00, 0x00, 0x73, 0x65, 0x71, 0x75,
  0x65, 0x6e, 0x74, 0x69, 0x61, 0x6c, 0x2f, 0x63, 0x6f, 0x6e, 0x76, 0x31,
  0x64, 0x2f, 0x43, 0x6f, 0x6e, 0x76, 0x31, 0x44, 0x2f, 0x53, 0x71, 0x75,
  0x65, 0x65, 0x7a, 0x65, 0x00, 0x00, 0x00, 0x00, 0x01, 0x00, 0x00, 0x00,
  0x03, 0x00, 0x00, 0x00, 0xda, 0xfb, 0xff, 0xff, 0x34, 0x00, 0x00, 0x00,
  0x0e, 0x00, 0x00, 0x00, 0x0c, 0x00, 0x00, 0x00, 0x04, 0x00, 0x00, 0x00,
  0x78, 0xfb, 0xff, 0xff, 0x1a, 0x00, 0x00, 0x00, 0x73, 0x65, 0x71, 0x75,
  0x65, 0x6e, 0x74, 0x69, 0x61, 0x6c, 0x2f, 0x63, 0x6f, 0x6e, 0x76, 0x31,
  0x64, 0x5f, 0x31, 0x2f, 0x43, 0x6f, 0x6e, 0x76, 0x31, 0x44, 0x00, 0x00,
  0x04, 0x00, 0x00, 0x00, 0x10, 0x00, 0x00, 0x00, 0x01, 0x00, 0x00, 0x00,
  0x03, 0x00, 0x00, 0x00, 0x08, 0x00, 0x00, 0x00, 0xee, 0xfc, 0xff, 0xff,
  0x00, 0x00, 0x00, 0x09, 0x04, 0x01, 0x00, 0x00, 0x0d, 0x00, 0x00, 0x00,
  0xdc, 0x00, 0x00, 0x00, 0x10, 0x00, 0x00, 0x00, 0x0c, 0x00, 0x14, 0x00,
  0x04, 0x00, 0x08, 0x00, 0x0c, 0x00, 0x10, 0x00, 0x0c, 0x00, 0x00, 0x00,
  0xa0, 0x00, 0x00, 0x00, 0x78, 0x00, 0x00, 0x00, 0x50, 0x00, 0x00, 0x00,
  0x04, 0x00, 0x00, 0x00, 0x08, 0x00, 0x00, 0x00, 0x00, 0x00, 0x00, 0x00,
  0x00, 0x00, 0x00, 0x00, 0x00, 0x00, 0x00, 0x00, 0x00, 0x00, 0x00, 0x00,
  0x00, 0x00, 0x00, 0x00, 0x00, 0x00, 0x00, 0x00, 0x00, 0x00, 0x00, 0x00,
  0x00, 0x00, 0x00, 0x00, 0x00, 0x00, 0x00, 0x00, 0x00, 0x00, 0x00, 0x00,
  0x00, 0x00, 0x00, 0x00, 0x00, 0x00, 0x00, 0x00, 0x00, 0x00, 0x00, 0x00,
  0x00, 0x00, 0x00, 0x00, 0x00, 0x00, 0x00, 0x00, 0x00, 0x00, 0x00, 0x00,
  0x00, 0x00, 0x00, 0x00, 0x08, 0x00, 0x00, 0x00, 0x74, 0x85, 0x68, 0x3b,
  0x2b, 0xa8, 0x6a, 0x3b, 0x59, 0xff, 0xbf, 0x3b, 0xab, 0xe9, 0xb3, 0x3b,
  0x43, 0x98, 0x8b, 0x3b, 0x28, 0x3f, 0xa5, 0x3b, 0x77, 0xc5, 0x83, 0x3b,
  0xb5, 0x05, 0x74, 0x3b, 0x08, 0x00, 0x00, 0x00, 0x8b, 0xc9, 0xda, 0x3e,
  0xdb, 0xd2, 0xe8, 0x3e, 0xf4, 0x23, 0x17, 0x3f, 0xd8, 0x81, 0x32, 0x3f,
  0xc3, 0x4a, 0xdc, 0x3e, 0xec, 0x81, 0x19, 0x3f, 0x61, 0x42, 0xdf, 0x3e,
  0x8e, 0x0f, 0xdb, 0x3e, 0x08, 0x00, 0x00, 0x00, 0x69, 0xb4, 0xe6, 0xbe,
  0xf1, 0x0f, 0xd4, 0xbe, 0x5a, 0x7f, 0x3e, 0xbf, 0x9f, 0xae, 0x01, 0xbf,
  0x12, 0x81, 0x0a, 0xbf, 0xaa, 0xf4, 0x23, 0xbf, 0xec, 0xbd, 0x02, 0xbf,
  0xaa, 0x1d, 0xf2, 0xbe, 0x18, 0x00, 0x00, 0x00, 0x73, 0x65, 0x71, 0x75,
  0x65, 0x6e, 0x74, 0x69, 0x61, 0x6c, 0x2f, 0x63, 0x6f, 0x6e, 0x76, 0x31,
  0x64, 0x2f, 0x43, 0x6f, 0x6e, 0x76, 0x31, 0x44, 0x00, 0x00, 0x00, 0x00,
  0x04, 0x00, 0x00, 0x00, 0x08, 0x00, 0x00, 0x00, 0x01, 0x00, 0x00, 0x00,
  0x03, 0x00, 0x00, 0x00, 0x34, 0x00, 0x00, 0x00, 0x46, 0xfd, 0xff, 0xff,
  0x34, 0x00, 0x00, 0x00, 0x0c, 0x00, 0x00, 0x00, 0x0c, 0x00, 0x00, 0x00,
  0x04, 0x00, 0x00, 0x00, 0xe4, 0xfc, 0xff, 0xff, 0x18, 0x00, 0x00, 0x00,
  0x73, 0x65, 0x71, 0x75, 0x65, 0x6e, 0x74, 0x69, 0x61, 0x6c, 0x2f, 0x79,
  0x5f, 0x70, 0x72, 0x65, 0x64, 0x2f, 0x4d, 0x61, 0x74, 0x4d, 0x75, 0x6c,
  0x00, 0x00, 0x00, 0x00, 0x02, 0x00, 0x00, 0x00, 0x02, 0x00, 0x00, 0x00,
  0x30, 0x01, 0x00, 0x00, 0xf2, 0xfe, 0xff, 0xff, 0x00, 0x00, 0x00, 0x02,
  0x0b, 0x00, 0x00, 0x00, 0x0c, 0x00, 0x00, 0x00, 0x04, 0x00, 0x00, 0x00,
  0x28, 0xfd, 0xff, 0xff, 0x27, 0x00, 0x00, 0x00, 0x73, 0x65, 0x71, 0x75,
  0x65, 0x6e, 0x74, 0x69, 0x61, 0x6c, 0x2f, 0x63, 0x6f, 0x6e, 0x76, 0x31,
  0x64, 0x2f, 0x43, 0x6f, 0x6e, 0x76, 0x31, 0x44, 0x2f, 0x45, 0x78, 0x70,
  0x61, 0x6e, 0x64, 0x44, 0x69, 0x6d, 0x73, 0x2f, 0x64, 0x69, 0x6d, 0x00,
  0x96, 0xfe, 0xff, 0xff, 0x00, 0x00, 0x00, 0x02, 0x34, 0x00, 0x00, 0x00,
  0x0a, 0x00, 0x00, 0x00, 0x0c, 0x00, 0x00, 0x00, 0x04, 0x00, 0x00, 0x00,
  0x70, 0xfd, 0xff, 0xff, 0x18, 0x00, 0x00, 0x00, 0x73, 0x65, 0x71, 0x75,
  0x65, 0x6e, 0x74, 0x69, 0x61, 0x6c, 0x2f, 0x66, 0x6c, 0x61, 0x74, 0x74,
  0x65, 0x6e, 0x2f, 0x43, 0x6f, 0x6e, 0x73, 0x74, 0x00, 0x00, 0x00, 0x00,
  0x01, 0x00, 0x00, 0x00, 0x02, 0x00, 0x00, 0x00, 0x7a, 0xff, 0xff, 0xff,
  0x00, 0x00, 0x00, 0x02, 0x09, 0x00, 0x00, 0x00, 0x0c, 0x00, 0x00, 0x00,
  0x04, 0x00, 0x00, 0x00, 0xb0, 0xfd, 0xff, 0xff, 0x27, 0x00, 0x00, 0x00,
  0x73, 0x65, 0x71, 0x75, 0x65, 0x6e, 0x74, 0x69, 0x61, 0x6c, 0x2f, 0x6d,
  0x61, 0x78, 0x5f, 0x70, 0x6f, 0x6f, 0x6c, 0x69, 0x6e, 0x67, 0x31, 0x64,
  0x2f, 0x45, 0x78, 0x70, 0x61, 0x6e, 0x64, 0x44, 0x69, 0x6d, 0x73, 0x2f,
  0x64, 0x69, 0x6d, 0x00, 0xbe, 0xff, 0xff, 0xff, 0x00, 0x00, 0x00, 0x02,
  0x08, 0x00, 0x00, 0x00, 0x0c, 0x00, 0x00, 0x00, 0x04, 0x00, 0x00, 0x00,
  0xf4, 0xfd, 0xff, 0xff, 0x22, 0x00, 0x00, 0x00, 0x73, 0x65, 0x71, 0x75,
  0x65, 0x6e, 0x74, 0x69, 0x61, 0x6c, 0x2f, 0x72, 0x65, 0x73, 0x68, 0x61,
  0x70, 0x65, 0x2f, 0x52, 0x65, 0x73, 0x68, 0x61, 0x70, 0x65, 0x2f, 0x73,
  0x68, 0x61, 0x70, 0x65, 0x2f, 0x31, 0x00, 0x00, 0x00, 0x00, 0x0e, 0x00,
  0x14, 0x00, 0x00, 0x00, 0x07, 0x00, 0x08, 0x00, 0x0c, 0x00, 0x10, 0x00,
  0x0e, 0x00, 0x00, 0x00, 0x00, 0x00, 0x00, 0x02, 0x07, 0x00, 0x00, 0x00,
  0x0c, 0x00, 0x00, 0x00, 0x04, 0x00, 0x00, 0x00, 0x44, 0xfe, 0xff, 0xff,
  0x22, 0x00, 0x00, 0x00, 0x73, 0x65, 0x71, 0x75, 0x65, 0x6e, 0x74, 0x69,
  0x61, 0x6c, 0x2f, 0x72, 0x65, 0x73, 0x68, 0x61, 0x70, 0x65, 0x2f, 0x52,
  0x65, 0x73, 0x68, 0x61, 0x70, 0x65, 0x2f, 0x73, 0x68, 0x61, 0x70, 0x65,
  0x2f, 0x32, 0x00, 0x00, 0xae, 0xff, 0xff, 0xff, 0x00, 0x00, 0x00, 0x02,
  0x40, 0x00, 0x00, 0x00, 0x06, 0x00, 0x00, 0x00, 0x0c, 0x00, 0x00, 0x00,
  0x04, 0x00, 0x00, 0x00, 0x88, 0xfe, 0xff, 0xff, 0x26, 0x00, 0x00, 0x00,
  0x73, 0x65, 0x71, 0x75, 0x65, 0x6e, 0x74, 0x69, 0x61, 0x6c, 0x2f, 0x72,
  0x65, 0x73, 0x68, 0x61, 0x70, 0x65, 0x2f, 0x73, 0x74, 0x72, 0x69, 0x64,
  0x65, 0x64, 0x5f, 0x73, 0x6c, 0x69, 0x63, 0x65, 0x2f, 0x73, 0x74, 0x61,
  0x63, 0x6b, 0x00, 0x00, 0x01, 0x00, 0x00, 0x00, 0x01, 0x00, 0x00, 0x00,
  0x00, 0x00, 0x0e, 0x00, 0x18, 0x00, 0x08, 0x00, 0x07, 0x00, 0x0c, 0x00,
  0x10, 0x00, 0x14, 0x00, 0x0e, 0x00, 0x00, 0x00, 0x00, 0x00, 0x00, 0x02,
  0x44, 0x00, 0x00, 0x00, 0x05, 0x00, 0x00, 0x00, 0x0c, 0x00, 0x00, 0x00,
  0x04, 0x00, 0x00, 0x00, 0xe8, 0xfe, 0xff, 0xff, 0x28, 0x00, 0x00, 0x00,
  0x73, 0x65, 0x71, 0x75, 0x65, 0x6e, 0x74, 0x69, 0x61, 0x6c, 0x2f, 0x72,
  0x65, 0x73, 0x68, 0x61, 0x70, 0x65, 0x2f, 0x73, 0x74, 0x72, 0x69, 0x64,
  0x65, 0x64, 0x5f, 0x73, 0x6c, 0x69, 0x63, 0x65, 0x2f, 0x73, 0x74, 0x61,
  0x63, 0x6b, 0x5f, 0x31, 0x00, 0x00, 0x00, 0x00, 0x01, 0x00, 0x00, 0x00,
  0x01, 0x00, 0x00, 0x00, 0x9a, 0xff, 0xff, 0xff, 0x24, 0x00, 0x00, 0x00,
  0x04, 0x00, 0x00, 0x00, 0x0c, 0x00, 0x00, 0x00, 0x04, 0x00, 0x00, 0x00,
  0x38, 0xff, 0xff, 0xff, 0x0b, 0x00, 0x00, 0x00, 0x63, 0x6f, 0x6e, 0x76,
  0x31, 0x64, 0x2f, 0x62, 0x69, 0x61, 0x73, 0x00, 0x01, 0x00, 0x00, 0x00,
  0x08, 0x00, 0x00, 0x00, 0xca, 0xff, 0xff, 0xff, 0x28, 0x00, 0x00, 0x00,
  0x03, 0x00, 0x00, 0x00, 0x0c, 0x00, 0x00, 0x00, 0x04, 0x00, 0x00, 0x00,
  0x68, 0xff, 0xff, 0xff, 0x0d, 0x00, 0x00, 0x00, 0x63, 0x6f, 0x6e, 0x76,
  0x31, 0x64, 0x5f, 0x31, 0x2f, 0x62, 0x69, 0x61, 0x73, 0x00, 0x00, 0x00,
  0x01, 0x00, 0x00, 0x00, 0x10, 0x00, 0x00, 0x00, 0x00, 0x00, 0x0e, 0x00,
  0x14, 0x00, 0x04, 0x00, 0x00, 0x00, 0x08, 0x00, 0x0c, 0x00, 0x10, 0x00,
  0x0e, 0x00, 0x00, 0x00, 0x24, 0x00, 0x00, 0x00, 0x02, 0x00, 0x00, 0x00,
  0x0c, 0x00, 0x00, 0x00, 0x04, 0x00, 0x00, 0x00, 0xac, 0xff, 0xff, 0xff,
  0x0b, 0x00, 0x00, 0x00, 0x79, 0x5f, 0x70, 0x72, 0x65, 0x64, 0x2f, 0x62,
  0x69, 0x61, 0x73, 0x00, 0x01, 0x00, 0x00, 0x00, 0x02, 0x00, 0x00, 0x00,
  0x14, 0x00, 0x18, 0x00, 0x04, 0x00, 0x00, 0x00, 0x08, 0x00, 0x0c, 0x00,
  0x10, 0x00, 0x00, 0x00, 0x00, 0x00, 0x14, 0x00, 0x14, 0x00, 0x00, 0x00,
  0x4c, 0x00, 0x00, 0x00, 0x01, 0x00, 0x00, 0x00, 0x20, 0x00, 0x00, 0x00,
  0x18, 0x00, 0x00, 0x00, 0x04, 0x00, 0x00, 0x00, 0x02, 0x00, 0x00, 0x00,
  0xff, 0xff, 0xff, 0xff, 0x3c, 0x0f, 0x00, 0x00, 0x04, 0x00, 0x04, 0x00,
  0x04, 0x00, 0x00, 0x00, 0x1f, 0x00, 0x00, 0x00, 0x73, 0x65, 0x72, 0x76,
  0x69, 0x6e, 0x67, 0x5f, 0x64, 0x65, 0x66, 0x61, 0x75, 0x6c, 0x74, 0x5f,
  0x72, 0x65, 0x73, 0x68, 0x61, 0x70, 0x65, 0x5f, 0x69, 0x6e, 0x70, 0x75,
  0x74, 0x3a, 0x30, 0x00, 0x02, 0x00, 0x00, 0x00, 0x01, 0x00, 0x00, 0x00,
  0x3c, 0x0f, 0x00, 0x00, 0x09, 0x00, 0x00, 0x00, 0xa4, 0x00, 0x00, 0x00,
  0x88, 0x00, 0x00, 0x00, 0x78, 0x00, 0x00, 0x00, 0x68, 0x00, 0x00, 0x00,
  0x58, 0x00, 0x00, 0x00, 0x44, 0x00, 0x00, 0x00, 0x28, 0x00, 0x00, 0x00,
  0x14, 0x00, 0x00, 0x00, 0x04, 0x00, 0x00, 0x00, 0x8c, 0xff, 0xff, 0xff,
  0x00, 0x00, 0x00, 0x19, 0x19, 0x00, 0x00, 0x00, 0xe4, 0xff, 0xff, 0xff,
  0x00, 0x00, 0x00, 0x09, 0x09, 0x00, 0x00, 0x00, 0x09, 0x00, 0x00, 0x00,
  0xa8, 0xff, 0xff, 0xff, 0x00, 0x00, 0x00, 0x11, 0x11, 0x00, 0x00, 0x00,
  0x0c, 0x00, 0x10, 0x00, 0x07, 0x00, 0x00, 0x00, 0x08, 0x00, 0x0c, 0x00,
  0x0c, 0x00, 0x00, 0x00, 0x00, 0x00, 0x00, 0x03, 0x05, 0x00, 0x00, 0x00,
  0x03, 0x00, 0x00, 0x00, 0xd0, 0xff, 0xff, 0xff, 0x00, 0x00, 0x00, 0x46,
  0x46, 0x00, 0x00, 0x00, 0xdc, 0xff, 0xff, 0xff, 0x00, 0x00, 0x00, 0x16,
  0x16, 0x00, 0x00, 0x00, 0xe8, 0xff, 0xff, 0xff, 0x00, 0x00, 0x00, 0x53,
  0x53, 0x00, 0x00, 0x00, 0xf4, 0xff, 0xff, 0xff, 0x00, 0x00, 0x00, 0x2d,
  0x2d, 0x00, 0x00, 0x00, 0x0c, 0x00, 0x0c, 0x00, 0x07, 0x00, 0x00, 0x00,
  0x00, 0x00, 0x08, 0x00, 0x0c, 0x00, 0x00, 0x00, 0x00, 0x00, 0x00, 0x4d,
  0x4d, 0x00, 0x00, 0x00
};
unsigned int saved_tflite_model_mfcc_default_tflite_len = 11392;
