unsigned char mfcc_int8_model[] = {
  0x20, 0x00, 0x00, 0x00, 0x54, 0x46, 0x4c, 0x33, 0x00, 0x00, 0x00, 0x00,
  0x00, 0x00, 0x12, 0x00, 0x1c, 0x00, 0x04, 0x00, 0x08, 0x00, 0x0c, 0x00,
  0x10, 0x00, 0x14, 0x00, 0x00, 0x00, 0x18, 0x00, 0x12, 0x00, 0x00, 0x00,
  0x03, 0x00, 0x00, 0x00, 0x44, 0x1f, 0x00, 0x00, 0xf0, 0x0a, 0x00, 0x00,
  0xd8, 0x0a, 0x00, 0x00, 0x3c, 0x00, 0x00, 0x00, 0x04, 0x00, 0x00, 0x00,
  0x01, 0x00, 0x00, 0x00, 0x0c, 0x00, 0x00, 0x00, 0x08, 0x00, 0x0c, 0x00,
  0x04, 0x00, 0x08, 0x00, 0x08, 0x00, 0x00, 0x00, 0x08, 0x00, 0x00, 0x00,
  0x18, 0x00, 0x00, 0x00, 0x13, 0x00, 0x00, 0x00, 0x6d, 0x69, 0x6e, 0x5f,
  0x72, 0x75, 0x6e, 0x74, 0x69, 0x6d, 0x65, 0x5f, 0x76, 0x65, 0x72, 0x73,
  0x69, 0x6f, 0x6e, 0x00, 0x19, 0x00, 0x00, 0x00, 0x90, 0x0a, 0x00, 0x00,
  0x74, 0x0a, 0x00, 0x00, 0x54, 0x0a, 0x00, 0x00, 0x34, 0x0a, 0x00, 0x00,
  0x14, 0x0a, 0x00, 0x00, 0x44, 0x05, 0x00, 0x00, 0xf4, 0x04, 0x00, 0x00,
  0x64, 0x03, 0x00, 0x00, 0x34, 0x03, 0x00, 0x00, 0xb4, 0x00, 0x00, 0x00,
  0xac, 0x00, 0x00, 0x00, 0xa4, 0x00, 0x00, 0x00, 0x9c, 0x00, 0x00, 0x00,
  0x94, 0x00, 0x00, 0x00, 0x8c, 0x00, 0x00, 0x00, 0x6c, 0x00, 0x00, 0x00,
  0x64, 0x00, 0x00, 0x00, 0x5c, 0x00, 0x00, 0x00, 0x54, 0x00, 0x00, 0x00,
  0x4c, 0x00, 0x00, 0x00, 0x44, 0x00, 0x00, 0x00, 0x3c, 0x00, 0x00, 0x00,
  0x24, 0x00, 0x00, 0x00, 0x1c, 0x00, 0x00, 0x00, 0x04, 0x00, 0x00, 0x00,
  0x72, 0xf2, 0xff, 0xff, 0x04, 0x00, 0x00, 0x00, 0x05, 0x00, 0x00, 0x00,
  0x31, 0x2e, 0x35, 0x2e, 0x30, 0x00, 0x00, 0x00, 0xa0, 0xe3, 0xff, 0xff,
  0x8a, 0xf2, 0xff, 0xff, 0x04, 0x00, 0x00, 0x00, 0x08, 0x00, 0x00, 0x00,
  0xcb, 0xff, 0xff, 0xff, 0x35, 0x00, 0x00, 0x00, 0xb8, 0xe3, 0xff, 0xff,
  0xbc, 0xe3, 0xff, 0xff, 0xc0, 0xe3, 0xff, 0xff, 0xc4, 0xe3, 0xff, 0xff,
  0xc8, 0xe3, 0xff, 0xff, 0xcc, 0xe3, 0xff, 0xff, 0xb6, 0xf2, 0xff, 0xff,
  0x04, 0x00, 0x00, 0x00, 0x10, 0x00, 0x00, 0x00, 0x01, 0x00, 0x00, 0x00,
  0x01, 0x00, 0x00, 0x00, 0x96, 0x00, 0x00, 0x00, 0x1a, 0x00, 0x00, 0x00,
  0xec, 0xe3, 0xff, 0xff, 0xf0, 0xe3, 0xff, 0xff, 0xf4, 0xe3, 0xff, 0xff,
  0xf8, 0xe3, 0xff, 0xff, 0xfc, 0xe3, 0xff, 0xff, 0xe6, 0xf2, 0xff, 0xff,
  0x04, 0x00, 0x00, 0x00, 0x70, 0x02, 0x00, 0x00, 0xfe, 0xe4, 0xde, 0x29,
  0x0b, 0xf1, 0xd2, 0x02, 0xf2, 0x1c, 0x0b, 0xd1, 0xf8, 0x61, 0x81, 0xf2,
  0x99, 0x18, 0x1f, 0x3d, 0xe7, 0x06, 0xb5, 0x47, 0x6b, 0x08, 0x23, 0xf4,
  0xe6, 0x25, 0x15, 0xd9, 0x19, 0xb8, 0xf3, 0x19, 0x4d, 0x46, 0xd9, 0xf8,
  0xaa, 0x06, 0xe7, 0x03, 0xf8, 0xec, 0x1b, 0x2b, 0xcc, 0x2d, 0xd6, 0x12,
  0xf6, 0x31, 0xf7, 0x06, 0x24, 0x23, 0x1e, 0xd0, 0x42, 0x0c, 0xec, 0x0b,
  0xe1, 0xb6, 0x94, 0x1d, 0xd1, 0x1f, 0x24, 0x1c, 0xfa, 0x4c, 0xcf, 0x14,
  0xc0, 0x50, 0x22, 0x22, 0xf2, 0xb7, 0x1b, 0xda, 0xfe, 0xc0, 0xd4, 0xd8,
  0x02, 0xf2, 0x02, 0xba, 0xf5, 0x32, 0x52, 0xd2, 0xd9, 0x81, 0x04, 0x0b,
  0x5e, 0x25, 0x98, 0xf4, 0xe5, 0xf8, 0xe3, 0x21, 0x50, 0x93, 0x21, 0x0c,
  0xd1, 0xdd, 0x29, 0xe9, 0x16, 0xd9, 0x15, 0xf2, 0xe9, 0x28, 0x11, 0xa9,
  0x2a, 0xe5, 0xe0, 0x26, 0xc5, 0xcc, 0x09, 0xe6, 0xd0, 0x04, 0xf8, 0xc6,
  0xd2, 0x3a, 0xfe, 0x16, 0x49, 0xd1, 0x41, 0xee, 0x30, 0xf6, 0xb6, 0xdb,
  0x04, 0xb7, 0x1d, 0xaa, 0xc4, 0xb4, 0x96, 0xa3, 0x36, 0x37, 0x10, 0xf4,
  0x41, 0xd8, 0x4f, 0xb0, 0xf0, 0x06, 0x0b, 0xca, 0x11, 0x9e, 0x04, 0xc1,
  0x05, 0x4b, 0xfa, 0x64, 0xf7, 0x2b, 0x37, 0x28, 0x47, 0x79, 0xfb, 0xf8,
  0x30, 0x2c, 0xe4, 0x9d, 0x38, 0x27, 0x11, 0xd3, 0x2f, 0xd8, 0x82, 0x11,
  0x0c, 0x2d, 0x7d, 0x67, 0x21, 0xcf, 0x27, 0xf3, 0x1b, 0x6d, 0x2d, 0x02,
  0xe8, 0xfa, 0xfc, 0x4d, 0xf7, 0xbb, 0x2a, 0x08, 0x36, 0xeb, 0x10, 0xb2,
  0x81, 0xa8, 0x1c, 0xe6, 0x1a, 0xf7, 0xfc, 0x18, 0x61, 0x57, 0xdf, 0xdd,
  0x6f, 0x06, 0x31, 0x03, 0xeb, 0x21, 0xfc, 0x01, 0x18, 0x1a, 0x1f, 0x09,
  0xfd, 0x38, 0x22, 0xdf, 0xe6, 0x73, 0xc3, 0xe5, 0xd9, 0xf2, 0x2d, 0xd6,
  0xb2, 0xe5, 0x34, 0xf8, 0x39, 0xe5, 0xe2, 0xc6, 0xf5, 0x1f, 0xef, 0xf2,
  0x54, 0xca, 0xd9, 0xff, 0xde, 0x00, 0x81, 0x16, 0xfb, 0xd1, 0xf9, 0xfd,
  0xcd, 0x01, 0xc5, 0xde, 0x03, 0xe6, 0x0a, 0xd3, 0xff, 0x06, 0xc6, 0xe2,
  0xee, 0xf6, 0x0f, 0xee, 0xd8, 0x06, 0x0c, 0xf5, 0x98, 0x30, 0xe5, 0x21,
  0xca, 0x02, 0xd1, 0xb6, 0x01, 0x2b, 0x29, 0x35, 0x0b, 0xe4, 0x41, 0xec,
  0xdc, 0xfe, 0x92, 0x32, 0x79, 0x42, 0x41, 0x25, 0xc0, 0xe7, 0x49, 0xac,
  0xda, 0x32, 0x48, 0xa9, 0x4e, 0xb0, 0xd6, 0xce, 0x38, 0xf6, 0x05, 0xd3,
  0xc9, 0xda, 0xe6, 0xf2, 0x0a, 0xdc, 0x38, 0xda, 0x7f, 0x26, 0x53, 0x2f,
  0x17, 0xec, 0xa4, 0xff, 0x0f, 0x20, 0x3a, 0xb2, 0xe8, 0x60, 0x4d, 0x25,
  0x00, 0x39, 0x3e, 0xd6, 0xbe, 0xfc, 0x31, 0xb5, 0xe8, 0x00, 0xe4, 0xc6,
  0x0e, 0x21, 0x64, 0x30, 0xcb, 0x2c, 0x2c, 0x28, 0xea, 0x47, 0xf2, 0x3a,
  0xb7, 0xfd, 0x2c, 0x0e, 0x04, 0xf8, 0xee, 0xc2, 0xbd, 0x0e, 0xae, 0x02,
  0xf3, 0x09, 0xfc, 0x7f, 0xab, 0x1e, 0xde, 0x01, 0xe8, 0x3f, 0x0c, 0x1b,
  0xf7, 0xd1, 0x21, 0xdd, 0x12, 0x21, 0x10, 0xec, 0x22, 0xf5, 0xe0, 0xec,
  0x03, 0xe8, 0xfd, 0x5d, 0x9e, 0x1f, 0xc9, 0x3b, 0xdf, 0xf1, 0xf2, 0xf6,
  0x27, 0x24, 0xd1, 0xad, 0xf7, 0x35, 0x0b, 0x32, 0xdf, 0x06, 0x11, 0xf8,
  0xfb, 0xce, 0xf6, 0xe5, 0xf7, 0x07, 0x23, 0x15, 0xf0, 0x4c, 0xf7, 0xfd,
  0xf6, 0x13, 0x02, 0x3c, 0xad, 0xfb, 0x02, 0x3b, 0x0c, 0x3a, 0x45, 0x54,
  0xe8, 0x27, 0xd8, 0x94, 0x55, 0x24, 0x5b, 0xed, 0x9c, 0x30, 0x5f, 0x01,
  0x51, 0xfe, 0xa5, 0xbb, 0xe1, 0xf8, 0x05, 0xf8, 0x1b, 0xee, 0x0b, 0xff,
  0x0b, 0xe9, 0xe6, 0xb5, 0x1e, 0xb4, 0x27, 0x13, 0x3d, 0x29, 0x20, 0xe8,
  0x63, 0x30, 0x48, 0x15, 0x0a, 0xd2, 0xed, 0xb8, 0x5c, 0xe7, 0x20, 0x6b,
  0x38, 0xe2, 0x3f, 0x3a, 0x02, 0xf1, 0x12, 0xe1, 0xe7, 0x1a, 0x56, 0x3b,
  0xfb, 0x43, 0x5a, 0xea, 0x74, 0xf2, 0xfc, 0x3f, 0xf5, 0x0b, 0x7f, 0xc9,
  0x07, 0x78, 0xd8, 0xea, 0x0b, 0xf4, 0xb5, 0x23, 0x35, 0x06, 0xf9, 0xa8,
  0xeb, 0x02, 0x2c, 0xfb, 0x3e, 0xb4, 0xca, 0x19, 0xd7, 0xd0, 0x11, 0xc5,
  0xc2, 0x1c, 0xd5, 0x7c, 0x2e, 0x31, 0xfb, 0xf8, 0x33, 0x0e, 0xfe, 0x03,
  0xe4, 0x89, 0x3c, 0xe4, 0xe5, 0xbe, 0x29, 0x9d, 0x4a, 0xcf, 0x16, 0x06,
  0x66, 0xfc, 0x33, 0xcc, 0xf2, 0xce, 0xf8, 0xd5, 0xf8, 0xfb, 0xdc, 0x0d,
  0x06, 0x17, 0xcc, 0x19, 0xd3, 0xe4, 0x6b, 0x82, 0x20, 0x05, 0x2d, 0xd6,
  0xb0, 0x81, 0x00, 0xe5, 0xd6, 0xf3, 0x24, 0x73, 0x62, 0xf5, 0xff, 0xff,
  0x04, 0x00, 0x00, 0x00, 0x20, 0x00, 0x00, 0x00, 0xc0, 0xff, 0xff, 0xff,
  0x71, 0xff, 0xff, 0xff, 0x9f, 0xff, 0xff, 0xff, 0x4d, 0x00, 0x00, 0x00,
  0x27, 0xff, 0xff, 0xff, 0xd9, 0xff, 0xff, 0xff, 0xf6, 0xfe, 0xff, 0xff,
  0x23, 0xff, 0xff, 0xff, 0x8e, 0xf5, 0xff, 0xff, 0x04, 0x00, 0x00, 0x00,
  0x80, 0x01, 0x00, 0x00, 0xc3, 0x4e, 0x1b, 0xfc, 0xf4, 0xe7, 0x9b, 0x33,
  0x4c, 0xc3, 0xf1, 0x7f, 0x06, 0xf7, 0x28, 0x59, 0xe5, 0x2c, 0xee, 0x2a,
  0xc2, 0xd4, 0x3b, 0xac, 0x21, 0xf8, 0xbc, 0x78, 0xe9, 0xd4, 0xab, 0x44,
  0xda, 0xd3, 0xc3, 0x6b, 0xf4, 0x7f, 0xc7, 0xd6, 0x3b, 0xe6, 0xee, 0xd4,
  0xfa, 0x78, 0xf0, 0xf0, 0xc0, 0x49, 0xe8, 0x5b, 0x49, 0xb3, 0x02, 0xd2,
  0x18, 0xb3, 0x07, 0x00, 0xf0, 0xeb, 0xee, 0xd8, 0x2b, 0x81, 0xfe, 0x43,
  0xe1, 0xc4, 0x1b, 0x18, 0xa8, 0x00, 0x0d, 0x1c, 0x10, 0xd2, 0x03, 0x61,
  0xd0, 0xde, 0xdc, 0x04, 0xd8, 0xf9, 0x81, 0x54, 0xa3, 0x1f, 0xb5, 0x21,
  0xfe, 0xea, 0x99, 0x0c, 0x7f, 0x39, 0xc7, 0x27, 0x21, 0x6b, 0xb2, 0xbd,
  0xdd, 0x24, 0xe7, 0xfa, 0x17, 0xf3, 0x09, 0xa4, 0x66, 0xc0, 0x4d, 0xa1,
  0xbe, 0x77, 0x0e, 0x19, 0xc5, 0xd1, 0x00, 0x37, 0x02, 0x44, 0x28, 0x96,
  0x7f, 0xba, 0x12, 0x3d, 0x0b, 0x3a, 0x22, 0x95, 0x62, 0xef, 0x09, 0x7d,
  0xd4, 0x12, 0xc1, 0xbd, 0x0d, 0x43, 0xd3, 0x81, 0x8b, 0xf0, 0x78, 0x26,
  0xb9, 0x35, 0x61, 0x1a, 0x8b, 0x10, 0x67, 0xc6, 0x98, 0xc2, 0xdb, 0x27,
  0xc6, 0x48, 0x63, 0x8a, 0x99, 0x3d, 0xe3, 0xd7, 0xfa, 0xc2, 0x46, 0xdf,
  0xbf, 0x02, 0xc8, 0xef, 0x1f, 0xae, 0xea, 0x42, 0xb2, 0xf9, 0x30, 0x81,
  0x26, 0xaa, 0xfa, 0xda, 0xea, 0x79, 0x71, 0xb5, 0x12, 0xb1, 0x17, 0x5a,
  0xea, 0x2a, 0x5e, 0xd2, 0x91, 0x81, 0x00, 0xe2, 0xfb, 0x0f, 0x02, 0x1e,
  0xba, 0x8c, 0xc4, 0xe6, 0x2b, 0x1a, 0xe4, 0xd7, 0xc5, 0x2a, 0xf3, 0xf0,
  0x30, 0xfa, 0xf4, 0x81, 0xce, 0x1d, 0xcd, 0x0f, 0x00, 0x38, 0x39, 0x84,
  0xac, 0x46, 0xf7, 0x1b, 0xb1, 0xa9, 0xf9, 0x6f, 0xd6, 0x2f, 0x61, 0x16,
  0x02, 0x81, 0xf4, 0x4c, 0x06, 0x1a, 0xf3, 0xd0, 0x10, 0x9c, 0xed, 0xf4,
  0x1a, 0x09, 0x25, 0xfe, 0xee, 0xf1, 0xb4, 0xf7, 0x12, 0x10, 0xbe, 0xdd,
  0xe4, 0x50, 0xda, 0xc4, 0xb6, 0x0d, 0xea, 0x42, 0x1b, 0x2b, 0x81, 0xc5,
  0x16, 0x28, 0xc1, 0x2b, 0xd2, 0x25, 0xfd, 0xf3, 0x93, 0xf1, 0x0f, 0x16,
  0x00, 0x02, 0x7f, 0x52, 0xa1, 0xdc, 0x29, 0x15, 0x1e, 0x77, 0xdb, 0xcb,
  0xff, 0x2b, 0xfc, 0xe3, 0xda, 0x52, 0xf1, 0x81, 0xc3, 0x3a, 0x94, 0xc4,
  0x47, 0xfa, 0xb2, 0xbd, 0x67, 0xdb, 0xd7, 0x0f, 0x35, 0xe1, 0x29, 0xfe,
  0xe2, 0xeb, 0xe8, 0xfb, 0x44, 0x99, 0xc6, 0xa2, 0xc0, 0xac, 0x4f, 0xc6,
  0x9f, 0xdf, 0xb4, 0xb8, 0x3e, 0xd6, 0x30, 0xff, 0x15, 0x01, 0x2b, 0xb9,
  0x54, 0x00, 0x29, 0x7f, 0xc6, 0x70, 0xbc, 0xee, 0xdd, 0x8a, 0x5d, 0xf3,
  0xf6, 0xfc, 0x94, 0x81, 0xd1, 0x8f, 0x14, 0xe1, 0x23, 0x54, 0xf4, 0x9b,
  0x36, 0xef, 0x65, 0x44, 0x1a, 0xf7, 0xff, 0xff, 0x04, 0x00, 0x00, 0x00,
  0x40, 0x00, 0x00, 0x00, 0xbd, 0xfd, 0xff, 0xff, 0xef, 0xfd, 0xff, 0xff,
  0x57, 0xfa, 0xff, 0xff, 0x2f, 0x02, 0x00, 0x00, 0x39, 0xfb, 0xff, 0xff,
  0x90, 0x01, 0x00, 0x00, 0xbd, 0xfe, 0xff, 0xff, 0x71, 0x00, 0x00, 0x00,
  0xfc, 0x00, 0x00, 0x00, 0xcd, 0xfa, 0xff, 0xff, 0x1c, 0x00, 0x00, 0x00,
  0xb2, 0xfc, 0xff, 0xff, 0x62, 0xfe, 0xff, 0xff, 0x10, 0xfc, 0xff, 0xff,
  0xd6, 0xfc, 0xff, 0xff, 0xba, 0xfe, 0xff, 0xff, 0x66, 0xf7, 0xff, 0xff,
  0x04, 0x00, 0x00, 0x00, 0xc0, 0x04, 0x00, 0x00, 0x04, 0x3a, 0x2b, 0xe6,
  0x26, 0x0c, 0xec, 0x11, 0x04, 0xe7, 0x2b, 0xe1, 0xe2, 0x0b, 0xeb, 0x03,
  0xec, 0xaa, 0x17, 0x0f, 0x0f, 0x22, 0x0b, 0xf4, 0x03, 0xe8, 0x15, 0xec,
  0x20, 0xe3, 0x10, 0xd4, 0x08, 0x95, 0xf7, 0x4c, 0xa7, 0xf1, 0xf0, 0x14,
  0x0f, 0x08, 0xe2, 0x28, 0x1a, 0xdf, 0xfd, 0xdf, 0xfc, 0xe6, 0xd0, 0x44,
  0x0e, 0x0f, 0x1f, 0xef, 0x1a, 0xf2, 0xec, 0x30, 0x1d, 0x06, 0x00, 0xe5,
  0x14, 0x32, 0x1a, 0xf7, 0x22, 0x3a, 0xfd, 0xda, 0x0c, 0x0e, 0xf9, 0xf3,
  0xe3, 0xe8, 0xcf, 0xd0, 0x19, 0x58, 0x28, 0x09, 0xef, 0x0d, 0x08, 0xe3,
  0xee, 0xf5, 0x07, 0xf3, 0xfd, 0x15, 0xe3, 0x01, 0x11, 0x7f, 0x01, 0xfc,
  0x33, 0x26, 0x00, 0xf4, 0xf6, 0xef, 0xfa, 0xc7, 0x19, 0x19, 0xde, 0x02,
  0xc5, 0x2f, 0xd8, 0xe5, 0x35, 0x39, 0x19, 0xb2, 0xfd, 0x4b, 0xe0, 0xea,
  0x22, 0xec, 0xf7, 0xdf, 0x21, 0xe7, 0xe7, 0xec, 0x1b, 0x29, 0x29, 0xcf,
  0x2e, 0xf6, 0xd7, 0xfe, 0x03, 0x07, 0xec, 0xe3, 0x20, 0x18, 0x5d, 0xcf,
  0xe8, 0x4b, 0x08, 0xd8, 0xff, 0xf6, 0x07, 0xc4, 0x0d, 0x05, 0xd4, 0xd7,
  0xfa, 0x1b, 0x14, 0xab, 0xf9, 0x50, 0x0a, 0x96, 0xc9, 0x0b, 0xff, 0x0f,
  0x0c, 0xd4, 0x1c, 0x0d, 0xef, 0xf9, 0x13, 0xc7, 0x1d, 0xf4, 0x12, 0xf5,
  0x06, 0xfe, 0xf0, 0x18, 0x1e, 0x13, 0x05, 0x01, 0x0e, 0xe5, 0xa9, 0xcb,
  0xfc, 0x07, 0xe6, 0xf6, 0x06, 0xf4, 0xef, 0xd8, 0xfd, 0x0e, 0x1d, 0xf9,
  0xec, 0xec, 0x19, 0xb8, 0x21, 0x24, 0x0e, 0xb6, 0xe6, 0xc8, 0xc5, 0xe9,
  0xd4, 0x41, 0xdd, 0xda, 0xcd, 0xfe, 0xb7, 0xda, 0x1e, 0x01, 0x20, 0xc4,
  0xdf, 0xe9, 0x25, 0xf5, 0x01, 0xe6, 0x09, 0xeb, 0xfa, 0xd9, 0xa7, 0x12,
  0x0a, 0x01, 0x11, 0x09, 0x24, 0x30, 0xec, 0xf2, 0xea, 0x0f, 0x13, 0x12,
  0x00, 0x42, 0xf5, 0xd9, 0x2d, 0x4b, 0x00, 0xe5, 0x0c, 0xf1, 0x44, 0xc6,
  0xf0, 0x02, 0x1d, 0xdf, 0xf9, 0x05, 0xfd, 0xf3, 0x00, 0x27, 0x0e, 0x05,
  0xe4, 0xee, 0x56, 0xf5, 0x0b, 0xac, 0x03, 0x00, 0x03, 0xc8, 0xfa, 0xfa,
  0xe9, 0x19, 0xeb, 0x54, 0xd7, 0xde, 0x25, 0x0e, 0xe2, 0x0b, 0x26, 0xfe,
  0xf2, 0xe0, 0x54, 0xf7, 0xe9, 0x19, 0x1c, 0x2b, 0x08, 0xb5, 0x00, 0x11,
  0xe4, 0xf5, 0xfb, 0xf6, 0xf5, 0x04, 0xda, 0x09, 0xd6, 0x15, 0xf9, 0xf8,
  0xd2, 0xd8, 0x1c, 0xe8, 0xec, 0xe9, 0x05, 0xfe, 0xfd, 0xf6, 0xcb, 0xfc,
  0xdf, 0xd6, 0xf2, 0xf1, 0x04, 0xe5, 0xcb, 0xe9, 0xe7, 0xe2, 0x0b, 0xd7,
  0xe4, 0x0c, 0x10, 0x30, 0xf8, 0xf3, 0xee, 0x03, 0xff, 0xc3, 0x16, 0xf7,
  0x16, 0xe1, 0x09, 0xdc, 0x23, 0x1e, 0xd8, 0x42, 0xee, 0xee, 0x04, 0x14,
  0xe0, 0x11, 0x24, 0x00, 0x05, 0xbe, 0xfd, 0xee, 0x28, 0x22, 0x10, 0x0c,
  0xf4, 0x24, 0x12, 0xdb, 0x07, 0xd1, 0x1c, 0xed, 0x0a, 0x1e, 0xcd, 0xe9,
  0xf5, 0xe4, 0x9a, 0x00, 0xdb, 0xf3, 0x25, 0xed, 0xd7, 0x0b, 0x1c, 0x01,
  0xf2, 0xfa, 0xf0, 0xfb, 0xf8, 0xf8, 0xd9, 0xe1, 0xfb, 0xf5, 0x26, 0xfd,
  0x22, 0xf3, 0x1f, 0x27, 0xff, 0xfb, 0x23, 0x29, 0xfb, 0x07, 0xda, 0xe2,
  0x2c, 0xef, 0x2b, 0x5e, 0x08, 0x3b, 0xf3, 0xf0, 0x0e, 0x34, 0x2b, 0x22,
  0x03, 0xdc, 0xf1, 0xc5, 0x02, 0x1b, 0x2d, 0x2a, 0x26, 0x25, 0xec, 0xe1,
  0x27, 0x35, 0x1b, 0x16, 0x10, 0xb6, 0x3b, 0xc6, 0xe1, 0x20, 0x12, 0xd0,
  0x2a, 0xdb, 0x0e, 0xd2, 0xe8, 0xc7, 0xfd, 0xd9, 0xff, 0x12, 0xf8, 0xfe,
  0xe4, 0x08, 0x01, 0xc3, 0xf1, 0xf3, 0x3a, 0xc1, 0x2a, 0xa6, 0x07, 0xe0,
  0x02, 0x23, 0x19, 0xb2, 0x49, 0x58, 0xe4, 0xd1, 0xed, 0x1a, 0x10, 0xc7,
  0x02, 0x27, 0xf0, 0x0d, 0xea, 0x30, 0xc7, 0x32, 0x0c, 0x12, 0x10, 0x0a,
  0xfd, 0x22, 0x1c, 0x2c, 0xdf, 0xc7, 0x22, 0x06, 0x00, 0x26, 0x33, 0xf6,
  0x14, 0x12, 0x29, 0x0a, 0xf4, 0x03, 0x27, 0x12, 0x0d, 0xd7, 0x12, 0x00,
  0xf7, 0xe3, 0xd6, 0x22, 0x07, 0xdf, 0xea, 0xf5, 0x26, 0xff, 0xfb, 0x29,
  0x06, 0x35, 0xed, 0xfc, 0xe1, 0x25, 0x09, 0xb6, 0x13, 0x46, 0xdc, 0xca,
  0x06, 0x1c, 0xc3, 0x02, 0x11, 0x18, 0xe3, 0xe3, 0xf5, 0x60, 0x03, 0x9e,
  0x14, 0x1f, 0xf8, 0xb2, 0xd4, 0x00, 0xf6, 0xf9, 0x1f, 0x1a, 0xee, 0xd0,
  0xec, 0x07, 0x32, 0xcc, 0xf4, 0x27, 0xf6, 0x24, 0xe8, 0x16, 0x27, 0x01,
  0xda, 0x18, 0xf4, 0xdb, 0x18, 0x9c, 0xf0, 0xf2, 0xdf, 0xe5, 0xf3, 0xce,
  0x05, 0xfa, 0xd3, 0x02, 0x12, 0x06, 0x02, 0x0e, 0xf3, 0x4e, 0xc5, 0x0b,
  0xe9, 0xcd, 0x04, 0x10, 0xf7, 0xeb, 0xe3, 0x08, 0x13, 0x0f, 0x08, 0x19,
  0xee, 0x3f, 0x13, 0x9e, 0x31, 0x24, 0xef, 0xe9, 0xcc, 0x11, 0xe8, 0xff,
  0xfa, 0x1a, 0x1d, 0x16, 0x0f, 0xfe, 0x32, 0xcf, 0x1e, 0xe9, 0xe1, 0x36,
  0xea, 0x13, 0x23, 0xde, 0xcd, 0xfe, 0x19, 0x02, 0xdb, 0xd3, 0xed, 0xfd,
  0xff, 0xca, 0x1c, 0x47, 0xf5, 0x02, 0x23, 0xf8, 0x05, 0x19, 0x0e, 0x31,
  0xde, 0x95, 0xbb, 0xf5, 0xf0, 0xe4, 0xec, 0xec, 0x0f, 0xe8, 0xed, 0x05,
  0x07, 0xbe, 0xf4, 0x0c, 0xec, 0x94, 0xe7, 0x0f, 0xe8, 0xad, 0xef, 0x13,
  0x2e, 0xe8, 0xd7, 0x3f, 0x0e, 0x0d, 0x2b, 0x1c, 0x13, 0xb7, 0x16, 0x24,
  0xd4, 0xc5, 0x15, 0x50, 0x0b, 0xce, 0x1f, 0xea, 0xdc, 0x1d, 0xf3, 0x15,
  0x1c, 0x05, 0x14, 0x1a, 0xcf, 0xe9, 0xcf, 0x35, 0xe3, 0xfc, 0x2f, 0x06,
  0xd9, 0xed, 0x28, 0xf7, 0xe6, 0xeb, 0xae, 0x12, 0xe7, 0xba, 0xef, 0x04,
  0xf0, 0x3a, 0xec, 0x38, 0xe6, 0xfa, 0x0f, 0x06, 0x13, 0xbf, 0xe1, 0x39,
  0xd8, 0xd8, 0x0b, 0x43, 0x19, 0xdd, 0xeb, 0xfa, 0x16, 0x29, 0xf3, 0x1e,
  0x22, 0xe1, 0xe6, 0x2f, 0xd0, 0xe4, 0xf7, 0x26, 0x10, 0xf5, 0xe0, 0xeb,
  0x13, 0x0b, 0x0e, 0x08, 0x0e, 0x06, 0x3e, 0x1b, 0xeb, 0x02, 0x27, 0x2e,
  0xf8, 0x10, 0x24, 0x01, 0xeb, 0xdd, 0x1b, 0x2a, 0x10, 0xd9, 0xe2, 0x3e,
  0xf4, 0xe1, 0x0f, 0x2e, 0x1f, 0x00, 0x2f, 0x47, 0x32, 0xd9, 0x10, 0x31,
  0x0e, 0x15, 0x53, 0x00, 0x1c, 0xf3, 0x0e, 0x34, 0x08, 0xe1, 0xf1, 0x1a,
  0x07, 0x41, 0x10, 0x26, 0xf4, 0x33, 0x2b, 0x03, 0xfd, 0x0f, 0x10, 0x27,
  0xf0, 0xdb, 0xfb, 0x1e, 0xe0, 0xed, 0x21, 0x1d, 0x06, 0xea, 0xf0, 0x44,
  0xd7, 0xc1, 0xe0, 0x0d, 0x00, 0x0e, 0xe6, 0x1f, 0x06, 0xd3, 0xe1, 0xed,
  0x0b, 0x1d, 0x38, 0x0a, 0x02, 0xcf, 0x02, 0xeb, 0x04, 0x1c, 0xc8, 0x27,
  0xf1, 0x46, 0x03, 0x2a, 0x23, 0x2e, 0xf1, 0xf6, 0x04, 0x1a, 0xe2, 0xc4,
  0xf8, 0x4a, 0xfa, 0xe7, 0x01, 0xfd, 0xfd, 0xda, 0xea, 0xeb, 0xda, 0x0f,
  0x1c, 0xe4, 0xf3, 0xe9, 0x08, 0x4a, 0xf5, 0x06, 0x00, 0x25, 0x19, 0x0c,
  0xf2, 0xfa, 0xed, 0x04, 0x19, 0xd8, 0xf8, 0x0a, 0xf8, 0x3e, 0xb9, 0x0c,
  0xf8, 0x3c, 0xcf, 0x1a, 0xef, 0x15, 0x17, 0x17, 0x05, 0x0e, 0x1e, 0xf1,
  0x14, 0xf3, 0x09, 0xfb, 0xfa, 0xfe, 0xd8, 0x1e, 0xf7, 0xe1, 0xd8, 0xb5,
  0x1b, 0x23, 0xf4, 0xe9, 0xf8, 0x08, 0x03, 0xfd, 0xfd, 0x12, 0x07, 0x0c,
  0x0d, 0xfb, 0x07, 0xb0, 0x1a, 0xf8, 0x11, 0x10, 0xf4, 0x18, 0x0f, 0xef,
  0xea, 0x50, 0xf2, 0xfc, 0x05, 0xe9, 0xe7, 0x07, 0x0f, 0x06, 0xea, 0x0f,
  0x0c, 0x0f, 0xf3, 0x2b, 0x12, 0xf2, 0x14, 0x12, 0xe9, 0x4b, 0x2f, 0x06,
  0x1e, 0xf8, 0xe9, 0x11, 0x23, 0x14, 0xcf, 0x0c, 0x23, 0x1e, 0x26, 0x10,
  0x03, 0x3e, 0x1c, 0x1b, 0x26, 0x18, 0xe0, 0x07, 0x10, 0xfd, 0xf8, 0xdf,
  0xed, 0x37, 0x02, 0xe6, 0xe9, 0xf0, 0x10, 0x1d, 0xf2, 0x1c, 0x02, 0xba,
  0x02, 0xbf, 0x2b, 0xd9, 0xf1, 0xac, 0xde, 0xcf, 0xd9, 0x10, 0xe7, 0x2e,
  0xd7, 0xf0, 0xd4, 0xbd, 0xce, 0xf0, 0xf7, 0x34, 0x06, 0xf9, 0x03, 0xf0,
  0x18, 0x50, 0xb0, 0x07, 0x00, 0xf6, 0xd1, 0x27, 0xdd, 0x2c, 0xf8, 0x26,
  0xde, 0x3f, 0x1a, 0xf7, 0xef, 0xd6, 0x1f, 0xdc, 0x18, 0xfb, 0xf9, 0x3e,
  0xf7, 0x22, 0xe6, 0x39, 0xe6, 0x4d, 0x16, 0x16, 0x1b, 0xda, 0xca, 0x0f,
  0xc4, 0xb3, 0xe9, 0x17, 0xe9, 0x01, 0xcd, 0xfe, 0x1c, 0xe4, 0x17, 0x16,
  0x0f, 0xba, 0x26, 0xc9, 0xeb, 0xf2, 0x06, 0xfa, 0x02, 0xf5, 0x12, 0xe4,
  0x26, 0x16, 0xf3, 0x11, 0xe6, 0xce, 0xed, 0xe4, 0x00, 0x02, 0x02, 0x1c,
  0x30, 0xe3, 0xcf, 0x0b, 0x17, 0x1f, 0x1a, 0x0a, 0x06, 0x07, 0x23, 0xe6,
  0x09, 0x0b, 0xed, 0xf5, 0x0d, 0xf1, 0x06, 0xf8, 0x1b, 0xe0, 0x20, 0x0e,
  0x0d, 0xd3, 0xf8, 0x0c, 0xef, 0xe8, 0x25, 0x42, 0x1d, 0xeb, 0x14, 0xf7,
  0x24, 0xb7, 0x27, 0x16, 0xfd, 0xb8, 0xfb, 0x46, 0xb6, 0xe0, 0xf9, 0x3f,
  0xfc, 0xe8, 0x02, 0xfc, 0xf9, 0x14, 0x06, 0x36, 0xf7, 0x12, 0xcd, 0x4b,
  0xdb, 0xd6, 0x09, 0xfa, 0x02, 0x17, 0xc1, 0x11, 0x04, 0xea, 0xf9, 0xf8,
  0x32, 0xfc, 0xff, 0xff, 0x04, 0x00, 0x00, 0x00, 0x10, 0x00, 0x00, 0x00,
  0x01, 0x00, 0x00, 0x00, 0x96, 0x00, 0x00, 0x00, 0x01, 0x00, 0x00, 0x00,
  0x08, 0x00, 0x00, 0x00, 0x4e, 0xfc, 0xff, 0xff, 0x04, 0x00, 0x00, 0x00,
  0x10, 0x00, 0x00, 0x00, 0x01, 0x00, 0x00, 0x00, 0x01, 0x00, 0x00, 0x00,
  0x4b, 0x00, 0x00, 0x00, 0x08, 0x00, 0x00, 0x00, 0x6a, 0xfc, 0xff, 0xff,
  0x04, 0x00, 0x00, 0x00, 0x10, 0x00, 0x00, 0x00, 0x01, 0x00, 0x00, 0x00,
  0x4b, 0x00, 0x00, 0x00, 0x01, 0x00, 0x00, 0x00, 0x10, 0x00, 0x00, 0x00,
  0x86, 0xfc, 0xff, 0xff, 0x04, 0x00, 0x00, 0x00, 0x0c, 0x00, 0x00, 0x00,
  0x01, 0x00, 0x00, 0x00, 0x26, 0x00, 0x00, 0x00, 0x10, 0x00, 0x00, 0x00,
  0xb8, 0xed, 0xff, 0xff, 0x0f, 0x00, 0x00, 0x00, 0x54, 0x4f, 0x43, 0x4f,
  0x20, 0x43, 0x6f, 0x6e, 0x76, 0x65, 0x72, 0x74, 0x65, 0x64, 0x2e, 0x00,
  0x01, 0x00, 0x00, 0x00, 0x04, 0x00, 0x00, 0x00, 0xc0, 0xec, 0xff, 0xff,
  0xb0, 0x03, 0x00, 0x00, 0xa4, 0x03, 0x00, 0x00, 0x98, 0x03, 0x00, 0x00,
  0x04, 0x00, 0x00, 0x00, 0x0d, 0x00, 0x00, 0x00, 0x6c, 0x03, 0x00, 0x00,
  0x0c, 0x03, 0x00, 0x00, 0xb0, 0x02, 0x00, 0x00, 0x54, 0x02, 0x00, 0x00,
  0xf4, 0x01, 0x00, 0x00, 0xa8, 0x01, 0x00, 0x00, 0x68, 0x01, 0x00, 0x00,
  0x1c, 0x01, 0x00, 0x00, 0xdc, 0x00, 0x00, 0x00, 0x94, 0x00, 0x00, 0x00,
  0x5c, 0x00, 0x00, 0x00, 0x28, 0x00, 0x00, 0x00, 0x04, 0x00, 0x00, 0x00,
  0xd2, 0xfc, 0xff, 0xff, 0x06, 0x00, 0x00, 0x00, 0x10, 0x00, 0x00, 0x00,
  0x04, 0x00, 0x00, 0x00, 0x01, 0x00, 0x00, 0x00, 0x18, 0x00, 0x00, 0x00,
  0x01, 0x00, 0x00, 0x00, 0x00, 0x00, 0x00, 0x00, 0x02, 0xfe, 0xff, 0xff,
  0x00, 0x00, 0x00, 0x09, 0x04, 0x00, 0x00, 0x00, 0x1c, 0x00, 0x00, 0x00,
  0x10, 0x00, 0x00, 0x00, 0x04, 0x00, 0x00, 0x00, 0x42, 0xfd, 0xff, 0xff,
  0x00, 0x00, 0x80, 0x3f, 0x01, 0x00, 0x00, 0x00, 0x00, 0x00, 0x00, 0x00,
  0x01, 0x00, 0x00, 0x00, 0x13, 0x00, 0x00, 0x00, 0x32, 0xfe, 0xff, 0xff,
  0x00, 0x00, 0x00, 0x08, 0x01, 0x00, 0x00, 0x00, 0x18, 0x00, 0x00, 0x00,
  0x0c, 0x00, 0x00, 0x00, 0x04, 0x00, 0x00, 0x00, 0x8c, 0xee, 0xff, 0xff,
  0x01, 0x00, 0x00, 0x00, 0x13, 0x00, 0x00, 0x00, 0x03, 0x00, 0x00, 0x00,
  0x11, 0x00, 0x00, 0x00, 0x14, 0x00, 0x00, 0x00, 0x15, 0x00, 0x00, 0x00,
  0x66, 0xfe, 0xff, 0xff, 0x00, 0x00, 0x00, 0x11, 0x03, 0x00, 0x00, 0x00,
  0x2c, 0x00, 0x00, 0x00, 0x20, 0x00, 0x00, 0x00, 0x04, 0x00, 0x00, 0x00,
  0xa6, 0xfd, 0xff, 0xff, 0x04, 0x00, 0x00, 0x00, 0x03, 0x00, 0x00, 0x00,
  0x01, 0x00, 0x00, 0x00, 0x26, 0x00, 0x00, 0x00, 0x10, 0x00, 0x00, 0x00,
  0x01, 0x00, 0x00, 0x00, 0x11, 0x00, 0x00, 0x00, 0x02, 0x00, 0x00, 0x00,
  0x10, 0x00, 0x00, 0x00, 0x12, 0x00, 0x00, 0x00, 0xaa, 0xfe, 0xff, 0xff,
  0x00, 0x00, 0x00, 0x05, 0x02, 0x00, 0x00, 0x00, 0x28, 0x00, 0x00, 0x00,
  0x1c, 0x00, 0x00, 0x00, 0x04, 0x00, 0x00, 0x00, 0xf6, 0xfe, 0xff, 0xff,
  0x01, 0x00, 0x00, 0x00, 0x02, 0x00, 0x00, 0x00, 0x01, 0x00, 0x00, 0x00,
  0x02, 0x00, 0x00, 0x00, 0x01, 0x00, 0x00, 0x00, 0x10, 0x00, 0x00, 0x00,
  0x01, 0x00, 0x00, 0x00, 0x0e, 0x00, 0x00, 0x00, 0xe6, 0xfe, 0xff, 0xff,
  0x00, 0x00, 0x00, 0x11, 0x03, 0x00, 0x00, 0x00, 0x30, 0x00, 0x00, 0x00,
  0x24, 0x00, 0x00, 0x00, 0x04, 0x00, 0x00, 0x00, 0x26, 0xfe, 0xff, 0xff,
  0x04, 0x00, 0x00, 0x00, 0x04, 0x00, 0x00, 0x00, 0x01, 0x00, 0x00, 0x00,
  0x4b, 0x00, 0x00, 0x00, 0x01, 0x00, 0x00, 0x00, 0x10, 0x00, 0x00, 0x00,
  0x01, 0x00, 0x00, 0x00, 0x0e, 0x00, 0x00, 0x00, 0x02, 0x00, 0x00, 0x00,
  0x09, 0x00, 0x00, 0x00, 0x0f, 0x00, 0x00, 0x00, 0xd6, 0xfe, 0xff, 0xff,
  0x00, 0x00, 0x00, 0x01, 0x24, 0x00, 0x00, 0x00, 0x18, 0x00, 0x00, 0x00,
  0x04, 0x00, 0x00, 0x00, 0xc8, 0xfe, 0xff, 0xff, 0x00, 0x00, 0x00, 0x01,
  0x01, 0x00, 0x00, 0x00, 0x01, 0x00, 0x00, 0x00, 0x01, 0x00, 0x00, 0x00,
  0x09, 0x00, 0x00, 0x00, 0x03, 0x00, 0x00, 0x00, 0x06, 0x00, 0x00, 0x00,
  0x08, 0x00, 0x00, 0x00, 0x0a, 0x00, 0x00, 0x00, 0x6a, 0xff, 0xff, 0xff,
  0x00, 0x00, 0x00, 0x11, 0x03, 0x00, 0x00, 0x00, 0x30, 0x00, 0x00, 0x00,
  0x24, 0x00, 0x00, 0x00, 0x04, 0x00, 0x00, 0x00, 0xaa, 0xfe, 0xff, 0xff,
  0x04, 0x00, 0x00, 0x00, 0x04, 0x00, 0x00, 0x00, 0x01, 0x00, 0x00, 0x00,
  0x01, 0x00, 0x00, 0x00, 0x4b, 0x00, 0x00, 0x00, 0x08, 0x00, 0x00, 0x00,
  0x01, 0x00, 0x00, 0x00, 0x06, 0x00, 0x00, 0x00, 0x02, 0x00, 0x00, 0x00,
  0x0d, 0x00, 0x00, 0x00, 0x07, 0x00, 0x00, 0x00, 0x02, 0xff, 0xff, 0xff,
  0x00, 0x00, 0x00, 0x05, 0x02, 0x00, 0x00, 0x00, 0x38, 0x00, 0x00, 0x00,
  0x2c, 0x00, 0x00, 0x00, 0x14, 0x00, 0x00, 0x00, 0x00, 0x00, 0x0e, 0x00,
  0x14, 0x00, 0x00, 0x00, 0x04, 0x00, 0x08, 0x00, 0x0c, 0x00, 0x10, 0x00,
  0x0e, 0x00, 0x00, 0x00, 0x01, 0x00, 0x00, 0x00, 0x02, 0x00, 0x00, 0x00,
  0x01, 0x00, 0x00, 0x00, 0x02, 0x00, 0x00, 0x00, 0x01, 0x00, 0x00, 0x00,
  0x0d, 0x00, 0x00, 0x00, 0x01, 0x00, 0x00, 0x00, 0x0b, 0x00, 0x00, 0x00,
  0x00, 0x00, 0x0e, 0x00, 0x18, 0x00, 0x08, 0x00, 0x0c, 0x00, 0x10, 0x00,
  0x07, 0x00, 0x14, 0x00, 0x0e, 0x00, 0x00, 0x00, 0x00, 0x00, 0x00, 0x11,
  0x03, 0x00, 0x00, 0x00, 0x30, 0x00, 0x00, 0x00, 0x24, 0x00, 0x00, 0x00,
  0x04, 0x00, 0x00, 0x00, 0x4e, 0xff, 0xff, 0xff, 0x04, 0x00, 0x00, 0x00,
  0x04, 0x00, 0x00, 0x00, 0x01, 0x00, 0x00, 0x00, 0x96, 0x00, 0x00, 0x00,
  0x01, 0x00, 0x00, 0x00, 0x08, 0x00, 0x00, 0x00, 0x01, 0x00, 0x00, 0x00,
  0x0b, 0x00, 0x00, 0x00, 0x02, 0x00, 0x00, 0x00, 0x01, 0x00, 0x00, 0x00,
  0x0c, 0x00, 0x00, 0x00, 0x00, 0x00, 0x0e, 0x00, 0x14, 0x00, 0x00, 0x00,
  0x08, 0x00, 0x0c, 0x00, 0x07, 0x00, 0x10, 0x00, 0x0e, 0x00, 0x00, 0x00,
  0x00, 0x00, 0x00, 0x01, 0x30, 0x00, 0x00, 0x00, 0x24, 0x00, 0x00, 0x00,
  0x10, 0x00, 0x00, 0x00, 0x0c, 0x00, 0x10, 0x00, 0x00, 0x00, 0x08, 0x00,
  0x0c, 0x00, 0x07, 0x00, 0x0c, 0x00, 0x00, 0x00, 0x00, 0x00, 0x00, 0x01,
  0x01, 0x00, 0x00, 0x00, 0x01, 0x00, 0x00, 0x00, 0x01, 0x00, 0x00, 0x00,
  0x01, 0x00, 0x00, 0x00, 0x03, 0x00, 0x00, 0x00, 0x02, 0x00, 0x00, 0x00,
  0x04, 0x00, 0x00, 0x00, 0x05, 0x00, 0x00, 0x00, 0x00, 0x00, 0x0e, 0x00,
  0x1a, 0x00, 0x08, 0x00, 0x0c, 0x00, 0x10, 0x00, 0x07, 0x00, 0x14, 0x00,
  0x0e, 0x00, 0x00, 0x00, 0x00, 0x00, 0x00, 0x11, 0x03, 0x00, 0x00, 0x00,
  0x38, 0x00, 0x00, 0x00, 0x2c, 0x00, 0x00, 0x00, 0x0c, 0x00, 0x00, 0x00,
  0x00, 0x00, 0x06, 0x00, 0x08, 0x00, 0x04, 0x00, 0x06, 0x00, 0x00, 0x00,
  0x04, 0x00, 0x00, 0x00, 0x04, 0x00, 0x00, 0x00, 0x01, 0x00, 0x00, 0x00,
  0x01, 0x00, 0x00, 0x00, 0x96, 0x00, 0x00, 0x00, 0x1a, 0x00, 0x00, 0x00,
  0x01, 0x00, 0x00, 0x00, 0x02, 0x00, 0x00, 0x00, 0x02, 0x00, 0x00, 0x00,
  0x16, 0x00, 0x00, 0x00, 0x03, 0x00, 0x00, 0x00, 0x00, 0x00, 0x0a, 0x00,
  0x10, 0x00, 0x04, 0x00, 0x08, 0x00, 0x0c, 0x00, 0x0a, 0x00, 0x00, 0x00,
  0x05, 0x00, 0x00, 0x00, 0x10, 0x00, 0x00, 0x00, 0x04, 0x00, 0x00, 0x00,
  0x01, 0x00, 0x00, 0x00, 0x16, 0x00, 0x00, 0x00, 0x01, 0x00, 0x00, 0x00,
  0x17, 0x00, 0x00, 0x00, 0x01, 0x00, 0x00, 0x00, 0x18, 0x00, 0x00, 0x00,
  0x01, 0x00, 0x00, 0x00, 0x17, 0x00, 0x00, 0x00, 0x19, 0x00, 0x00, 0x00,
  0x28, 0x10, 0x00, 0x00, 0x6c, 0x0f, 0x00, 0x00, 0xc4, 0x0e, 0x00, 0x00,
  0x4c, 0x0e, 0x00, 0x00, 0x14, 0x0d, 0x00, 0x00, 0x40, 0x0c, 0x00, 0x00,
  0x94, 0x0b, 0x00, 0x00, 0x20, 0x0b, 0x00, 0x00, 0x44, 0x09, 0x00, 0x00,
  0x98, 0x08, 0x00, 0x00, 0x64, 0x07, 0x00, 0x00, 0xb8, 0x06, 0x00, 0x00,
  0x44, 0x06, 0x00, 0x00, 0x98, 0x05, 0x00, 0x00, 0xec, 0x04, 0x00, 0x00,
  0x78, 0x04, 0x00, 0x00, 0xcc, 0x03, 0x00, 0x00, 0x28, 0x03, 0x00, 0x00,
  0xb8, 0x02, 0x00, 0x00, 0x20, 0x02, 0x00, 0x00, 0x6c, 0x01, 0x00, 0x00,
  0xe8, 0x00, 0x00, 0x00, 0x6c, 0x00, 0x00, 0x00, 0x3c, 0x00, 0x00, 0x00,
  0x04, 0x00, 0x00, 0x00, 0xd8, 0xff, 0xff, 0xff, 0x18, 0x00, 0x00, 0x00,
  0x04, 0x00, 0x00, 0x00, 0x08, 0x00, 0x00, 0x00, 0x49, 0x64, 0x65, 0x6e,
  0x74, 0x69, 0x74, 0x79, 0x00, 0x00, 0x00, 0x00, 0x02, 0x00, 0x00, 0x00,
  0x01, 0x00, 0x00, 0x00, 0x02, 0x00, 0x00, 0x00, 0x0c, 0x00, 0x0c, 0x00,
  0x04, 0x00, 0x00, 0x00, 0x00, 0x00, 0x08, 0x00, 0x0c, 0x00, 0x00, 0x00,
  0x1c, 0x00, 0x00, 0x00, 0x04, 0x00, 0x00, 0x00, 0x0d, 0x00, 0x00, 0x00,
  0x72, 0x65, 0x73, 0x68, 0x61, 0x70, 0x65, 0x5f, 0x69, 0x6e, 0x70, 0x75,
  0x74, 0x00, 0x00, 0x00, 0x02, 0x00, 0x00, 0x00, 0x01, 0x00, 0x00, 0x00,
  0x3c, 0x0f, 0x00, 0x00, 0xaa, 0xf0, 0xff, 0xff, 0x00, 0x00, 0x00, 0x09,
  0x64, 0x00, 0x00, 0x00, 0x17, 0x00, 0x00, 0x00, 0x44, 0x00, 0x00, 0x00,
  0x04, 0x00, 0x00, 0x00, 0x54, 0xf1, 0xff, 0xff, 0x30, 0x00, 0x00, 0x00,
  0x24, 0x00, 0x00, 0x00, 0x18, 0x00, 0x00, 0x00, 0x04, 0x00, 0x00, 0x00,
  0x01, 0x00, 0x00, 0x00, 0x09, 0x00, 0x00, 0x00, 0x00, 0x00, 0x00, 0x00,
  0x00, 0x00, 0x00, 0x00, 0x01, 0x00, 0x00, 0x00, 0xa1, 0x18, 0x10, 0x3e,
  0x01, 0x00, 0x00, 0x00, 0xc7, 0xda, 0x84, 0x41, 0x01, 0x00, 0x00, 0x00,
  0x48, 0x36, 0x9a, 0xc1, 0x12, 0x00, 0x00, 0x00, 0x72, 0x65, 0x73, 0x68,
  0x61, 0x70, 0x65, 0x5f, 0x69, 0x6e, 0x70, 0x75, 0x74, 0x5f, 0x69, 0x6e,
  0x74, 0x38, 0x00, 0x00, 0x02, 0x00, 0x00, 0x00, 0x01, 0x00, 0x00, 0x00,
  0x3c, 0x0f, 0x00, 0x00, 0x22, 0xf1, 0xff, 0xff, 0x00, 0x00, 0x00, 0x02,
  0x70, 0x00, 0x00, 0x00, 0x16, 0x00, 0x00, 0x00, 0x2c, 0x00, 0x00, 0x00,
  0x04, 0x00, 0x00, 0x00, 0x14, 0xf1, 0xff, 0xff, 0x18, 0x00, 0x00, 0x00,
  0x04, 0x00, 0x00, 0x00, 0x01, 0x00, 0x00, 0x00, 0x00, 0x00, 0x00, 0x00,
  0x00, 0x00, 0x00, 0x00, 0x00, 0x00, 0x00, 0x00, 0x01, 0x00, 0x00, 0x00,
  0x1c, 0xcd, 0xaf, 0x38, 0x35, 0x00, 0x00, 0x00, 0x53, 0x74, 0x61, 0x74,
  0x65, 0x66, 0x75, 0x6c, 0x50, 0x61, 0x72, 0x74, 0x69, 0x74, 0x69, 0x6f,
  0x6e, 0x65, 0x64, 0x43, 0x61, 0x6c, 0x6c, 0x2f, 0x73, 0x65, 0x71, 0x75,
  0x65, 0x6e, 0x74, 0x69, 0x61, 0x6c, 0x2f, 0x79, 0x5f, 0x70, 0x72, 0x65,
  0x64, 0x2f, 0x4d, 0x61, 0x74, 0x4d, 0x75, 0x6c, 0x5f, 0x62, 0x69, 0x61,
  0x73, 0x00, 0x00, 0x00, 0x01, 0x00, 0x00, 0x00, 0x02, 0x00, 0x00, 0x00,
  0xa2, 0xf1, 0xff, 0xff, 0x00, 0x00, 0x00, 0x09, 0x9c, 0x00, 0x00, 0x00,
  0x05, 0x00, 0x00, 0x00, 0x44, 0x00, 0x00, 0x00, 0x04, 0x00, 0x00, 0x00,
  0x4c, 0xf2, 0xff, 0xff, 0x30, 0x00, 0x00, 0x00, 0x24, 0x00, 0x00, 0x00,
  0x18, 0x00, 0x00, 0x00, 0x04, 0x00, 0x00, 0x00, 0x01, 0x00, 0x00, 0x00,
  0x00, 0x00, 0x00, 0x00, 0x00, 0x00, 0x00, 0x00, 0x00, 0x00, 0x00, 0x00,
  0x01, 0x00, 0x00, 0x00, 0x02, 0x36, 0x48, 0x3b, 0x01, 0x00, 0x00, 0x00,
  0x96, 0xa5, 0xc6, 0x3e, 0x01, 0x00, 0x00, 0x00, 0xbe, 0x4f, 0xa8, 0xbe,
  0x49, 0x00, 0x00, 0x00, 0x53, 0x74, 0x61, 0x74, 0x65, 0x66, 0x75, 0x6c,
  0x50, 0x61, 0x72, 0x74, 0x69, 0x74, 0x69, 0x6f, 0x6e, 0x65, 0x64, 0x43,
  0x61, 0x6c, 0x6c, 0x2f, 0x73, 0x65, 0x71, 0x75, 0x65, 0x6e, 0x74, 0x69,
  0x61, 0x6c, 0x2f, 0x79, 0x5f, 0x70, 0x72, 0x65, 0x64, 0x2f, 0x4d, 0x61,
  0x74, 0x4d, 0x75, 0x6c, 0x2f, 0x52, 0x65, 0x61, 0x64, 0x56, 0x61, 0x72,
  0x69, 0x61, 0x62, 0x6c, 0x65, 0x4f, 0x70, 0x2f, 0x74, 0x72, 0x61, 0x6e,
  0x73, 0x70, 0x6f, 0x73, 0x65, 0x00, 0x00, 0x00, 0x02, 0x00, 0x00, 0x00,
  0x02, 0x00, 0x00, 0x00, 0x60, 0x02, 0x00, 0x00, 0x52, 0xf2, 0xff, 0xff,
  0x00, 0x00, 0x00, 0x09, 0x80, 0x00, 0x00, 0x00, 0x14, 0x00, 0x00, 0x00,
  0x40, 0x00, 0x00, 0x00, 0x04, 0x00, 0x00, 0x00, 0xfc, 0xf2, 0xff, 0xff,
  0x2c, 0x00, 0x00, 0x00, 0x20, 0x00, 0x00, 0x00, 0x14, 0x00, 0x00, 0x00,
  0x04, 0x00, 0x00, 0x00, 0x01, 0x00, 0x00, 0x00, 0xff, 0xff, 0xff, 0xff,
  0xff, 0xff, 0xff, 0xff, 0x01, 0x00, 0x00, 0x00, 0x82, 0x29, 0x71, 0x3d,
  0x01, 0x00, 0x00, 0x00, 0xc9, 0x85, 0xf0, 0x40, 0x01, 0x00, 0x00, 0x00,
  0xe7, 0xea, 0xef, 0xc0, 0x31, 0x00, 0x00, 0x00, 0x53, 0x74, 0x61, 0x74,
  0x65, 0x66, 0x75, 0x6c, 0x50, 0x61, 0x72, 0x74, 0x69, 0x74, 0x69, 0x6f,
  0x6e, 0x65, 0x64, 0x43, 0x61, 0x6c, 0x6c, 0x2f, 0x73, 0x65, 0x71, 0x75,
  0x65, 0x6e, 0x74, 0x69, 0x61, 0x6c, 0x2f, 0x79, 0x5f, 0x70, 0x72, 0x65,
  0x64, 0x2f, 0x42, 0x69, 0x61, 0x73, 0x41, 0x64, 0x64, 0x00, 0x00, 0x00,
  0x02, 0x00, 0x00, 0x00, 0x01, 0x00, 0x00, 0x00, 0x02, 0x00, 0x00, 0x00,
  0xe6, 0xf2, 0xff, 0xff, 0x00, 0x00, 0x00, 0x02, 0x5c, 0x00, 0x00, 0x00,
  0x01, 0x00, 0x00, 0x00, 0x0c, 0x00, 0x00, 0x00, 0x04, 0x00, 0x00, 0x00,
  0xa8, 0xf4, 0xff, 0xff, 0x40, 0x00, 0x00, 0x00, 0x53, 0x74, 0x61, 0x74,
  0x65, 0x66, 0x75, 0x6c, 0x50, 0x61, 0x72, 0x74, 0x69, 0x74, 0x69, 0x6f,
  0x6e, 0x65, 0x64, 0x43, 0x61, 0x6c, 0x6c, 0x2f, 0x73, 0x65, 0x71, 0x75,
  0x65, 0x6e, 0x74, 0x69, 0x61, 0x6c, 0x2f, 0x6d, 0x61, 0x78, 0x5f, 0x70,
  0x6f, 0x6f, 0x6c, 0x69, 0x6e, 0x67, 0x31, 0x64, 0x5f, 0x31, 0x2f, 0x53,
  0x71, 0x75, 0x65, 0x65, 0x7a, 0x65, 0x5f, 0x73, 0x68, 0x61, 0x70, 0x65,
  0x00, 0x00, 0x00, 0x00, 0x01, 0x00, 0x00, 0x00, 0x03, 0x00, 0x00, 0x00,
  0x52, 0xf3, 0xff, 0xff, 0x00, 0x00, 0x00, 0x09, 0x88, 0x00, 0x00, 0x00,
  0x0b, 0x00, 0x00, 0x00, 0x40, 0x00, 0x00, 0x00, 0x04, 0x00, 0x00, 0x00,
  0xfc, 0xf3, 0xff, 0xff, 0x2c, 0x00, 0x00, 0x00, 0x20, 0x00, 0x00, 0x00,
  0x14, 0x00, 0x00, 0x00, 0x04, 0x00, 0x00, 0x00, 0x01, 0x00, 0x00, 0x00,
  0x80, 0xff, 0xff, 0xff, 0xff, 0xff, 0xff, 0xff, 0x01, 0x00, 0x00, 0x00,
  0xd7, 0xc9, 0xe0, 0x3c, 0x01, 0x00, 0x00, 0x00, 0x0d, 0xe9, 0xdf, 0x40,
  0x01, 0x00, 0x00, 0x00, 0x00, 0x00, 0x00, 0x00, 0x3a, 0x00, 0x00, 0x00,
  0x53, 0x74, 0x61, 0x74, 0x65, 0x66, 0x75, 0x6c, 0x50, 0x61, 0x72, 0x74,
  0x69, 0x74, 0x69, 0x6f, 0x6e, 0x65, 0x64, 0x43, 0x61, 0x6c, 0x6c, 0x2f,
  0x73, 0x65, 0x71, 0x75, 0x65, 0x6e, 0x74, 0x69, 0x61, 0x6c, 0x2f, 0x6d,
  0x61, 0x78, 0x5f, 0x70, 0x6f, 0x6f, 0x6c, 0x69, 0x6e, 0x67, 0x31, 0x64,
  0x5f, 0x31, 0x2f, 0x53, 0x71, 0x75, 0x65, 0x65, 0x7a, 0x65, 0x00, 0x00,
  0x03, 0x00, 0x00, 0x00, 0x01, 0x00, 0x00, 0x00, 0x26, 0x00, 0x00, 0x00,
  0x10, 0x00, 0x00, 0x00, 0xf2, 0xf3, 0xff, 0xff, 0x00, 0x00, 0x00, 0x09,
  0x8c, 0x00, 0x00, 0x00, 0x0c, 0x00, 0x00, 0x00, 0x44, 0x00, 0x00, 0x00,
  0x04, 0x00, 0x00, 0x00, 0x9c, 0xf4, 0xff, 0xff, 0x30, 0x00, 0x00, 0x00,
  0x24, 0x00, 0x00, 0x00, 0x18, 0x00, 0x00, 0x00, 0x04, 0x00, 0x00, 0x00,
  0x01, 0x00, 0x00, 0x00, 0x80, 0xff, 0xff, 0xff, 0xff, 0xff, 0xff, 0xff,
  0x00, 0x00, 0x00, 0x00, 0x01, 0x00, 0x00, 0x00, 0xd7, 0xc9, 0xe0, 0x3c,
  0x01, 0x00, 0x00, 0x00, 0x0d, 0xe9, 0xdf, 0x40, 0x01, 0x00, 0x00, 0x00,
  0x00, 0x00, 0x00, 0x00, 0x3a, 0x00, 0x00, 0x00, 0x53, 0x74, 0x61, 0x74,
  0x65, 0x66, 0x75, 0x6c, 0x50, 0x61, 0x72, 0x74, 0x69, 0x74, 0x69, 0x6f,
  0x6e, 0x65, 0x64, 0x43, 0x61, 0x6c, 0x6c, 0x2f, 0x73, 0x65, 0x71, 0x75,
  0x65, 0x6e, 0x74, 0x69, 0x61, 0x6c, 0x2f, 0x6d, 0x61, 0x78, 0x5f, 0x70,
  0x6f, 0x6f, 0x6c, 0x69, 0x6e, 0x67, 0x31, 0x64, 0x5f, 0x31, 0x2f, 0x4d,
  0x61, 0x78, 0x50, 0x6f, 0x6f, 0x6c, 0x00, 0x00, 0x04, 0x00, 0x00, 0x00,
  0x01, 0x00, 0x00, 0x00, 0x26, 0x00, 0x00, 0x00, 0x01, 0x00, 0x00, 0x00,
  0x10, 0x00, 0x00, 0x00, 0x9a, 0xf4, 0xff, 0xff, 0x00, 0x00, 0x00, 0x02,
  0x5c, 0x00, 0x00, 0x00, 0x02, 0x00, 0x00, 0x00, 0x0c, 0x00, 0x00, 0x00,
  0x04, 0x00, 0x00, 0x00, 0x5c, 0xf6, 0xff, 0xff, 0x43, 0x00, 0x00, 0x00,
  0x53, 0x74, 0x61, 0x74, 0x65, 0x66, 0x75, 0x6c, 0x50, 0x61, 0x72, 0x74,
  0x69, 0x74, 0x69, 0x6f, 0x6e, 0x65, 0x64, 0x43, 0x61, 0x6c, 0x6c, 0x2f,
  0x73, 0x65, 0x71, 0x75, 0x65, 0x6e, 0x74, 0x69, 0x61, 0x6c, 0x2f, 0x6d,
  0x61, 0x78, 0x5f, 0x70, 0x6f, 0x6f, 0x6c, 0x69, 0x6e, 0x67, 0x31, 0x64,
  0x5f, 0x31, 0x2f, 0x45, 0x78, 0x70, 0x61, 0x6e, 0x64, 0x44, 0x69, 0x6d,
  0x73, 0x2f, 0x64, 0x69, 0x6d, 0x5f, 0x30, 0x00, 0x02, 0x00, 0x00, 0x00,
  0x01, 0x00, 0x00, 0x00, 0x04, 0x00, 0x00, 0x00, 0x0a, 0xf5, 0xff, 0xff,
  0x00, 0x00, 0x00, 0x09, 0x8c, 0x00, 0x00, 0x00, 0x13, 0x00, 0x00, 0x00,
  0x40, 0x00, 0x00, 0x00, 0x04, 0x00, 0x00, 0x00, 0xb4, 0xf5, 0xff, 0xff,
  0x2c, 0x00, 0x00, 0x00, 0x20, 0x00, 0x00, 0x00, 0x14, 0x00, 0x00, 0x00,
  0x04, 0x00, 0x00, 0x00, 0x01, 0x00, 0x00, 0x00, 0x80, 0xff, 0xff, 0xff,
  0xff, 0xff, 0xff, 0xff, 0x01, 0x00, 0x00, 0x00, 0xd7, 0xc9, 0xe0, 0x3c,
  0x01, 0x00, 0x00, 0x00, 0x0d, 0xe9, 0xdf, 0x40, 0x01, 0x00, 0x00, 0x00,
  0x00, 0x00, 0x00, 0x00, 0x3d, 0x00, 0x00, 0x00, 0x53, 0x74, 0x61, 0x74,
  0x65, 0x66, 0x75, 0x6c, 0x50, 0x61, 0x72, 0x74, 0x69, 0x74, 0x69, 0x6f,
  0x6e, 0x65, 0x64, 0x43, 0x61, 0x6c, 0x6c, 0x2f, 0x73, 0x65, 0x71, 0x75,
  0x65, 0x6e, 0x74, 0x69, 0x61, 0x6c, 0x2f, 0x6d, 0x61, 0x78, 0x5f, 0x70,
  0x6f, 0x6f, 0x6c, 0x69, 0x6e, 0x67, 0x31, 0x64, 0x5f, 0x31, 0x2f, 0x45,
  0x78, 0x70, 0x61, 0x6e, 0x64, 0x44, 0x69, 0x6d, 0x73, 0x00, 0x00, 0x00,
  0x04, 0x00, 0x00, 0x00, 0x01, 0x00, 0x00, 0x00, 0x4b, 0x00, 0x00, 0x00,
  0x01, 0x00, 0x00, 0x00, 0x10, 0x00, 0x00, 0x00, 0xb2, 0xf5, 0xff, 0xff,
  0x00, 0x00, 0x00, 0x09, 0x8c, 0x00, 0x00, 0x00, 0x0d, 0x00, 0x00, 0x00,
  0x44, 0x00, 0x00, 0x00, 0x04, 0x00, 0x00, 0x00, 0x5c, 0xf6, 0xff, 0xff,
  0x30, 0x00, 0x00, 0x00, 0x24, 0x00, 0x00, 0x00, 0x18, 0x00, 0x00, 0x00,
  0x04, 0x00, 0x00, 0x00, 0x01, 0x00, 0x00, 0x00, 0x80, 0xff, 0xff, 0xff,
  0xff, 0xff, 0xff, 0xff, 0x00, 0x00, 0x00, 0x00, 0x01, 0x00, 0x00, 0x00,
  0x73, 0x49, 0xe5, 0x3c, 0x01, 0x00, 0x00, 0x00, 0x2a, 0x64, 0xe4, 0x40,
  0x01, 0x00, 0x00, 0x00, 0x00, 0x00, 0x00, 0x00, 0x38, 0x00, 0x00, 0x00,
  0x53, 0x74, 0x61, 0x74, 0x65, 0x66, 0x75, 0x6c, 0x50, 0x61, 0x72, 0x74,
  0x69, 0x74, 0x69, 0x6f, 0x6e, 0x65, 0x64, 0x43, 0x61, 0x6c, 0x6c, 0x2f,
  0x73, 0x65, 0x71, 0x75, 0x65, 0x6e, 0x74, 0x69, 0x61, 0x6c, 0x2f, 0x6d,
  0x61, 0x78, 0x5f, 0x70, 0x6f, 0x6f, 0x6c, 0x69, 0x6e, 0x67, 0x31, 0x64,
  0x2f, 0x4d, 0x61, 0x78, 0x50, 0x6f, 0x6f, 0x6c, 0x00, 0x00, 0x00, 0x00,
  0x04, 0x00, 0x00, 0x00, 0x01, 0x00, 0x00, 0x00, 0x4b, 0x00, 0x00, 0x00,
  0x01, 0x00, 0x00, 0x00, 0x08, 0x00, 0x00, 0x00, 0x5a, 0xf6, 0xff, 0xff,
  0x00, 0x00, 0x00, 0x02, 0x5c, 0x00, 0x00, 0x00, 0x04, 0x00, 0x00, 0x00,
  0x0c, 0x00, 0x00, 0x00, 0x04, 0x00, 0x00, 0x00, 0x1c, 0xf8, 0xff, 0xff,
  0x41, 0x00, 0x00, 0x00, 0x53, 0x74, 0x61, 0x74, 0x65, 0x66, 0x75, 0x6c,
  0x50, 0x61, 0x72, 0x74, 0x69, 0x74, 0x69, 0x6f, 0x6e, 0x65, 0x64, 0x43,
  0x61, 0x6c, 0x6c, 0x2f, 0x73, 0x65, 0x71, 0x75, 0x65, 0x6e, 0x74, 0x69,
  0x61, 0x6c, 0x2f, 0x6d, 0x61, 0x78, 0x5f, 0x70, 0x6f, 0x6f, 0x6c, 0x69,
  0x6e, 0x67, 0x31, 0x64, 0x2f, 0x45, 0x78, 0x70, 0x61, 0x6e, 0x64, 0x44,
  0x69, 0x6d, 0x73, 0x2f, 0x64, 0x69, 0x6d, 0x5f, 0x30, 0x00, 0x00, 0x00,
  0x02, 0x00, 0x00, 0x00, 0x01, 0x00, 0x00, 0x00, 0x04, 0x00, 0x00, 0x00,
  0xca, 0xf6, 0xff, 0xff, 0x00, 0x00, 0x00, 0x09, 0x8c, 0x00, 0x00, 0x00,
  0x11, 0x00, 0x00, 0x00, 0x44, 0x00, 0x00, 0x00, 0x04, 0x00, 0x00, 0x00,
  0x74, 0xf7, 0xff, 0xff, 0x30, 0x00, 0x00, 0x00, 0x24, 0x00, 0x00, 0x00,
  0x18, 0x00, 0x00, 0x00, 0x04, 0x00, 0x00, 0x00, 0x01, 0x00, 0x00, 0x00,
  0x80, 0xff, 0xff, 0xff, 0xff, 0xff, 0xff, 0xff, 0x00, 0x00, 0x00, 0x00,
  0x01, 0x00, 0x00, 0x00, 0x73, 0x49, 0xe5, 0x3c, 0x01, 0x00, 0x00, 0x00,
  0x2a, 0x64, 0xe4, 0x40, 0x01, 0x00, 0x00, 0x00, 0x00, 0x00, 0x00, 0x00,
  0x3b, 0x00, 0x00, 0x00, 0x53, 0x74, 0x61, 0x74, 0x65, 0x66, 0x75, 0x6c,
  0x50, 0x61, 0x72, 0x74, 0x69, 0x74, 0x69, 0x6f, 0x6e, 0x65, 0x64, 0x43,
  0x61, 0x6c, 0x6c, 0x2f, 0x73, 0x65, 0x71, 0x75, 0x65, 0x6e, 0x74, 0x69,
  0x61, 0x6c, 0x2f, 0x6d, 0x61, 0x78, 0x5f, 0x70, 0x6f, 0x6f, 0x6c, 0x69,
  0x6e, 0x67, 0x31, 0x64, 0x2f, 0x45, 0x78, 0x70, 0x61, 0x6e, 0x64, 0x44,
  0x69, 0x6d, 0x73, 0x00, 0x04, 0x00, 0x00, 0x00, 0x01, 0x00, 0x00, 0x00,
  0x96, 0x00, 0x00, 0x00, 0x01, 0x00, 0x00, 0x00, 0x08, 0x00, 0x00, 0x00,
  0x72, 0xf7, 0xff, 0xff, 0x00, 0x00, 0x00, 0x02, 0x20, 0x01, 0x00, 0x00,
  0x06, 0x00, 0x00, 0x00, 0xdc, 0x00, 0x00, 0x00, 0x04, 0x00, 0x00, 0x00,
  0x64, 0xf7, 0xff, 0xff, 0x8c, 0x00, 0x00, 0x00, 0x04, 0x00, 0x00, 0x00,
  0x10, 0x00, 0x00, 0x00, 0x00, 0x00, 0x00, 0x00, 0x00, 0x00, 0x00, 0x00,
  0x00, 0x00, 0x00, 0x00, 0x00, 0x00, 0x00, 0x00, 0x00, 0x00, 0x00, 0x00,
  0x00, 0x00, 0x00, 0x00, 0x00, 0x00, 0x00, 0x00, 0x00, 0x00, 0x00, 0x00,
  0x00, 0x00, 0x00, 0x00, 0x00, 0x00, 0x00, 0x00, 0x00, 0x00, 0x00, 0x00,
  0x00, 0x00, 0x00, 0x00, 0x00, 0x00, 0x00, 0x00, 0x00, 0x00, 0x00, 0x00,
  0x00, 0x00, 0x00, 0x00, 0x00, 0x00, 0x00, 0x00, 0x00, 0x00, 0x00, 0x00,
  0x00, 0x00, 0x00, 0x00, 0x00, 0x00, 0x00, 0x00, 0x00, 0x00, 0x00, 0x00,
  0x00, 0x00, 0x00, 0x00, 0x00, 0x00, 0x00, 0x00, 0x00, 0x00, 0x00, 0x00,
  0x00, 0x00, 0x00, 0x00, 0x00, 0x00, 0x00, 0x00, 0x00, 0x00, 0x00, 0x00,
  0x00, 0x00, 0x00, 0x00, 0x00, 0x00, 0x00, 0x00, 0x00, 0x00, 0x00, 0x00,
  0x00, 0x00, 0x00, 0x00, 0x00, 0x00, 0x00, 0x00, 0x00, 0x00, 0x00, 0x00,
  0x10, 0x00, 0x00, 0x00, 0x24, 0x35, 0xaf, 0x38, 0xc0, 0x69, 0xde, 0x38,
  0x12, 0x91, 0xe4, 0x38, 0xeb, 0x19, 0xf6, 0x38, 0xed, 0x9a, 0xde, 0x38,
  0x56, 0xf5, 0xd1, 0x38, 0x80, 0x0a, 0x94, 0x38, 0x49, 0x4c, 0x0e, 0x39,
  0x48, 0xf5, 0xc0, 0x38, 0x68, 0xd5, 0x0f, 0x39, 0x60, 0xdd, 0xee, 0x38,
  0xc6, 0x2e, 0x04, 0x39, 0x55, 0x36, 0xa4, 0x38, 0x25, 0xe9, 0xf4, 0x38,
  0x3d, 0x49, 0xb9, 0x38, 0x05, 0x5b, 0xc5, 0x38, 0x37, 0x00, 0x00, 0x00,
  0x53, 0x74, 0x61, 0x74, 0x65, 0x66, 0x75, 0x6c, 0x50, 0x61, 0x72, 0x74,
  0x69, 0x74, 0x69, 0x6f, 0x6e, 0x65, 0x64, 0x43, 0x61, 0x6c, 0x6c, 0x2f,
  0x73, 0x65, 0x71, 0x75, 0x65, 0x6e, 0x74, 0x69, 0x61, 0x6c, 0x2f, 0x63,
  0x6f, 0x6e, 0x76, 0x31, 0x64, 0x5f, 0x31, 0x2f, 0x63, 0x6f, 0x6e, 0x76,
  0x31, 0x64, 0x5f, 0x62, 0x69, 0x61, 0x73, 0x00, 0x01, 0x00, 0x00, 0x00,
  0x10, 0x00, 0x00, 0x00, 0xa2, 0xf8, 0xff, 0xff, 0x00, 0x00, 0x00, 0x09,
  0x8c, 0x00, 0x00, 0x00, 0x10, 0x00, 0x00, 0x00, 0x44, 0x00, 0x00, 0x00,
  0x04, 0x00, 0x00, 0x00, 0x4c, 0xf9, 0xff, 0xff, 0x30, 0x00, 0x00, 0x00,
  0x24, 0x00, 0x00, 0x00, 0x18, 0x00, 0x00, 0x00, 0x04, 0x00, 0x00, 0x00,
  0x01, 0x00, 0x00, 0x00, 0x80, 0xff, 0xff, 0xff, 0xff, 0xff, 0xff, 0xff,
  0x00, 0x00, 0x00, 0x00, 0x01, 0x00, 0x00, 0x00, 0xd7, 0xc9, 0xe0, 0x3c,
  0x01, 0x00, 0x00, 0x00, 0x0d, 0xe9, 0xdf, 0x40, 0x01, 0x00, 0x00, 0x00,
  0x00, 0x00, 0x00, 0x00, 0x3a, 0x00, 0x00, 0x00, 0x53, 0x74, 0x61, 0x74,
  0x65, 0x66, 0x75, 0x6c, 0x50, 0x61, 0x72, 0x74, 0x69, 0x74, 0x69, 0x6f,
  0x6e, 0x65, 0x64, 0x43, 0x61, 0x6c, 0x6c, 0x2f, 0x73, 0x65, 0x71, 0x75,
  0x65, 0x6e, 0x74, 0x69, 0x61, 0x6c, 0x2f, 0x63, 0x6f, 0x6e, 0x76, 0x31,
  0x64, 0x5f, 0x31, 0x2f, 0x63, 0x6f, 0x6e, 0x76, 0x31, 0x64, 0x2f, 0x53,
  0x71, 0x75, 0x65, 0x65, 0x7a, 0x65, 0x00, 0x00, 0x04, 0x00, 0x00, 0x00,
  0x01, 0x00, 0x00, 0x00, 0x01, 0x00, 0x00, 0x00, 0x4b, 0x00, 0x00, 0x00,
  0x10, 0x00, 0x00, 0x00, 0x4a, 0xf9, 0xff, 0xff, 0x00, 0x00, 0x00, 0x09,
  0xbc, 0x01, 0x00, 0x00, 0x07, 0x00, 0x00, 0x00, 0x70, 0x01, 0x00, 0x00,
  0x04, 0x00, 0x00, 0x00, 0xf4, 0xf9, 0xff, 0xff, 0x20, 0x01, 0x00, 0x00,
  0xd8, 0x00, 0x00, 0x00, 0x90, 0x00, 0x00, 0x00, 0x04, 0x00, 0x00, 0x00,
  0x10, 0x00, 0x00, 0x00, 0x00, 0x00, 0x00, 0x00, 0x00, 0x00, 0x00, 0x00,
  0x00, 0x00, 0x00, 0x00, 0x00, 0x00, 0x00, 0x00, 0x00, 0x00, 0x00, 0x00,
  0x00, 0x00, 0x00, 0x00, 0x00, 0x00, 0x00, 0x00, 0x00, 0x00, 0x00, 0x00,
  0x00, 0x00, 0x00, 0x00, 0x00, 0x00, 0x00, 0x00, 0x00, 0x00, 0x00, 0x00,
  0x00, 0x00, 0x00, 0x00, 0x00, 0x00, 0x00, 0x00, 0x00, 0x00, 0x00, 0x00,
  0x00, 0x00, 0x00, 0x00, 0x00, 0x00, 0x00, 0x00, 0x00, 0x00, 0x00, 0x00,
  0x00, 0x00, 0x00, 0x00, 0x00, 0x00, 0x00, 0x00, 0x00, 0x00, 0x00, 0x00,
  0x00, 0x00, 0x00, 0x00, 0x00, 0x00, 0x00, 0x00, 0x00, 0x00, 0x00, 0x00,
  0x00, 0x00, 0x00, 0x00, 0x00, 0x00, 0x00, 0x00, 0x00, 0x00, 0x00, 0x00,
  0x00, 0x00, 0x00, 0x00, 0x00, 0x00, 0x00, 0x00, 0x00, 0x00, 0x00, 0x00,
  0x00, 0x00, 0x00, 0x00, 0x00, 0x00, 0x00, 0x00, 0x00, 0x00, 0x00, 0x00,
  0x00, 0x00, 0x00, 0x00, 0x10, 0x00, 0x00, 0x00, 0xc2, 0x9e, 0x43, 0x3b,
  0x49, 0x53, 0x78, 0x3b, 0x24, 0x32, 0x7f, 0x3b, 0xfb, 0x62, 0x89, 0x3b,
  0x31, 0x8a, 0x78, 0x3b, 0x68, 0x6b, 0x6a, 0x3b, 0xde, 0x49, 0x25, 0x3b,
  0x5d, 0xe0, 0x9e, 0x3b, 0x51, 0x70, 0x57, 0x3b, 0x4a, 0x97, 0xa0, 0x3b,
  0xcb, 0x58, 0x85, 0x3b, 0x2a, 0x95, 0x93, 0x3b, 0x03, 0x58, 0x37, 0x3b,
  0xd7, 0xb8, 0x88, 0x3b, 0x73, 0xdf, 0x4e, 0x3b, 0x35, 0x59, 0x5c, 0x3b,
  0x10, 0x00, 0x00, 0x00, 0x84, 0x17, 0xc2, 0x3e, 0xa2, 0x62, 0xf6, 0x3e,
  0x43, 0x42, 0xb6, 0x3e, 0x0b, 0x3d, 0xd0, 0x3e, 0x1d, 0x99, 0xf6, 0x3e,
  0x91, 0x96, 0xe8, 0x3e, 0x15, 0x7f, 0x9a, 0x3e, 0x4d, 0x6f, 0xae, 0x3e,
  0x95, 0x5d, 0xcb, 0x3e, 0xd9, 0x4e, 0xb0, 0x3e, 0x05, 0x17, 0xe8, 0x3e,
  0xb4, 0x2f, 0xb8, 0x3e, 0x53, 0xe9, 0xb5, 0x3e, 0xc1, 0x2e, 0xdc, 0x3e,
  0xb4, 0x41, 0xcd, 0x3e, 0xb2, 0x03, 0xc0, 0x3e, 0x10, 0x00, 0x00, 0x00,
  0x1c, 0xcb, 0x9a, 0xbe, 0xb5, 0x2e, 0xa5, 0xbe, 0xc0, 0x33, 0xfd, 0xbe,
  0x35, 0x50, 0x08, 0xbf, 0x83, 0x47, 0xb9, 0xbe, 0x91, 0x22, 0xc3, 0xbe,
  0x4a, 0xff, 0xa3, 0xbe, 0x9c, 0xa2, 0x1d, 0xbf, 0x70, 0xc1, 0xd5, 0xbe,
  0x1b, 0x56, 0x1f, 0xbf, 0x19, 0x4e, 0x04, 0xbf, 0x00, 0x6e, 0x12, 0xbf,
  0x05, 0x69, 0x9c, 0xbe, 0x65, 0xa7, 0x07, 0xbf, 0x7e, 0xe0, 0xa6, 0xbe,
  0x83, 0xa0, 0xda, 0xbe, 0x3f, 0x00, 0x00, 0x00, 0x53, 0x74, 0x61, 0x74,
  0x65, 0x66, 0x75, 0x6c, 0x50, 0x61, 0x72, 0x74, 0x69, 0x74, 0x69, 0x6f,
  0x6e, 0x65, 0x64, 0x43, 0x61, 0x6c, 0x6c, 0x2f, 0x73, 0x65, 0x71, 0x75,
  0x65, 0x6e, 0x74, 0x69, 0x61, 0x6c, 0x2f, 0x63, 0x6f, 0x6e, 0x76, 0x31,
  0x64, 0x5f, 0x31, 0x2f, 0x63, 0x6f, 0x6e, 0x76, 0x31, 0x64, 0x2f, 0x45,
  0x78, 0x70, 0x61, 0x6e, 0x64, 0x44, 0x69, 0x6d, 0x73, 0x5f, 0x31, 0x00,
  0x04, 0x00, 0x00, 0x00, 0x10, 0x00, 0x00, 0x00, 0x01, 0x00, 0x00, 0x00,
  0x03, 0x00, 0x00, 0x00, 0x08, 0x00, 0x00, 0x00, 0x22, 0xfb, 0xff, 0xff,
  0x00, 0x00, 0x00, 0x02, 0x5c, 0x00, 0x00, 0x00, 0x03, 0x00, 0x00, 0x00,
  0x0c, 0x00, 0x00, 0x00, 0x04, 0x00, 0x00, 0x00, 0xe4, 0xfc, 0xff, 0xff,
  0x43, 0x00, 0x00, 0x00, 0x53, 0x74, 0x61, 0x74, 0x65, 0x66, 0x75, 0x6c,
  0x50, 0x61, 0x72, 0x74, 0x69, 0x74, 0x69, 0x6f, 0x6e, 0x65, 0x64, 0x43,
  0x61, 0x6c, 0x6c, 0x2f, 0x73, 0x65, 0x71, 0x75, 0x65, 0x6e, 0x74, 0x69,
  0x61, 0x6c, 0x2f, 0x63, 0x6f, 0x6e, 0x76, 0x31, 0x64, 0x5f, 0x31, 0x2f,
  0x63, 0x6f, 0x6e, 0x76, 0x31, 0x64, 0x2f, 0x45, 0x78, 0x70, 0x61, 0x6e,
  0x64, 0x44, 0x69, 0x6d, 0x73, 0x2f, 0x64, 0x69, 0x6d, 0x5f, 0x30, 0x00,
  0x02, 0x00, 0x00, 0x00, 0x01, 0x00, 0x00, 0x00, 0x04, 0x00, 0x00, 0x00,
  0x92, 0xfb, 0xff, 0xff, 0x00, 0x00, 0x00, 0x09, 0x8c, 0x00, 0x00, 0x00,
  0x15, 0x00, 0x00, 0x00, 0x40, 0x00, 0x00, 0x00, 0x04, 0x00, 0x00, 0x00,
  0x3c, 0xfc, 0xff, 0xff, 0x2c, 0x00, 0x00, 0x00, 0x20, 0x00, 0x00, 0x00,
  0x14, 0x00, 0x00, 0x00, 0x04, 0x00, 0x00, 0x00, 0x01, 0x00, 0x00, 0x00,
  0x80, 0xff, 0xff, 0xff, 0xff, 0xff, 0xff, 0xff, 0x01, 0x00, 0x00, 0x00,
  0x73, 0x49, 0xe5, 0x3c, 0x01, 0x00, 0x00, 0x00, 0x2a, 0x64, 0xe4, 0x40,
  0x01, 0x00, 0x00, 0x00, 0x00, 0x00, 0x00, 0x00, 0x3d, 0x00, 0x00, 0x00,
  0x53, 0x74, 0x61, 0x74, 0x65, 0x66, 0x75, 0x6c, 0x50, 0x61, 0x72, 0x74,
  0x69, 0x74, 0x69, 0x6f, 0x6e, 0x65, 0x64, 0x43, 0x61, 0x6c, 0x6c, 0x2f,
  0x73, 0x65, 0x71, 0x75, 0x65, 0x6e, 0x74, 0x69, 0x61, 0x6c, 0x2f, 0x63,
  0x6f, 0x6e, 0x76, 0x31, 0x64, 0x5f, 0x31, 0x2f, 0x63, 0x6f, 0x6e, 0x76,
  0x31, 0x64, 0x2f, 0x45, 0x78, 0x70, 0x61, 0x6e, 0x64, 0x44, 0x69, 0x6d,
  0x73, 0x00, 0x00, 0x00, 0x04, 0x00, 0x00, 0x00, 0x01, 0x00, 0x00, 0x00,
  0x01, 0x00, 0x00, 0x00, 0x4b, 0x00, 0x00, 0x00, 0x08, 0x00, 0x00, 0x00,
  0x3a, 0xfc, 0xff, 0xff, 0x00, 0x00, 0x00, 0x02, 0xc0, 0x00, 0x00, 0x00,
  0x08, 0x00, 0x00, 0x00, 0x7c, 0x00, 0x00, 0x00, 0x04, 0x00, 0x00, 0x00,
  0x2c, 0xfc, 0xff, 0xff, 0x4c, 0x00, 0x00, 0x00, 0x04, 0x00, 0x00, 0x00,
  0x08, 0x00, 0x00, 0x00, 0x00, 0x00, 0x00, 0x00, 0x00, 0x00, 0x00, 0x00,
  0x00, 0x00, 0x00, 0x00, 0x00, 0x00, 0x00, 0x00, 0x00, 0x00, 0x00, 0x00,
  0x00, 0x00, 0x00, 0x00, 0x00, 0x00, 0x00, 0x00, 0x00, 0x00, 0x00, 0x00,
  0x00, 0x00, 0x00, 0x00, 0x00, 0x00, 0x00, 0x00, 0x00, 0x00, 0x00, 0x00,
  0x00, 0x00, 0x00, 0x00, 0x00, 0x00, 0x00, 0x00, 0x00, 0x00, 0x00, 0x00,
  0x00, 0x00, 0x00, 0x00, 0x00, 0x00, 0x00, 0x00, 0x08, 0x00, 0x00, 0x00,
  0xf0, 0xfe, 0x2b, 0x3a, 0xe7, 0x0c, 0x1d, 0x3a, 0x08, 0x69, 0x11, 0x3a,
  0x0f, 0xd9, 0x58, 0x3a, 0x58, 0xfc, 0xed, 0x39, 0x03, 0xf2, 0x49, 0x3a,
  0x13, 0x5b, 0x0b, 0x3a, 0xf5, 0xc3, 0x1d, 0x3a, 0x35, 0x00, 0x00, 0x00,
  0x53, 0x74, 0x61, 0x74, 0x65, 0x66, 0x75, 0x6c, 0x50, 0x61, 0x72, 0x74,
  0x69, 0x74, 0x69, 0x6f, 0x6e, 0x65, 0x64, 0x43, 0x61, 0x6c, 0x6c, 0x2f,
  0x73, 0x65, 0x71, 0x75, 0x65, 0x6e, 0x74, 0x69, 0x61, 0x6c, 0x2f, 0x63,
  0x6f, 0x6e, 0x76, 0x31, 0x64, 0x2f, 0x63, 0x6f, 0x6e, 0x76, 0x31, 0x64,
  0x5f, 0x62, 0x69, 0x61, 0x73, 0x00, 0x00, 0x00, 0x01, 0x00, 0x00, 0x00,
  0x08, 0x00, 0x00, 0x00, 0x0a, 0xfd, 0xff, 0xff, 0x00, 0x00, 0x00, 0x09,
  0x18, 0x01, 0x00, 0x00, 0x09, 0x00, 0x00, 0x00, 0xcc, 0x00, 0x00, 0x00,
  0x04, 0x00, 0x00, 0x00, 0xb4, 0xfd, 0xff, 0xff, 0x9c, 0x00, 0x00, 0x00,
  0x74, 0x00, 0x00, 0x00, 0x4c, 0x00, 0x00, 0x00, 0x04, 0x00, 0x00, 0x00,
  0x08, 0x00, 0x00, 0x00, 0x00, 0x00, 0x00, 0x00, 0x00, 0x00, 0x00, 0x00,
  0x00, 0x00, 0x00, 0x00, 0x00, 0x00, 0x00, 0x00, 0x00, 0x00, 0x00, 0x00,
  0x00, 0x00, 0x00, 0x00, 0x00, 0x00, 0x00, 0x00, 0x00, 0x00, 0x00, 0x00,
  0x00, 0x00, 0x00, 0x00, 0x00, 0x00, 0x00, 0x00, 0x00, 0x00, 0x00, 0x00,
  0x00, 0x00, 0x00, 0x00, 0x00, 0x00, 0x00, 0x00, 0x00, 0x00, 0x00, 0x00,
  0x00, 0x00, 0x00, 0x00, 0x00, 0x00, 0x00, 0x00, 0x08, 0x00, 0x00, 0x00,
  0x7b, 0xc8, 0x98, 0x3b, 0xd5, 0x81, 0x8b, 0x3b, 0xd3, 0x2a, 0x81, 0x3b,
  0xff, 0x9f, 0xc0, 0x3b, 0xd1, 0x66, 0x53, 0x3b, 0x1b, 0x63, 0xb3, 0x3b,
  0x02, 0x94, 0x77, 0x3b, 0x70, 0x24, 0x8c, 0x3b, 0x08, 0x00, 0x00, 0x00,
  0x2d, 0x17, 0x00, 0x3f, 0xee, 0x5a, 0xcc, 0x3e, 0x53, 0xd6, 0xfb, 0x3e,
  0x92, 0x0c, 0x2d, 0x3f, 0x03, 0xc0, 0xd1, 0x3e, 0x55, 0xfc, 0x31, 0x3f,
  0xda, 0xa4, 0xf5, 0x3e, 0x73, 0x36, 0x08, 0x3f, 0x08, 0x00, 0x00, 0x00,
  0xea, 0x96, 0x17, 0xbf, 0xd1, 0x6a, 0x0a, 0xbf, 0x7d, 0x28, 0x00, 0xbf,
  0xbf, 0x1e, 0x3f, 0xbf, 0x52, 0x60, 0xb5, 0xbe, 0x45, 0xa6, 0x08, 0xbf,
  0x0d, 0x43, 0xd1, 0xbe, 0x27, 0x0c, 0x0b, 0xbf, 0x3d, 0x00, 0x00, 0x00,
  0x53, 0x74, 0x61, 0x74, 0x65, 0x66, 0x75, 0x6c, 0x50, 0x61, 0x72, 0x74,
  0x69, 0x74, 0x69, 0x6f, 0x6e, 0x65, 0x64, 0x43, 0x61, 0x6c, 0x6c, 0x2f,
  0x73, 0x65, 0x71, 0x75, 0x65, 0x6e, 0x74, 0x69, 0x61, 0x6c, 0x2f, 0x63,
  0x6f, 0x6e, 0x76, 0x31, 0x64, 0x2f, 0x63, 0x6f, 0x6e, 0x76, 0x31, 0x64,
  0x2f, 0x45, 0x78, 0x70, 0x61, 0x6e, 0x64, 0x44, 0x69, 0x6d, 0x73, 0x5f,
  0x31, 0x00, 0x00, 0x00, 0x04, 0x00, 0x00, 0x00, 0x08, 0x00, 0x00, 0x00,
  0x01, 0x00, 0x00, 0x00, 0x03, 0x00, 0x00, 0x00, 0x1a, 0x00, 0x00, 0x00,
  0x3e, 0xfe, 0xff, 0xff, 0x00, 0x00, 0x00, 0x02, 0x60, 0x00, 0x00, 0x00,
  0x0f, 0x00, 0x00, 0x00, 0x10, 0x00, 0x00, 0x00, 0x08, 0x00, 0x00, 0x00,
  0x04, 0x00, 0x04, 0x00, 0x04, 0x00, 0x00, 0x00, 0x41, 0x00, 0x00, 0x00,
  0x53, 0x74, 0x61, 0x74, 0x65, 0x66, 0x75, 0x6c, 0x50, 0x61, 0x72, 0x74,
  0x69, 0x74, 0x69, 0x6f, 0x6e, 0x65, 0x64, 0x43, 0x61, 0x6c, 0x6c, 0x2f,
  0x73, 0x65, 0x71, 0x75, 0x65, 0x6e, 0x74, 0x69, 0x61, 0x6c, 0x2f, 0x63,
  0x6f, 0x6e, 0x76, 0x31, 0x64, 0x2f, 0x63, 0x6f, 0x6e, 0x76, 0x31, 0x64,
  0x2f, 0x45, 0x78, 0x70, 0x61, 0x6e, 0x64, 0x44, 0x69, 0x6d, 0x73, 0x2f,
  0x64, 0x69, 0x6d, 0x5f, 0x30, 0x00, 0x00, 0x00, 0x02, 0x00, 0x00, 0x00,
  0x01, 0x00, 0x00, 0x00, 0x04, 0x00, 0x00, 0x00, 0xb2, 0xfe, 0xff, 0xff,
  0x00, 0x00, 0x00, 0x09, 0x88, 0x00, 0x00, 0x00, 0x12, 0x00, 0x00, 0x00,
  0x40, 0x00, 0x00, 0x00, 0x04, 0x00, 0x00, 0x00, 0x5c, 0xff, 0xff, 0xff,
  0x2c, 0x00, 0x00, 0x00, 0x20, 0x00, 0x00, 0x00, 0x14, 0x00, 0x00, 0x00,
  0x04, 0x00, 0x00, 0x00, 0x01, 0x00, 0x00, 0x00, 0x09, 0x00, 0x00, 0x00,
  0x00, 0x00, 0x00, 0x00, 0x01, 0x00, 0x00, 0x00, 0xa1, 0x18, 0x10, 0x3e,
  0x01, 0x00, 0x00, 0x00, 0xc7, 0xda, 0x84, 0x41, 0x01, 0x00, 0x00, 0x00,
  0x48, 0x36, 0x9a, 0xc1, 0x3b, 0x00, 0x00, 0x00, 0x53, 0x74, 0x61, 0x74,
  0x65, 0x66, 0x75, 0x6c, 0x50, 0x61, 0x72, 0x74, 0x69, 0x74, 0x69, 0x6f,
  0x6e, 0x65, 0x64, 0x43, 0x61, 0x6c, 0x6c, 0x2f, 0x73, 0x65, 0x71, 0x75,
  0x65, 0x6e, 0x74, 0x69, 0x61, 0x6c, 0x2f, 0x63, 0x6f, 0x6e, 0x76, 0x31,
  0x64, 0x2f, 0x63, 0x6f, 0x6e, 0x76, 0x31, 0x64, 0x2f, 0x45, 0x78, 0x70,
  0x61, 0x6e, 0x64, 0x44, 0x69, 0x6d, 0x73, 0x00, 0x04, 0x00, 0x00, 0x00,
  0x01, 0x00, 0x00, 0x00, 0x01, 0x00, 0x00, 0x00, 0x96, 0x00, 0x00, 0x00,
  0x1a, 0x00, 0x00, 0x00, 0x56, 0xff, 0xff, 0xff, 0x00, 0x00, 0x00, 0x09,
  0x8c, 0x00, 0x00, 0x00, 0x0e, 0x00, 0x00, 0x00, 0x50, 0x00, 0x00, 0x00,
  0x10, 0x00, 0x00, 0x00, 0x0c, 0x00, 0x14, 0x00, 0x04, 0x00, 0x08, 0x00,
  0x0c, 0x00, 0x10, 0x00, 0x0c, 0x00, 0x00, 0x00, 0x30, 0x00, 0x00, 0x00,
  0x24, 0x00, 0x00, 0x00, 0x18, 0x00, 0x00, 0x00, 0x04, 0x00, 0x00, 0x00,
  0x01, 0x00, 0x00, 0x00, 0x80, 0xff, 0xff, 0xff, 0xff, 0xff, 0xff, 0xff,
  0x00, 0x00, 0x00, 0x00, 0x01, 0x00, 0x00, 0x00, 0x73, 0x49, 0xe5, 0x3c,
  0x01, 0x00, 0x00, 0x00, 0x2a, 0x64, 0xe4, 0x40, 0x01, 0x00, 0x00, 0x00,
  0x00, 0x00, 0x00, 0x00, 0x2e, 0x00, 0x00, 0x00, 0x53, 0x74, 0x61, 0x74,
  0x65, 0x66, 0x75, 0x6c, 0x50, 0x61, 0x72, 0x74, 0x69, 0x74, 0x69, 0x6f,
  0x6e, 0x65, 0x64, 0x43, 0x61, 0x6c, 0x6c, 0x2f, 0x73, 0x65, 0x71, 0x75,
  0x65, 0x6e, 0x74, 0x69, 0x61, 0x6c, 0x2f, 0x63, 0x6f, 0x6e, 0x76, 0x31,
  0x64, 0x2f, 0x52, 0x65, 0x6c, 0x75, 0x00, 0x00, 0x04, 0x00, 0x00, 0x00,
  0x01, 0x00, 0x00, 0x00, 0x01, 0x00, 0x00, 0x00, 0x96, 0x00, 0x00, 0x00,
  0x08, 0x00, 0x00, 0x00, 0x00, 0x00, 0x0e, 0x00, 0x18, 0x00, 0x08, 0x00,
  0x07, 0x00, 0x0c, 0x00, 0x10, 0x00, 0x14, 0x00, 0x0e, 0x00, 0x00, 0x00,
  0x00, 0x00, 0x00, 0x09, 0x54, 0x00, 0x00, 0x00, 0x0a, 0x00, 0x00, 0x00,
  0x38, 0x00, 0x00, 0x00, 0x10, 0x00, 0x00, 0x00, 0x0c, 0x00, 0x0c, 0x00,
  0x00, 0x00, 0x00, 0x00, 0x04, 0x00, 0x08, 0x00, 0x0c, 0x00, 0x00, 0x00,
  0x18, 0x00, 0x00, 0x00, 0x04, 0x00, 0x00, 0x00, 0x01, 0x00, 0x00, 0x00,
  0x80, 0xff, 0xff, 0xff, 0xff, 0xff, 0xff, 0xff, 0x00, 0x00, 0x00, 0x00,
  0x01, 0x00, 0x00, 0x00, 0x00, 0x00, 0x80, 0x3b, 0x0d, 0x00, 0x00, 0x00,
  0x49, 0x64, 0x65, 0x6e, 0x74, 0x69, 0x74, 0x79, 0x5f, 0x69, 0x6e, 0x74,
  0x38, 0x00, 0x00, 0x00, 0x02, 0x00, 0x00, 0x00, 0x01, 0x00, 0x00, 0x00,
  0x02, 0x00, 0x00, 0x00, 0x07, 0x00, 0x00, 0x00, 0x7c, 0x00, 0x00, 0x00,
  0x60, 0x00, 0x00, 0x00, 0x44, 0x00, 0x00, 0x00, 0x38, 0x00, 0x00, 0x00,
  0x20, 0x00, 0x00, 0x00, 0x14, 0x00, 0x00, 0x00, 0x04, 0x00, 0x00, 0x00,
  0xaa, 0xff, 0xff, 0xff, 0x00, 0x00, 0x00, 0x06, 0x02, 0x00, 0x00, 0x00,
  0xea, 0xff, 0xff, 0xff, 0x00, 0x00, 0x00, 0x72, 0xd6, 0xff, 0xff, 0xff,
  0x00, 0x00, 0x00, 0x19, 0x02, 0x00, 0x00, 0x00, 0x00, 0x00, 0x06, 0x00,
  0x08, 0x00, 0x07, 0x00, 0x06, 0x00, 0x00, 0x00, 0x00, 0x00, 0x00, 0x16,
  0xf2, 0xff, 0xff, 0xff, 0x00, 0x00, 0x00, 0x11, 0x02, 0x00, 0x00, 0x00,
  0x00, 0x00, 0x0a, 0x00, 0x0e, 0x00, 0x07, 0x00, 0x00, 0x00, 0x08, 0x00,
  0x0a, 0x00, 0x00, 0x00, 0x00, 0x00, 0x00, 0x09, 0x04, 0x00, 0x00, 0x00,
  0x00, 0x00, 0x0a, 0x00, 0x0c, 0x00, 0x07, 0x00, 0x00, 0x00, 0x08, 0x00,
  0x0a, 0x00, 0x00, 0x00, 0x00, 0x00, 0x00, 0x03, 0x03, 0x00, 0x00, 0x00
};
unsigned int mfcc_int8_model_len = 8184;
