unsigned char mfe_int8_tflite[] = {
  0x1c, 0x00, 0x00, 0x00, 0x54, 0x46, 0x4c, 0x33, 0x14, 0x00, 0x20, 0x00,
  0x04, 0x00, 0x08, 0x00, 0x0c, 0x00, 0x10, 0x00, 0x14, 0x00, 0x00, 0x00,
  0x18, 0x00, 0x1c, 0x00, 0x14, 0x00, 0x00, 0x00, 0x03, 0x00, 0x00, 0x00,
  0xb8, 0x00, 0x00, 0x00, 0xac, 0x00, 0x00, 0x00, 0xac, 0x01, 0x00, 0x00,
  0x0c, 0x00, 0x00, 0x00, 0x54, 0x01, 0x00, 0x00, 0xcc, 0x00, 0x00, 0x00,
  0x25, 0x00, 0x00, 0x00, 0x54, 0x28, 0x00, 0x00, 0x50, 0x28, 0x00, 0x00,
  0x18, 0x27, 0x00, 0x00, 0x7c, 0x26, 0x00, 0x00, 0xfc, 0x25, 0x00, 0x00,
  0x7c, 0x25, 0x00, 0x00, 0xf4, 0x24, 0x00, 0x00, 0x6c, 0x24, 0x00, 0x00,
  0xe4, 0x23, 0x00, 0x00, 0x5c, 0x23, 0x00, 0x00, 0xd0, 0x22, 0x00, 0x00,
  0x5c, 0x22, 0x00, 0x00, 0x00, 0x1f, 0x00, 0x00, 0x28, 0x1e, 0x00, 0x00,
  0x5c, 0x1b, 0x00, 0x00, 0x04, 0x1a, 0x00, 0x00, 0xb8, 0x14, 0x00, 0x00,
  0x50, 0x14, 0x00, 0x00, 0x0c, 0x28, 0x00, 0x00, 0x08, 0x28, 0x00, 0x00,
  0x04, 0x28, 0x00, 0x00, 0x00, 0x28, 0x00, 0x00, 0xfc, 0x27, 0x00, 0x00,
  0xf8, 0x27, 0x00, 0x00, 0xf4, 0x27, 0x00, 0x00, 0xf0, 0x27, 0x00, 0x00,
  0xec, 0x27, 0x00, 0x00, 0xe8, 0x27, 0x00, 0x00, 0xe4, 0x27, 0x00, 0x00,
  0xe0, 0x27, 0x00, 0x00, 0xdc, 0x27, 0x00, 0x00, 0xd8, 0x27, 0x00, 0x00,
  0xd4, 0x27, 0x00, 0x00, 0xd0, 0x27, 0x00, 0x00, 0xcc, 0x27, 0x00, 0x00,
  0xc8, 0x27, 0x00, 0x00, 0xec, 0x00, 0x00, 0x00, 0x01, 0x00, 0x00, 0x00,
  0x24, 0x01, 0x00, 0x00, 0x09, 0x00, 0x00, 0x00, 0x88, 0x13, 0x00, 0x00,
  0xbc, 0x12, 0x00, 0x00, 0xe0, 0x11, 0x00, 0x00, 0xec, 0x10, 0x00, 0x00,
  0xf8, 0x0f, 0x00, 0x00, 0x68, 0x0e, 0x00, 0x00, 0x44, 0x0b, 0x00, 0x00,
  0xfc, 0x02, 0x00, 0x00, 0x3c, 0x02, 0x00, 0x00, 0x01, 0x00, 0x00, 0x00,
  0x10, 0x00, 0x00, 0x00, 0x00, 0x00, 0x0a, 0x00, 0x10, 0x00, 0x0c, 0x00,
  0x08, 0x00, 0x04, 0x00, 0x0a, 0x00, 0x00, 0x00, 0x0c, 0x00, 0x00, 0x00,
  0x1c, 0x00, 0x00, 0x00, 0x20, 0x00, 0x00, 0x00, 0x0f, 0x00, 0x00, 0x00,
  0x73, 0x65, 0x72, 0x76, 0x69, 0x6e, 0x67, 0x5f, 0x64, 0x65, 0x66, 0x61,
  0x75, 0x6c, 0x74, 0x00, 0x01, 0x00, 0x00, 0x00, 0x14, 0x00, 0x00, 0x00,
  0x01, 0x00, 0x00, 0x00, 0x24, 0x00, 0x00, 0x00, 0x08, 0x00, 0x0c, 0x00,
  0x08, 0x00, 0x04, 0x00, 0x08, 0x00, 0x00, 0x00, 0x22, 0x00, 0x00, 0x00,
  0x04, 0x00, 0x00, 0x00, 0x06, 0x00, 0x00, 0x00, 0x79, 0x5f, 0x70, 0x72,
  0x65, 0x64, 0x00, 0x00, 0x12, 0xda, 0xff, 0xff, 0x04, 0x00, 0x00, 0x00,
  0x0d, 0x00, 0x00, 0x00, 0x72, 0x65, 0x73, 0x68, 0x61, 0x70, 0x65, 0x5f,
  0x69, 0x6e, 0x70, 0x75, 0x74, 0x00, 0x00, 0x00, 0x01, 0x00, 0x00, 0x00,
  0x0c, 0x00, 0x00, 0x00, 0x08, 0x00, 0x0c, 0x00, 0x04, 0x00, 0x08, 0x00,
  0x08, 0x00, 0x00, 0x00, 0x08, 0x00, 0x00, 0x00, 0x24, 0x00, 0x00, 0x00,
  0x13, 0x00, 0x00, 0x00, 0x6d, 0x69, 0x6e, 0x5f, 0x72, 0x75, 0x6e, 0x74,
  0x69, 0x6d, 0x65, 0x5f, 0x76, 0x65, 0x72, 0x73, 0x69, 0x6f, 0x6e, 0x00,
  0x62, 0xda, 0xff, 0xff, 0x04, 0x00, 0x00, 0x00, 0x10, 0x00, 0x00, 0x00,
  0x31, 0x2e, 0x31, 0x34, 0x2e, 0x30, 0x00, 0x00, 0x00, 0x00, 0x00, 0x00,
  0x00, 0x00, 0x00, 0x00, 0x0f, 0x00, 0x00, 0x00, 0x4d, 0x4c, 0x49, 0x52,
  0x20, 0x43, 0x6f, 0x6e, 0x76, 0x65, 0x72, 0x74, 0x65, 0x64, 0x2e, 0x00,
  0x00, 0x00, 0x0e, 0x00, 0x18, 0x00, 0x04, 0x00, 0x08, 0x00, 0x0c, 0x00,
  0x10, 0x00, 0x14, 0x00, 0x0e, 0x00, 0x00, 0x00, 0x7c, 0x00, 0x00, 0x00,
  0x70, 0x00, 0x00, 0x00, 0x64, 0x00, 0x00, 0x00, 0x14, 0x00, 0x00, 0x00,
  0x04, 0x00, 0x00, 0x00, 0x04, 0x00, 0x00, 0x00, 0x6d, 0x61, 0x69, 0x6e,
  0x00, 0x00, 0x00, 0x00, 0x12, 0x00, 0x00, 0x00, 0x04, 0x12, 0x00, 0x00,
  0x2c, 0x11, 0x00, 0x00, 0x64, 0x10, 0x00, 0x00, 0x84, 0x0f, 0x00, 0x00,
  0x84, 0x0e, 0x00, 0x00, 0xd8, 0x0c, 0x00, 0x00, 0xa0, 0x0b, 0x00, 0x00,
  0xb8, 0x0a, 0x00, 0x00, 0xac, 0x09, 0x00, 0x00, 0xe0, 0x08, 0x00, 0x00,
  0xf8, 0x07, 0x00, 0x00, 0x54, 0x06, 0x00, 0x00, 0x08, 0x05, 0x00, 0x00,
  0x1c, 0x04, 0x00, 0x00, 0x28, 0x03, 0x00, 0x00, 0x6c, 0x02, 0x00, 0x00,
  0x60, 0x01, 0x00, 0x00, 0xa4, 0x00, 0x00, 0x00, 0x01, 0x00, 0x00, 0x00,
  0x22, 0x00, 0x00, 0x00, 0x01, 0x00, 0x00, 0x00, 0x00, 0x00, 0x00, 0x00,
  0x23, 0x00, 0x00, 0x00, 0x8c, 0x25, 0x00, 0x00, 0xfc, 0x24, 0x00, 0x00,
  0x50, 0x24, 0x00, 0x00, 0xd0, 0x23, 0x00, 0x00, 0x50, 0x23, 0x00, 0x00,
  0xc8, 0x22, 0x00, 0x00, 0x48, 0x22, 0x00, 0x00, 0xb8, 0x21, 0x00, 0x00,
  0x38, 0x21, 0x00, 0x00, 0xac, 0x20, 0x00, 0x00, 0x34, 0x20, 0x00, 0x00,
  0x40, 0x1f, 0x00, 0x00, 0x18, 0x1c, 0x00, 0x00, 0xac, 0x1a, 0x00, 0x00,
  0x14, 0x18, 0x00, 0x00, 0x48, 0x17, 0x00, 0x00, 0x28, 0x12, 0x00, 0x00,
  0xb4, 0x11, 0x00, 0x00, 0xe8, 0x10, 0x00, 0x00, 0x0c, 0x10, 0x00, 0x00,
  0x18, 0x0f, 0x00, 0x00, 0x24, 0x0e, 0x00, 0x00, 0x94, 0x0c, 0x00, 0x00,
  0x24, 0x0b, 0x00, 0x00, 0x48, 0x0a, 0x00, 0x00, 0x68, 0x09, 0x00, 0x00,
  0x64, 0x08, 0x00, 0x00, 0x88, 0x07, 0x00, 0x00, 0xf4, 0x05, 0x00, 0x00,
  0x8c, 0x04, 0x00, 0x00, 0xac, 0x03, 0x00, 0x00, 0xc4, 0x02, 0x00, 0x00,
  0xf0, 0x01, 0x00, 0x00, 0x04, 0x01, 0x00, 0x00, 0x44, 0x00, 0x00, 0x00,
  0x8a, 0xf0, 0xff, 0xff, 0x00, 0x00, 0x00, 0x09, 0x08, 0x00, 0x00, 0x00,
  0x1c, 0x00, 0x00, 0x00, 0x10, 0x00, 0x00, 0x00, 0x04, 0x00, 0x00, 0x00,
  0xca, 0xdb, 0xff, 0xff, 0x00, 0x00, 0x80, 0x3f, 0x01, 0x00, 0x00, 0x00,
  0x22, 0x00, 0x00, 0x00, 0x01, 0x00, 0x00, 0x00, 0x21, 0x00, 0x00, 0x00,
  0xe0, 0xee, 0xff, 0xff, 0x19, 0x00, 0x00, 0x00, 0x00, 0x00, 0x00, 0x19,
  0x02, 0x00, 0x00, 0x00, 0x54, 0xdb, 0xff, 0xff, 0x00, 0x00, 0x00, 0x09,
  0x40, 0x00, 0x00, 0x00, 0x23, 0x00, 0x00, 0x00, 0x18, 0x00, 0x00, 0x00,
  0x40, 0x00, 0x00, 0x00, 0x04, 0x00, 0x00, 0x00, 0x02, 0x00, 0x00, 0x00,
  0xff, 0xff, 0xff, 0xff, 0x02, 0x00, 0x00, 0x00, 0x19, 0x00, 0x00, 0x00,
  0x53, 0x74, 0x61, 0x74, 0x65, 0x66, 0x75, 0x6c, 0x50, 0x61, 0x72, 0x74,
  0x69, 0x74, 0x69, 0x6f, 0x6e, 0x65, 0x64, 0x43, 0x61, 0x6c, 0x6c, 0x3a,
  0x30, 0x00, 0x00, 0x00, 0x02, 0x00, 0x00, 0x00, 0x01, 0x00, 0x00, 0x00,
  0x02, 0x00, 0x00, 0x00, 0x3c, 0xdb, 0xff, 0xff, 0x18, 0x00, 0x00, 0x00,
  0x04, 0x00, 0x00, 0x00, 0x01, 0x00, 0x00, 0x00, 0x80, 0xff, 0xff, 0xff,
  0xff, 0xff, 0xff, 0xff, 0x00, 0x00, 0x00, 0x00, 0x01, 0x00, 0x00, 0x00,
  0x00, 0x00, 0x80, 0x3b, 0x42, 0xf1, 0xff, 0xff, 0x00, 0x00, 0x00, 0x08,
  0x07, 0x00, 0x00, 0x00, 0x18, 0x00, 0x00, 0x00, 0x0c, 0x00, 0x00, 0x00,
  0x04, 0x00, 0x00, 0x00, 0x4c, 0xdb, 0xff, 0xff, 0x01, 0x00, 0x00, 0x00,
  0x21, 0x00, 0x00, 0x00, 0x03, 0x00, 0x00, 0x00, 0x20, 0x00, 0x00, 0x00,
  0x0f, 0x00, 0x00, 0x00, 0x10, 0x00, 0x00, 0x00, 0x9c, 0xef, 0xff, 0xff,
  0x09, 0x00, 0x00, 0x00, 0x00, 0x00, 0x00, 0x09, 0x04, 0x00, 0x00, 0x00,
  0x10, 0xdc, 0xff, 0xff, 0x00, 0x00, 0x00, 0x09, 0x8c, 0x00, 0x00, 0x00,
  0x22, 0x00, 0x00, 0x00, 0x18, 0x00, 0x00, 0x00, 0x8c, 0x00, 0x00, 0x00,
  0x04, 0x00, 0x00, 0x00, 0x02, 0x00, 0x00, 0x00, 0xff, 0xff, 0xff, 0xff,
  0x02, 0x00, 0x00, 0x00, 0x65, 0x00, 0x00, 0x00, 0x73, 0x65, 0x71, 0x75,
  0x65, 0x6e, 0x74, 0x69, 0x61, 0x6c, 0x2f, 0x79, 0x5f, 0x70, 0x72, 0x65,
  0x64, 0x2f, 0x4d, 0x61, 0x74, 0x4d, 0x75, 0x6c, 0x3b, 0x73, 0x65, 0x71,
  0x75, 0x65, 0x6e, 0x74, 0x69, 0x61, 0x6c, 0x2f, 0x79, 0x5f, 0x70, 0x72,
  0x65, 0x64, 0x2f, 0x4d, 0x61, 0x74, 0x4d, 0x75, 0x6c, 0x3b, 0x73, 0x65,
  0x71, 0x75, 0x65, 0x6e, 0x74, 0x69, 0x61, 0x6c, 0x2f, 0x79, 0x5f, 0x70,
  0x72, 0x65, 0x64, 0x2f, 0x42, 0x69, 0x61, 0x73, 0x41, 0x64, 0x64, 0x3b,
  0x73, 0x65, 0x71, 0x75, 0x65, 0x6e, 0x74, 0x69, 0x61, 0x6c, 0x2f, 0x79,
  0x5f, 0x70, 0x72, 0x65, 0x64, 0x2f, 0x42, 0x69, 0x61, 0x73, 0x41, 0x64,
  0x64, 0x00, 0x00, 0x00, 0x02, 0x00, 0x00, 0x00, 0x01, 0x00, 0x00, 0x00,
  0x02, 0x00, 0x00, 0x00, 0x44, 0xdc, 0xff, 0xff, 0x18, 0x00, 0x00, 0x00,
  0x04, 0x00, 0x00, 0x00, 0x01, 0x00, 0x00, 0x00, 0x0f, 0x00, 0x00, 0x00,
  0x00, 0x00, 0x00, 0x00, 0x00, 0x00, 0x00, 0x00, 0x01, 0x00, 0x00, 0x00,
  0x28, 0xda, 0xc9, 0x3c, 0x22, 0xf3, 0xff, 0xff, 0x03, 0x00, 0x00, 0x00,
  0x10, 0x00, 0x00, 0x00, 0x04, 0x00, 0x00, 0x00, 0x01, 0x00, 0x00, 0x00,
  0x20, 0x00, 0x00, 0x00, 0x02, 0x00, 0x00, 0x00, 0x1f, 0x00, 0x00, 0x00,
  0x0a, 0x00, 0x00, 0x00, 0xf8, 0xdc, 0xff, 0xff, 0x00, 0x00, 0x00, 0x09,
  0x5c, 0x00, 0x00, 0x00, 0x21, 0x00, 0x00, 0x00, 0x18, 0x00, 0x00, 0x00,
  0x5c, 0x00, 0x00, 0x00, 0x04, 0x00, 0x00, 0x00, 0x02, 0x00, 0x00, 0x00,
  0xff, 0xff, 0xff, 0xff, 0x60, 0x02, 0x00, 0x00, 0x35, 0x00, 0x00, 0x00,
  0x73, 0x65, 0x71, 0x75, 0x65, 0x6e, 0x74, 0x69, 0x61, 0x6c, 0x2f, 0x66,
  0x6c, 0x61, 0x74, 0x74, 0x65, 0x6e, 0x2f, 0x52, 0x65, 0x73, 0x68, 0x61,
  0x70, 0x65, 0x3b, 0x73, 0x65, 0x71, 0x75, 0x65, 0x6e, 0x74, 0x69, 0x61,
  0x6c, 0x2f, 0x66, 0x6c, 0x61, 0x74, 0x74, 0x65, 0x6e, 0x2f, 0x52, 0x65,
  0x73, 0x68, 0x61, 0x70, 0x65, 0x00, 0x00, 0x00, 0x02, 0x00, 0x00, 0x00,
  0x01, 0x00, 0x00, 0x00, 0x60, 0x02, 0x00, 0x00, 0xfc, 0xdc, 0xff, 0xff,
  0x18, 0x00, 0x00, 0x00, 0x04, 0x00, 0x00, 0x00, 0x01, 0x00, 0x00, 0x00,
  0x80, 0xff, 0xff, 0xff, 0xff, 0xff, 0xff, 0xff, 0x00, 0x00, 0x00, 0x00,
  0x01, 0x00, 0x00, 0x00, 0xfd, 0xc0, 0x36, 0x3c, 0x02, 0xf3, 0xff, 0xff,
  0x00, 0x00, 0x00, 0x05, 0x06, 0x00, 0x00, 0x00, 0x28, 0x00, 0x00, 0x00,
  0x1c, 0x00, 0x00, 0x00, 0x04, 0x00, 0x00, 0x00, 0x92, 0xf9, 0xff, 0xff,
  0x02, 0x00, 0x00, 0x00, 0x01, 0x00, 0x00, 0x00, 0x02, 0x00, 0x00, 0x00,
  0x01, 0x00, 0x00, 0x00, 0x01, 0x00, 0x00, 0x00, 0x1f, 0x00, 0x00, 0x00,
  0x01, 0x00, 0x00, 0x00, 0x1e, 0x00, 0x00, 0x00, 0xc8, 0xdd, 0xff, 0xff,
  0x00, 0x00, 0x00, 0x09, 0x74, 0x00, 0x00, 0x00, 0x20, 0x00, 0x00, 0x00,
  0x20, 0x00, 0x00, 0x00, 0x7c, 0x00, 0x00, 0x00, 0x04, 0x00, 0x00, 0x00,
  0x04, 0x00, 0x00, 0x00, 0xff, 0xff, 0xff, 0xff, 0x26, 0x00, 0x00, 0x00,
  0x01, 0x00, 0x00, 0x00, 0x10, 0x00, 0x00, 0x00, 0x45, 0x00, 0x00, 0x00,
  0x73, 0x65, 0x71, 0x75, 0x65, 0x6e, 0x74, 0x69, 0x61, 0x6c, 0x2f, 0x6d,
  0x61, 0x78, 0x5f, 0x70, 0x6f, 0x6f, 0x6c, 0x69, 0x6e, 0x67, 0x31, 0x64,
  0x5f, 0x31, 0x2f, 0x4d, 0x61, 0x78, 0x50, 0x6f, 0x6f, 0x6c, 0x3b, 0x73,
  0x65, 0x71, 0x75, 0x65, 0x6e, 0x74, 0x69, 0x61, 0x6c, 0x2f, 0x6d, 0x61,
  0x78, 0x5f, 0x70, 0x6f, 0x6f, 0x6c, 0x69, 0x6e, 0x67, 0x31, 0x64, 0x5f,
  0x31, 0x2f, 0x4d, 0x61, 0x78, 0x50, 0x6f, 0x6f, 0x6c, 0x00, 0x00, 0x00,
  0x04, 0x00, 0x00, 0x00, 0x01, 0x00, 0x00, 0x00, 0x26, 0x00, 0x00, 0x00,
  0x01, 0x00, 0x00, 0x00, 0x10, 0x00, 0x00, 0x00, 0xec, 0xdd, 0xff, 0xff,
  0x18, 0x00, 0x00, 0x00, 0x04, 0x00, 0x00, 0x00, 0x01, 0x00, 0x00, 0x00,
  0x80, 0xff, 0xff, 0xff, 0xff, 0xff, 0xff, 0xff, 0x00, 0x00, 0x00, 0x00,
  0x01, 0x00, 0x00, 0x00, 0xfd, 0xc0, 0x36, 0x3c, 0xf2, 0xf3, 0xff, 0xff,
  0x00, 0x00, 0x00, 0x34, 0x04, 0x00, 0x00, 0x00, 0x18, 0x00, 0x00, 0x00,
  0x0c, 0x00, 0x00, 0x00, 0x04, 0x00, 0x00, 0x00, 0xfc, 0xdd, 0xff, 0xff,
  0x01, 0x00, 0x00, 0x00, 0x1e, 0x00, 0x00, 0x00, 0x02, 0x00, 0x00, 0x00,
  0x1d, 0x00, 0x00, 0x00, 0x07, 0x00, 0x00, 0x00, 0xac, 0xde, 0xff, 0xff,
  0x00, 0x00, 0x00, 0x09, 0x78, 0x00, 0x00, 0x00, 0x1f, 0x00, 0x00, 0x00,
  0x20, 0x00, 0x00, 0x00, 0x80, 0x00, 0x00, 0x00, 0x04, 0x00, 0x00, 0x00,
  0x04, 0x00, 0x00, 0x00, 0xff, 0xff, 0xff, 0xff, 0x4b, 0x00, 0x00, 0x00,
  0x01, 0x00, 0x00, 0x00, 0x10, 0x00, 0x00, 0x00, 0x4b, 0x00, 0x00, 0x00,
  0x73, 0x65, 0x71, 0x75, 0x65, 0x6e, 0x74, 0x69, 0x61, 0x6c, 0x2f, 0x6d,
  0x61, 0x78, 0x5f, 0x70, 0x6f, 0x6f, 0x6c, 0x69, 0x6e, 0x67, 0x31, 0x64,
  0x5f, 0x31, 0x2f, 0x45, 0x78, 0x70, 0x61, 0x6e, 0x64, 0x44, 0x69, 0x6d,
  0x73, 0x3b, 0x73, 0x65, 0x71, 0x75, 0x65, 0x6e, 0x74, 0x69, 0x61, 0x6c,
  0x2f, 0x6d, 0x61, 0x78, 0x5f, 0x70, 0x6f, 0x6f, 0x6c, 0x69, 0x6e, 0x67,
  0x31, 0x64, 0x5f, 0x31, 0x2f, 0x45, 0x78, 0x70, 0x61, 0x6e, 0x64, 0x44,
  0x69, 0x6d, 0x73, 0x00, 0x04, 0x00, 0x00, 0x00, 0x01, 0x00, 0x00, 0x00,
  0x4b, 0x00, 0x00, 0x00, 0x01, 0x00, 0x00, 0x00, 0x10, 0x00, 0x00, 0x00,
  0xd4, 0xde, 0xff, 0xff, 0x18, 0x00, 0x00, 0x00, 0x04, 0x00, 0x00, 0x00,
  0x01, 0x00, 0x00, 0x00, 0x80, 0xff, 0xff, 0xff, 0xff, 0xff, 0xff, 0xff,
  0x00, 0x00, 0x00, 0x00, 0x01, 0x00, 0x00, 0x00, 0xfd, 0xc0, 0x36, 0x3c,
  0xb2, 0xf5, 0xff, 0xff, 0x03, 0x00, 0x00, 0x00, 0x10, 0x00, 0x00, 0x00,
  0x04, 0x00, 0x00, 0x00, 0x01, 0x00, 0x00, 0x00, 0x1d, 0x00, 0x00, 0x00,
  0x02, 0x00, 0x00, 0x00, 0x1c, 0x00, 0x00, 0x00, 0x09, 0x00, 0x00, 0x00,
  0x88, 0xdf, 0xff, 0xff, 0x00, 0x00, 0x00, 0x09, 0xe8, 0x00, 0x00, 0x00,
  0x1e, 0x00, 0x00, 0x00, 0x1c, 0x00, 0x00, 0x00, 0xec, 0x00, 0x00, 0x00,
  0x04, 0x00, 0x00, 0x00, 0x03, 0x00, 0x00, 0x00, 0xff, 0xff, 0xff, 0xff,
  0x4b, 0x00, 0x00, 0x00, 0x10, 0x00, 0x00, 0x00, 0xbd, 0x00, 0x00, 0x00,
  0x73, 0x65, 0x71, 0x75, 0x65, 0x6e, 0x74, 0x69, 0x61, 0x6c, 0x2f, 0x63,
  0x6f, 0x6e, 0x76, 0x31, 0x64, 0x5f, 0x31, 0x2f, 0x52, 0x65, 0x6c, 0x75,
  0x3b, 0x73, 0x65, 0x71, 0x75, 0x65, 0x6e, 0x74, 0x69, 0x61, 0x6c, 0x2f,
  0x63, 0x6f, 0x6e, 0x76, 0x31, 0x64, 0x5f, 0x31, 0x2f, 0x52, 0x65, 0x6c,
  0x75, 0x3b, 0x73, 0x65, 0x71, 0x75, 0x65, 0x6e, 0x74, 0x69, 0x61, 0x6c,
  0x2f, 0x63, 0x6f, 0x6e, 0x76, 0x31, 0x64, 0x5f, 0x31, 0x2f, 0x42, 0x69,
  0x61, 0x73, 0x41, 0x64, 0x64, 0x3b, 0x73, 0x65, 0x71, 0x75, 0x65, 0x6e,
  0x74, 0x69, 0x61, 0x6c, 0x2f, 0x63, 0x6f, 0x6e, 0x76, 0x31, 0x64, 0x5f,
  0x31, 0x2f, 0x42, 0x69, 0x61, 0x73, 0x41, 0x64, 0x64, 0x3b, 0x73, 0x65,
  0x71, 0x75, 0x65, 0x6e, 0x74, 0x69, 0x61, 0x6c, 0x2f, 0x63, 0x6f, 0x6e,
  0x76, 0x31, 0x64, 0x5f, 0x31, 0x2f, 0x63, 0x6f, 0x6e, 0x76, 0x31, 0x64,
  0x2f, 0x53, 0x71, 0x75, 0x65, 0x65, 0x7a, 0x65, 0x3b, 0x73, 0x65, 0x71,
  0x75, 0x65, 0x6e, 0x74, 0x69, 0x61, 0x6c, 0x2f, 0x63, 0x6f, 0x6e, 0x76,
  0x31, 0x64, 0x5f, 0x31, 0x2f, 0x63, 0x6f, 0x6e, 0x76, 0x31, 0x64, 0x2f,
  0x53, 0x71, 0x75, 0x65, 0x65, 0x7a, 0x65, 0x3b, 0x63, 0x6f, 0x6e, 0x76,
  0x31, 0x64, 0x5f, 0x31, 0x2f, 0x62, 0x69, 0x61, 0x73, 0x00, 0x00, 0x00,
  0x03, 0x00, 0x00, 0x00, 0x01, 0x00, 0x00, 0x00, 0x4b, 0x00, 0x00, 0x00,
  0x10, 0x00, 0x00, 0x00, 0x1c, 0xe0, 0xff, 0xff, 0x18, 0x00, 0x00, 0x00,
  0x04, 0x00, 0x00, 0x00, 0x01, 0x00, 0x00, 0x00, 0x80, 0xff, 0xff, 0xff,
  0xff, 0xff, 0xff, 0xff, 0x00, 0x00, 0x00, 0x00, 0x01, 0x00, 0x00, 0x00,
  0xfd, 0xc0, 0x36, 0x3c, 0x22, 0xf6, 0xff, 0xff, 0x00, 0x00, 0x00, 0x01,
  0x05, 0x00, 0x00, 0x00, 0x24, 0x00, 0x00, 0x00, 0x18, 0x00, 0x00, 0x00,
  0x04, 0x00, 0x00, 0x00, 0x94, 0xf9, 0xff, 0xff, 0x01, 0x00, 0x00, 0x00,
  0x01, 0x00, 0x00, 0x00, 0x00, 0x00, 0x00, 0x01, 0x01, 0x00, 0x00, 0x00,
  0x1c, 0x00, 0x00, 0x00, 0x03, 0x00, 0x00, 0x00, 0x1b, 0x00, 0x00, 0x00,
  0x0d, 0x00, 0x00, 0x00, 0x0e, 0x00, 0x00, 0x00, 0xec, 0xe0, 0xff, 0xff,
  0x00, 0x00, 0x00, 0x09, 0x20, 0x01, 0x00, 0x00, 0x1d, 0x00, 0x00, 0x00,
  0x20, 0x00, 0x00, 0x00, 0x28, 0x01, 0x00, 0x00, 0x04, 0x00, 0x00, 0x00,
  0x04, 0x00, 0x00, 0x00, 0xff, 0xff, 0xff, 0xff, 0x01, 0x00, 0x00, 0x00,
  0x4b, 0x00, 0x00, 0x00, 0x10, 0x00, 0x00, 0x00, 0xf3, 0x00, 0x00, 0x00,
  0x73, 0x65, 0x71, 0x75, 0x65, 0x6e, 0x74, 0x69, 0x61, 0x6c, 0x2f, 0x63,
  0x6f, 0x6e, 0x76, 0x31, 0x64, 0x5f, 0x31, 0x2f, 0x52, 0x65, 0x6c, 0x75,
  0x3b, 0x73, 0x65, 0x71, 0x75, 0x65, 0x6e, 0x74, 0x69, 0x61, 0x6c, 0x2f,
  0x63, 0x6f, 0x6e, 0x76, 0x31, 0x64, 0x5f, 0x31, 0x2f, 0x52, 0x65, 0x6c,
  0x75, 0x3b, 0x73, 0x65, 0x71, 0x75, 0x65, 0x6e, 0x74, 0x69, 0x61, 0x6c,
  0x2f, 0x63, 0x6f, 0x6e, 0x76, 0x31, 0x64, 0x5f, 0x31, 0x2f, 0x42, 0x69,
  0x61, 0x73, 0x41, 0x64, 0x64, 0x3b, 0x73, 0x65, 0x71, 0x75, 0x65, 0x6e,
  0x74, 0x69, 0x61, 0x6c, 0x2f, 0x63, 0x6f, 0x6e, 0x76, 0x31, 0x64, 0x5f,
  0x31, 0x2f, 0x42, 0x69, 0x61, 0x73, 0x41, 0x64, 0x64, 0x3b, 0x73, 0x65,
  0x71, 0x75, 0x65, 0x6e, 0x74, 0x69, 0x61, 0x6c, 0x2f, 0x63, 0x6f, 0x6e,
  0x76, 0x31, 0x64, 0x5f, 0x31, 0x2f, 0x63, 0x6f, 0x6e, 0x76, 0x31, 0x64,
  0x2f, 0x53, 0x71, 0x75, 0x65, 0x65, 0x7a, 0x65, 0x3b, 0x73, 0x65, 0x71,
  0x75, 0x65, 0x6e, 0x74, 0x69, 0x61, 0x6c, 0x2f, 0x63, 0x6f, 0x6e, 0x76,
  0x31, 0x64, 0x5f, 0x31, 0x2f, 0x63, 0x6f, 0x6e, 0x76, 0x31, 0x64, 0x2f,
  0x53, 0x71, 0x75, 0x65, 0x65, 0x7a, 0x65, 0x3b, 0x63, 0x6f, 0x6e, 0x76,
  0x31, 0x64, 0x5f, 0x31, 0x2f, 0x62, 0x69, 0x61, 0x73, 0x3b, 0x73, 0x65,
  0x71, 0x75, 0x65, 0x6e, 0x74, 0x69, 0x61, 0x6c, 0x2f, 0x63, 0x6f, 0x6e,
  0x76, 0x31, 0x64, 0x5f, 0x31, 0x2f, 0x63, 0x6f, 0x6e, 0x76, 0x31, 0x64,
  0x3b, 0x73, 0x65, 0x71, 0x75, 0x65, 0x6e, 0x74, 0x69, 0x61, 0x6c, 0x2f,
  0x63, 0x6f, 0x6e, 0x76, 0x31, 0x64, 0x5f, 0x31, 0x2f, 0x63, 0x6f, 0x6e,
  0x76, 0x31, 0x64, 0x00, 0x04, 0x00, 0x00, 0x00, 0x01, 0x00, 0x00, 0x00,
  0x01, 0x00, 0x00, 0x00, 0x4b, 0x00, 0x00, 0x00, 0x10, 0x00, 0x00, 0x00,
  0xbc, 0xe1, 0xff, 0xff, 0x18, 0x00, 0x00, 0x00, 0x04, 0x00, 0x00, 0x00,
  0x01, 0x00, 0x00, 0x00, 0x80, 0xff, 0xff, 0xff, 0xff, 0xff, 0xff, 0xff,
  0x00, 0x00, 0x00, 0x00, 0x01, 0x00, 0x00, 0x00, 0xfd, 0xc0, 0x36, 0x3c,
  0xc2, 0xf7, 0xff, 0xff, 0x00, 0x00, 0x00, 0x34, 0x04, 0x00, 0x00, 0x00,
  0x18, 0x00, 0x00, 0x00, 0x0c, 0x00, 0x00, 0x00, 0x04, 0x00, 0x00, 0x00,
  0xcc, 0xe1, 0xff, 0xff, 0x01, 0x00, 0x00, 0x00, 0x1b, 0x00, 0x00, 0x00,
  0x02, 0x00, 0x00, 0x00, 0x1a, 0x00, 0x00, 0x00, 0x05, 0x00, 0x00, 0x00,
  0x7c, 0xe2, 0xff, 0xff, 0x00, 0x00, 0x00, 0x09, 0x78, 0x00, 0x00, 0x00,
  0x1c, 0x00, 0x00, 0x00, 0x20, 0x00, 0x00, 0x00, 0x80, 0x00, 0x00, 0x00,
  0x04, 0x00, 0x00, 0x00, 0x04, 0x00, 0x00, 0x00, 0xff, 0xff, 0xff, 0xff,
  0x01, 0x00, 0x00, 0x00, 0x4b, 0x00, 0x00, 0x00, 0x08, 0x00, 0x00, 0x00,
  0x4b, 0x00, 0x00, 0x00, 0x73, 0x65, 0x71, 0x75, 0x65, 0x6e, 0x74, 0x69,
  0x61, 0x6c, 0x2f, 0x63, 0x6f, 0x6e, 0x76, 0x31, 0x64, 0x5f, 0x31, 0x2f,
  0x63, 0x6f, 0x6e, 0x76, 0x31, 0x64, 0x2f, 0x45, 0x78, 0x70, 0x61, 0x6e,
  0x64, 0x44, 0x69, 0x6d, 0x73, 0x3b, 0x73, 0x65, 0x71, 0x75, 0x65, 0x6e,
  0x74, 0x69, 0x61, 0x6c, 0x2f, 0x63, 0x6f, 0x6e, 0x76, 0x31, 0x64, 0x5f,
  0x31, 0x2f, 0x63, 0x6f, 0x6e, 0x76, 0x31, 0x64, 0x2f, 0x45, 0x78, 0x70,
  0x61, 0x6e, 0x64, 0x44, 0x69, 0x6d, 0x73, 0x00, 0x04, 0x00, 0x00, 0x00,
  0x01, 0x00, 0x00, 0x00, 0x01, 0x00, 0x00, 0x00, 0x4b, 0x00, 0x00, 0x00,
  0x08, 0x00, 0x00, 0x00, 0xa4, 0xe2, 0xff, 0xff, 0x14, 0x00, 0x00, 0x00,
  0x04, 0x00, 0x00, 0x00, 0x01, 0x00, 0x00, 0x00, 0x80, 0xff, 0xff, 0xff,
  0xff, 0xff, 0xff, 0xff, 0x01, 0x00, 0x00, 0x00, 0xa6, 0x73, 0x1b, 0x3b,
  0x7e, 0xf9, 0xff, 0xff, 0x03, 0x00, 0x00, 0x00, 0x10, 0x00, 0x00, 0x00,
  0x04, 0x00, 0x00, 0x00, 0x01, 0x00, 0x00, 0x00, 0x1a, 0x00, 0x00, 0x00,
  0x02, 0x00, 0x00, 0x00, 0x19, 0x00, 0x00, 0x00, 0x08, 0x00, 0x00, 0x00,
  0x54, 0xe3, 0xff, 0xff, 0x00, 0x00, 0x00, 0x09, 0x6c, 0x00, 0x00, 0x00,
  0x1b, 0x00, 0x00, 0x00, 0x1c, 0x00, 0x00, 0x00, 0x70, 0x00, 0x00, 0x00,
  0x04, 0x00, 0x00, 0x00, 0x03, 0x00, 0x00, 0x00, 0xff, 0xff, 0xff, 0xff,
  0x4b, 0x00, 0x00, 0x00, 0x08, 0x00, 0x00, 0x00, 0x42, 0x00, 0x00, 0x00,
  0x73, 0x65, 0x71, 0x75, 0x65, 0x6e, 0x74, 0x69, 0x61, 0x6c, 0x2f, 0x6d,
  0x61, 0x78, 0x5f, 0x70, 0x6f, 0x6f, 0x6c, 0x69, 0x6e, 0x67, 0x31, 0x64,
  0x2f, 0x53, 0x71, 0x75, 0x65, 0x65, 0x7a, 0x65, 0x3b, 0x73, 0x65, 0x71,
  0x75, 0x65, 0x6e, 0x74, 0x69, 0x61, 0x6c, 0x2f, 0x6d, 0x61, 0x78, 0x5f,
  0x70, 0x6f, 0x6f, 0x6c, 0x69, 0x6e, 0x67, 0x31, 0x64, 0x2f, 0x53, 0x71,
  0x75, 0x65, 0x65, 0x7a, 0x65, 0x31, 0x00, 0x00, 0x03, 0x00, 0x00, 0x00,
  0x01, 0x00, 0x00, 0x00, 0x4b, 0x00, 0x00, 0x00, 0x08, 0x00, 0x00, 0x00,
  0x6c, 0xe3, 0xff, 0xff, 0x14, 0x00, 0x00, 0x00, 0x04, 0x00, 0x00, 0x00,
  0x01, 0x00, 0x00, 0x00, 0x80, 0xff, 0xff, 0xff, 0xff, 0xff, 0xff, 0xff,
  0x01, 0x00, 0x00, 0x00, 0xa6, 0x73, 0x1b, 0x3b, 0xaa, 0xf8, 0xff, 0xff,
  0x00, 0x00, 0x00, 0x05, 0x06, 0x00, 0x00, 0x00, 0x38, 0x00, 0x00, 0x00,
  0x2c, 0x00, 0x00, 0x00, 0x14, 0x00, 0x00, 0x00, 0x00, 0x00, 0x0e, 0x00,
  0x14, 0x00, 0x00, 0x00, 0x10, 0x00, 0x0c, 0x00, 0x08, 0x00, 0x04, 0x00,
  0x0e, 0x00, 0x00, 0x00, 0x02, 0x00, 0x00, 0x00, 0x01, 0x00, 0x00, 0x00,
  0x02, 0x00, 0x00, 0x00, 0x01, 0x00, 0x00, 0x00, 0x01, 0x00, 0x00, 0x00,
  0x19, 0x00, 0x00, 0x00, 0x01, 0x00, 0x00, 0x00, 0x18, 0x00, 0x00, 0x00,
  0xe0, 0xf7, 0xff, 0xff, 0x11, 0x00, 0x00, 0x00, 0x00, 0x00, 0x00, 0x11,
  0x02, 0x00, 0x00, 0x00, 0x54, 0xe4, 0xff, 0xff, 0x00, 0x00, 0x00, 0x09,
  0x70, 0x00, 0x00, 0x00, 0x1a, 0x00, 0x00, 0x00, 0x20, 0x00, 0x00, 0x00,
  0x78, 0x00, 0x00, 0x00, 0x04, 0x00, 0x00, 0x00, 0x04, 0x00, 0x00, 0x00,
  0xff, 0xff, 0xff, 0xff, 0x4b, 0x00, 0x00, 0x00, 0x01, 0x00, 0x00, 0x00,
  0x08, 0x00, 0x00, 0x00, 0x41, 0x00, 0x00, 0x00, 0x73, 0x65, 0x71, 0x75,
  0x65, 0x6e, 0x74, 0x69, 0x61, 0x6c, 0x2f, 0x6d, 0x61, 0x78, 0x5f, 0x70,
  0x6f, 0x6f, 0x6c, 0x69, 0x6e, 0x67, 0x31, 0x64, 0x2f, 0x4d, 0x61, 0x78,
  0x50, 0x6f, 0x6f, 0x6c, 0x3b, 0x73, 0x65, 0x71, 0x75, 0x65, 0x6e, 0x74,
  0x69, 0x61, 0x6c, 0x2f, 0x6d, 0x61, 0x78, 0x5f, 0x70, 0x6f, 0x6f, 0x6c,
  0x69, 0x6e, 0x67, 0x31, 0x64, 0x2f, 0x4d, 0x61, 0x78, 0x50, 0x6f, 0x6f,
  0x6c, 0x00, 0x00, 0x00, 0x04, 0x00, 0x00, 0x00, 0x01, 0x00, 0x00, 0x00,
  0x4b, 0x00, 0x00, 0x00, 0x01, 0x00, 0x00, 0x00, 0x08, 0x00, 0x00, 0x00,
  0x74, 0xe4, 0xff, 0xff, 0x14, 0x00, 0x00, 0x00, 0x04, 0x00, 0x00, 0x00,
  0x01, 0x00, 0x00, 0x00, 0x80, 0xff, 0xff, 0xff, 0xff, 0xff, 0xff, 0xff,
  0x01, 0x00, 0x00, 0x00, 0xa6, 0x73, 0x1b, 0x3b, 0x76, 0xfa, 0xff, 0xff,
  0x00, 0x00, 0x00, 0x34, 0x04, 0x00, 0x00, 0x00, 0x18, 0x00, 0x00, 0x00,
  0x0c, 0x00, 0x00, 0x00, 0x04, 0x00, 0x00, 0x00, 0x80, 0xe4, 0xff, 0xff,
  0x01, 0x00, 0x00, 0x00, 0x18, 0x00, 0x00, 0x00, 0x02, 0x00, 0x00, 0x00,
  0x17, 0x00, 0x00, 0x00, 0x07, 0x00, 0x00, 0x00, 0x30, 0xe5, 0xff, 0xff,
  0x00, 0x00, 0x00, 0x09, 0x74, 0x00, 0x00, 0x00, 0x19, 0x00, 0x00, 0x00,
  0x20, 0x00, 0x00, 0x00, 0x7c, 0x00, 0x00, 0x00, 0x04, 0x00, 0x00, 0x00,
  0x04, 0x00, 0x00, 0x00, 0xff, 0xff, 0xff, 0xff, 0x96, 0x00, 0x00, 0x00,
  0x01, 0x00, 0x00, 0x00, 0x08, 0x00, 0x00, 0x00, 0x47, 0x00, 0x00, 0x00,
  0x73, 0x65, 0x71, 0x75, 0x65, 0x6e, 0x74, 0x69, 0x61, 0x6c, 0x2f, 0x6d,
  0x61, 0x78, 0x5f, 0x70, 0x6f, 0x6f, 0x6c, 0x69, 0x6e, 0x67, 0x31, 0x64,
  0x2f, 0x45, 0x78, 0x70, 0x61, 0x6e, 0x64, 0x44, 0x69, 0x6d, 0x73, 0x3b,
  0x73, 0x65, 0x71, 0x75, 0x65, 0x6e, 0x74, 0x69, 0x61, 0x6c, 0x2f, 0x6d,
  0x61, 0x78, 0x5f, 0x70, 0x6f, 0x6f, 0x6c, 0x69, 0x6e, 0x67, 0x31, 0x64,
  0x2f, 0x45, 0x78, 0x70, 0x61, 0x6e, 0x64, 0x44, 0x69, 0x6d, 0x73, 0x00,
  0x04, 0x00, 0x00, 0x00, 0x01, 0x00, 0x00, 0x00, 0x96, 0x00, 0x00, 0x00,
  0x01, 0x00, 0x00, 0x00, 0x08, 0x00, 0x00, 0x00, 0x54, 0xe5, 0xff, 0xff,
  0x18, 0x00, 0x00, 0x00, 0x04, 0x00, 0x00, 0x00, 0x01, 0x00, 0x00, 0x00,
  0x80, 0xff, 0xff, 0xff, 0xff, 0xff, 0xff, 0xff, 0x00, 0x00, 0x00, 0x00,
  0x01, 0x00, 0x00, 0x00, 0xa6, 0x73, 0x1b, 0x3b, 0x32, 0xfc, 0xff, 0xff,
  0x03, 0x00, 0x00, 0x00, 0x10, 0x00, 0x00, 0x00, 0x04, 0x00, 0x00, 0x00,
  0x01, 0x00, 0x00, 0x00, 0x17, 0x00, 0x00, 0x00, 0x02, 0x00, 0x00, 0x00,
  0x16, 0x00, 0x00, 0x00, 0x06, 0x00, 0x00, 0x00, 0x08, 0xe6, 0xff, 0xff,
  0x00, 0x00, 0x00, 0x09, 0xd8, 0x00, 0x00, 0x00, 0x18, 0x00, 0x00, 0x00,
  0x1c, 0x00, 0x00, 0x00, 0xdc, 0x00, 0x00, 0x00, 0x04, 0x00, 0x00, 0x00,
  0x03, 0x00, 0x00, 0x00, 0xff, 0xff, 0xff, 0xff, 0x96, 0x00, 0x00, 0x00,
  0x08, 0x00, 0x00, 0x00, 0xaf, 0x00, 0x00, 0x00, 0x73, 0x65, 0x71, 0x75,
  0x65, 0x6e, 0x74, 0x69, 0x61, 0x6c, 0x2f, 0x63, 0x6f, 0x6e, 0x76, 0x31,
  0x64, 0x2f, 0x52, 0x65, 0x6c, 0x75, 0x3b, 0x73, 0x65, 0x71, 0x75, 0x65,
  0x6e, 0x74, 0x69, 0x61, 0x6c, 0x2f, 0x63, 0x6f, 0x6e, 0x76, 0x31, 0x64,
  0x2f, 0x52, 0x65, 0x6c, 0x75, 0x3b, 0x73, 0x65, 0x71, 0x75, 0x65, 0x6e,
  0x74, 0x69, 0x61, 0x6c, 0x2f, 0x63, 0x6f, 0x6e, 0x76, 0x31, 0x64, 0x2f,
  0x42, 0x69, 0x61, 0x73, 0x41, 0x64, 0x64, 0x3b, 0x73, 0x65, 0x71, 0x75,
  0x65, 0x6e, 0x74, 0x69, 0x61, 0x6c, 0x2f, 0x63, 0x6f, 0x6e, 0x76, 0x31,
  0x64, 0x2f, 0x42, 0x69, 0x61, 0x73, 0x41, 0x64, 0x64, 0x3b, 0x73, 0x65,
  0x71, 0x75, 0x65, 0x6e, 0x74, 0x69, 0x61, 0x6c, 0x2f, 0x63, 0x6f, 0x6e,
  0x76, 0x31, 0x64, 0x2f, 0x63, 0x6f, 0x6e, 0x76, 0x31, 0x64, 0x2f, 0x53,
  0x71, 0x75, 0x65, 0x65, 0x7a, 0x65, 0x3b, 0x73, 0x65, 0x71, 0x75, 0x65,
  0x6e, 0x74, 0x69, 0x61, 0x6c, 0x2f, 0x63, 0x6f, 0x6e, 0x76, 0x31, 0x64,
  0x2f, 0x63, 0x6f, 0x6e, 0x76, 0x31, 0x64, 0x2f, 0x53, 0x71, 0x75, 0x65,
  0x65, 0x7a, 0x65, 0x3b, 0x63, 0x6f, 0x6e, 0x76, 0x31, 0x64, 0x2f, 0x62,
  0x69, 0x61, 0x73, 0x00, 0x03, 0x00, 0x00, 0x00, 0x01, 0x00, 0x00, 0x00,
  0x96, 0x00, 0x00, 0x00, 0x08, 0x00, 0x00, 0x00, 0x8c, 0xe6, 0xff, 0xff,
  0x14, 0x00, 0x00, 0x00, 0x04, 0x00, 0x00, 0x00, 0x01, 0x00, 0x00, 0x00,
  0x80, 0xff, 0xff, 0xff, 0xff, 0xff, 0xff, 0xff, 0x01, 0x00, 0x00, 0x00,
  0xa6, 0x73, 0x1b, 0x3b, 0x8e, 0xfc, 0xff, 0xff, 0x00, 0x00, 0x00, 0x01,
  0x05, 0x00, 0x00, 0x00, 0x30, 0x00, 0x00, 0x00, 0x24, 0x00, 0x00, 0x00,
  0x10, 0x00, 0x00, 0x00, 0x0c, 0x00, 0x10, 0x00, 0x00, 0x00, 0x04, 0x00,
  0x08, 0x00, 0x0f, 0x00, 0x0c, 0x00, 0x00, 0x00, 0x01, 0x00, 0x00, 0x00,
  0x01, 0x00, 0x00, 0x00, 0x00, 0x00, 0x00, 0x01, 0x01, 0x00, 0x00, 0x00,
  0x16, 0x00, 0x00, 0x00, 0x03, 0x00, 0x00, 0x00, 0x15, 0x00, 0x00, 0x00,
  0x0b, 0x00, 0x00, 0x00, 0x0c, 0x00, 0x00, 0x00, 0x00, 0xfb, 0xff, 0xff,
  0x03, 0x00, 0x00, 0x00, 0x00, 0x00, 0x00, 0x03, 0x03, 0x00, 0x00, 0x00,
  0x74, 0xe7, 0xff, 0xff, 0x00, 0x00, 0x00, 0x09, 0x10, 0x01, 0x00, 0x00,
  0x17, 0x00, 0x00, 0x00, 0x20, 0x00, 0x00, 0x00, 0x18, 0x01, 0x00, 0x00,
  0x04, 0x00, 0x00, 0x00, 0x04, 0x00, 0x00, 0x00, 0xff, 0xff, 0xff, 0xff,
  0x01, 0x00, 0x00, 0x00, 0x96, 0x00, 0x00, 0x00, 0x08, 0x00, 0x00, 0x00,
  0xe1, 0x00, 0x00, 0x00, 0x73, 0x65, 0x71, 0x75, 0x65, 0x6e, 0x74, 0x69,
  0x61, 0x6c, 0x2f, 0x63, 0x6f, 0x6e, 0x76, 0x31, 0x64, 0x2f, 0x52, 0x65,
  0x6c, 0x75, 0x3b, 0x73, 0x65, 0x71, 0x75, 0x65, 0x6e, 0x74, 0x69, 0x61,
  0x6c, 0x2f, 0x63, 0x6f, 0x6e, 0x76, 0x31, 0x64, 0x2f, 0x52, 0x65, 0x6c,
  0x75, 0x3b, 0x73, 0x65, 0x71, 0x75, 0x65, 0x6e, 0x74, 0x69, 0x61, 0x6c,
  0x2f, 0x63, 0x6f, 0x6e, 0x76, 0x31, 0x64, 0x2f, 0x42, 0x69, 0x61, 0x73,
  0x41, 0x64, 0x64, 0x3b, 0x73, 0x65, 0x71, 0x75, 0x65, 0x6e, 0x74, 0x69,
  0x61, 0x6c, 0x2f, 0x63, 0x6f, 0x6e, 0x76, 0x31, 0x64, 0x2f, 0x42, 0x69,
  0x61, 0x73, 0x41, 0x64, 0x64, 0x3b, 0x73, 0x65, 0x71, 0x75, 0x65, 0x6e,
  0x74, 0x69, 0x61, 0x6c, 0x2f, 0x63, 0x6f, 0x6e, 0x76, 0x31, 0x64, 0x2f,
  0x63, 0x6f, 0x6e, 0x76, 0x31, 0x64, 0x2f, 0x53, 0x71, 0x75, 0x65, 0x65,
  0x7a, 0x65, 0x3b, 0x73, 0x65, 0x71, 0x75, 0x65, 0x6e, 0x74, 0x69, 0x61,
  0x6c, 0x2f, 0x63, 0x6f, 0x6e, 0x76, 0x31, 0x64, 0x2f, 0x63, 0x6f, 0x6e,
  0x76, 0x31, 0x64, 0x2f, 0x53, 0x71, 0x75, 0x65, 0x65, 0x7a, 0x65, 0x3b,
  0x63, 0x6f, 0x6e, 0x76, 0x31, 0x64, 0x2f, 0x62, 0x69, 0x61, 0x73, 0x3b,
  0x73, 0x65, 0x71, 0x75, 0x65, 0x6e, 0x74, 0x69, 0x61, 0x6c, 0x2f, 0x63,
  0x6f, 0x6e, 0x76, 0x31, 0x64, 0x2f, 0x63, 0x6f, 0x6e, 0x76, 0x31, 0x64,
  0x3b, 0x73, 0x65, 0x71, 0x75, 0x65, 0x6e, 0x74, 0x69, 0x61, 0x6c, 0x2f,
  0x63, 0x6f, 0x6e, 0x76, 0x31, 0x64, 0x2f, 0x63, 0x6f, 0x6e, 0x76, 0x31,
  0x64, 0x00, 0x00, 0x00, 0x04, 0x00, 0x00, 0x00, 0x01, 0x00, 0x00, 0x00,
  0x01, 0x00, 0x00, 0x00, 0x96, 0x00, 0x00, 0x00, 0x08, 0x00, 0x00, 0x00,
  0x34, 0xe8, 0xff, 0xff, 0x14, 0x00, 0x00, 0x00, 0x04, 0x00, 0x00, 0x00,
  0x01, 0x00, 0x00, 0x00, 0x80, 0xff, 0xff, 0xff, 0xff, 0xff, 0xff, 0xff,
  0x01, 0x00, 0x00, 0x00, 0xa6, 0x73, 0x1b, 0x3b, 0x36, 0xfe, 0xff, 0xff,
  0x00, 0x00, 0x00, 0x34, 0x04, 0x00, 0x00, 0x00, 0x18, 0x00, 0x00, 0x00,
  0x0c, 0x00, 0x00, 0x00, 0x04, 0x00, 0x00, 0x00, 0x40, 0xe8, 0xff, 0xff,
  0x01, 0x00, 0x00, 0x00, 0x15, 0x00, 0x00, 0x00, 0x02, 0x00, 0x00, 0x00,
  0x14, 0x00, 0x00, 0x00, 0x05, 0x00, 0x00, 0x00, 0x8c, 0xfc, 0xff, 0xff,
  0x46, 0x00, 0x00, 0x00, 0x00, 0x00, 0x00, 0x46, 0x01, 0x00, 0x00, 0x00,
  0x00, 0xe9, 0xff, 0xff, 0x00, 0x00, 0x00, 0x09, 0x74, 0x00, 0x00, 0x00,
  0x16, 0x00, 0x00, 0x00, 0x20, 0x00, 0x00, 0x00, 0x7c, 0x00, 0x00, 0x00,
  0x04, 0x00, 0x00, 0x00, 0x04, 0x00, 0x00, 0x00, 0xff, 0xff, 0xff, 0xff,
  0x01, 0x00, 0x00, 0x00, 0x96, 0x00, 0x00, 0x00, 0x1a, 0x00, 0x00, 0x00,
  0x47, 0x00, 0x00, 0x00, 0x73, 0x65, 0x71, 0x75, 0x65, 0x6e, 0x74, 0x69,
  0x61, 0x6c, 0x2f, 0x63, 0x6f, 0x6e, 0x76, 0x31, 0x64, 0x2f, 0x63, 0x6f,
  0x6e, 0x76, 0x31, 0x64, 0x2f, 0x45, 0x78, 0x70, 0x61, 0x6e, 0x64, 0x44,
  0x69, 0x6d, 0x73, 0x3b, 0x73, 0x65, 0x71, 0x75, 0x65, 0x6e, 0x74, 0x69,
  0x61, 0x6c, 0x2f, 0x63, 0x6f, 0x6e, 0x76, 0x31, 0x64, 0x2f, 0x63, 0x6f,
  0x6e, 0x76, 0x31, 0x64, 0x2f, 0x45, 0x78, 0x70, 0x61, 0x6e, 0x64, 0x44,
  0x69, 0x6d, 0x73, 0x00, 0x04, 0x00, 0x00, 0x00, 0x01, 0x00, 0x00, 0x00,
  0x01, 0x00, 0x00, 0x00, 0x96, 0x00, 0x00, 0x00, 0x1a, 0x00, 0x00, 0x00,
  0x24, 0xe9, 0xff, 0xff, 0x14, 0x00, 0x00, 0x00, 0x04, 0x00, 0x00, 0x00,
  0x01, 0x00, 0x00, 0x00, 0x80, 0xff, 0xff, 0xff, 0xff, 0xff, 0xff, 0xff,
  0x01, 0x00, 0x00, 0x00, 0x86, 0x2a, 0x53, 0x3a, 0x00, 0x00, 0x0a, 0x00,
  0x10, 0x00, 0x04, 0x00, 0x08, 0x00, 0x0c, 0x00, 0x0a, 0x00, 0x00, 0x00,
  0x03, 0x00, 0x00, 0x00, 0x10, 0x00, 0x00, 0x00, 0x04, 0x00, 0x00, 0x00,
  0x01, 0x00, 0x00, 0x00, 0x14, 0x00, 0x00, 0x00, 0x02, 0x00, 0x00, 0x00,
  0x00, 0x00, 0x00, 0x00, 0x13, 0x00, 0x00, 0x00, 0x7c, 0xfd, 0xff, 0xff,
  0x16, 0x00, 0x00, 0x00, 0x00, 0x00, 0x00, 0x16, 0x01, 0x00, 0x00, 0x00,
  0xf0, 0xe9, 0xff, 0xff, 0x00, 0x00, 0x00, 0x09, 0x60, 0x00, 0x00, 0x00,
  0x15, 0x00, 0x00, 0x00, 0x1c, 0x00, 0x00, 0x00, 0x64, 0x00, 0x00, 0x00,
  0x04, 0x00, 0x00, 0x00, 0x03, 0x00, 0x00, 0x00, 0xff, 0xff, 0xff, 0xff,
  0x96, 0x00, 0x00, 0x00, 0x1a, 0x00, 0x00, 0x00, 0x35, 0x00, 0x00, 0x00,
  0x73, 0x65, 0x71, 0x75, 0x65, 0x6e, 0x74, 0x69, 0x61, 0x6c, 0x2f, 0x72,
  0x65, 0x73, 0x68, 0x61, 0x70, 0x65, 0x2f, 0x52, 0x65, 0x73, 0x68, 0x61,
  0x70, 0x65, 0x3b, 0x73, 0x65, 0x71, 0x75, 0x65, 0x6e, 0x74, 0x69, 0x61,
  0x6c, 0x2f, 0x72, 0x65, 0x73, 0x68, 0x61, 0x70, 0x65, 0x2f, 0x52, 0x65,
  0x73, 0x68, 0x61, 0x70, 0x65, 0x00, 0x00, 0x00, 0x03, 0x00, 0x00, 0x00,
  0x01, 0x00, 0x00, 0x00, 0x96, 0x00, 0x00, 0x00, 0x1a, 0x00, 0x00, 0x00,
  0xfc, 0xe9, 0xff, 0xff, 0x14, 0x00, 0x00, 0x00, 0x04, 0x00, 0x00, 0x00,
  0x01, 0x00, 0x00, 0x00, 0x80, 0xff, 0xff, 0xff, 0xff, 0xff, 0xff, 0xff,
  0x01, 0x00, 0x00, 0x00, 0x86, 0x2a, 0x53, 0x3a, 0x00, 0x00, 0x0e, 0x00,
  0x18, 0x00, 0x08, 0x00, 0x0c, 0x00, 0x10, 0x00, 0x07, 0x00, 0x14, 0x00,
  0x0e, 0x00, 0x00, 0x00, 0x00, 0x00, 0x00, 0x3b, 0x02, 0x00, 0x00, 0x00,
  0x1c, 0x00, 0x00, 0x00, 0x10, 0x00, 0x00, 0x00, 0x04, 0x00, 0x00, 0x00,
  0x4e, 0xeb, 0xff, 0xff, 0x03, 0x00, 0x00, 0x00, 0x01, 0x00, 0x00, 0x00,
  0x13, 0x00, 0x00, 0x00, 0x03, 0x00, 0x00, 0x00, 0x12, 0x00, 0x00, 0x00,
  0x03, 0x00, 0x00, 0x00, 0x04, 0x00, 0x00, 0x00, 0x6c, 0xfe, 0xff, 0xff,
  0x53, 0x00, 0x00, 0x00, 0x00, 0x00, 0x00, 0x53, 0x01, 0x00, 0x00, 0x00,
  0x66, 0xeb, 0xff, 0xff, 0x00, 0x00, 0x00, 0x02, 0x58, 0x00, 0x00, 0x00,
  0x14, 0x00, 0x00, 0x00, 0x08, 0x00, 0x00, 0x00, 0x54, 0x00, 0x00, 0x00,
  0x41, 0x00, 0x00, 0x00, 0x73, 0x65, 0x71, 0x75, 0x65, 0x6e, 0x74, 0x69,
  0x61, 0x6c, 0x2f, 0x72, 0x65, 0x73, 0x68, 0x61, 0x70, 0x65, 0x2f, 0x52,
  0x65, 0x73, 0x68, 0x61, 0x70, 0x65, 0x2f, 0x73, 0x68, 0x61, 0x70, 0x65,
  0x3b, 0x73, 0x65, 0x71, 0x75, 0x65, 0x6e, 0x74, 0x69, 0x61, 0x6c, 0x2f,
  0x72, 0x65, 0x73, 0x68, 0x61, 0x70, 0x65, 0x2f, 0x52, 0x65, 0x73, 0x68,
  0x61, 0x70, 0x65, 0x2f, 0x73, 0x68, 0x61, 0x70, 0x65, 0x00, 0x00, 0x00,
  0x01, 0x00, 0x00, 0x00, 0x03, 0x00, 0x00, 0x00, 0xf0, 0xeb, 0xff, 0xff,
  0x00, 0x00, 0x0e, 0x00, 0x1a, 0x00, 0x08, 0x00, 0x0c, 0x00, 0x10, 0x00,
  0x07, 0x00, 0x14, 0x00, 0x0e, 0x00, 0x00, 0x00, 0x00, 0x00, 0x00, 0x20,
  0x01, 0x00, 0x00, 0x00, 0x2c, 0x00, 0x00, 0x00, 0x20, 0x00, 0x00, 0x00,
  0x14, 0x00, 0x00, 0x00, 0x00, 0x00, 0x0e, 0x00, 0x08, 0x00, 0x00, 0x00,
  0x00, 0x00, 0x00, 0x00, 0x00, 0x00, 0x04, 0x00, 0x0e, 0x00, 0x00, 0x00,
  0x01, 0x00, 0x00, 0x00, 0x01, 0x00, 0x00, 0x00, 0x12, 0x00, 0x00, 0x00,
  0x04, 0x00, 0x00, 0x00, 0x11, 0x00, 0x00, 0x00, 0x01, 0x00, 0x00, 0x00,
  0x02, 0x00, 0x00, 0x00, 0x02, 0x00, 0x00, 0x00, 0x44, 0xff, 0xff, 0xff,
  0x2d, 0x00, 0x00, 0x00, 0x00, 0x00, 0x00, 0x2d, 0x01, 0x00, 0x00, 0x00,
  0x3e, 0xec, 0xff, 0xff, 0x00, 0x00, 0x00, 0x02, 0x58, 0x00, 0x00, 0x00,
  0x13, 0x00, 0x00, 0x00, 0x08, 0x00, 0x00, 0x00, 0x50, 0x00, 0x00, 0x00,
  0x41, 0x00, 0x00, 0x00, 0x73, 0x65, 0x71, 0x75, 0x65, 0x6e, 0x74, 0x69,
  0x61, 0x6c, 0x2f, 0x72, 0x65, 0x73, 0x68, 0x61, 0x70, 0x65, 0x2f, 0x73,
  0x74, 0x72, 0x69, 0x64, 0x65, 0x64, 0x5f, 0x73, 0x6c, 0x69, 0x63, 0x65,
  0x3b, 0x73, 0x65, 0x71, 0x75, 0x65, 0x6e, 0x74, 0x69, 0x61, 0x6c, 0x2f,
  0x72, 0x65, 0x73, 0x68, 0x61, 0x70, 0x65, 0x2f, 0x73, 0x74, 0x72, 0x69,
  0x64, 0x65, 0x64, 0x5f, 0x73, 0x6c, 0x69, 0x63, 0x65, 0x00, 0x00, 0x00,
  0x00, 0x00, 0x00, 0x00, 0xc4, 0xec, 0xff, 0xff, 0x00, 0x00, 0x0e, 0x00,
  0x16, 0x00, 0x00, 0x00, 0x08, 0x00, 0x0c, 0x00, 0x07, 0x00, 0x10, 0x00,
  0x0e, 0x00, 0x00, 0x00, 0x00, 0x00, 0x00, 0x37, 0x24, 0x00, 0x00, 0x00,
  0x18, 0x00, 0x00, 0x00, 0x0c, 0x00, 0x00, 0x00, 0x00, 0x00, 0x06, 0x00,
  0x08, 0x00, 0x07, 0x00, 0x06, 0x00, 0x00, 0x00, 0x00, 0x00, 0x00, 0x02,
  0x01, 0x00, 0x00, 0x00, 0x11, 0x00, 0x00, 0x00, 0x01, 0x00, 0x00, 0x00,
  0x00, 0x00, 0x00, 0x00, 0x0c, 0x00, 0x10, 0x00, 0x0b, 0x00, 0x00, 0x00,
  0x0c, 0x00, 0x04, 0x00, 0x0c, 0x00, 0x00, 0x00, 0x4d, 0x00, 0x00, 0x00,
  0x00, 0x00, 0x00, 0x4d, 0x01, 0x00, 0x00, 0x00, 0x06, 0xed, 0xff, 0xff,
  0x00, 0x00, 0x00, 0x02, 0x48, 0x00, 0x00, 0x00, 0x12, 0x00, 0x00, 0x00,
  0x08, 0x00, 0x00, 0x00, 0x44, 0x00, 0x00, 0x00, 0x31, 0x00, 0x00, 0x00,
  0x73, 0x65, 0x71, 0x75, 0x65, 0x6e, 0x74, 0x69, 0x61, 0x6c, 0x2f, 0x72,
  0x65, 0x73, 0x68, 0x61, 0x70, 0x65, 0x2f, 0x53, 0x68, 0x61, 0x70, 0x65,
  0x3b, 0x73, 0x65, 0x71, 0x75, 0x65, 0x6e, 0x74, 0x69, 0x61, 0x6c, 0x2f,
  0x72, 0x65, 0x73, 0x68, 0x61, 0x70, 0x65, 0x2f, 0x53, 0x68, 0x61, 0x70,
  0x65, 0x00, 0x00, 0x00, 0x01, 0x00, 0x00, 0x00, 0x02, 0x00, 0x00, 0x00,
  0x40, 0xec, 0xff, 0xff, 0x7a, 0xed, 0xff, 0xff, 0x04, 0x00, 0x00, 0x00,
  0x08, 0x00, 0x00, 0x00, 0x60, 0x00, 0x00, 0x00, 0xa0, 0xff, 0xff, 0xff,
  0x76, 0xed, 0xff, 0xff, 0x00, 0x00, 0x00, 0x02, 0x20, 0x00, 0x00, 0x00,
  0x11, 0x00, 0x00, 0x00, 0x08, 0x00, 0x00, 0x00, 0x1c, 0x00, 0x00, 0x00,
  0x0b, 0x00, 0x00, 0x00, 0x79, 0x5f, 0x70, 0x72, 0x65, 0x64, 0x2f, 0x62,
  0x69, 0x61, 0x73, 0x00, 0x01, 0x00, 0x00, 0x00, 0x02, 0x00, 0x00, 0x00,
  0xb4, 0xec, 0xff, 0xff, 0x14, 0x00, 0x00, 0x00, 0x04, 0x00, 0x00, 0x00,
  0x01, 0x00, 0x00, 0x00, 0x00, 0x00, 0x00, 0x00, 0x00, 0x00, 0x00, 0x00,
  0x01, 0x00, 0x00, 0x00, 0x5d, 0x81, 0x91, 0x38, 0xde, 0xed, 0xff, 0xff,
  0x04, 0x00, 0x00, 0x00, 0xc0, 0x04, 0x00, 0x00, 0x11, 0x00, 0xdc, 0x37,
  0x11, 0x33, 0xdf, 0x11, 0xee, 0xe0, 0x0c, 0xf5, 0x12, 0x0e, 0x02, 0xee,
  0xec, 0xd3, 0xdb, 0xe1, 0xd6, 0xdc, 0xe3, 0xea, 0xe4, 0xd9, 0xea, 0xdb,
  0xfa, 0xf2, 0xc9, 0xdd, 0x10, 0xf7, 0xdf, 0x01, 0x0c, 0x93, 0xf5, 0x0d,
  0xf8, 0xfa, 0xe9, 0x0f, 0xf8, 0xf3, 0xf2, 0xe4, 0x1c, 0x14, 0xff, 0xd9,
  0x2c, 0x86, 0x13, 0x15, 0xf9, 0x1c, 0x05, 0x14, 0x03, 0x12, 0x08, 0x07,
  0x10, 0x3d, 0x29, 0xf4, 0x1c, 0xaf, 0x2b, 0xfe, 0x2f, 0x30, 0x34, 0x2d,
  0x06, 0x27, 0x35, 0x21, 0x32, 0x58, 0x3b, 0xda, 0x09, 0xc2, 0x53, 0x06,
  0x31, 0x42, 0x4d, 0x45, 0x32, 0x27, 0x2e, 0x41, 0x3a, 0x64, 0x3b, 0x0d,
  0x25, 0xe5, 0x4f, 0x20, 0x4d, 0x31, 0x7a, 0x4e, 0x4e, 0x45, 0x4b, 0x54,
  0x3c, 0x71, 0x45, 0x23, 0x1f, 0xf0, 0x3f, 0x29, 0x48, 0x35, 0x68, 0x32,
  0x30, 0x3a, 0x54, 0x4a, 0x31, 0x3d, 0x1b, 0x1a, 0x15, 0xcf, 0x24, 0x2d,
  0x29, 0x1a, 0x45, 0x1d, 0x26, 0x1e, 0x2f, 0x25, 0xfa, 0x13, 0xeb, 0xeb,
  0xff, 0xe8, 0xf5, 0x06, 0x1c, 0x0e, 0x2a, 0x18, 0xf9, 0x1d, 0x18, 0x13,
  0x22, 0x25, 0x1f, 0xef, 0x0a, 0xe1, 0x01, 0x00, 0x0f, 0x18, 0x0e, 0x12,
  0x10, 0x08, 0x17, 0x01, 0x1f, 0x18, 0x1c, 0x0b, 0x2c, 0x15, 0x0f, 0x10,
  0xfe, 0xec, 0x07, 0x0f, 0x1a, 0x11, 0x00, 0x0f, 0x04, 0xf8, 0x01, 0x37,
  0xf9, 0x1f, 0xe6, 0x12, 0xdd, 0xef, 0xea, 0xf1, 0x0b, 0x13, 0xfe, 0xfb,
  0xe4, 0x10, 0x08, 0xeb, 0x07, 0xfb, 0xe9, 0x19, 0xf4, 0xe3, 0x07, 0xf0,
  0x02, 0x08, 0x12, 0xff, 0xea, 0x0d, 0xfe, 0x25, 0xe5, 0x37, 0xfa, 0x13,
  0xff, 0xd5, 0x08, 0x05, 0x0b, 0x09, 0x01, 0x0e, 0x10, 0xfa, 0xeb, 0x42,
  0x02, 0x21, 0xf0, 0x1d, 0xe4, 0xd7, 0xfa, 0xf4, 0x00, 0xfa, 0xf3, 0xed,
  0x26, 0x0c, 0xe9, 0x1e, 0x23, 0x09, 0x04, 0x15, 0x07, 0xd5, 0xed, 0xf8,
  0x09, 0xee, 0xfb, 0xf9, 0x1e, 0x0c, 0x02, 0x28, 0x4c, 0x01, 0xfa, 0x27,
  0x08, 0xef, 0x1b, 0x02, 0x27, 0x03, 0x02, 0x08, 0x20, 0xe5, 0xce, 0x17,
  0x22, 0xff, 0xfa, 0x1b, 0xf0, 0xda, 0x0f, 0xf6, 0xff, 0x0b, 0xf8, 0xd6,
  0x09, 0xea, 0xf8, 0xf0, 0xec, 0xe8, 0x0d, 0x04, 0xf4, 0xe1, 0xee, 0xfe,
  0xfa, 0x04, 0xfb, 0xe7, 0x16, 0xf3, 0x0a, 0xf3, 0xfc, 0x08, 0x10, 0x10,
  0xfd, 0xdb, 0xe9, 0x01, 0x13, 0xf9, 0xfd, 0xfa, 0x16, 0x04, 0xf0, 0xf2,
  0x11, 0xdd, 0xf8, 0x0c, 0xf8, 0xf8, 0x00, 0x14, 0xe4, 0xed, 0x00, 0xe1,
  0x14, 0x04, 0xef, 0xf3, 0x0d, 0xcd, 0xf9, 0x12, 0xf5, 0x05, 0x07, 0xe9,
  0x1b, 0xfb, 0x01, 0xfd, 0x23, 0x1f, 0x05, 0x19, 0x3c, 0xc1, 0x0d, 0x34,
  0xfe, 0xfe, 0x20, 0x0f, 0x14, 0x10, 0x1a, 0x0b, 0x35, 0xf8, 0xed, 0x2e,
  0x2c, 0xf1, 0x00, 0x22, 0xfb, 0xee, 0x06, 0x07, 0x14, 0x27, 0xf6, 0xff,
  0x10, 0x01, 0xe1, 0x14, 0x10, 0xda, 0xdd, 0x16, 0xfd, 0xdf, 0xf5, 0xe9,
  0x06, 0xff, 0x00, 0xf7, 0x09, 0x01, 0x15, 0xf7, 0x09, 0xf1, 0xfb, 0xf2,
  0xf8, 0xf2, 0xee, 0x0a, 0xfb, 0xff, 0x07, 0x06, 0xe8, 0xf0, 0xee, 0xe5,
  0xfa, 0xe1, 0x02, 0xeb, 0x06, 0x03, 0xfa, 0xff, 0xf2, 0xed, 0xf6, 0x0a,
  0x08, 0xf3, 0xfd, 0x02, 0xec, 0xe7, 0xfe, 0x0a, 0x04, 0x00, 0xfa, 0xf6,
  0xf9, 0x02, 0x05, 0xf3, 0x07, 0x06, 0x04, 0x02, 0xff, 0xec, 0xf8, 0x16,
  0x01, 0xf8, 0xf7, 0xfa, 0xf7, 0x07, 0x0c, 0xf7, 0xf6, 0xf3, 0xf7, 0x07,
  0xf4, 0xe8, 0xe3, 0x0b, 0x00, 0xf6, 0x07, 0x02, 0xfa, 0xf8, 0xfe, 0x03,
  0x06, 0xf5, 0xe6, 0xed, 0xf7, 0xe3, 0xf6, 0xee, 0xf7, 0xf0, 0xfa, 0x08,
  0x02, 0x00, 0xf4, 0xf9, 0x03, 0x11, 0x01, 0x07, 0x0f, 0x1b, 0x00, 0x1f,
  0xf4, 0x01, 0xf8, 0x0c, 0x1c, 0xfc, 0x0a, 0x0e, 0x0f, 0x15, 0xea, 0x26,
  0x28, 0x0c, 0xf7, 0x1c, 0x03, 0xf9, 0xf3, 0x0e, 0x1d, 0x0e, 0x1d, 0x05,
  0x14, 0x08, 0x02, 0x01, 0xf1, 0xf4, 0xfc, 0xf4, 0x01, 0x20, 0xfe, 0x11,
  0xec, 0x12, 0x02, 0x0b, 0xee, 0x07, 0x08, 0xc6, 0xf8, 0xe4, 0xfe, 0xe9,
  0x05, 0xfd, 0xd6, 0xf3, 0xea, 0x08, 0x12, 0xf2, 0x08, 0xf6, 0xde, 0xe9,
  0xf2, 0xf2, 0xe5, 0xe6, 0xf3, 0xfc, 0xf8, 0xee, 0xfd, 0x0c, 0xff, 0xea,
  0x06, 0x17, 0xf3, 0xd5, 0x0c, 0xd4, 0xe6, 0xf6, 0xe7, 0xee, 0x0f, 0x02,
  0x03, 0x03, 0x24, 0xe9, 0xdd, 0x00, 0x25, 0xd3, 0xdf, 0xd0, 0x29, 0xf3,
  0x18, 0x1a, 0x04, 0x0d, 0x09, 0xee, 0x04, 0x0d, 0x10, 0x2a, 0x38, 0x10,
  0x2f, 0x2c, 0x35, 0x22, 0x34, 0x11, 0x0b, 0x21, 0x23, 0x10, 0x40, 0x15,
  0xe5, 0xff, 0x13, 0x03, 0xfa, 0x54, 0xff, 0xfe, 0x15, 0x0d, 0x14, 0x01,
  0xfa, 0x15, 0xff, 0x1a, 0xdd, 0xf5, 0x11, 0x36, 0xe4, 0x70, 0xf6, 0xe2,
  0xfb, 0xde, 0xf5, 0x08, 0xf4, 0xed, 0x08, 0xfe, 0xf5, 0xc0, 0xd9, 0x22,
  0xe4, 0x52, 0xde, 0xfb, 0xd3, 0xd2, 0xc3, 0xdf, 0xfe, 0xd4, 0xe3, 0xdc,
  0xd2, 0xa9, 0xd2, 0x20, 0xef, 0x3a, 0xab, 0xf2, 0xd1, 0xc5, 0xb1, 0xd2,
  0xd7, 0xe9, 0xb7, 0xb9, 0xc1, 0x81, 0xc7, 0x01, 0xda, 0x29, 0xa9, 0xdb,
  0xce, 0xb4, 0x8a, 0xbc, 0xad, 0xba, 0xb0, 0xab, 0xc1, 0xa4, 0xbe, 0xe0,
  0xd5, 0xfe, 0xc8, 0xc1, 0xb6, 0xc0, 0x9b, 0xc8, 0xbe, 0xc5, 0xbf, 0xa3,
  0xcf, 0xc8, 0xf6, 0xd9, 0xe0, 0x24, 0xe1, 0xcd, 0xd8, 0xeb, 0xc8, 0xdd,
  0xd0, 0xd5, 0xc4, 0xc5, 0x0f, 0xff, 0xf7, 0x21, 0x11, 0x16, 0x0a, 0x00,
  0xe6, 0xf2, 0xd7, 0xf0, 0x02, 0xf8, 0xf8, 0x00, 0xef, 0xe2, 0xe7, 0x1f,
  0xe8, 0x24, 0xfb, 0x02, 0xe6, 0xe6, 0xef, 0xf8, 0x03, 0xfd, 0xed, 0xf9,
  0xeb, 0xe2, 0xe5, 0xe8, 0xd9, 0xee, 0xed, 0xde, 0xf9, 0x00, 0xf1, 0xed,
  0xf2, 0xfe, 0xf6, 0xfd, 0x0a, 0x08, 0x17, 0xc1, 0xf3, 0xe1, 0x0f, 0xdd,
  0x0c, 0x24, 0x10, 0x02, 0xfc, 0xef, 0x13, 0xfa, 0x22, 0x05, 0xf5, 0x0c,
  0xfb, 0xfe, 0x19, 0xe2, 0x18, 0x22, 0xe2, 0x06, 0xfc, 0xf8, 0x06, 0xf8,
  0x10, 0x03, 0x0c, 0xd1, 0x1c, 0xd9, 0x0c, 0xda, 0x0f, 0x21, 0xee, 0x06,
  0xdc, 0xe6, 0xe5, 0xe2, 0xf1, 0x07, 0x0d, 0xc1, 0xf8, 0xce, 0x19, 0xe6,
  0x14, 0x23, 0x12, 0x14, 0xf3, 0x00, 0x17, 0x13, 0xd1, 0x05, 0x0e, 0xcd,
  0xf3, 0x0c, 0x00, 0xe2, 0x0d, 0x2c, 0x03, 0x01, 0xf6, 0xfd, 0x10, 0x0b,
  0xe4, 0xfe, 0xf5, 0xc3, 0xbb, 0x05, 0xf8, 0xd8, 0x03, 0xfc, 0xe4, 0xfa,
  0xde, 0xe9, 0xf3, 0xec, 0xed, 0x1e, 0x28, 0xea, 0xf2, 0xfc, 0x14, 0xee,
  0x03, 0x26, 0xf0, 0x15, 0x02, 0xfb, 0x0a, 0x11, 0xe6, 0x1a, 0x15, 0x07,
  0x10, 0x25, 0x0c, 0x01, 0x24, 0x11, 0xfc, 0x11, 0xf8, 0x0f, 0x11, 0x0f,
  0xf1, 0x17, 0x0c, 0xef, 0x09, 0x06, 0xfb, 0xf8, 0x0d, 0x10, 0x16, 0x0c,
  0x03, 0x12, 0x04, 0x03, 0xf8, 0x01, 0x12, 0x0c, 0xf1, 0x22, 0x0f, 0xec,
  0x0a, 0x0b, 0x09, 0xfc, 0x09, 0x01, 0x00, 0x13, 0xda, 0x09, 0x2d, 0x0a,
  0x06, 0x29, 0x0b, 0x07, 0x0e, 0xf0, 0xee, 0x06, 0xfe, 0x1e, 0xf6, 0xff,
  0xd9, 0xe4, 0xfe, 0xf0, 0xb7, 0x45, 0xf7, 0xdd, 0xfc, 0x00, 0xec, 0xf3,
  0xe1, 0xf4, 0xe4, 0x08, 0xcf, 0x02, 0x18, 0xd5, 0xe3, 0x1a, 0xff, 0xde,
  0x15, 0x11, 0xe9, 0x04, 0xfb, 0xec, 0x07, 0x03, 0xda, 0xfc, 0x15, 0xf1,
  0xf6, 0x10, 0x19, 0xe9, 0x1d, 0x25, 0x0c, 0x18, 0x05, 0x00, 0x0e, 0xfc,
  0x00, 0xfe, 0xf0, 0x04, 0xf5, 0x11, 0x08, 0x0c, 0xfe, 0xf1, 0x03, 0xf4,
  0xeb, 0xf9, 0xf5, 0x0c, 0x01, 0x0d, 0x13, 0x1b, 0x0f, 0x1f, 0x0b, 0x24,
  0xff, 0xeb, 0x10, 0x0e, 0x05, 0x06, 0x09, 0x0f, 0x0f, 0xf7, 0x05, 0x02,
  0x18, 0x03, 0xfe, 0x0e, 0xfb, 0x06, 0x11, 0xf9, 0x0e, 0x08, 0xea, 0x03,
  0x05, 0x13, 0xef, 0xf3, 0xe6, 0xfb, 0x06, 0xfd, 0x00, 0x05, 0xf2, 0xf6,
  0xf8, 0xf7, 0x0f, 0x08, 0x03, 0x01, 0xf7, 0xee, 0x0b, 0x14, 0x0a, 0xfb,
  0x0b, 0xf9, 0xec, 0xff, 0xf8, 0xf1, 0xf7, 0x01, 0x03, 0x03, 0x17, 0x12,
  0x01, 0x08, 0x01, 0x0a, 0x05, 0x11, 0xfc, 0x0c, 0x04, 0x06, 0x07, 0x04,
  0xfd, 0xeb, 0x01, 0xfb, 0xf3, 0xeb, 0xf5, 0xf8, 0x04, 0x1d, 0x0e, 0xed,
  0xf5, 0xeb, 0x02, 0x01, 0xe0, 0xf1, 0x20, 0xc0, 0xd9, 0xf1, 0x02, 0xe8,
  0xf4, 0x0d, 0xf7, 0x00, 0xfa, 0xfa, 0xd8, 0x07, 0x03, 0xfb, 0x1e, 0x00,
  0x03, 0x10, 0xf7, 0x08, 0x09, 0xea, 0xe7, 0x01, 0x00, 0xf2, 0x09, 0x11,
  0x05, 0xed, 0x05, 0x23, 0x1a, 0x0a, 0x16, 0x20, 0xfa, 0xf2, 0x26, 0xfb,
  0x10, 0xff, 0x07, 0x10, 0xf4, 0x01, 0x25, 0x2a, 0x14, 0x06, 0x1e, 0x12,
  0x0d, 0x19, 0x05, 0x08, 0xff, 0xfa, 0x02, 0x0f, 0xfc, 0xfa, 0x0a, 0x1c,
  0xf2, 0x36, 0x0c, 0x0f, 0x18, 0xfd, 0xe1, 0xff, 0x03, 0x03, 0xea, 0x12,
  0x92, 0xf2, 0xff, 0xff, 0x00, 0x00, 0x00, 0x09, 0x48, 0x00, 0x00, 0x00,
  0x10, 0x00, 0x00, 0x00, 0x08, 0x00, 0x00, 0x00, 0x48, 0x00, 0x00, 0x00,
  0x31, 0x00, 0x00, 0x00, 0x73, 0x65, 0x71, 0x75, 0x65, 0x6e, 0x74, 0x69,
  0x61, 0x6c, 0x2f, 0x79, 0x5f, 0x70, 0x72, 0x65, 0x64, 0x2f, 0x4d, 0x61,
  0x74, 0x4d, 0x75, 0x6c, 0x3b, 0x73, 0x65, 0x71, 0x75, 0x65, 0x6e, 0x74,
  0x69, 0x61, 0x6c, 0x2f, 0x79, 0x5f, 0x70, 0x72, 0x65, 0x64, 0x2f, 0x4d,
  0x61, 0x74, 0x4d, 0x75, 0x6c, 0x00, 0x00, 0x00, 0x02, 0x00, 0x00, 0x00,
  0x02, 0x00, 0x00, 0x00, 0x60, 0x02, 0x00, 0x00, 0xfc, 0xf1, 0xff, 0xff,
  0x14, 0x00, 0x00, 0x00, 0x04, 0x00, 0x00, 0x00, 0x01, 0x00, 0x00, 0x00,
  0x00, 0x00, 0x00, 0x00, 0x00, 0x00, 0x00, 0x00, 0x01, 0x00, 0x00, 0x00,
  0x94, 0xd2, 0xcb, 0x3b, 0x26, 0xf3, 0xff, 0xff, 0x04, 0x00, 0x00, 0x00,
  0x40, 0x00, 0x00, 0x00, 0xcd, 0xae, 0xff, 0xff, 0x2c, 0xf9, 0xff, 0xff,
  0x17, 0x00, 0x00, 0x00, 0x7f, 0xee, 0xff, 0xff, 0x6c, 0xc2, 0xff, 0xff,
  0xee, 0xff, 0xff, 0xff, 0x56, 0x05, 0x00, 0x00, 0x3b, 0xe6, 0xff, 0xff,
  0xd3, 0xfd, 0xff, 0xff, 0x9a, 0x01, 0x00, 0x00, 0xa7, 0xfa, 0xff, 0xff,
  0x1b, 0xfb, 0xff, 0xff, 0x4e, 0xf6, 0xff, 0xff, 0x8a, 0xfa, 0xff, 0xff,
  0x85, 0xf7, 0xff, 0xff, 0x1a, 0xf9, 0xff, 0xff, 0x5a, 0xf3, 0xff, 0xff,
  0x00, 0x00, 0x00, 0x02, 0x24, 0x00, 0x00, 0x00, 0x0f, 0x00, 0x00, 0x00,
  0x08, 0x00, 0x00, 0x00, 0x20, 0x00, 0x00, 0x00, 0x0d, 0x00, 0x00, 0x00,
  0x63, 0x6f, 0x6e, 0x76, 0x31, 0x64, 0x5f, 0x31, 0x2f, 0x62, 0x69, 0x61,
  0x73, 0x00, 0x00, 0x00, 0x01, 0x00, 0x00, 0x00, 0x10, 0x00, 0x00, 0x00,
  0x9c, 0xf2, 0xff, 0xff, 0x8c, 0x00, 0x00, 0x00, 0x04, 0x00, 0x00, 0x00,
  0x10, 0x00, 0x00, 0x00, 0x00, 0x00, 0x00, 0x00, 0x00, 0x00, 0x00, 0x00,
  0x00, 0x00, 0x00, 0x00, 0x00, 0x00, 0x00, 0x00, 0x00, 0x00, 0x00, 0x00,
  0x00, 0x00, 0x00, 0x00, 0x00, 0x00, 0x00, 0x00, 0x00, 0x00, 0x00, 0x00,
  0x00, 0x00, 0x00, 0x00, 0x00, 0x00, 0x00, 0x00, 0x00, 0x00, 0x00, 0x00,
  0x00, 0x00, 0x00, 0x00, 0x00, 0x00, 0x00, 0x00, 0x00, 0x00, 0x00, 0x00,
  0x00, 0x00, 0x00, 0x00, 0x00, 0x00, 0x00, 0x00, 0x00, 0x00, 0x00, 0x00,
  0x00, 0x00, 0x00, 0x00, 0x00, 0x00, 0x00, 0x00, 0x00, 0x00, 0x00, 0x00,
  0x00, 0x00, 0x00, 0x00, 0x00, 0x00, 0x00, 0x00, 0x00, 0x00, 0x00, 0x00,
  0x00, 0x00, 0x00, 0x00, 0x00, 0x00, 0x00, 0x00, 0x00, 0x00, 0x00, 0x00,
  0x00, 0x00, 0x00, 0x00, 0x00, 0x00, 0x00, 0x00, 0x00, 0x00, 0x00, 0x00,
  0x00, 0x00, 0x00, 0x00, 0x00, 0x00, 0x00, 0x00, 0x00, 0x00, 0x00, 0x00,
  0x10, 0x00, 0x00, 0x00, 0x7f, 0x43, 0x11, 0x37, 0x5d, 0x35, 0x69, 0x37,
  0x19, 0xd2, 0x44, 0x37, 0x32, 0x9d, 0xbc, 0x37, 0x09, 0x83, 0x25, 0x37,
  0x61, 0x2f, 0xaa, 0x37, 0x12, 0xa4, 0x4b, 0x37, 0x75, 0x32, 0x86, 0x37,
  0x9f, 0x70, 0x18, 0x37, 0x65, 0xda, 0x3b, 0x37, 0x8b, 0x7d, 0x5e, 0x37,
  0xcc, 0x09, 0x22, 0x37, 0x35, 0x7e, 0x47, 0x37, 0x6f, 0xe2, 0x27, 0x37,
  0xe8, 0x54, 0x5d, 0x37, 0xc6, 0xde, 0x11, 0x37, 0x7a, 0xf4, 0xff, 0xff,
  0x04, 0x00, 0x00, 0x00, 0x80, 0x01, 0x00, 0x00, 0xda, 0x5c, 0xf9, 0x2c,
  0x41, 0x02, 0x56, 0x75, 0xff, 0x4e, 0x10, 0x3c, 0x15, 0x7f, 0xeb, 0x3b,
  0xfb, 0x28, 0x57, 0xf2, 0x2c, 0x4f, 0x52, 0x6c, 0xd3, 0x39, 0x13, 0x38,
  0x3f, 0xfe, 0x07, 0x17, 0xc6, 0x59, 0x27, 0x49, 0x2a, 0xf7, 0x10, 0x5a,
  0xd4, 0x7f, 0x31, 0x2e, 0x67, 0x04, 0x1c, 0x29, 0xd0, 0x12, 0x39, 0xdc,
  0x1c, 0xd5, 0xd5, 0x4e, 0xd2, 0x27, 0xf6, 0x56, 0x29, 0x10, 0x00, 0x27,
  0x05, 0x38, 0x7f, 0x02, 0x13, 0x59, 0x44, 0x0e, 0x0a, 0x2e, 0xff, 0xf4,
  0x12, 0x51, 0x10, 0x0f, 0x23, 0x25, 0x1d, 0xf2, 0xee, 0x7f, 0x20, 0xfc,
  0x02, 0x1b, 0xfa, 0x06, 0xfb, 0x45, 0xf8, 0xfe, 0xdd, 0x3f, 0xfa, 0xec,
  0xda, 0x5c, 0xf4, 0x5c, 0x15, 0x1c, 0x7f, 0x14, 0xfb, 0xfe, 0x45, 0xf5,
  0xf5, 0xf6, 0xe1, 0x33, 0x1f, 0x5b, 0x37, 0x34, 0x76, 0xf5, 0x31, 0x21,
  0x11, 0x50, 0x35, 0xf7, 0x6c, 0xff, 0x10, 0xda, 0xeb, 0x7f, 0x05, 0xfa,
  0x59, 0xe8, 0x16, 0xd4, 0xfc, 0x4a, 0x0e, 0xdc, 0xb9, 0x05, 0x1e, 0x1f,
  0x22, 0xf6, 0xe3, 0x12, 0xa8, 0x20, 0x31, 0x2f, 0x06, 0x0a, 0xe5, 0x7f,
  0xcf, 0x2f, 0x6e, 0x6e, 0x70, 0x64, 0x1d, 0x52, 0x02, 0x51, 0x38, 0x0c,
  0xf8, 0x47, 0xe6, 0x24, 0xe4, 0x40, 0x14, 0x0e, 0xe6, 0x7f, 0x44, 0x21,
  0x0f, 0x1e, 0x20, 0xe5, 0x09, 0x38, 0x10, 0x0f, 0xa2, 0x63, 0x57, 0x44,
  0x63, 0xc8, 0xe8, 0x65, 0xb8, 0x0a, 0x37, 0x77, 0xe1, 0xcd, 0x09, 0x7f,
  0xb7, 0x55, 0x7e, 0x49, 0x66, 0x2d, 0x1d, 0xe6, 0xe4, 0xfb, 0x12, 0x38,
  0x61, 0xf4, 0xe1, 0x36, 0xec, 0xdf, 0x1c, 0x07, 0x19, 0xd2, 0x08, 0x1f,
  0xdb, 0xe6, 0x3c, 0x36, 0x5b, 0xb3, 0xfb, 0x7f, 0xd0, 0x7f, 0x21, 0x20,
  0x31, 0x0c, 0x0c, 0x16, 0xcd, 0x5c, 0x11, 0x17, 0x45, 0x07, 0xea, 0x12,
  0xd6, 0x33, 0x50, 0x57, 0xf4, 0x11, 0xef, 0x0e, 0xba, 0x01, 0x2f, 0xe5,
  0x1e, 0xf4, 0x17, 0x61, 0xbd, 0x29, 0x32, 0x53, 0x65, 0xea, 0x19, 0x36,
  0xbb, 0x2f, 0xfb, 0x7d, 0x77, 0x44, 0x26, 0x7f, 0xb9, 0x32, 0x1a, 0x03,
  0xf3, 0x45, 0x3d, 0xd9, 0xb9, 0x69, 0x2a, 0x40, 0x04, 0x1f, 0x32, 0x07,
  0xae, 0x7f, 0x37, 0x35, 0x45, 0x77, 0x3a, 0x07, 0xae, 0x7f, 0xf9, 0xf5,
  0x5c, 0x45, 0x0b, 0x40, 0x91, 0x00, 0x02, 0x26, 0x3b, 0x3f, 0x5f, 0xf0,
  0xaa, 0x24, 0x18, 0x46, 0x45, 0x08, 0x44, 0xec, 0xc0, 0x7f, 0x37, 0x3b,
  0x3b, 0xd9, 0x12, 0x0e, 0xc1, 0x35, 0x25, 0x61, 0x19, 0x04, 0x35, 0xf8,
  0xd6, 0x6c, 0x3e, 0x17, 0x60, 0x1b, 0x34, 0x57, 0xa2, 0x78, 0x38, 0x42,
  0x3d, 0x19, 0xdb, 0x41, 0xa6, 0x5b, 0x57, 0x7f, 0x01, 0x36, 0xd6, 0x7c,
  0xbb, 0x35, 0x5c, 0x3f, 0x70, 0x58, 0x29, 0xf4, 0xee, 0xf5, 0xff, 0xff,
  0x00, 0x00, 0x00, 0x09, 0x4c, 0x00, 0x00, 0x00, 0x0e, 0x00, 0x00, 0x00,
  0x08, 0x00, 0x00, 0x00, 0x54, 0x00, 0x00, 0x00, 0x35, 0x00, 0x00, 0x00,
  0x73, 0x65, 0x71, 0x75, 0x65, 0x6e, 0x74, 0x69, 0x61, 0x6c, 0x2f, 0x63,
  0x6f, 0x6e, 0x76, 0x31, 0x64, 0x5f, 0x31, 0x2f, 0x63, 0x6f, 0x6e, 0x76,
  0x31, 0x64, 0x3b, 0x73, 0x65, 0x71, 0x75, 0x65, 0x6e, 0x74, 0x69, 0x61,
  0x6c, 0x2f, 0x63, 0x6f, 0x6e, 0x76, 0x31, 0x64, 0x5f, 0x31, 0x2f, 0x63,
  0x6f, 0x6e, 0x76, 0x31, 0x64, 0x00, 0x00, 0x00, 0x04, 0x00, 0x00, 0x00,
  0x10, 0x00, 0x00, 0x00, 0x01, 0x00, 0x00, 0x00, 0x03, 0x00, 0x00, 0x00,
  0x08, 0x00, 0x00, 0x00, 0x64, 0xf5, 0xff, 0xff, 0x8c, 0x00, 0x00, 0x00,
  0x04, 0x00, 0x00, 0x00, 0x10, 0x00, 0x00, 0x00, 0x00, 0x00, 0x00, 0x00,
  0x00, 0x00, 0x00, 0x00, 0x00, 0x00, 0x00, 0x00, 0x00, 0x00, 0x00, 0x00,
  0x00, 0x00, 0x00, 0x00, 0x00, 0x00, 0x00, 0x00, 0x00, 0x00, 0x00, 0x00,
  0x00, 0x00, 0x00, 0x00, 0x00, 0x00, 0x00, 0x00, 0x00, 0x00, 0x00, 0x00,
  0x00, 0x00, 0x00, 0x00, 0x00, 0x00, 0x00, 0x00, 0x00, 0x00, 0x00, 0x00,
  0x00, 0x00, 0x00, 0x00, 0x00, 0x00, 0x00, 0x00, 0x00, 0x00, 0x00, 0x00,
  0x00, 0x00, 0x00, 0x00, 0x00, 0x00, 0x00, 0x00, 0x00, 0x00, 0x00, 0x00,
  0x00, 0x00, 0x00, 0x00, 0x00, 0x00, 0x00, 0x00, 0x00, 0x00, 0x00, 0x00,
  0x00, 0x00, 0x00, 0x00, 0x00, 0x00, 0x00, 0x00, 0x00, 0x00, 0x00, 0x00,
  0x00, 0x00, 0x00, 0x00, 0x00, 0x00, 0x00, 0x00, 0x00, 0x00, 0x00, 0x00,
  0x00, 0x00, 0x00, 0x00, 0x00, 0x00, 0x00, 0x00, 0x00, 0x00, 0x00, 0x00,
  0x00, 0x00, 0x00, 0x00, 0x10, 0x00, 0x00, 0x00, 0xdc, 0x38, 0x6f, 0x3b,
  0x7f, 0x06, 0xc0, 0x3b, 0x3f, 0x10, 0xa2, 0x3b, 0x59, 0x4e, 0x1b, 0x3c,
  0x97, 0x48, 0x88, 0x3b, 0xab, 0x21, 0x0c, 0x3c, 0xe4, 0xad, 0xa7, 0x3b,
  0x60, 0xff, 0xdc, 0x3b, 0x43, 0x0a, 0x7b, 0x3b, 0xf3, 0xad, 0x9a, 0x3b,
  0x38, 0x33, 0xb7, 0x3b, 0x63, 0x6c, 0x85, 0x3b, 0x8c, 0x43, 0xa4, 0x3b,
  0xba, 0x3c, 0x8a, 0x3b, 0xf7, 0x3e, 0xb6, 0x3b, 0x92, 0x38, 0x70, 0x3b,
  0x42, 0xf7, 0xff, 0xff, 0x04, 0x00, 0x00, 0x00, 0x20, 0x00, 0x00, 0x00,
  0x99, 0xfd, 0xff, 0xff, 0x28, 0xfe, 0xff, 0xff, 0x07, 0x01, 0x00, 0x00,
  0x65, 0xfd, 0xff, 0xff, 0x6a, 0x00, 0x00, 0x00, 0x20, 0xd6, 0xff, 0xff,
  0x18, 0xff, 0xff, 0xff, 0x8b, 0x00, 0x00, 0x00, 0x56, 0xf7, 0xff, 0xff,
  0x00, 0x00, 0x00, 0x02, 0x20, 0x00, 0x00, 0x00, 0x0d, 0x00, 0x00, 0x00,
  0x08, 0x00, 0x00, 0x00, 0x1c, 0x00, 0x00, 0x00, 0x0b, 0x00, 0x00, 0x00,
  0x63, 0x6f, 0x6e, 0x76, 0x31, 0x64, 0x2f, 0x62, 0x69, 0x61, 0x73, 0x00,
  0x01, 0x00, 0x00, 0x00, 0x08, 0x00, 0x00, 0x00, 0x94, 0xf6, 0xff, 0xff,
  0x50, 0x00, 0x00, 0x00, 0x04, 0x00, 0x00, 0x00, 0x08, 0x00, 0x00, 0x00,
  0x00, 0x00, 0x00, 0x00, 0x00, 0x00, 0x00, 0x00, 0x00, 0x00, 0x00, 0x00,
  0x00, 0x00, 0x00, 0x00, 0x00, 0x00, 0x00, 0x00, 0x00, 0x00, 0x00, 0x00,
  0x00, 0x00, 0x00, 0x00, 0x00, 0x00, 0x00, 0x00, 0x00, 0x00, 0x00, 0x00,
  0x00, 0x00, 0x00, 0x00, 0x00, 0x00, 0x00, 0x00, 0x00, 0x00, 0x00, 0x00,
  0x00, 0x00, 0x00, 0x00, 0x00, 0x00, 0x00, 0x00, 0x00, 0x00, 0x00, 0x00,
  0x00, 0x00, 0x00, 0x00, 0x00, 0x00, 0x00, 0x00, 0x08, 0x00, 0x00, 0x00,
  0x78, 0x48, 0x93, 0x36, 0x0b, 0xaa, 0xa3, 0x36, 0xc5, 0x99, 0x9e, 0x36,
  0x8f, 0x5f, 0x87, 0x36, 0x39, 0xad, 0x9b, 0x36, 0x03, 0x33, 0xbb, 0x36,
  0xb5, 0x68, 0x7d, 0x36, 0x76, 0x1f, 0xa3, 0x36, 0x16, 0xf8, 0xff, 0xff,
  0x04, 0x00, 0x00, 0x00, 0x70, 0x02, 0x00, 0x00, 0x61, 0x73, 0xe8, 0x45,
  0x48, 0x39, 0x3c, 0x1e, 0xf5, 0x41, 0x3e, 0x3b, 0xfc, 0xa3, 0xac, 0xbd,
  0xc6, 0x0b, 0xcc, 0x94, 0x0f, 0x03, 0x00, 0xfe, 0x2e, 0x11, 0x68, 0x21,
  0xc3, 0x1e, 0xf8, 0x22, 0xeb, 0xfd, 0xd4, 0xdf, 0xfc, 0x5b, 0x22, 0xac,
  0x81, 0x9a, 0xf9, 0xf7, 0xbc, 0x9a, 0x16, 0xe0, 0x00, 0x1e, 0x30, 0x31,
  0x55, 0x52, 0x08, 0x2f, 0x08, 0x0e, 0x26, 0x38, 0x18, 0x44, 0x45, 0x32,
  0x02, 0x00, 0xac, 0xf0, 0xb4, 0x0d, 0xb6, 0x95, 0xe6, 0xe9, 0x2e, 0x1a,
  0x53, 0x10, 0xc2, 0xcd, 0x61, 0x0d, 0xff, 0xdd, 0x1c, 0xe2, 0x36, 0xd2,
  0xe8, 0xff, 0xcd, 0xeb, 0x36, 0x25, 0xf1, 0x46, 0x70, 0x5d, 0x15, 0xfc,
  0x1b, 0x47, 0xf2, 0x2c, 0xb4, 0xfc, 0x6e, 0xfe, 0x51, 0x3a, 0x06, 0xe2,
  0xf7, 0xca, 0xfe, 0xda, 0x0a, 0xf7, 0x23, 0x12, 0x19, 0x0e, 0x2c, 0x6c,
  0x19, 0xe4, 0xf8, 0x1f, 0xe3, 0x22, 0xb9, 0xd0, 0x6d, 0xdf, 0x18, 0x4a,
  0x1d, 0x16, 0x18, 0x93, 0xee, 0xb0, 0xee, 0x2e, 0x0a, 0x18, 0xf2, 0x54,
  0x7f, 0x50, 0x00, 0xd6, 0x31, 0x1e, 0xec, 0x10, 0xb6, 0xf2, 0x46, 0x16,
  0xf5, 0x0e, 0xf2, 0xd2, 0x2e, 0x44, 0xe8, 0x17, 0x30, 0x36, 0x53, 0x3d,
  0x16, 0x06, 0x5d, 0x55, 0x1f, 0xf0, 0xe5, 0xe2, 0x05, 0x0b, 0xbb, 0x05,
  0x6f, 0x45, 0x2e, 0x00, 0x3e, 0xe1, 0x05, 0x4a, 0xef, 0xeb, 0xf0, 0x36,
  0x2e, 0x06, 0xfe, 0x2f, 0x1c, 0x3d, 0x17, 0xe5, 0xd5, 0x00, 0xf3, 0xf5,
  0x81, 0x01, 0x3b, 0x38, 0x34, 0xff, 0x16, 0xc2, 0xd8, 0x20, 0xfa, 0xf6,
  0xea, 0x23, 0x4c, 0xf7, 0x18, 0x4d, 0x04, 0x27, 0xf5, 0x01, 0xd1, 0x11,
  0xf0, 0x31, 0xd0, 0xe6, 0x58, 0xdc, 0xf2, 0xe3, 0x49, 0xe6, 0x1d, 0xe2,
  0x06, 0xfd, 0xfd, 0x4f, 0x22, 0x22, 0x3e, 0x27, 0x05, 0x3d, 0x02, 0x0f,
  0x13, 0x09, 0xcf, 0xf8, 0x86, 0x04, 0x7f, 0x10, 0x5a, 0xe6, 0xf5, 0xf9,
  0x31, 0xf6, 0xfc, 0xd5, 0x1d, 0x05, 0x55, 0x0d, 0x12, 0x0d, 0x12, 0x75,
  0x18, 0xc1, 0x20, 0xf4, 0xce, 0x21, 0xb1, 0xe9, 0x31, 0x0d, 0x54, 0xe7,
  0x13, 0xe2, 0x14, 0xbe, 0xea, 0x0d, 0xfe, 0x67, 0x59, 0x30, 0x04, 0x44,
  0x11, 0x2c, 0x18, 0xdf, 0x31, 0xe9, 0x20, 0x46, 0x9f, 0xe7, 0x7f, 0x00,
  0x3d, 0xd0, 0xed, 0xf8, 0x17, 0xde, 0x28, 0xf4, 0x13, 0x06, 0x33, 0x12,
  0x0a, 0x51, 0x0b, 0x64, 0xeb, 0xd8, 0x24, 0xeb, 0xd7, 0x23, 0x99, 0x01,
  0x2a, 0x20, 0x4f, 0x05, 0x00, 0xe6, 0x0a, 0xeb, 0x01, 0x0a, 0x23, 0x4c,
  0x49, 0x20, 0x27, 0x2a, 0x07, 0x56, 0xf1, 0x14, 0xef, 0x38, 0xe8, 0x2c,
  0xc7, 0xc8, 0x6a, 0x22, 0x24, 0xe6, 0xef, 0x18, 0x24, 0xbc, 0xc8, 0xcd,
  0xfc, 0x4e, 0x2e, 0x3f, 0x00, 0x41, 0xfa, 0x25, 0x1d, 0x1b, 0xfb, 0xeb,
  0x15, 0x16, 0xe4, 0x40, 0x5a, 0x28, 0x51, 0x2e, 0x65, 0xf6, 0x01, 0x09,
  0xcd, 0x05, 0x0f, 0xf8, 0xe6, 0xf1, 0xe9, 0xff, 0x10, 0xe9, 0xe9, 0xf5,
  0x01, 0xdb, 0x02, 0xd2, 0xda, 0x24, 0x28, 0x45, 0x5a, 0x7f, 0x6a, 0x0e,
  0x12, 0xd3, 0xe4, 0x2e, 0xf2, 0xea, 0xf2, 0x06, 0x0b, 0xfb, 0x2f, 0x00,
  0x0d, 0xea, 0xe8, 0xe8, 0xdf, 0xce, 0xe1, 0xef, 0x38, 0x20, 0x3d, 0x1f,
  0x6d, 0x43, 0xfd, 0xf8, 0xfb, 0xee, 0xed, 0xf1, 0xdd, 0xe4, 0x19, 0xe2,
  0x1c, 0x07, 0xf1, 0xdc, 0xfa, 0xfe, 0xd1, 0xe5, 0x17, 0x24, 0x52, 0x37,
  0x2f, 0x4e, 0x17, 0xe8, 0xdc, 0xd0, 0x09, 0xc8, 0x05, 0x0a, 0x06, 0xff,
  0x04, 0xe3, 0x7f, 0x64, 0xeb, 0xf2, 0x0a, 0xe2, 0xcf, 0x28, 0x04, 0x10,
  0x34, 0x2b, 0x5c, 0x45, 0x40, 0x20, 0xc3, 0xb3, 0xf2, 0xce, 0xf2, 0xf4,
  0x44, 0x11, 0x2e, 0xd5, 0x5d, 0x7f, 0x1d, 0x07, 0x2a, 0x1c, 0x0c, 0x4d,
  0xe9, 0xd8, 0x65, 0x30, 0x56, 0x4e, 0x10, 0x1e, 0xd6, 0xe1, 0xcd, 0xce,
  0xdf, 0xed, 0x01, 0xff, 0x38, 0x14, 0x1e, 0x3a, 0x1c, 0x18, 0xf1, 0x25,
  0xe1, 0x41, 0x81, 0xd7, 0x60, 0x19, 0x24, 0xf6, 0xe4, 0xeb, 0x30, 0x2b,
  0x20, 0xf2, 0x1a, 0x4e, 0x2c, 0x25, 0x1b, 0xf3, 0x17, 0x4c, 0xd2, 0x02,
  0x03, 0xf2, 0xf0, 0x1e, 0xba, 0x09, 0x36, 0xff, 0x4c, 0xe0, 0x06, 0xf5,
  0x17, 0x3c, 0xeb, 0x0f, 0x11, 0x14, 0x6f, 0x05, 0x16, 0x43, 0xe3, 0x4f,
  0xfc, 0xcb, 0xdb, 0xf6, 0x19, 0x2e, 0x9f, 0xe2, 0x62, 0x0e, 0x33, 0xd3,
  0x11, 0xc6, 0x15, 0x10, 0xc7, 0x04, 0xec, 0x40, 0x6e, 0x1e, 0x29, 0x37,
  0x10, 0x3d, 0xf2, 0xe8, 0xe9, 0x1c, 0x16, 0x29, 0x7a, 0xfa, 0xff, 0xff,
  0x00, 0x00, 0x00, 0x09, 0x48, 0x00, 0x00, 0x00, 0x0c, 0x00, 0x00, 0x00,
  0x08, 0x00, 0x00, 0x00, 0x50, 0x00, 0x00, 0x00, 0x31, 0x00, 0x00, 0x00,
  0x73, 0x65, 0x71, 0x75, 0x65, 0x6e, 0x74, 0x69, 0x61, 0x6c, 0x2f, 0x63,
  0x6f, 0x6e, 0x76, 0x31, 0x64, 0x2f, 0x63, 0x6f, 0x6e, 0x76, 0x31, 0x64,
  0x3b, 0x73, 0x65, 0x71, 0x75, 0x65, 0x6e, 0x74, 0x69, 0x61, 0x6c, 0x2f,
  0x63, 0x6f, 0x6e, 0x76, 0x31, 0x64, 0x2f, 0x63, 0x6f, 0x6e, 0x76, 0x31,
  0x64, 0x00, 0x00, 0x00, 0x04, 0x00, 0x00, 0x00, 0x08, 0x00, 0x00, 0x00,
  0x01, 0x00, 0x00, 0x00, 0x03, 0x00, 0x00, 0x00, 0x1a, 0x00, 0x00, 0x00,
  0xec, 0xf9, 0xff, 0xff, 0x50, 0x00, 0x00, 0x00, 0x04, 0x00, 0x00, 0x00,
  0x08, 0x00, 0x00, 0x00, 0x00, 0x00, 0x00, 0x00, 0x00, 0x00, 0x00, 0x00,
  0x00, 0x00, 0x00, 0x00, 0x00, 0x00, 0x00, 0x00, 0x00, 0x00, 0x00, 0x00,
  0x00, 0x00, 0x00, 0x00, 0x00, 0x00, 0x00, 0x00, 0x00, 0x00, 0x00, 0x00,
  0x00, 0x00, 0x00, 0x00, 0x00, 0x00, 0x00, 0x00, 0x00, 0x00, 0x00, 0x00,
  0x00, 0x00, 0x00, 0x00, 0x00, 0x00, 0x00, 0x00, 0x00, 0x00, 0x00, 0x00,
  0x00, 0x00, 0x00, 0x00, 0x00, 0x00, 0x00, 0x00, 0x00, 0x00, 0x00, 0x00,
  0x08, 0x00, 0x00, 0x00, 0xb9, 0x8d, 0xb2, 0x3b, 0xa9, 0x69, 0xc6, 0x3b,
  0x2a, 0x46, 0xc0, 0x3b, 0x7b, 0x1d, 0xa4, 0x3b, 0xb1, 0xba, 0xbc, 0x3b,
  0xd2, 0xf1, 0xe2, 0x3b, 0x1a, 0x9b, 0x99, 0x3b, 0xa7, 0xc1, 0xc5, 0x3b,
  0x6e, 0xfb, 0xff, 0xff, 0x04, 0x00, 0x00, 0x00, 0x08, 0x00, 0x00, 0x00,
  0xff, 0xff, 0xff, 0xff, 0x60, 0x02, 0x00, 0x00, 0x6a, 0xfb, 0xff, 0xff,
  0x00, 0x00, 0x00, 0x02, 0x48, 0x00, 0x00, 0x00, 0x0b, 0x00, 0x00, 0x00,
  0x08, 0x00, 0x00, 0x00, 0x44, 0x00, 0x00, 0x00, 0x31, 0x00, 0x00, 0x00,
  0x73, 0x65, 0x71, 0x75, 0x65, 0x6e, 0x74, 0x69, 0x61, 0x6c, 0x2f, 0x66,
  0x6c, 0x61, 0x74, 0x74, 0x65, 0x6e, 0x2f, 0x43, 0x6f, 0x6e, 0x73, 0x74,
  0x3b, 0x73, 0x65, 0x71, 0x75, 0x65, 0x6e, 0x74, 0x69, 0x61, 0x6c, 0x2f,
  0x66, 0x6c, 0x61, 0x74, 0x74, 0x65, 0x6e, 0x2f, 0x43, 0x6f, 0x6e, 0x73,
  0x74, 0x00, 0x00, 0x00, 0x01, 0x00, 0x00, 0x00, 0x02, 0x00, 0x00, 0x00,
  0xa4, 0xfa, 0xff, 0xff, 0xde, 0xfb, 0xff, 0xff, 0x04, 0x00, 0x00, 0x00,
  0x0c, 0x00, 0x00, 0x00, 0xff, 0xff, 0xff, 0xff, 0x4b, 0x00, 0x00, 0x00,
  0x10, 0x00, 0x00, 0x00, 0xde, 0xfb, 0xff, 0xff, 0x00, 0x00, 0x00, 0x02,
  0x5c, 0x00, 0x00, 0x00, 0x0a, 0x00, 0x00, 0x00, 0x08, 0x00, 0x00, 0x00,
  0x58, 0x00, 0x00, 0x00, 0x45, 0x00, 0x00, 0x00, 0x73, 0x65, 0x71, 0x75,
  0x65, 0x6e, 0x74, 0x69, 0x61, 0x6c, 0x2f, 0x63, 0x6f, 0x6e, 0x76, 0x31,
  0x64, 0x5f, 0x31, 0x2f, 0x63, 0x6f, 0x6e, 0x76, 0x31, 0x64, 0x2f, 0x53,
  0x71, 0x75, 0x65, 0x65, 0x7a, 0x65, 0x3b, 0x73, 0x65, 0x71, 0x75, 0x65,
  0x6e, 0x74, 0x69, 0x61, 0x6c, 0x2f, 0x63, 0x6f, 0x6e, 0x76, 0x31, 0x64,
  0x5f, 0x31, 0x2f, 0x63, 0x6f, 0x6e, 0x76, 0x31, 0x64, 0x2f, 0x53, 0x71,
  0x75, 0x65, 0x65, 0x7a, 0x65, 0x00, 0x00, 0x00, 0x01, 0x00, 0x00, 0x00,
  0x03, 0x00, 0x00, 0x00, 0x2c, 0xfb, 0xff, 0xff, 0x66, 0xfc, 0xff, 0xff,
  0x04, 0x00, 0x00, 0x00, 0x0c, 0x00, 0x00, 0x00, 0xff, 0xff, 0xff, 0xff,
  0x4b, 0x00, 0x00, 0x00, 0x08, 0x00, 0x00, 0x00, 0x66, 0xfc, 0xff, 0xff,
  0x00, 0x00, 0x00, 0x02, 0x58, 0x00, 0x00, 0x00, 0x09, 0x00, 0x00, 0x00,
  0x08, 0x00, 0x00, 0x00, 0x54, 0x00, 0x00, 0x00, 0x41, 0x00, 0x00, 0x00,
  0x73, 0x65, 0x71, 0x75, 0x65, 0x6e, 0x74, 0x69, 0x61, 0x6c, 0x2f, 0x6d,
  0x61, 0x78, 0x5f, 0x70, 0x6f, 0x6f, 0x6c, 0x69, 0x6e, 0x67, 0x31, 0x64,
  0x2f, 0x53, 0x71, 0x75, 0x65, 0x65, 0x7a, 0x65, 0x3b, 0x73, 0x65, 0x71,
  0x75, 0x65, 0x6e, 0x74, 0x69, 0x61, 0x6c, 0x2f, 0x6d, 0x61, 0x78, 0x5f,
  0x70, 0x6f, 0x6f, 0x6c, 0x69, 0x6e, 0x67, 0x31, 0x64, 0x2f, 0x53, 0x71,
  0x75, 0x65, 0x65, 0x7a, 0x65, 0x00, 0x00, 0x00, 0x01, 0x00, 0x00, 0x00,
  0x03, 0x00, 0x00, 0x00, 0xb0, 0xfb, 0xff, 0xff, 0xea, 0xfc, 0xff, 0xff,
  0x04, 0x00, 0x00, 0x00, 0x04, 0x00, 0x00, 0x00, 0x02, 0x00, 0x00, 0x00,
  0xe2, 0xfc, 0xff, 0xff, 0x00, 0x00, 0x00, 0x02, 0x64, 0x00, 0x00, 0x00,
  0x08, 0x00, 0x00, 0x00, 0x08, 0x00, 0x00, 0x00, 0x5c, 0x00, 0x00, 0x00,
  0x4f, 0x00, 0x00, 0x00, 0x73, 0x65, 0x71, 0x75, 0x65, 0x6e, 0x74, 0x69,
  0x61, 0x6c, 0x2f, 0x6d, 0x61, 0x78, 0x5f, 0x70, 0x6f, 0x6f, 0x6c, 0x69,
  0x6e, 0x67, 0x31, 0x64, 0x2f, 0x45, 0x78, 0x70, 0x61, 0x6e, 0x64, 0x44,
  0x69, 0x6d, 0x73, 0x2f, 0x64, 0x69, 0x6d, 0x3b, 0x73, 0x65, 0x71, 0x75,
  0x65, 0x6e, 0x74, 0x69, 0x61, 0x6c, 0x2f, 0x6d, 0x61, 0x78, 0x5f, 0x70,
  0x6f, 0x6f, 0x6c, 0x69, 0x6e, 0x67, 0x31, 0x64, 0x2f, 0x45, 0x78, 0x70,
  0x61, 0x6e, 0x64, 0x44, 0x69, 0x6d, 0x73, 0x2f, 0x64, 0x69, 0x6d, 0x00,
  0x00, 0x00, 0x00, 0x00, 0x34, 0xfc, 0xff, 0xff, 0x6e, 0xfd, 0xff, 0xff,
  0x04, 0x00, 0x00, 0x00, 0x0c, 0x00, 0x00, 0x00, 0xff, 0xff, 0xff, 0xff,
  0x96, 0x00, 0x00, 0x00, 0x08, 0x00, 0x00, 0x00, 0x6e, 0xfd, 0xff, 0xff,
  0x00, 0x00, 0x00, 0x02, 0x58, 0x00, 0x00, 0x00, 0x07, 0x00, 0x00, 0x00,
  0x08, 0x00, 0x00, 0x00, 0x54, 0x00, 0x00, 0x00, 0x41, 0x00, 0x00, 0x00,
  0x73, 0x65, 0x71, 0x75, 0x65, 0x6e, 0x74, 0x69, 0x61, 0x6c, 0x2f, 0x63,
  0x6f, 0x6e, 0x76, 0x31, 0x64, 0x2f, 0x63, 0x6f, 0x6e, 0x76, 0x31, 0x64,
  0x2f, 0x53, 0x71, 0x75, 0x65, 0x65, 0x7a, 0x65, 0x3b, 0x73, 0x65, 0x71,
  0x75, 0x65, 0x6e, 0x74, 0x69, 0x61, 0x6c, 0x2f, 0x63, 0x6f, 0x6e, 0x76,
  0x31, 0x64, 0x2f, 0x63, 0x6f, 0x6e, 0x76, 0x31, 0x64, 0x2f, 0x53, 0x71,
  0x75, 0x65, 0x65, 0x7a, 0x65, 0x00, 0x00, 0x00, 0x01, 0x00, 0x00, 0x00,
  0x03, 0x00, 0x00, 0x00, 0xb8, 0xfc, 0xff, 0xff, 0xf2, 0xfd, 0xff, 0xff,
  0x04, 0x00, 0x00, 0x00, 0x04, 0x00, 0x00, 0x00, 0xfd, 0xff, 0xff, 0xff,
  0xea, 0xfd, 0xff, 0xff, 0x00, 0x00, 0x00, 0x02, 0x64, 0x00, 0x00, 0x00,
  0x06, 0x00, 0x00, 0x00, 0x08, 0x00, 0x00, 0x00, 0x5c, 0x00, 0x00, 0x00,
  0x4f, 0x00, 0x00, 0x00, 0x73, 0x65, 0x71, 0x75, 0x65, 0x6e, 0x74, 0x69,
  0x61, 0x6c, 0x2f, 0x63, 0x6f, 0x6e, 0x76, 0x31, 0x64, 0x2f, 0x63, 0x6f,
  0x6e, 0x76, 0x31, 0x64, 0x2f, 0x45, 0x78, 0x70, 0x61, 0x6e, 0x64, 0x44,
  0x69, 0x6d, 0x73, 0x2f, 0x64, 0x69, 0x6d, 0x3b, 0x73, 0x65, 0x71, 0x75,
  0x65, 0x6e, 0x74, 0x69, 0x61, 0x6c, 0x2f, 0x63, 0x6f, 0x6e, 0x76, 0x31,
  0x64, 0x2f, 0x63, 0x6f, 0x6e, 0x76, 0x31, 0x64, 0x2f, 0x45, 0x78, 0x70,
  0x61, 0x6e, 0x64, 0x44, 0x69, 0x6d, 0x73, 0x2f, 0x64, 0x69, 0x6d, 0x00,
  0x00, 0x00, 0x00, 0x00, 0x3c, 0xfd, 0xff, 0xff, 0x76, 0xfe, 0xff, 0xff,
  0x04, 0x00, 0x00, 0x00, 0x04, 0x00, 0x00, 0x00, 0x1a, 0x00, 0x00, 0x00,
  0x6e, 0xfe, 0xff, 0xff, 0x00, 0x00, 0x00, 0x02, 0x5c, 0x00, 0x00, 0x00,
  0x05, 0x00, 0x00, 0x00, 0x08, 0x00, 0x00, 0x00, 0x54, 0x00, 0x00, 0x00,
  0x45, 0x00, 0x00, 0x00, 0x73, 0x65, 0x71, 0x75, 0x65, 0x6e, 0x74, 0x69,
  0x61, 0x6c, 0x2f, 0x72, 0x65, 0x73, 0x68, 0x61, 0x70, 0x65, 0x2f, 0x52,
  0x65, 0x73, 0x68, 0x61, 0x70, 0x65, 0x2f, 0x73, 0x68, 0x61, 0x70, 0x65,
  0x2f, 0x32, 0x3b, 0x73, 0x65, 0x71, 0x75, 0x65, 0x6e, 0x74, 0x69, 0x61,
  0x6c, 0x2f, 0x72, 0x65, 0x73, 0x68, 0x61, 0x70, 0x65, 0x2f, 0x52, 0x65,
  0x73, 0x68, 0x61, 0x70, 0x65, 0x2f, 0x73, 0x68, 0x61, 0x70, 0x65, 0x2f,
  0x32, 0x00, 0x00, 0x00, 0x00, 0x00, 0x00, 0x00, 0xb8, 0xfd, 0xff, 0xff,
  0xf2, 0xfe, 0xff, 0xff, 0x04, 0x00, 0x00, 0x00, 0x04, 0x00, 0x00, 0x00,
  0x96, 0x00, 0x00, 0x00, 0xea, 0xfe, 0xff, 0xff, 0x00, 0x00, 0x00, 0x02,
  0x5c, 0x00, 0x00, 0x00, 0x04, 0x00, 0x00, 0x00, 0x08, 0x00, 0x00, 0x00,
  0x54, 0x00, 0x00, 0x00, 0x45, 0x00, 0x00, 0x00, 0x73, 0x65, 0x71, 0x75,
  0x65, 0x6e, 0x74, 0x69, 0x61, 0x6c, 0x2f, 0x72, 0x65, 0x73, 0x68, 0x61,
  0x70, 0x65, 0x2f, 0x52, 0x65, 0x73, 0x68, 0x61, 0x70, 0x65, 0x2f, 0x73,
  0x68, 0x61, 0x70, 0x65, 0x2f, 0x31, 0x3b, 0x73, 0x65, 0x71, 0x75, 0x65,
  0x6e, 0x74, 0x69, 0x61, 0x6c, 0x2f, 0x72, 0x65, 0x73, 0x68, 0x61, 0x70,
  0x65, 0x2f, 0x52, 0x65, 0x73, 0x68, 0x61, 0x70, 0x65, 0x2f, 0x73, 0x68,
  0x61, 0x70, 0x65, 0x2f, 0x31, 0x00, 0x00, 0x00, 0x00, 0x00, 0x00, 0x00,
  0x34, 0xfe, 0xff, 0xff, 0x6e, 0xff, 0xff, 0xff, 0x04, 0x00, 0x00, 0x00,
  0x04, 0x00, 0x00, 0x00, 0x01, 0x00, 0x00, 0x00, 0x66, 0xff, 0xff, 0xff,
  0x00, 0x00, 0x00, 0x02, 0x68, 0x00, 0x00, 0x00, 0x03, 0x00, 0x00, 0x00,
  0x08, 0x00, 0x00, 0x00, 0x68, 0x00, 0x00, 0x00, 0x51, 0x00, 0x00, 0x00,
  0x73, 0x65, 0x71, 0x75, 0x65, 0x6e, 0x74, 0x69, 0x61, 0x6c, 0x2f, 0x72,
  0x65, 0x73, 0x68, 0x61, 0x70, 0x65, 0x2f, 0x73, 0x74, 0x72, 0x69, 0x64,
  0x65, 0x64, 0x5f, 0x73, 0x6c, 0x69, 0x63, 0x65, 0x2f, 0x73, 0x74, 0x61,
  0x63, 0x6b, 0x5f, 0x31, 0x3b, 0x73, 0x65, 0x71, 0x75, 0x65, 0x6e, 0x74,
  0x69, 0x61, 0x6c, 0x2f, 0x72, 0x65, 0x73, 0x68, 0x61, 0x70, 0x65, 0x2f,
  0x73, 0x74, 0x72, 0x69, 0x64, 0x65, 0x64, 0x5f, 0x73, 0x6c, 0x69, 0x63,
  0x65, 0x2f, 0x73, 0x74, 0x61, 0x63, 0x6b, 0x5f, 0x31, 0x00, 0x00, 0x00,
  0x01, 0x00, 0x00, 0x00, 0x01, 0x00, 0x00, 0x00, 0x04, 0x00, 0x06, 0x00,
  0x04, 0x00, 0x00, 0x00, 0x00, 0x00, 0x06, 0x00, 0x08, 0x00, 0x04, 0x00,
  0x06, 0x00, 0x00, 0x00, 0x04, 0x00, 0x00, 0x00, 0x04, 0x00, 0x00, 0x00,
  0x00, 0x00, 0x00, 0x00, 0x00, 0x00, 0x0e, 0x00, 0x18, 0x00, 0x08, 0x00,
  0x07, 0x00, 0x0c, 0x00, 0x10, 0x00, 0x14, 0x00, 0x0e, 0x00, 0x00, 0x00,
  0x00, 0x00, 0x00, 0x02, 0x64, 0x00, 0x00, 0x00, 0x02, 0x00, 0x00, 0x00,
  0x08, 0x00, 0x00, 0x00, 0x60, 0x00, 0x00, 0x00, 0x4d, 0x00, 0x00, 0x00,
  0x73, 0x65, 0x71, 0x75, 0x65, 0x6e, 0x74, 0x69, 0x61, 0x6c, 0x2f, 0x72,
  0x65, 0x73, 0x68, 0x61, 0x70, 0x65, 0x2f, 0x73, 0x74, 0x72, 0x69, 0x64,
  0x65, 0x64, 0x5f, 0x73, 0x6c, 0x69, 0x63, 0x65, 0x2f, 0x73, 0x74, 0x61,
  0x63, 0x6b, 0x3b, 0x73, 0x65, 0x71, 0x75, 0x65, 0x6e, 0x74, 0x69, 0x61,
  0x6c, 0x2f, 0x72, 0x65, 0x73, 0x68, 0x61, 0x70, 0x65, 0x2f, 0x73, 0x74,
  0x72, 0x69, 0x64, 0x65, 0x64, 0x5f, 0x73, 0x6c, 0x69, 0x63, 0x65, 0x2f,
  0x73, 0x74, 0x61, 0x63, 0x6b, 0x00, 0x00, 0x00, 0x01, 0x00, 0x00, 0x00,
  0x01, 0x00, 0x00, 0x00, 0x64, 0xff, 0xff, 0xff, 0x14, 0x00, 0x1c, 0x00,
  0x08, 0x00, 0x07, 0x00, 0x0c, 0x00, 0x10, 0x00, 0x14, 0x00, 0x00, 0x00,
  0x00, 0x00, 0x18, 0x00, 0x14, 0x00, 0x00, 0x00, 0x00, 0x00, 0x00, 0x09,
  0x44, 0x00, 0x00, 0x00, 0x01, 0x00, 0x00, 0x00, 0x18, 0x00, 0x00, 0x00,
  0x50, 0x00, 0x00, 0x00, 0x04, 0x00, 0x00, 0x00, 0x02, 0x00, 0x00, 0x00,
  0xff, 0xff, 0xff, 0xff, 0x3c, 0x0f, 0x00, 0x00, 0x1f, 0x00, 0x00, 0x00,
  0x73, 0x65, 0x72, 0x76, 0x69, 0x6e, 0x67, 0x5f, 0x64, 0x65, 0x66, 0x61,
  0x75, 0x6c, 0x74, 0x5f, 0x72, 0x65, 0x73, 0x68, 0x61, 0x70, 0x65, 0x5f,
  0x69, 0x6e, 0x70, 0x75, 0x74, 0x3a, 0x30, 0x00, 0x02, 0x00, 0x00, 0x00,
  0x01, 0x00, 0x00, 0x00, 0x3c, 0x0f, 0x00, 0x00, 0x0c, 0x00, 0x0c, 0x00,
  0x00, 0x00, 0x00, 0x00, 0x04, 0x00, 0x08, 0x00, 0x0c, 0x00, 0x00, 0x00,
  0x14, 0x00, 0x00, 0x00, 0x04, 0x00, 0x00, 0x00, 0x01, 0x00, 0x00, 0x00,
  0x80, 0xff, 0xff, 0xff, 0xff, 0xff, 0xff, 0xff, 0x01, 0x00, 0x00, 0x00,
  0x86, 0x2a, 0x53, 0x3a, 0x04, 0x00, 0x04, 0x00, 0x04, 0x00, 0x00, 0x00
};
unsigned int mfe_int8_tflite_len = 10392;
