unsigned char mfcc_tflite[] = {
  0x20, 0x00, 0x00, 0x00, 0x54, 0x46, 0x4c, 0x33, 0x00, 0x00, 0x00, 0x00,
  0x00, 0x00, 0x12, 0x00, 0x1c, 0x00, 0x04, 0x00, 0x08, 0x00, 0x0c, 0x00,
  0x10, 0x00, 0x14, 0x00, 0x00, 0x00, 0x18, 0x00, 0x12, 0x00, 0x00, 0x00,
  0x03, 0x00, 0x00, 0x00, 0x44, 0x1f, 0x00, 0x00, 0xf0, 0x0a, 0x00, 0x00,
  0xd8, 0x0a, 0x00, 0x00, 0x3c, 0x00, 0x00, 0x00, 0x04, 0x00, 0x00, 0x00,
  0x01, 0x00, 0x00, 0x00, 0x0c, 0x00, 0x00, 0x00, 0x08, 0x00, 0x0c, 0x00,
  0x04, 0x00, 0x08, 0x00, 0x08, 0x00, 0x00, 0x00, 0x08, 0x00, 0x00, 0x00,
  0x18, 0x00, 0x00, 0x00, 0x13, 0x00, 0x00, 0x00, 0x6d, 0x69, 0x6e, 0x5f,
  0x72, 0x75, 0x6e, 0x74, 0x69, 0x6d, 0x65, 0x5f, 0x76, 0x65, 0x72, 0x73,
  0x69, 0x6f, 0x6e, 0x00, 0x19, 0x00, 0x00, 0x00, 0x90, 0x0a, 0x00, 0x00,
  0x74, 0x0a, 0x00, 0x00, 0x54, 0x0a, 0x00, 0x00, 0x34, 0x0a, 0x00, 0x00,
  0x14, 0x0a, 0x00, 0x00, 0x44, 0x05, 0x00, 0x00, 0xf4, 0x04, 0x00, 0x00,
  0x64, 0x03, 0x00, 0x00, 0x34, 0x03, 0x00, 0x00, 0xb4, 0x00, 0x00, 0x00,
  0xac, 0x00, 0x00, 0x00, 0xa4, 0x00, 0x00, 0x00, 0x9c, 0x00, 0x00, 0x00,
  0x94, 0x00, 0x00, 0x00, 0x8c, 0x00, 0x00, 0x00, 0x6c, 0x00, 0x00, 0x00,
  0x64, 0x00, 0x00, 0x00, 0x5c, 0x00, 0x00, 0x00, 0x54, 0x00, 0x00, 0x00,
  0x4c, 0x00, 0x00, 0x00, 0x44, 0x00, 0x00, 0x00, 0x3c, 0x00, 0x00, 0x00,
  0x24, 0x00, 0x00, 0x00, 0x1c, 0x00, 0x00, 0x00, 0x04, 0x00, 0x00, 0x00,
  0x72, 0xf2, 0xff, 0xff, 0x04, 0x00, 0x00, 0x00, 0x05, 0x00, 0x00, 0x00,
  0x31, 0x2e, 0x35, 0x2e, 0x30, 0x00, 0x00, 0x00, 0xa0, 0xe3, 0xff, 0xff,
  0x8a, 0xf2, 0xff, 0xff, 0x04, 0x00, 0x00, 0x00, 0x08, 0x00, 0x00, 0x00,
  0x04, 0x00, 0x00, 0x00, 0xfc, 0xff, 0xff, 0xff, 0xb8, 0xe3, 0xff, 0xff,
  0xbc, 0xe3, 0xff, 0xff, 0xc0, 0xe3, 0xff, 0xff, 0xc4, 0xe3, 0xff, 0xff,
  0xc8, 0xe3, 0xff, 0xff, 0xcc, 0xe3, 0xff, 0xff, 0xb6, 0xf2, 0xff, 0xff,
  0x04, 0x00, 0x00, 0x00, 0x10, 0x00, 0x00, 0x00, 0x01, 0x00, 0x00, 0x00,
  0x01, 0x00, 0x00, 0x00, 0x96, 0x00, 0x00, 0x00, 0x1a, 0x00, 0x00, 0x00,
  0xec, 0xe3, 0xff, 0xff, 0xf0, 0xe3, 0xff, 0xff, 0xf4, 0xe3, 0xff, 0xff,
  0xf8, 0xe3, 0xff, 0xff, 0xfc, 0xe3, 0xff, 0xff, 0xe6, 0xf2, 0xff, 0xff,
  0x04, 0x00, 0x00, 0x00, 0x70, 0x02, 0x00, 0x00, 0x04, 0xe7, 0x1c, 0xb4,
  0xe5, 0x31, 0xfd, 0xdd, 0x24, 0x07, 0xe6, 0xca, 0xf0, 0xbf, 0x34, 0xfe,
  0x1f, 0x13, 0xed, 0xd2, 0xfa, 0x39, 0xe2, 0xe8, 0x2d, 0x5d, 0x07, 0x28,
  0xdc, 0xbd, 0x08, 0xc0, 0x2c, 0x28, 0xba, 0xb7, 0xde, 0x13, 0xee, 0x03,
  0xf7, 0x43, 0x57, 0xfe, 0x26, 0x81, 0xd4, 0x05, 0x4d, 0x00, 0xd1, 0xec,
  0xe8, 0xd5, 0xff, 0x2b, 0xe1, 0x1e, 0xaf, 0x01, 0xc5, 0x05, 0x41, 0xdb,
  0x25, 0xe1, 0x51, 0xef, 0x22, 0xe9, 0x28, 0xe0, 0xf5, 0x1d, 0xf5, 0xda,
  0xd9, 0xb8, 0xed, 0x23, 0xc5, 0xbb, 0x25, 0x16, 0xd7, 0x9f, 0xff, 0xf6,
  0x09, 0x3c, 0x09, 0x1d, 0x2f, 0x20, 0xa5, 0x8f, 0x15, 0x7e, 0xe6, 0x20,
  0x4b, 0x66, 0xe5, 0x1f, 0x26, 0x0d, 0x35, 0xfc, 0xdd, 0x0e, 0xfd, 0x4a,
  0x1d, 0x12, 0x95, 0x33, 0x21, 0xc3, 0x04, 0x03, 0x36, 0x99, 0xb6, 0x3b,
  0x01, 0xb0, 0x0d, 0x1e, 0xe8, 0x8c, 0xf1, 0xbc, 0xfa, 0x34, 0xf0, 0x39,
  0x12, 0x2d, 0xf7, 0x22, 0x6f, 0x10, 0x3a, 0xcc, 0x4f, 0x18, 0x7f, 0x0d,
  0x9b, 0x00, 0xdd, 0xa0, 0x15, 0xd6, 0xac, 0x8d, 0xe6, 0xe0, 0x27, 0x45,
  0x31, 0x1c, 0x0a, 0xcc, 0x2e, 0x26, 0x7f, 0x50, 0xc2, 0x23, 0x2a, 0x00,
  0xb8, 0xc4, 0x31, 0x2c, 0xda, 0xb3, 0xd5, 0x9e, 0x03, 0x12, 0x0f, 0xda,
  0xcc, 0x08, 0xc0, 0xc5, 0x39, 0x1f, 0xa1, 0x15, 0x59, 0xe8, 0xa1, 0x25,
  0x63, 0x40, 0x6e, 0xe4, 0xa1, 0x0f, 0x0b, 0xe0, 0xd1, 0x73, 0x67, 0x3c,
  0x2d, 0x42, 0xd5, 0xe4, 0x4d, 0x45, 0xdd, 0xfc, 0x83, 0xea, 0xfc, 0xb6,
  0xa2, 0xfb, 0x37, 0x03, 0xda, 0x19, 0x96, 0x21, 0x0c, 0x3b, 0xfe, 0x1a,
  0x5c, 0x0e, 0x3e, 0x14, 0x00, 0x18, 0x18, 0xc0, 0xfd, 0xee, 0x30, 0x43,
  0xf8, 0xe8, 0x5a, 0x13, 0x29, 0x0e, 0xb0, 0x3b, 0xee, 0x81, 0xf6, 0x6d,
  0xd9, 0xf5, 0x32, 0x57, 0xd7, 0xcf, 0x32, 0xee, 0x23, 0xf9, 0xc7, 0x24,
  0xdc, 0xa3, 0xcc, 0xc0, 0xe0, 0xfe, 0x98, 0xf6, 0x15, 0x20, 0x26, 0x43,
  0x7c, 0x37, 0xdc, 0xb7, 0x11, 0x0a, 0x0b, 0x24, 0x19, 0x3f, 0xa0, 0xf4,
  0xfa, 0x21, 0x9e, 0xd6, 0xed, 0xc4, 0x85, 0xef, 0xb8, 0x39, 0xef, 0xfe,
  0x63, 0xff, 0x2d, 0x21, 0xf2, 0x51, 0xdd, 0xac, 0xcc, 0xe4, 0xff, 0xc6,
  0xd8, 0xdd, 0x37, 0xf5, 0xc3, 0x29, 0x6f, 0x18, 0x10, 0xbc, 0x38, 0x17,
  0x07, 0xa4, 0xbf, 0xbc, 0xe7, 0xc4, 0x6b, 0x0c, 0x96, 0xe7, 0xeb, 0xf7,
  0xb0, 0x33, 0xcf, 0xc2, 0xd5, 0x0e, 0xe7, 0x17, 0x3c, 0x03, 0xde, 0x81,
  0xd1, 0x20, 0x70, 0xf6, 0x23, 0xc6, 0x53, 0xe7, 0x5c, 0x48, 0x72, 0x25,
  0x39, 0x12, 0x17, 0x1a, 0x9a, 0xb3, 0x2a, 0x2b, 0x0e, 0x10, 0x2a, 0xf5,
  0x64, 0xe4, 0x54, 0xd1, 0x2e, 0xec, 0xe2, 0xc8, 0x5c, 0x30, 0x54, 0x2c,
  0xfb, 0x2d, 0x46, 0x0b, 0x1b, 0x25, 0xf2, 0xf9, 0xf5, 0x05, 0x06, 0x01,
  0x06, 0x14, 0x21, 0x76, 0xc8, 0xd0, 0xf2, 0xde, 0x08, 0x48, 0x0c, 0x3b,
  0xe3, 0xed, 0x08, 0xca, 0x2e, 0x2f, 0x0d, 0xd6, 0x02, 0x0a, 0x2e, 0x22,
  0xb3, 0x1a, 0xdd, 0x66, 0x58, 0x70, 0xbf, 0xec, 0x9d, 0x07, 0xd2, 0x33,
  0x3e, 0xcd, 0x22, 0xbc, 0x30, 0xef, 0xe3, 0x27, 0xb5, 0x3f, 0x2f, 0xcb,
  0xc4, 0xb2, 0x39, 0x16, 0xe1, 0x64, 0xd7, 0x40, 0xd9, 0xfa, 0x81, 0x23,
  0x1e, 0xf2, 0xf2, 0xdb, 0xfc, 0x22, 0x13, 0x5d, 0x4a, 0xc8, 0xeb, 0xe9,
  0xe9, 0x00, 0x0f, 0x12, 0x34, 0x00, 0xec, 0xe8, 0xd2, 0xf0, 0xc3, 0x43,
  0xdb, 0x2b, 0x1b, 0x58, 0x2a, 0xf8, 0x00, 0xcc, 0x2b, 0x96, 0xff, 0xfb,
  0xd4, 0xea, 0x06, 0x2a, 0x32, 0x10, 0x2a, 0x2f, 0xbe, 0x35, 0xb2, 0xfa,
  0x81, 0xa9, 0x16, 0x0b, 0xea, 0xe5, 0xfe, 0x1d, 0xfa, 0xcf, 0x3e, 0xd7,
  0xf4, 0xfd, 0x01, 0x01, 0xf0, 0xb7, 0xec, 0xdf, 0xf2, 0xeb, 0xea, 0x18,
  0xef, 0x14, 0xe6, 0x29, 0x08, 0x57, 0xcf, 0xbc, 0xc4, 0x15, 0x13, 0xd7,
  0x67, 0x12, 0x17, 0xf5, 0xdd, 0xbd, 0xe4, 0xc6, 0x55, 0xe4, 0x45, 0x10,
  0xf6, 0x2d, 0x19, 0xce, 0x41, 0x1d, 0x1c, 0xd0, 0xb3, 0x44, 0x1e, 0xee,
  0x98, 0xab, 0xfc, 0x81, 0x2d, 0xfd, 0x41, 0xf6, 0xf2, 0xdb, 0x01, 0xf4,
  0xe2, 0xf8, 0x06, 0x41, 0x30, 0xc9, 0xdb, 0x0c, 0x1d, 0xe6, 0x07, 0x52,
  0x4a, 0xde, 0xea, 0x09, 0x40, 0x24, 0xe5, 0xf1, 0x60, 0xe5, 0xc9, 0xe6,
  0x04, 0x00, 0xf6, 0xed, 0xbf, 0x11, 0x14, 0xf5, 0xe9, 0xe0, 0x4c, 0x28,
  0xc0, 0xcb, 0x26, 0x25, 0x18, 0x3e, 0xbd, 0xe4, 0x62, 0xf5, 0xff, 0xff,
  0x04, 0x00, 0x00, 0x00, 0x20, 0x00, 0x00, 0x00, 0x78, 0xff, 0xff, 0xff,
  0xfc, 0xfd, 0xff, 0xff, 0xc4, 0xfe, 0xff, 0xff, 0x7c, 0xff, 0xff, 0xff,
  0xaf, 0xfe, 0xff, 0xff, 0x5d, 0x00, 0x00, 0x00, 0xac, 0x00, 0x00, 0x00,
  0x45, 0xff, 0xff, 0xff, 0x8e, 0xf5, 0xff, 0xff, 0x04, 0x00, 0x00, 0x00,
  0x80, 0x01, 0x00, 0x00, 0xab, 0xe7, 0xcc, 0xff, 0x08, 0x4b, 0x7f, 0x2d,
  0x9e, 0xce, 0x14, 0xe4, 0xeb, 0xf1, 0x24, 0x13, 0x9f, 0xde, 0xde, 0xd0,
  0xe7, 0x5d, 0x0c, 0x07, 0xb2, 0x20, 0x57, 0xbd, 0xf1, 0xd8, 0xe6, 0x17,
  0x06, 0xf9, 0x7f, 0xd7, 0xe1, 0xfb, 0xfa, 0x29, 0xc8, 0xd0, 0x04, 0x83,
  0xd8, 0x2b, 0x32, 0xc4, 0xbe, 0xf0, 0xeb, 0xd6, 0x7f, 0xe4, 0x69, 0xe5,
  0xe8, 0xa1, 0xa3, 0x43, 0xc4, 0x1a, 0x17, 0x6e, 0x09, 0x5e, 0xbc, 0xe9,
  0xb6, 0xdc, 0xbd, 0x0c, 0x34, 0x2e, 0xd2, 0xa2, 0xe0, 0xf3, 0xc3, 0xe6,
  0x04, 0xc2, 0xcb, 0x98, 0x15, 0xe9, 0xbf, 0x7f, 0x32, 0xdf, 0x0d, 0x50,
  0x0e, 0xed, 0xd2, 0x21, 0x0f, 0x43, 0x95, 0x11, 0x59, 0x04, 0xd2, 0xdb,
  0xdc, 0xeb, 0x6a, 0x03, 0x46, 0x02, 0x81, 0xdb, 0xe5, 0xc1, 0x37, 0xb8,
  0x26, 0xcc, 0x02, 0xed, 0x1f, 0x3c, 0x28, 0xe3, 0x72, 0xbf, 0xc4, 0x41,
  0xdc, 0xd1, 0x05, 0xa5, 0xc1, 0xdc, 0x89, 0xe3, 0x18, 0x3b, 0xef, 0x81,
  0x2a, 0xc8, 0xbd, 0x55, 0x3a, 0xd9, 0x56, 0x21, 0x62, 0xc9, 0xd0, 0x3e,
  0xec, 0xe8, 0x81, 0x3e, 0x06, 0x92, 0x98, 0xf1, 0x54, 0x8e, 0xb2, 0x56,
  0xf5, 0x10, 0x4c, 0x3c, 0x95, 0x0b, 0x04, 0x2d, 0xcc, 0x76, 0x2b, 0xd1,
  0x42, 0xce, 0x31, 0x09, 0x81, 0x3c, 0x20, 0xbe, 0xf4, 0xfd, 0x42, 0xfc,
  0x2f, 0x17, 0x32, 0x4a, 0x4f, 0x08, 0xf3, 0xf8, 0xcd, 0xce, 0x81, 0x79,
  0xed, 0xc9, 0x4e, 0x6b, 0xd7, 0xe9, 0xb3, 0x05, 0xb7, 0x65, 0xf1, 0xa7,
  0x13, 0x64, 0x14, 0xe9, 0xef, 0x48, 0x7f, 0x3b, 0x5c, 0xe8, 0xcd, 0x93,
  0xba, 0xdb, 0xd2, 0x8e, 0x1c, 0xc3, 0xff, 0xf1, 0x32, 0x04, 0x43, 0xd2,
  0xb8, 0x3a, 0xfc, 0xed, 0xfd, 0x38, 0x0b, 0xb7, 0x7f, 0x1e, 0xe0, 0x48,
  0xe4, 0xf4, 0xd2, 0x93, 0x2a, 0xfc, 0xd5, 0x39, 0xe1, 0xdc, 0xc4, 0xcf,
  0x15, 0x02, 0xf8, 0x9d, 0xbd, 0xba, 0xde, 0x0d, 0xcd, 0x13, 0xef, 0xf4,
  0xbf, 0xe0, 0x7f, 0x52, 0xb3, 0x5f, 0xe7, 0x27, 0xda, 0x1e, 0xe5, 0x05,
  0xc0, 0x43, 0x4a, 0xd4, 0xfa, 0x52, 0xe1, 0xc9, 0xc9, 0x28, 0xcd, 0x12,
  0xa8, 0x2c, 0x49, 0x93, 0x10, 0xd4, 0x1a, 0x7f, 0x20, 0x17, 0xfd, 0xae,
  0xe4, 0xc9, 0xd2, 0x41, 0x0b, 0x5f, 0x36, 0xa5, 0xc0, 0xc2, 0x98, 0xee,
  0x16, 0x18, 0x86, 0xd6, 0x10, 0xa1, 0xc5, 0x5f, 0x0b, 0x16, 0xb7, 0x58,
  0x11, 0xc0, 0xba, 0x7f, 0x9b, 0x29, 0x34, 0xf3, 0xe3, 0xcf, 0xd3, 0x3e,
  0xfd, 0xb0, 0x42, 0x15, 0xbb, 0xd1, 0xcc, 0x7f, 0x04, 0x14, 0x12, 0xf8,
  0x49, 0x08, 0x31, 0x78, 0x2d, 0xc2, 0x18, 0x7f, 0x04, 0xb4, 0x0e, 0x3c,
  0x14, 0xe6, 0x00, 0xf8, 0xec, 0xaa, 0x3a, 0xaf, 0xde, 0x0c, 0x22, 0x8e,
  0x00, 0x92, 0x42, 0xff, 0x1a, 0xf7, 0xff, 0xff, 0x04, 0x00, 0x00, 0x00,
  0x40, 0x00, 0x00, 0x00, 0xb2, 0x02, 0x00, 0x00, 0x50, 0x00, 0x00, 0x00,
  0x7b, 0xfd, 0xff, 0xff, 0x9c, 0xfd, 0xff, 0xff, 0xcf, 0xff, 0xff, 0xff,
  0xfe, 0xff, 0xff, 0xff, 0xb0, 0xfa, 0xff, 0xff, 0xe8, 0xff, 0xff, 0xff,
  0x08, 0xf8, 0xff, 0xff, 0x01, 0xfd, 0xff, 0xff, 0x00, 0xff, 0xff, 0xff,
  0xb3, 0x02, 0x00, 0x00, 0x8a, 0xfc, 0xff, 0xff, 0x83, 0xfc, 0xff, 0xff,
  0x5e, 0xfd, 0xff, 0xff, 0x45, 0x01, 0x00, 0x00, 0x66, 0xf7, 0xff, 0xff,
  0x04, 0x00, 0x00, 0x00, 0xc0, 0x04, 0x00, 0x00, 0xd9, 0x8f, 0xea, 0x21,
  0xf3, 0xfc, 0xd1, 0x01, 0xfe, 0xe3, 0xea, 0x1b, 0xfa, 0xde, 0xe7, 0x2d,
  0xda, 0x18, 0xdf, 0xcb, 0xee, 0x26, 0xf8, 0xf8, 0x13, 0x07, 0xea, 0x14,
  0xf0, 0xec, 0xf5, 0x2b, 0xf4, 0x18, 0xff, 0x23, 0x01, 0x1a, 0x21, 0xf1,
  0x00, 0x1b, 0x09, 0xfb, 0x21, 0x38, 0xe8, 0x06, 0x02, 0xd2, 0xfa, 0x35,
  0xd8, 0x1f, 0x1b, 0xef, 0x0e, 0xdb, 0xf8, 0xd3, 0x00, 0x08, 0x06, 0xd6,
  0x1e, 0xa8, 0xe2, 0x22, 0xfe, 0xf2, 0x13, 0x1d, 0x05, 0xee, 0xfe, 0x29,
  0x00, 0x00, 0xf4, 0xf9, 0x5b, 0x10, 0x32, 0x2d, 0x07, 0x01, 0x0f, 0x16,
  0x02, 0xeb, 0xfb, 0x3e, 0x12, 0x09, 0x0a, 0x17, 0x7f, 0x30, 0x01, 0xf1,
  0x15, 0xe1, 0x25, 0xf6, 0xf9, 0x27, 0xf4, 0x30, 0xc9, 0xe4, 0x00, 0x2f,
  0x56, 0xbb, 0x1f, 0xd5, 0xd3, 0xc0, 0xfa, 0x3a, 0xd5, 0xf8, 0xda, 0xf4,
  0xee, 0xda, 0xcf, 0x27, 0x32, 0xd7, 0x09, 0x1e, 0xdd, 0xdd, 0xe3, 0x03,
  0xda, 0xeb, 0x0b, 0xdb, 0xf7, 0x0e, 0xe9, 0xfe, 0x20, 0x0c, 0xdb, 0xb6,
  0x1b, 0xad, 0xe2, 0x11, 0x06, 0x0d, 0xf2, 0x3f, 0xcf, 0xbc, 0xd6, 0x02,
  0x53, 0x38, 0xa7, 0xab, 0x08, 0xd4, 0xe5, 0x29, 0xe0, 0x0c, 0xd9, 0x37,
  0xf9, 0xca, 0xf1, 0xc3, 0x3b, 0x1a, 0x0e, 0xe6, 0x0e, 0xe9, 0x0f, 0x13,
  0x05, 0x22, 0x0c, 0x32, 0x11, 0x13, 0x1f, 0xdd, 0xfa, 0x0c, 0xcc, 0xcf,
  0xf1, 0x1d, 0xfd, 0x1d, 0xf0, 0xe6, 0x0b, 0xe1, 0xef, 0xe7, 0x01, 0x3e,
  0xd4, 0x28, 0xcd, 0x13, 0x03, 0xf4, 0x01, 0x0c, 0xfe, 0x12, 0x02, 0x0e,
  0x09, 0x1a, 0x11, 0xe1, 0xf8, 0xfe, 0xfa, 0xd1, 0x0d, 0xfd, 0x07, 0xed,
  0xf2, 0x14, 0xde, 0xe0, 0xe2, 0xf5, 0xe6, 0x2e, 0x10, 0x08, 0xd6, 0x06,
  0xee, 0xf4, 0xf2, 0xf0, 0xf0, 0x1f, 0xda, 0x06, 0xec, 0xff, 0xd3, 0xd9,
  0x4b, 0xc2, 0x18, 0x1e, 0xf9, 0xf1, 0xe3, 0x0f, 0x02, 0xdd, 0xe5, 0x56,
  0x0b, 0x0c, 0x0d, 0x06, 0x4e, 0xce, 0x2e, 0xf6, 0xfa, 0x04, 0x10, 0xf4,
  0x0a, 0xfd, 0x20, 0x43, 0xf6, 0x25, 0xe9, 0xc9, 0x24, 0xf2, 0x25, 0x12,
  0xff, 0x1a, 0x04, 0x00, 0xf1, 0x0e, 0x07, 0x16, 0x0c, 0x16, 0xf7, 0xe0,
  0xe3, 0xd4, 0xc9, 0x15, 0x03, 0xda, 0x0b, 0xea, 0xfc, 0xfc, 0xcb, 0x04,
  0x14, 0x1f, 0xf6, 0x1f, 0x05, 0xc5, 0x28, 0xc5, 0xeb, 0xf6, 0x0e, 0xfa,
  0xf9, 0xf3, 0xf5, 0x0b, 0xcf, 0x0e, 0xe0, 0x37, 0xeb, 0x1f, 0xe5, 0x03,
  0xdb, 0x00, 0x0f, 0x10, 0x00, 0x05, 0xba, 0x0f, 0x04, 0x45, 0x02, 0xe5,
  0xd4, 0xed, 0xf6, 0xec, 0x05, 0xe2, 0x02, 0xe7, 0xf0, 0xfe, 0x11, 0xd1,
  0xfe, 0xef, 0x0b, 0x13, 0xff, 0x12, 0x39, 0xe4, 0xf0, 0xec, 0xe8, 0x0b,
  0xfd, 0x02, 0xe2, 0xf2, 0xe2, 0xe9, 0x16, 0x2d, 0x1a, 0x19, 0xfe, 0x03,
  0x00, 0xec, 0x09, 0xfb, 0xd6, 0x0c, 0xfa, 0xdb, 0x06, 0xee, 0xfb, 0xe7,
  0xd4, 0x04, 0xdf, 0xee, 0xe3, 0xd9, 0xff, 0x11, 0xef, 0xe0, 0xed, 0x2b,
  0x07, 0x0c, 0x1d, 0xdc, 0x0c, 0xd7, 0x22, 0xfe, 0xdf, 0x01, 0xe7, 0xfe,
  0xf9, 0xd0, 0x05, 0xce, 0xf9, 0x04, 0x07, 0x27, 0xed, 0xfb, 0xc1, 0xc6,
  0x03, 0xd2, 0xe0, 0x2a, 0xea, 0x02, 0xc7, 0x29, 0xf2, 0xc8, 0xf4, 0x13,
  0x03, 0x1f, 0xa5, 0xec, 0x00, 0xe4, 0xdc, 0x09, 0x0f, 0xf6, 0xc7, 0xf8,
  0xfe, 0xeb, 0x00, 0x2d, 0xf5, 0x0e, 0xea, 0xe5, 0x24, 0xf8, 0x2c, 0xdf,
  0xde, 0x1e, 0xdf, 0xfa, 0xd7, 0x07, 0x0a, 0x27, 0x17, 0xe2, 0x2d, 0xe2,
  0xf5, 0xef, 0x0f, 0x0e, 0xfa, 0x0b, 0xb8, 0xd7, 0xee, 0xe2, 0xf1, 0x05,
  0x1b, 0x0a, 0xfd, 0xf6, 0xe7, 0x19, 0x07, 0xee, 0xe0, 0x26, 0x03, 0x22,
  0x0a, 0xf0, 0xf9, 0x05, 0x3f, 0x43, 0xca, 0x0b, 0xf9, 0xf7, 0x09, 0x15,
  0x16, 0x14, 0xd3, 0x74, 0xfb, 0xf8, 0x11, 0x02, 0x2c, 0x01, 0x42, 0x0e,
  0xef, 0x22, 0xe7, 0x30, 0x13, 0x0d, 0x36, 0x0c, 0x01, 0x12, 0xf1, 0x0b,
  0x30, 0x10, 0xd3, 0x31, 0x13, 0x1c, 0x1b, 0x1e, 0x1a, 0x0d, 0x10, 0x41,
  0x0c, 0x20, 0xf9, 0x85, 0x22, 0xe8, 0x3d, 0x06, 0xc6, 0xfe, 0x18, 0xf7,
  0x27, 0x00, 0xe2, 0x51, 0xec, 0x05, 0xf0, 0x2b, 0xe7, 0x31, 0xf8, 0xb3,
  0xe2, 0xea, 0xb8, 0x0b, 0xf3, 0xf9, 0xdf, 0x12, 0x21, 0xf7, 0x06, 0x51,
  0x17, 0x1a, 0xd5, 0x32, 0xed, 0xf3, 0xd5, 0x2c, 0xd2, 0xe2, 0x0c, 0x0c,
  0x28, 0x37, 0x22, 0xae, 0x14, 0x61, 0xe7, 0xe2, 0x22, 0x3c, 0x32, 0xeb,
  0x0e, 0x17, 0x15, 0x0d, 0x11, 0xf4, 0x13, 0xd4, 0x1d, 0xe0, 0x19, 0x10,
  0xf8, 0xfb, 0xe7, 0x09, 0xf3, 0xe5, 0x12, 0x06, 0xde, 0x13, 0xde, 0xd5,
  0x0e, 0xbe, 0xe8, 0xcc, 0x16, 0xe7, 0x07, 0x0b, 0xff, 0xf3, 0xf9, 0x26,
  0x18, 0xde, 0x05, 0x10, 0xdf, 0x3d, 0xe8, 0xfb, 0x01, 0x0f, 0x19, 0xfd,
  0xf7, 0x17, 0xf8, 0x2e, 0x14, 0xf1, 0x0e, 0x43, 0xd6, 0x25, 0x05, 0xfe,
  0xee, 0x17, 0xff, 0xde, 0xdd, 0xf3, 0x11, 0xb6, 0xed, 0xe4, 0x0d, 0x24,
  0x91, 0xdb, 0xe4, 0xda, 0xe7, 0xed, 0xe5, 0xee, 0xe8, 0xed, 0xe4, 0xee,
  0xf4, 0x21, 0xce, 0xd2, 0x9f, 0xe0, 0x0b, 0x26, 0x1b, 0x27, 0x0b, 0xd1,
  0x00, 0x03, 0x07, 0xcf, 0x4c, 0x0d, 0x30, 0xb9, 0xc7, 0x64, 0xf2, 0x2a,
  0x2f, 0x38, 0x0a, 0xe3, 0x32, 0x22, 0x29, 0x1c, 0x3a, 0x47, 0x24, 0xe5,
  0xdb, 0x29, 0x08, 0xf4, 0x02, 0x1f, 0x18, 0x0f, 0xfb, 0x24, 0xfe, 0x29,
  0x0f, 0xf6, 0x12, 0x3a, 0xc9, 0x0a, 0x0a, 0x4e, 0xf3, 0x34, 0x26, 0x0b,
  0xf5, 0x16, 0x0b, 0xc6, 0x23, 0x60, 0x40, 0x1d, 0xd9, 0xd1, 0x34, 0x57,
  0xec, 0x51, 0x13, 0xde, 0x05, 0xe5, 0x34, 0xf0, 0x14, 0x56, 0x07, 0x33,
  0xd9, 0xd2, 0x02, 0x05, 0xf3, 0x00, 0xf9, 0xde, 0x16, 0xed, 0x01, 0xde,
  0xe9, 0xf9, 0xf2, 0x0d, 0x02, 0xe0, 0x28, 0x56, 0xeb, 0xfd, 0x0e, 0x02,
  0xdf, 0x06, 0x1e, 0x02, 0x1c, 0x16, 0x0c, 0xc5, 0x2b, 0xf4, 0x18, 0xea,
  0xff, 0x03, 0x07, 0xe5, 0xff, 0x0b, 0xea, 0x1c, 0xf7, 0xfb, 0x06, 0x20,
  0xdf, 0x06, 0x06, 0x0a, 0xea, 0x07, 0xf7, 0x2f, 0xf8, 0xde, 0xfe, 0xff,
  0x05, 0x1a, 0x04, 0xf2, 0xf9, 0x25, 0x35, 0xfa, 0x1b, 0xec, 0xfd, 0x2a,
  0x0c, 0x0f, 0x1a, 0xfd, 0xf7, 0xf1, 0x0f, 0x25, 0xa8, 0x17, 0xdf, 0xf3,
  0xf1, 0x07, 0x2b, 0xcd, 0xe2, 0x11, 0xec, 0xbb, 0xee, 0x0a, 0xe5, 0x27,
  0xe9, 0x36, 0xdf, 0xfc, 0x0a, 0xf2, 0xe6, 0x1a, 0xfd, 0x1b, 0x0f, 0xea,
  0x0c, 0xf9, 0xf1, 0x2e, 0xe5, 0x2f, 0xab, 0xd0, 0xed, 0xed, 0xed, 0xfb,
  0x11, 0xf7, 0xdc, 0x0d, 0xf9, 0x00, 0x06, 0x0b, 0x06, 0x16, 0x54, 0xfe,
  0xfd, 0x2c, 0xf1, 0xed, 0xfb, 0x03, 0x0a, 0xe9, 0xf2, 0xc4, 0xec, 0xe3,
  0x0b, 0x22, 0xd5, 0x3c, 0x1b, 0x24, 0xe8, 0xf4, 0xff, 0x03, 0x06, 0xf0,
  0x1a, 0x22, 0x20, 0xcf, 0x06, 0xf0, 0x01, 0x08, 0x19, 0x0c, 0x02, 0xf4,
  0x11, 0x22, 0x36, 0x13, 0x02, 0xd6, 0xda, 0x03, 0x37, 0x2f, 0x22, 0x06,
  0xd5, 0xf3, 0x0a, 0x22, 0xef, 0x07, 0xec, 0x2a, 0x03, 0x16, 0x17, 0x04,
  0xda, 0x00, 0xf4, 0x3b, 0x1e, 0x1e, 0x1f, 0x14, 0xf0, 0x13, 0x3d, 0xf6,
  0x07, 0x0b, 0x1a, 0xf0, 0xfb, 0xeb, 0x12, 0x04, 0xd3, 0x13, 0x0a, 0x06,
  0xfc, 0x07, 0x2a, 0x1d, 0xf9, 0xe8, 0x0f, 0x22, 0x04, 0xff, 0xf3, 0x07,
  0x24, 0x01, 0xde, 0x0d, 0xe7, 0xfd, 0x23, 0xd9, 0x15, 0xfa, 0xe1, 0x2b,
  0xd0, 0x31, 0x01, 0xf5, 0x3c, 0x17, 0x00, 0xff, 0x13, 0x10, 0xef, 0x36,
  0x2b, 0xf1, 0x0c, 0xf7, 0x03, 0xdb, 0x28, 0x3c, 0xf8, 0x07, 0x01, 0xe6,
  0x08, 0x1c, 0x13, 0xc1, 0x05, 0x36, 0x21, 0x10, 0xfd, 0xe0, 0x62, 0xf9,
  0xe3, 0x22, 0x0e, 0xdd, 0xf9, 0xfc, 0x2e, 0xe4, 0xe5, 0xf6, 0xf5, 0xcb,
  0x28, 0x17, 0xe4, 0x41, 0xfb, 0x09, 0xde, 0x07, 0xf7, 0x0d, 0xf7, 0x0b,
  0x1d, 0x19, 0x1d, 0xd5, 0xf0, 0x09, 0xee, 0x21, 0x26, 0x10, 0x07, 0xf3,
  0x07, 0x11, 0x24, 0x0c, 0xf4, 0x1d, 0xeb, 0x07, 0xd8, 0xdd, 0x05, 0x16,
  0x24, 0x01, 0x0e, 0xe9, 0xf4, 0x00, 0x0f, 0xba, 0xf5, 0xf6, 0xef, 0xf1,
  0xd7, 0xd0, 0x09, 0xf4, 0x32, 0x07, 0xf7, 0xed, 0xdf, 0xf8, 0xfc, 0xb3,
  0x07, 0x11, 0xf0, 0xfc, 0xc2, 0x24, 0xd6, 0x1c, 0x00, 0xe5, 0xf8, 0xf1,
  0xdc, 0xfd, 0xe6, 0x08, 0xde, 0xf1, 0x02, 0x1e, 0xd7, 0xda, 0x2c, 0xd9,
  0x04, 0x00, 0xfc, 0xfa, 0xfe, 0xdd, 0x11, 0xe8, 0xe5, 0xd1, 0xfb, 0x48,
  0xd2, 0xee, 0xc0, 0x0b, 0x22, 0x27, 0xdd, 0xd3, 0xde, 0x19, 0x09, 0xe6,
  0x1a, 0xf8, 0x0c, 0xd4, 0x1a, 0xea, 0xe3, 0x30, 0x0a, 0xfc, 0x23, 0xdf,
  0xd5, 0x0a, 0x2d, 0xf2, 0xec, 0x10, 0xe0, 0xa4, 0xf7, 0x02, 0x41, 0xcb,
  0xfa, 0x17, 0x16, 0xfa, 0x27, 0x0b, 0x03, 0x01, 0xcc, 0xc8, 0xe3, 0x52,
  0x32, 0xfc, 0xff, 0xff, 0x04, 0x00, 0x00, 0x00, 0x10, 0x00, 0x00, 0x00,
  0x01, 0x00, 0x00, 0x00, 0x96, 0x00, 0x00, 0x00, 0x01, 0x00, 0x00, 0x00,
  0x08, 0x00, 0x00, 0x00, 0x4e, 0xfc, 0xff, 0xff, 0x04, 0x00, 0x00, 0x00,
  0x10, 0x00, 0x00, 0x00, 0x01, 0x00, 0x00, 0x00, 0x01, 0x00, 0x00, 0x00,
  0x4b, 0x00, 0x00, 0x00, 0x08, 0x00, 0x00, 0x00, 0x6a, 0xfc, 0xff, 0xff,
  0x04, 0x00, 0x00, 0x00, 0x10, 0x00, 0x00, 0x00, 0x01, 0x00, 0x00, 0x00,
  0x4b, 0x00, 0x00, 0x00, 0x01, 0x00, 0x00, 0x00, 0x10, 0x00, 0x00, 0x00,
  0x86, 0xfc, 0xff, 0xff, 0x04, 0x00, 0x00, 0x00, 0x0c, 0x00, 0x00, 0x00,
  0x01, 0x00, 0x00, 0x00, 0x26, 0x00, 0x00, 0x00, 0x10, 0x00, 0x00, 0x00,
  0xb8, 0xed, 0xff, 0xff, 0x0f, 0x00, 0x00, 0x00, 0x54, 0x4f, 0x43, 0x4f,
  0x20, 0x43, 0x6f, 0x6e, 0x76, 0x65, 0x72, 0x74, 0x65, 0x64, 0x2e, 0x00,
  0x01, 0x00, 0x00, 0x00, 0x04, 0x00, 0x00, 0x00, 0xc0, 0xec, 0xff, 0xff,
  0xb0, 0x03, 0x00, 0x00, 0xa4, 0x03, 0x00, 0x00, 0x98, 0x03, 0x00, 0x00,
  0x04, 0x00, 0x00, 0x00, 0x0d, 0x00, 0x00, 0x00, 0x6c, 0x03, 0x00, 0x00,
  0x0c, 0x03, 0x00, 0x00, 0xb0, 0x02, 0x00, 0x00, 0x54, 0x02, 0x00, 0x00,
  0xf4, 0x01, 0x00, 0x00, 0xa8, 0x01, 0x00, 0x00, 0x68, 0x01, 0x00, 0x00,
  0x1c, 0x01, 0x00, 0x00, 0xdc, 0x00, 0x00, 0x00, 0x94, 0x00, 0x00, 0x00,
  0x5c, 0x00, 0x00, 0x00, 0x28, 0x00, 0x00, 0x00, 0x04, 0x00, 0x00, 0x00,
  0xd2, 0xfc, 0xff, 0xff, 0x06, 0x00, 0x00, 0x00, 0x10, 0x00, 0x00, 0x00,
  0x04, 0x00, 0x00, 0x00, 0x01, 0x00, 0x00, 0x00, 0x18, 0x00, 0x00, 0x00,
  0x01, 0x00, 0x00, 0x00, 0x00, 0x00, 0x00, 0x00, 0x02, 0xfe, 0xff, 0xff,
  0x00, 0x00, 0x00, 0x09, 0x04, 0x00, 0x00, 0x00, 0x1c, 0x00, 0x00, 0x00,
  0x10, 0x00, 0x00, 0x00, 0x04, 0x00, 0x00, 0x00, 0x42, 0xfd, 0xff, 0xff,
  0x00, 0x00, 0x80, 0x3f, 0x01, 0x00, 0x00, 0x00, 0x00, 0x00, 0x00, 0x00,
  0x01, 0x00, 0x00, 0x00, 0x13, 0x00, 0x00, 0x00, 0x32, 0xfe, 0xff, 0xff,
  0x00, 0x00, 0x00, 0x08, 0x01, 0x00, 0x00, 0x00, 0x18, 0x00, 0x00, 0x00,
  0x0c, 0x00, 0x00, 0x00, 0x04, 0x00, 0x00, 0x00, 0x8c, 0xee, 0xff, 0xff,
  0x01, 0x00, 0x00, 0x00, 0x13, 0x00, 0x00, 0x00, 0x03, 0x00, 0x00, 0x00,
  0x11, 0x00, 0x00, 0x00, 0x14, 0x00, 0x00, 0x00, 0x15, 0x00, 0x00, 0x00,
  0x66, 0xfe, 0xff, 0xff, 0x00, 0x00, 0x00, 0x11, 0x03, 0x00, 0x00, 0x00,
  0x2c, 0x00, 0x00, 0x00, 0x20, 0x00, 0x00, 0x00, 0x04, 0x00, 0x00, 0x00,
  0xa6, 0xfd, 0xff, 0xff, 0x04, 0x00, 0x00, 0x00, 0x03, 0x00, 0x00, 0x00,
  0x01, 0x00, 0x00, 0x00, 0x26, 0x00, 0x00, 0x00, 0x10, 0x00, 0x00, 0x00,
  0x01, 0x00, 0x00, 0x00, 0x11, 0x00, 0x00, 0x00, 0x02, 0x00, 0x00, 0x00,
  0x10, 0x00, 0x00, 0x00, 0x12, 0x00, 0x00, 0x00, 0xaa, 0xfe, 0xff, 0xff,
  0x00, 0x00, 0x00, 0x05, 0x02, 0x00, 0x00, 0x00, 0x28, 0x00, 0x00, 0x00,
  0x1c, 0x00, 0x00, 0x00, 0x04, 0x00, 0x00, 0x00, 0xf6, 0xfe, 0xff, 0xff,
  0x01, 0x00, 0x00, 0x00, 0x02, 0x00, 0x00, 0x00, 0x01, 0x00, 0x00, 0x00,
  0x02, 0x00, 0x00, 0x00, 0x01, 0x00, 0x00, 0x00, 0x10, 0x00, 0x00, 0x00,
  0x01, 0x00, 0x00, 0x00, 0x0e, 0x00, 0x00, 0x00, 0xe6, 0xfe, 0xff, 0xff,
  0x00, 0x00, 0x00, 0x11, 0x03, 0x00, 0x00, 0x00, 0x30, 0x00, 0x00, 0x00,
  0x24, 0x00, 0x00, 0x00, 0x04, 0x00, 0x00, 0x00, 0x26, 0xfe, 0xff, 0xff,
  0x04, 0x00, 0x00, 0x00, 0x04, 0x00, 0x00, 0x00, 0x01, 0x00, 0x00, 0x00,
  0x4b, 0x00, 0x00, 0x00, 0x01, 0x00, 0x00, 0x00, 0x10, 0x00, 0x00, 0x00,
  0x01, 0x00, 0x00, 0x00, 0x0e, 0x00, 0x00, 0x00, 0x02, 0x00, 0x00, 0x00,
  0x09, 0x00, 0x00, 0x00, 0x0f, 0x00, 0x00, 0x00, 0xd6, 0xfe, 0xff, 0xff,
  0x00, 0x00, 0x00, 0x01, 0x24, 0x00, 0x00, 0x00, 0x18, 0x00, 0x00, 0x00,
  0x04, 0x00, 0x00, 0x00, 0xc8, 0xfe, 0xff, 0xff, 0x00, 0x00, 0x00, 0x01,
  0x01, 0x00, 0x00, 0x00, 0x01, 0x00, 0x00, 0x00, 0x01, 0x00, 0x00, 0x00,
  0x09, 0x00, 0x00, 0x00, 0x03, 0x00, 0x00, 0x00, 0x06, 0x00, 0x00, 0x00,
  0x08, 0x00, 0x00, 0x00, 0x0a, 0x00, 0x00, 0x00, 0x6a, 0xff, 0xff, 0xff,
  0x00, 0x00, 0x00, 0x11, 0x03, 0x00, 0x00, 0x00, 0x30, 0x00, 0x00, 0x00,
  0x24, 0x00, 0x00, 0x00, 0x04, 0x00, 0x00, 0x00, 0xaa, 0xfe, 0xff, 0xff,
  0x04, 0x00, 0x00, 0x00, 0x04, 0x00, 0x00, 0x00, 0x01, 0x00, 0x00, 0x00,
  0x01, 0x00, 0x00, 0x00, 0x4b, 0x00, 0x00, 0x00, 0x08, 0x00, 0x00, 0x00,
  0x01, 0x00, 0x00, 0x00, 0x06, 0x00, 0x00, 0x00, 0x02, 0x00, 0x00, 0x00,
  0x0d, 0x00, 0x00, 0x00, 0x07, 0x00, 0x00, 0x00, 0x02, 0xff, 0xff, 0xff,
  0x00, 0x00, 0x00, 0x05, 0x02, 0x00, 0x00, 0x00, 0x38, 0x00, 0x00, 0x00,
  0x2c, 0x00, 0x00, 0x00, 0x14, 0x00, 0x00, 0x00, 0x00, 0x00, 0x0e, 0x00,
  0x14, 0x00, 0x00, 0x00, 0x04, 0x00, 0x08, 0x00, 0x0c, 0x00, 0x10, 0x00,
  0x0e, 0x00, 0x00, 0x00, 0x01, 0x00, 0x00, 0x00, 0x02, 0x00, 0x00, 0x00,
  0x01, 0x00, 0x00, 0x00, 0x02, 0x00, 0x00, 0x00, 0x01, 0x00, 0x00, 0x00,
  0x0d, 0x00, 0x00, 0x00, 0x01, 0x00, 0x00, 0x00, 0x0b, 0x00, 0x00, 0x00,
  0x00, 0x00, 0x0e, 0x00, 0x18, 0x00, 0x08, 0x00, 0x0c, 0x00, 0x10, 0x00,
  0x07, 0x00, 0x14, 0x00, 0x0e, 0x00, 0x00, 0x00, 0x00, 0x00, 0x00, 0x11,
  0x03, 0x00, 0x00, 0x00, 0x30, 0x00, 0x00, 0x00, 0x24, 0x00, 0x00, 0x00,
  0x04, 0x00, 0x00, 0x00, 0x4e, 0xff, 0xff, 0xff, 0x04, 0x00, 0x00, 0x00,
  0x04, 0x00, 0x00, 0x00, 0x01, 0x00, 0x00, 0x00, 0x96, 0x00, 0x00, 0x00,
  0x01, 0x00, 0x00, 0x00, 0x08, 0x00, 0x00, 0x00, 0x01, 0x00, 0x00, 0x00,
  0x0b, 0x00, 0x00, 0x00, 0x02, 0x00, 0x00, 0x00, 0x01, 0x00, 0x00, 0x00,
  0x0c, 0x00, 0x00, 0x00, 0x00, 0x00, 0x0e, 0x00, 0x14, 0x00, 0x00, 0x00,
  0x08, 0x00, 0x0c, 0x00, 0x07, 0x00, 0x10, 0x00, 0x0e, 0x00, 0x00, 0x00,
  0x00, 0x00, 0x00, 0x01, 0x30, 0x00, 0x00, 0x00, 0x24, 0x00, 0x00, 0x00,
  0x10, 0x00, 0x00, 0x00, 0x0c, 0x00, 0x10, 0x00, 0x00, 0x00, 0x08, 0x00,
  0x0c, 0x00, 0x07, 0x00, 0x0c, 0x00, 0x00, 0x00, 0x00, 0x00, 0x00, 0x01,
  0x01, 0x00, 0x00, 0x00, 0x01, 0x00, 0x00, 0x00, 0x01, 0x00, 0x00, 0x00,
  0x01, 0x00, 0x00, 0x00, 0x03, 0x00, 0x00, 0x00, 0x02, 0x00, 0x00, 0x00,
  0x04, 0x00, 0x00, 0x00, 0x05, 0x00, 0x00, 0x00, 0x00, 0x00, 0x0e, 0x00,
  0x1a, 0x00, 0x08, 0x00, 0x0c, 0x00, 0x10, 0x00, 0x07, 0x00, 0x14, 0x00,
  0x0e, 0x00, 0x00, 0x00, 0x00, 0x00, 0x00, 0x11, 0x03, 0x00, 0x00, 0x00,
  0x38, 0x00, 0x00, 0x00, 0x2c, 0x00, 0x00, 0x00, 0x0c, 0x00, 0x00, 0x00,
  0x00, 0x00, 0x06, 0x00, 0x08, 0x00, 0x04, 0x00, 0x06, 0x00, 0x00, 0x00,
  0x04, 0x00, 0x00, 0x00, 0x04, 0x00, 0x00, 0x00, 0x01, 0x00, 0x00, 0x00,
  0x01, 0x00, 0x00, 0x00, 0x96, 0x00, 0x00, 0x00, 0x1a, 0x00, 0x00, 0x00,
  0x01, 0x00, 0x00, 0x00, 0x02, 0x00, 0x00, 0x00, 0x02, 0x00, 0x00, 0x00,
  0x16, 0x00, 0x00, 0x00, 0x03, 0x00, 0x00, 0x00, 0x00, 0x00, 0x0a, 0x00,
  0x10, 0x00, 0x04, 0x00, 0x08, 0x00, 0x0c, 0x00, 0x0a, 0x00, 0x00, 0x00,
  0x05, 0x00, 0x00, 0x00, 0x10, 0x00, 0x00, 0x00, 0x04, 0x00, 0x00, 0x00,
  0x01, 0x00, 0x00, 0x00, 0x16, 0x00, 0x00, 0x00, 0x01, 0x00, 0x00, 0x00,
  0x17, 0x00, 0x00, 0x00, 0x01, 0x00, 0x00, 0x00, 0x18, 0x00, 0x00, 0x00,
  0x01, 0x00, 0x00, 0x00, 0x17, 0x00, 0x00, 0x00, 0x19, 0x00, 0x00, 0x00,
  0x28, 0x10, 0x00, 0x00, 0x6c, 0x0f, 0x00, 0x00, 0xc4, 0x0e, 0x00, 0x00,
  0x4c, 0x0e, 0x00, 0x00, 0x14, 0x0d, 0x00, 0x00, 0x40, 0x0c, 0x00, 0x00,
  0x94, 0x0b, 0x00, 0x00, 0x20, 0x0b, 0x00, 0x00, 0x44, 0x09, 0x00, 0x00,
  0x98, 0x08, 0x00, 0x00, 0x64, 0x07, 0x00, 0x00, 0xb8, 0x06, 0x00, 0x00,
  0x44, 0x06, 0x00, 0x00, 0x98, 0x05, 0x00, 0x00, 0xec, 0x04, 0x00, 0x00,
  0x78, 0x04, 0x00, 0x00, 0xcc, 0x03, 0x00, 0x00, 0x28, 0x03, 0x00, 0x00,
  0xb8, 0x02, 0x00, 0x00, 0x20, 0x02, 0x00, 0x00, 0x6c, 0x01, 0x00, 0x00,
  0xe8, 0x00, 0x00, 0x00, 0x6c, 0x00, 0x00, 0x00, 0x3c, 0x00, 0x00, 0x00,
  0x04, 0x00, 0x00, 0x00, 0xd8, 0xff, 0xff, 0xff, 0x18, 0x00, 0x00, 0x00,
  0x04, 0x00, 0x00, 0x00, 0x08, 0x00, 0x00, 0x00, 0x49, 0x64, 0x65, 0x6e,
  0x74, 0x69, 0x74, 0x79, 0x00, 0x00, 0x00, 0x00, 0x02, 0x00, 0x00, 0x00,
  0x01, 0x00, 0x00, 0x00, 0x02, 0x00, 0x00, 0x00, 0x0c, 0x00, 0x0c, 0x00,
  0x04, 0x00, 0x00, 0x00, 0x00, 0x00, 0x08, 0x00, 0x0c, 0x00, 0x00, 0x00,
  0x1c, 0x00, 0x00, 0x00, 0x04, 0x00, 0x00, 0x00, 0x0d, 0x00, 0x00, 0x00,
  0x72, 0x65, 0x73, 0x68, 0x61, 0x70, 0x65, 0x5f, 0x69, 0x6e, 0x70, 0x75,
  0x74, 0x00, 0x00, 0x00, 0x02, 0x00, 0x00, 0x00, 0x01, 0x00, 0x00, 0x00,
  0x3c, 0x0f, 0x00, 0x00, 0xaa, 0xf0, 0xff, 0xff, 0x00, 0x00, 0x00, 0x09,
  0x64, 0x00, 0x00, 0x00, 0x17, 0x00, 0x00, 0x00, 0x44, 0x00, 0x00, 0x00,
  0x04, 0x00, 0x00, 0x00, 0x54, 0xf1, 0xff, 0xff, 0x30, 0x00, 0x00, 0x00,
  0x24, 0x00, 0x00, 0x00, 0x18, 0x00, 0x00, 0x00, 0x04, 0x00, 0x00, 0x00,
  0x01, 0x00, 0x00, 0x00, 0xfb, 0xff, 0xff, 0xff, 0xff, 0xff, 0xff, 0xff,
  0x00, 0x00, 0x00, 0x00, 0x01, 0x00, 0x00, 0x00, 0x89, 0x4e, 0x16, 0x3e,
  0x01, 0x00, 0x00, 0x00, 0x36, 0x1d, 0x9b, 0x41, 0x01, 0x00, 0x00, 0x00,
  0x3e, 0x53, 0x90, 0xc1, 0x12, 0x00, 0x00, 0x00, 0x72, 0x65, 0x73, 0x68,
  0x61, 0x70, 0x65, 0x5f, 0x69, 0x6e, 0x70, 0x75, 0x74, 0x5f, 0x69, 0x6e,
  0x74, 0x38, 0x00, 0x00, 0x02, 0x00, 0x00, 0x00, 0x01, 0x00, 0x00, 0x00,
  0x3c, 0x0f, 0x00, 0x00, 0x22, 0xf1, 0xff, 0xff, 0x00, 0x00, 0x00, 0x02,
  0x70, 0x00, 0x00, 0x00, 0x16, 0x00, 0x00, 0x00, 0x2c, 0x00, 0x00, 0x00,
  0x04, 0x00, 0x00, 0x00, 0x14, 0xf1, 0xff, 0xff, 0x18, 0x00, 0x00, 0x00,
  0x04, 0x00, 0x00, 0x00, 0x01, 0x00, 0x00, 0x00, 0x00, 0x00, 0x00, 0x00,
  0x00, 0x00, 0x00, 0x00, 0x00, 0x00, 0x00, 0x00, 0x01, 0x00, 0x00, 0x00,
  0xc6, 0xe1, 0xbe, 0x38, 0x35, 0x00, 0x00, 0x00, 0x53, 0x74, 0x61, 0x74,
  0x65, 0x66, 0x75, 0x6c, 0x50, 0x61, 0x72, 0x74, 0x69, 0x74, 0x69, 0x6f,
  0x6e, 0x65, 0x64, 0x43, 0x61, 0x6c, 0x6c, 0x2f, 0x73, 0x65, 0x71, 0x75,
  0x65, 0x6e, 0x74, 0x69, 0x61, 0x6c, 0x2f, 0x79, 0x5f, 0x70, 0x72, 0x65,
  0x64, 0x2f, 0x4d, 0x61, 0x74, 0x4d, 0x75, 0x6c, 0x5f, 0x62, 0x69, 0x61,
  0x73, 0x00, 0x00, 0x00, 0x01, 0x00, 0x00, 0x00, 0x02, 0x00, 0x00, 0x00,
  0xa2, 0xf1, 0xff, 0xff, 0x00, 0x00, 0x00, 0x09, 0x9c, 0x00, 0x00, 0x00,
  0x05, 0x00, 0x00, 0x00, 0x44, 0x00, 0x00, 0x00, 0x04, 0x00, 0x00, 0x00,
  0x4c, 0xf2, 0xff, 0xff, 0x30, 0x00, 0x00, 0x00, 0x24, 0x00, 0x00, 0x00,
  0x18, 0x00, 0x00, 0x00, 0x04, 0x00, 0x00, 0x00, 0x01, 0x00, 0x00, 0x00,
  0x00, 0x00, 0x00, 0x00, 0x00, 0x00, 0x00, 0x00, 0x00, 0x00, 0x00, 0x00,
  0x01, 0x00, 0x00, 0x00, 0xe6, 0x7a, 0x5a, 0x3b, 0x01, 0x00, 0x00, 0x00,
  0xf0, 0xc5, 0xd8, 0x3e, 0x01, 0x00, 0x00, 0x00, 0xcc, 0x09, 0xd2, 0xbe,
  0x49, 0x00, 0x00, 0x00, 0x53, 0x74, 0x61, 0x74, 0x65, 0x66, 0x75, 0x6c,
  0x50, 0x61, 0x72, 0x74, 0x69, 0x74, 0x69, 0x6f, 0x6e, 0x65, 0x64, 0x43,
  0x61, 0x6c, 0x6c, 0x2f, 0x73, 0x65, 0x71, 0x75, 0x65, 0x6e, 0x74, 0x69,
  0x61, 0x6c, 0x2f, 0x79, 0x5f, 0x70, 0x72, 0x65, 0x64, 0x2f, 0x4d, 0x61,
  0x74, 0x4d, 0x75, 0x6c, 0x2f, 0x52, 0x65, 0x61, 0x64, 0x56, 0x61, 0x72,
  0x69, 0x61, 0x62, 0x6c, 0x65, 0x4f, 0x70, 0x2f, 0x74, 0x72, 0x61, 0x6e,
  0x73, 0x70, 0x6f, 0x73, 0x65, 0x00, 0x00, 0x00, 0x02, 0x00, 0x00, 0x00,
  0x02, 0x00, 0x00, 0x00, 0x60, 0x02, 0x00, 0x00, 0x52, 0xf2, 0xff, 0xff,
  0x00, 0x00, 0x00, 0x09, 0x80, 0x00, 0x00, 0x00, 0x14, 0x00, 0x00, 0x00,
  0x40, 0x00, 0x00, 0x00, 0x04, 0x00, 0x00, 0x00, 0xfc, 0xf2, 0xff, 0xff,
  0x2c, 0x00, 0x00, 0x00, 0x20, 0x00, 0x00, 0x00, 0x14, 0x00, 0x00, 0x00,
  0x04, 0x00, 0x00, 0x00, 0x01, 0x00, 0x00, 0x00, 0x05, 0x00, 0x00, 0x00,
  0x00, 0x00, 0x00, 0x00, 0x01, 0x00, 0x00, 0x00, 0xf7, 0x6e, 0x9d, 0x3d,
  0x01, 0x00, 0x00, 0x00, 0x06, 0xa7, 0x16, 0x41, 0x01, 0x00, 0x00, 0x00,
  0x0b, 0xfc, 0x22, 0xc1, 0x31, 0x00, 0x00, 0x00, 0x53, 0x74, 0x61, 0x74,
  0x65, 0x66, 0x75, 0x6c, 0x50, 0x61, 0x72, 0x74, 0x69, 0x74, 0x69, 0x6f,
  0x6e, 0x65, 0x64, 0x43, 0x61, 0x6c, 0x6c, 0x2f, 0x73, 0x65, 0x71, 0x75,
  0x65, 0x6e, 0x74, 0x69, 0x61, 0x6c, 0x2f, 0x79, 0x5f, 0x70, 0x72, 0x65,
  0x64, 0x2f, 0x42, 0x69, 0x61, 0x73, 0x41, 0x64, 0x64, 0x00, 0x00, 0x00,
  0x02, 0x00, 0x00, 0x00, 0x01, 0x00, 0x00, 0x00, 0x02, 0x00, 0x00, 0x00,
  0xe6, 0xf2, 0xff, 0xff, 0x00, 0x00, 0x00, 0x02, 0x5c, 0x00, 0x00, 0x00,
  0x01, 0x00, 0x00, 0x00, 0x0c, 0x00, 0x00, 0x00, 0x04, 0x00, 0x00, 0x00,
  0xa8, 0xf4, 0xff, 0xff, 0x40, 0x00, 0x00, 0x00, 0x53, 0x74, 0x61, 0x74,
  0x65, 0x66, 0x75, 0x6c, 0x50, 0x61, 0x72, 0x74, 0x69, 0x74, 0x69, 0x6f,
  0x6e, 0x65, 0x64, 0x43, 0x61, 0x6c, 0x6c, 0x2f, 0x73, 0x65, 0x71, 0x75,
  0x65, 0x6e, 0x74, 0x69, 0x61, 0x6c, 0x2f, 0x6d, 0x61, 0x78, 0x5f, 0x70,
  0x6f, 0x6f, 0x6c, 0x69, 0x6e, 0x67, 0x31, 0x64, 0x5f, 0x31, 0x2f, 0x53,
  0x71, 0x75, 0x65, 0x65, 0x7a, 0x65, 0x5f, 0x73, 0x68, 0x61, 0x70, 0x65,
  0x00, 0x00, 0x00, 0x00, 0x01, 0x00, 0x00, 0x00, 0x03, 0x00, 0x00, 0x00,
  0x52, 0xf3, 0xff, 0xff, 0x00, 0x00, 0x00, 0x09, 0x88, 0x00, 0x00, 0x00,
  0x0b, 0x00, 0x00, 0x00, 0x40, 0x00, 0x00, 0x00, 0x04, 0x00, 0x00, 0x00,
  0xfc, 0xf3, 0xff, 0xff, 0x2c, 0x00, 0x00, 0x00, 0x20, 0x00, 0x00, 0x00,
  0x14, 0x00, 0x00, 0x00, 0x04, 0x00, 0x00, 0x00, 0x01, 0x00, 0x00, 0x00,
  0x80, 0xff, 0xff, 0xff, 0xff, 0xff, 0xff, 0xff, 0x01, 0x00, 0x00, 0x00,
  0x92, 0xa9, 0xdf, 0x3c, 0x01, 0x00, 0x00, 0x00, 0xe8, 0xc9, 0xde, 0x40,
  0x01, 0x00, 0x00, 0x00, 0x00, 0x00, 0x00, 0x00, 0x3a, 0x00, 0x00, 0x00,
  0x53, 0x74, 0x61, 0x74, 0x65, 0x66, 0x75, 0x6c, 0x50, 0x61, 0x72, 0x74,
  0x69, 0x74, 0x69, 0x6f, 0x6e, 0x65, 0x64, 0x43, 0x61, 0x6c, 0x6c, 0x2f,
  0x73, 0x65, 0x71, 0x75, 0x65, 0x6e, 0x74, 0x69, 0x61, 0x6c, 0x2f, 0x6d,
  0x61, 0x78, 0x5f, 0x70, 0x6f, 0x6f, 0x6c, 0x69, 0x6e, 0x67, 0x31, 0x64,
  0x5f, 0x31, 0x2f, 0x53, 0x71, 0x75, 0x65, 0x65, 0x7a, 0x65, 0x00, 0x00,
  0x03, 0x00, 0x00, 0x00, 0x01, 0x00, 0x00, 0x00, 0x26, 0x00, 0x00, 0x00,
  0x10, 0x00, 0x00, 0x00, 0xf2, 0xf3, 0xff, 0xff, 0x00, 0x00, 0x00, 0x09,
  0x8c, 0x00, 0x00, 0x00, 0x0c, 0x00, 0x00, 0x00, 0x44, 0x00, 0x00, 0x00,
  0x04, 0x00, 0x00, 0x00, 0x9c, 0xf4, 0xff, 0xff, 0x30, 0x00, 0x00, 0x00,
  0x24, 0x00, 0x00, 0x00, 0x18, 0x00, 0x00, 0x00, 0x04, 0x00, 0x00, 0x00,
  0x01, 0x00, 0x00, 0x00, 0x80, 0xff, 0xff, 0xff, 0xff, 0xff, 0xff, 0xff,
  0x00, 0x00, 0x00, 0x00, 0x01, 0x00, 0x00, 0x00, 0x92, 0xa9, 0xdf, 0x3c,
  0x01, 0x00, 0x00, 0x00, 0xe8, 0xc9, 0xde, 0x40, 0x01, 0x00, 0x00, 0x00,
  0x00, 0x00, 0x00, 0x00, 0x3a, 0x00, 0x00, 0x00, 0x53, 0x74, 0x61, 0x74,
  0x65, 0x66, 0x75, 0x6c, 0x50, 0x61, 0x72, 0x74, 0x69, 0x74, 0x69, 0x6f,
  0x6e, 0x65, 0x64, 0x43, 0x61, 0x6c, 0x6c, 0x2f, 0x73, 0x65, 0x71, 0x75,
  0x65, 0x6e, 0x74, 0x69, 0x61, 0x6c, 0x2f, 0x6d, 0x61, 0x78, 0x5f, 0x70,
  0x6f, 0x6f, 0x6c, 0x69, 0x6e, 0x67, 0x31, 0x64, 0x5f, 0x31, 0x2f, 0x4d,
  0x61, 0x78, 0x50, 0x6f, 0x6f, 0x6c, 0x00, 0x00, 0x04, 0x00, 0x00, 0x00,
  0x01, 0x00, 0x00, 0x00, 0x26, 0x00, 0x00, 0x00, 0x01, 0x00, 0x00, 0x00,
  0x10, 0x00, 0x00, 0x00, 0x9a, 0xf4, 0xff, 0xff, 0x00, 0x00, 0x00, 0x02,
  0x5c, 0x00, 0x00, 0x00, 0x02, 0x00, 0x00, 0x00, 0x0c, 0x00, 0x00, 0x00,
  0x04, 0x00, 0x00, 0x00, 0x5c, 0xf6, 0xff, 0xff, 0x43, 0x00, 0x00, 0x00,
  0x53, 0x74, 0x61, 0x74, 0x65, 0x66, 0x75, 0x6c, 0x50, 0x61, 0x72, 0x74,
  0x69, 0x74, 0x69, 0x6f, 0x6e, 0x65, 0x64, 0x43, 0x61, 0x6c, 0x6c, 0x2f,
  0x73, 0x65, 0x71, 0x75, 0x65, 0x6e, 0x74, 0x69, 0x61, 0x6c, 0x2f, 0x6d,
  0x61, 0x78, 0x5f, 0x70, 0x6f, 0x6f, 0x6c, 0x69, 0x6e, 0x67, 0x31, 0x64,
  0x5f, 0x31, 0x2f, 0x45, 0x78, 0x70, 0x61, 0x6e, 0x64, 0x44, 0x69, 0x6d,
  0x73, 0x2f, 0x64, 0x69, 0x6d, 0x5f, 0x30, 0x00, 0x02, 0x00, 0x00, 0x00,
  0x01, 0x00, 0x00, 0x00, 0x04, 0x00, 0x00, 0x00, 0x0a, 0xf5, 0xff, 0xff,
  0x00, 0x00, 0x00, 0x09, 0x8c, 0x00, 0x00, 0x00, 0x13, 0x00, 0x00, 0x00,
  0x40, 0x00, 0x00, 0x00, 0x04, 0x00, 0x00, 0x00, 0xb4, 0xf5, 0xff, 0xff,
  0x2c, 0x00, 0x00, 0x00, 0x20, 0x00, 0x00, 0x00, 0x14, 0x00, 0x00, 0x00,
  0x04, 0x00, 0x00, 0x00, 0x01, 0x00, 0x00, 0x00, 0x80, 0xff, 0xff, 0xff,
  0xff, 0xff, 0xff, 0xff, 0x01, 0x00, 0x00, 0x00, 0x92, 0xa9, 0xdf, 0x3c,
  0x01, 0x00, 0x00, 0x00, 0xe8, 0xc9, 0xde, 0x40, 0x01, 0x00, 0x00, 0x00,
  0x00, 0x00, 0x00, 0x00, 0x3d, 0x00, 0x00, 0x00, 0x53, 0x74, 0x61, 0x74,
  0x65, 0x66, 0x75, 0x6c, 0x50, 0x61, 0x72, 0x74, 0x69, 0x74, 0x69, 0x6f,
  0x6e, 0x65, 0x64, 0x43, 0x61, 0x6c, 0x6c, 0x2f, 0x73, 0x65, 0x71, 0x75,
  0x65, 0x6e, 0x74, 0x69, 0x61, 0x6c, 0x2f, 0x6d, 0x61, 0x78, 0x5f, 0x70,
  0x6f, 0x6f, 0x6c, 0x69, 0x6e, 0x67, 0x31, 0x64, 0x5f, 0x31, 0x2f, 0x45,
  0x78, 0x70, 0x61, 0x6e, 0x64, 0x44, 0x69, 0x6d, 0x73, 0x00, 0x00, 0x00,
  0x04, 0x00, 0x00, 0x00, 0x01, 0x00, 0x00, 0x00, 0x4b, 0x00, 0x00, 0x00,
  0x01, 0x00, 0x00, 0x00, 0x10, 0x00, 0x00, 0x00, 0xb2, 0xf5, 0xff, 0xff,
  0x00, 0x00, 0x00, 0x09, 0x8c, 0x00, 0x00, 0x00, 0x0d, 0x00, 0x00, 0x00,
  0x44, 0x00, 0x00, 0x00, 0x04, 0x00, 0x00, 0x00, 0x5c, 0xf6, 0xff, 0xff,
  0x30, 0x00, 0x00, 0x00, 0x24, 0x00, 0x00, 0x00, 0x18, 0x00, 0x00, 0x00,
  0x04, 0x00, 0x00, 0x00, 0x01, 0x00, 0x00, 0x00, 0x80, 0xff, 0xff, 0xff,
  0xff, 0xff, 0xff, 0xff, 0x00, 0x00, 0x00, 0x00, 0x01, 0x00, 0x00, 0x00,
  0xd4, 0x49, 0x04, 0x3d, 0x01, 0x00, 0x00, 0x00, 0x8a, 0xc5, 0x03, 0x41,
  0x01, 0x00, 0x00, 0x00, 0x00, 0x00, 0x00, 0x00, 0x38, 0x00, 0x00, 0x00,
  0x53, 0x74, 0x61, 0x74, 0x65, 0x66, 0x75, 0x6c, 0x50, 0x61, 0x72, 0x74,
  0x69, 0x74, 0x69, 0x6f, 0x6e, 0x65, 0x64, 0x43, 0x61, 0x6c, 0x6c, 0x2f,
  0x73, 0x65, 0x71, 0x75, 0x65, 0x6e, 0x74, 0x69, 0x61, 0x6c, 0x2f, 0x6d,
  0x61, 0x78, 0x5f, 0x70, 0x6f, 0x6f, 0x6c, 0x69, 0x6e, 0x67, 0x31, 0x64,
  0x2f, 0x4d, 0x61, 0x78, 0x50, 0x6f, 0x6f, 0x6c, 0x00, 0x00, 0x00, 0x00,
  0x04, 0x00, 0x00, 0x00, 0x01, 0x00, 0x00, 0x00, 0x4b, 0x00, 0x00, 0x00,
  0x01, 0x00, 0x00, 0x00, 0x08, 0x00, 0x00, 0x00, 0x5a, 0xf6, 0xff, 0xff,
  0x00, 0x00, 0x00, 0x02, 0x5c, 0x00, 0x00, 0x00, 0x04, 0x00, 0x00, 0x00,
  0x0c, 0x00, 0x00, 0x00, 0x04, 0x00, 0x00, 0x00, 0x1c, 0xf8, 0xff, 0xff,
  0x41, 0x00, 0x00, 0x00, 0x53, 0x74, 0x61, 0x74, 0x65, 0x66, 0x75, 0x6c,
  0x50, 0x61, 0x72, 0x74, 0x69, 0x74, 0x69, 0x6f, 0x6e, 0x65, 0x64, 0x43,
  0x61, 0x6c, 0x6c, 0x2f, 0x73, 0x65, 0x71, 0x75, 0x65, 0x6e, 0x74, 0x69,
  0x61, 0x6c, 0x2f, 0x6d, 0x61, 0x78, 0x5f, 0x70, 0x6f, 0x6f, 0x6c, 0x69,
  0x6e, 0x67, 0x31, 0x64, 0x2f, 0x45, 0x78, 0x70, 0x61, 0x6e, 0x64, 0x44,
  0x69, 0x6d, 0x73, 0x2f, 0x64, 0x69, 0x6d, 0x5f, 0x30, 0x00, 0x00, 0x00,
  0x02, 0x00, 0x00, 0x00, 0x01, 0x00, 0x00, 0x00, 0x04, 0x00, 0x00, 0x00,
  0xca, 0xf6, 0xff, 0xff, 0x00, 0x00, 0x00, 0x09, 0x8c, 0x00, 0x00, 0x00,
  0x11, 0x00, 0x00, 0x00, 0x44, 0x00, 0x00, 0x00, 0x04, 0x00, 0x00, 0x00,
  0x74, 0xf7, 0xff, 0xff, 0x30, 0x00, 0x00, 0x00, 0x24, 0x00, 0x00, 0x00,
  0x18, 0x00, 0x00, 0x00, 0x04, 0x00, 0x00, 0x00, 0x01, 0x00, 0x00, 0x00,
  0x80, 0xff, 0xff, 0xff, 0xff, 0xff, 0xff, 0xff, 0x00, 0x00, 0x00, 0x00,
  0x01, 0x00, 0x00, 0x00, 0xd4, 0x49, 0x04, 0x3d, 0x01, 0x00, 0x00, 0x00,
  0x8a, 0xc5, 0x03, 0x41, 0x01, 0x00, 0x00, 0x00, 0x00, 0x00, 0x00, 0x00,
  0x3b, 0x00, 0x00, 0x00, 0x53, 0x74, 0x61, 0x74, 0x65, 0x66, 0x75, 0x6c,
  0x50, 0x61, 0x72, 0x74, 0x69, 0x74, 0x69, 0x6f, 0x6e, 0x65, 0x64, 0x43,
  0x61, 0x6c, 0x6c, 0x2f, 0x73, 0x65, 0x71, 0x75, 0x65, 0x6e, 0x74, 0x69,
  0x61, 0x6c, 0x2f, 0x6d, 0x61, 0x78, 0x5f, 0x70, 0x6f, 0x6f, 0x6c, 0x69,
  0x6e, 0x67, 0x31, 0x64, 0x2f, 0x45, 0x78, 0x70, 0x61, 0x6e, 0x64, 0x44,
  0x69, 0x6d, 0x73, 0x00, 0x04, 0x00, 0x00, 0x00, 0x01, 0x00, 0x00, 0x00,
  0x96, 0x00, 0x00, 0x00, 0x01, 0x00, 0x00, 0x00, 0x08, 0x00, 0x00, 0x00,
  0x72, 0xf7, 0xff, 0xff, 0x00, 0x00, 0x00, 0x02, 0x20, 0x01, 0x00, 0x00,
  0x06, 0x00, 0x00, 0x00, 0xdc, 0x00, 0x00, 0x00, 0x04, 0x00, 0x00, 0x00,
  0x64, 0xf7, 0xff, 0xff, 0x8c, 0x00, 0x00, 0x00, 0x04, 0x00, 0x00, 0x00,
  0x10, 0x00, 0x00, 0x00, 0x00, 0x00, 0x00, 0x00, 0x00, 0x00, 0x00, 0x00,
  0x00, 0x00, 0x00, 0x00, 0x00, 0x00, 0x00, 0x00, 0x00, 0x00, 0x00, 0x00,
  0x00, 0x00, 0x00, 0x00, 0x00, 0x00, 0x00, 0x00, 0x00, 0x00, 0x00, 0x00,
  0x00, 0x00, 0x00, 0x00, 0x00, 0x00, 0x00, 0x00, 0x00, 0x00, 0x00, 0x00,
  0x00, 0x00, 0x00, 0x00, 0x00, 0x00, 0x00, 0x00, 0x00, 0x00, 0x00, 0x00,
  0x00, 0x00, 0x00, 0x00, 0x00, 0x00, 0x00, 0x00, 0x00, 0x00, 0x00, 0x00,
  0x00, 0x00, 0x00, 0x00, 0x00, 0x00, 0x00, 0x00, 0x00, 0x00, 0x00, 0x00,
  0x00, 0x00, 0x00, 0x00, 0x00, 0x00, 0x00, 0x00, 0x00, 0x00, 0x00, 0x00,
  0x00, 0x00, 0x00, 0x00, 0x00, 0x00, 0x00, 0x00, 0x00, 0x00, 0x00, 0x00,
  0x00, 0x00, 0x00, 0x00, 0x00, 0x00, 0x00, 0x00, 0x00, 0x00, 0x00, 0x00,
  0x00, 0x00, 0x00, 0x00, 0x00, 0x00, 0x00, 0x00, 0x00, 0x00, 0x00, 0x00,
  0x10, 0x00, 0x00, 0x00, 0x9e, 0xe2, 0x29, 0x39, 0x5b, 0x51, 0x0a, 0x39,
  0x05, 0xca, 0xe0, 0x38, 0xfb, 0xcc, 0x14, 0x39, 0xe4, 0xba, 0xed, 0x38,
  0x7a, 0xe0, 0xdc, 0x38, 0xd4, 0x79, 0xc2, 0x38, 0x7c, 0x75, 0xd7, 0x38,
  0xe8, 0xc9, 0xbe, 0x38, 0x92, 0x63, 0xd4, 0x38, 0x3f, 0xcf, 0xe8, 0x38,
  0xb1, 0xaa, 0xf0, 0x38, 0x49, 0x4f, 0x04, 0x39, 0xec, 0x6d, 0xd4, 0x38,
  0x1d, 0xa5, 0xd9, 0x38, 0xcb, 0xc0, 0x08, 0x39, 0x37, 0x00, 0x00, 0x00,
  0x53, 0x74, 0x61, 0x74, 0x65, 0x66, 0x75, 0x6c, 0x50, 0x61, 0x72, 0x74,
  0x69, 0x74, 0x69, 0x6f, 0x6e, 0x65, 0x64, 0x43, 0x61, 0x6c, 0x6c, 0x2f,
  0x73, 0x65, 0x71, 0x75, 0x65, 0x6e, 0x74, 0x69, 0x61, 0x6c, 0x2f, 0x63,
  0x6f, 0x6e, 0x76, 0x31, 0x64, 0x5f, 0x31, 0x2f, 0x63, 0x6f, 0x6e, 0x76,
  0x31, 0x64, 0x5f, 0x62, 0x69, 0x61, 0x73, 0x00, 0x01, 0x00, 0x00, 0x00,
  0x10, 0x00, 0x00, 0x00, 0xa2, 0xf8, 0xff, 0xff, 0x00, 0x00, 0x00, 0x09,
  0x8c, 0x00, 0x00, 0x00, 0x10, 0x00, 0x00, 0x00, 0x44, 0x00, 0x00, 0x00,
  0x04, 0x00, 0x00, 0x00, 0x4c, 0xf9, 0xff, 0xff, 0x30, 0x00, 0x00, 0x00,
  0x24, 0x00, 0x00, 0x00, 0x18, 0x00, 0x00, 0x00, 0x04, 0x00, 0x00, 0x00,
  0x01, 0x00, 0x00, 0x00, 0x80, 0xff, 0xff, 0xff, 0xff, 0xff, 0xff, 0xff,
  0x00, 0x00, 0x00, 0x00, 0x01, 0x00, 0x00, 0x00, 0x92, 0xa9, 0xdf, 0x3c,
  0x01, 0x00, 0x00, 0x00, 0xe8, 0xc9, 0xde, 0x40, 0x01, 0x00, 0x00, 0x00,
  0x00, 0x00, 0x00, 0x00, 0x3a, 0x00, 0x00, 0x00, 0x53, 0x74, 0x61, 0x74,
  0x65, 0x66, 0x75, 0x6c, 0x50, 0x61, 0x72, 0x74, 0x69, 0x74, 0x69, 0x6f,
  0x6e, 0x65, 0x64, 0x43, 0x61, 0x6c, 0x6c, 0x2f, 0x73, 0x65, 0x71, 0x75,
  0x65, 0x6e, 0x74, 0x69, 0x61, 0x6c, 0x2f, 0x63, 0x6f, 0x6e, 0x76, 0x31,
  0x64, 0x5f, 0x31, 0x2f, 0x63, 0x6f, 0x6e, 0x76, 0x31, 0x64, 0x2f, 0x53,
  0x71, 0x75, 0x65, 0x65, 0x7a, 0x65, 0x00, 0x00, 0x04, 0x00, 0x00, 0x00,
  0x01, 0x00, 0x00, 0x00, 0x01, 0x00, 0x00, 0x00, 0x4b, 0x00, 0x00, 0x00,
  0x10, 0x00, 0x00, 0x00, 0x4a, 0xf9, 0xff, 0xff, 0x00, 0x00, 0x00, 0x09,
  0xbc, 0x01, 0x00, 0x00, 0x07, 0x00, 0x00, 0x00, 0x70, 0x01, 0x00, 0x00,
  0x04, 0x00, 0x00, 0x00, 0xf4, 0xf9, 0xff, 0xff, 0x20, 0x01, 0x00, 0x00,
  0xd8, 0x00, 0x00, 0x00, 0x90, 0x00, 0x00, 0x00, 0x04, 0x00, 0x00, 0x00,
  0x10, 0x00, 0x00, 0x00, 0x00, 0x00, 0x00, 0x00, 0x00, 0x00, 0x00, 0x00,
  0x00, 0x00, 0x00, 0x00, 0x00, 0x00, 0x00, 0x00, 0x00, 0x00, 0x00, 0x00,
  0x00, 0x00, 0x00, 0x00, 0x00, 0x00, 0x00, 0x00, 0x00, 0x00, 0x00, 0x00,
  0x00, 0x00, 0x00, 0x00, 0x00, 0x00, 0x00, 0x00, 0x00, 0x00, 0x00, 0x00,
  0x00, 0x00, 0x00, 0x00, 0x00, 0x00, 0x00, 0x00, 0x00, 0x00, 0x00, 0x00,
  0x00, 0x00, 0x00, 0x00, 0x00, 0x00, 0x00, 0x00, 0x00, 0x00, 0x00, 0x00,
  0x00, 0x00, 0x00, 0x00, 0x00, 0x00, 0x00, 0x00, 0x00, 0x00, 0x00, 0x00,
  0x00, 0x00, 0x00, 0x00, 0x00, 0x00, 0x00, 0x00, 0x00, 0x00, 0x00, 0x00,
  0x00, 0x00, 0x00, 0x00, 0x00, 0x00, 0x00, 0x00, 0x00, 0x00, 0x00, 0x00,
  0x00, 0x00, 0x00, 0x00, 0x00, 0x00, 0x00, 0x00, 0x00, 0x00, 0x00, 0x00,
  0x00, 0x00, 0x00, 0x00, 0x00, 0x00, 0x00, 0x00, 0x00, 0x00, 0x00, 0x00,
  0x00, 0x00, 0x00, 0x00, 0x10, 0x00, 0x00, 0x00, 0xc8, 0x60, 0xa4, 0x3b,
  0x7e, 0xd5, 0x85, 0x3b, 0x8d, 0x80, 0x59, 0x3b, 0x1f, 0xfa, 0x8f, 0x3b,
  0x07, 0x06, 0x66, 0x3b, 0x7a, 0xb7, 0x55, 0x3b, 0xec, 0x2b, 0x3c, 0x3b,
  0x72, 0x79, 0x50, 0x3b, 0x99, 0x9a, 0x38, 0x3b, 0x02, 0x81, 0x4d, 0x3b,
  0x38, 0x43, 0x61, 0x3b, 0x75, 0xdd, 0x68, 0x3b, 0x48, 0x05, 0x80, 0x3b,
  0x06, 0x8b, 0x4d, 0x3b, 0xef, 0x96, 0x52, 0x3b, 0xea, 0x51, 0x84, 0x3b,
  0x10, 0x00, 0x00, 0x00, 0x06, 0x18, 0x23, 0x3f, 0xd3, 0xc9, 0x04, 0x3f,
  0x8c, 0xcd, 0xd7, 0x3e, 0x2b, 0xda, 0x0e, 0x3f, 0x52, 0x18, 0xbe, 0x3e,
  0x80, 0x32, 0xbe, 0x3e, 0xaa, 0x68, 0x8f, 0x3e, 0x6b, 0xc0, 0xc0, 0x3e,
  0xe4, 0x44, 0xae, 0x3e, 0x00, 0xe6, 0xcb, 0x3e, 0xb2, 0x80, 0xdf, 0x3e,
  0xba, 0x0b, 0xe7, 0x3e, 0x7a, 0x0a, 0xfe, 0x3e, 0xf0, 0xef, 0xcb, 0x3e,
  0xc1, 0xf1, 0xd0, 0x3e, 0x46, 0x49, 0x03, 0x3f, 0x10, 0x00, 0x00, 0x00,
  0x6e, 0x7a, 0xfc, 0xbe, 0x79, 0x30, 0x02, 0xbf, 0xaf, 0xa6, 0xa0, 0xbe,
  0x3a, 0xb9, 0xe9, 0xbe, 0xfb, 0x39, 0xe4, 0xbe, 0x0b, 0x0c, 0xd4, 0xbe,
  0x94, 0xb3, 0xba, 0xbe, 0x7f, 0xd8, 0xce, 0xbe, 0x64, 0x29, 0xb7, 0xbe,
  0xcb, 0xaf, 0xb6, 0xbe, 0x20, 0x1a, 0xc0, 0xbe, 0xf1, 0x48, 0x8c, 0xbe,
  0x3b, 0xe3, 0xda, 0xbe, 0x17, 0x88, 0xc3, 0xbe, 0x3c, 0xd8, 0xa5, 0xbe,
  0x27, 0x95, 0xec, 0xbe, 0x3f, 0x00, 0x00, 0x00, 0x53, 0x74, 0x61, 0x74,
  0x65, 0x66, 0x75, 0x6c, 0x50, 0x61, 0x72, 0x74, 0x69, 0x74, 0x69, 0x6f,
  0x6e, 0x65, 0x64, 0x43, 0x61, 0x6c, 0x6c, 0x2f, 0x73, 0x65, 0x71, 0x75,
  0x65, 0x6e, 0x74, 0x69, 0x61, 0x6c, 0x2f, 0x63, 0x6f, 0x6e, 0x76, 0x31,
  0x64, 0x5f, 0x31, 0x2f, 0x63, 0x6f, 0x6e, 0x76, 0x31, 0x64, 0x2f, 0x45,
  0x78, 0x70, 0x61, 0x6e, 0x64, 0x44, 0x69, 0x6d, 0x73, 0x5f, 0x31, 0x00,
  0x04, 0x00, 0x00, 0x00, 0x10, 0x00, 0x00, 0x00, 0x01, 0x00, 0x00, 0x00,
  0x03, 0x00, 0x00, 0x00, 0x08, 0x00, 0x00, 0x00, 0x22, 0xfb, 0xff, 0xff,
  0x00, 0x00, 0x00, 0x02, 0x5c, 0x00, 0x00, 0x00, 0x03, 0x00, 0x00, 0x00,
  0x0c, 0x00, 0x00, 0x00, 0x04, 0x00, 0x00, 0x00, 0xe4, 0xfc, 0xff, 0xff,
  0x43, 0x00, 0x00, 0x00, 0x53, 0x74, 0x61, 0x74, 0x65, 0x66, 0x75, 0x6c,
  0x50, 0x61, 0x72, 0x74, 0x69, 0x74, 0x69, 0x6f, 0x6e, 0x65, 0x64, 0x43,
  0x61, 0x6c, 0x6c, 0x2f, 0x73, 0x65, 0x71, 0x75, 0x65, 0x6e, 0x74, 0x69,
  0x61, 0x6c, 0x2f, 0x63, 0x6f, 0x6e, 0x76, 0x31, 0x64, 0x5f, 0x31, 0x2f,
  0x63, 0x6f, 0x6e, 0x76, 0x31, 0x64, 0x2f, 0x45, 0x78, 0x70, 0x61, 0x6e,
  0x64, 0x44, 0x69, 0x6d, 0x73, 0x2f, 0x64, 0x69, 0x6d, 0x5f, 0x30, 0x00,
  0x02, 0x00, 0x00, 0x00, 0x01, 0x00, 0x00, 0x00, 0x04, 0x00, 0x00, 0x00,
  0x92, 0xfb, 0xff, 0xff, 0x00, 0x00, 0x00, 0x09, 0x8c, 0x00, 0x00, 0x00,
  0x15, 0x00, 0x00, 0x00, 0x40, 0x00, 0x00, 0x00, 0x04, 0x00, 0x00, 0x00,
  0x3c, 0xfc, 0xff, 0xff, 0x2c, 0x00, 0x00, 0x00, 0x20, 0x00, 0x00, 0x00,
  0x14, 0x00, 0x00, 0x00, 0x04, 0x00, 0x00, 0x00, 0x01, 0x00, 0x00, 0x00,
  0x80, 0xff, 0xff, 0xff, 0xff, 0xff, 0xff, 0xff, 0x01, 0x00, 0x00, 0x00,
  0xd4, 0x49, 0x04, 0x3d, 0x01, 0x00, 0x00, 0x00, 0x8a, 0xc5, 0x03, 0x41,
  0x01, 0x00, 0x00, 0x00, 0x00, 0x00, 0x00, 0x00, 0x3d, 0x00, 0x00, 0x00,
  0x53, 0x74, 0x61, 0x74, 0x65, 0x66, 0x75, 0x6c, 0x50, 0x61, 0x72, 0x74,
  0x69, 0x74, 0x69, 0x6f, 0x6e, 0x65, 0x64, 0x43, 0x61, 0x6c, 0x6c, 0x2f,
  0x73, 0x65, 0x71, 0x75, 0x65, 0x6e, 0x74, 0x69, 0x61, 0x6c, 0x2f, 0x63,
  0x6f, 0x6e, 0x76, 0x31, 0x64, 0x5f, 0x31, 0x2f, 0x63, 0x6f, 0x6e, 0x76,
  0x31, 0x64, 0x2f, 0x45, 0x78, 0x70, 0x61, 0x6e, 0x64, 0x44, 0x69, 0x6d,
  0x73, 0x00, 0x00, 0x00, 0x04, 0x00, 0x00, 0x00, 0x01, 0x00, 0x00, 0x00,
  0x01, 0x00, 0x00, 0x00, 0x4b, 0x00, 0x00, 0x00, 0x08, 0x00, 0x00, 0x00,
  0x3a, 0xfc, 0xff, 0xff, 0x00, 0x00, 0x00, 0x02, 0xc0, 0x00, 0x00, 0x00,
  0x08, 0x00, 0x00, 0x00, 0x7c, 0x00, 0x00, 0x00, 0x04, 0x00, 0x00, 0x00,
  0x2c, 0xfc, 0xff, 0xff, 0x4c, 0x00, 0x00, 0x00, 0x04, 0x00, 0x00, 0x00,
  0x08, 0x00, 0x00, 0x00, 0x00, 0x00, 0x00, 0x00, 0x00, 0x00, 0x00, 0x00,
  0x00, 0x00, 0x00, 0x00, 0x00, 0x00, 0x00, 0x00, 0x00, 0x00, 0x00, 0x00,
  0x00, 0x00, 0x00, 0x00, 0x00, 0x00, 0x00, 0x00, 0x00, 0x00, 0x00, 0x00,
  0x00, 0x00, 0x00, 0x00, 0x00, 0x00, 0x00, 0x00, 0x00, 0x00, 0x00, 0x00,
  0x00, 0x00, 0x00, 0x00, 0x00, 0x00, 0x00, 0x00, 0x00, 0x00, 0x00, 0x00,
  0x00, 0x00, 0x00, 0x00, 0x00, 0x00, 0x00, 0x00, 0x08, 0x00, 0x00, 0x00,
  0x2f, 0x35, 0x27, 0x3a, 0xa4, 0x8b, 0x0a, 0x3a, 0xbc, 0xd2, 0x13, 0x3a,
  0x35, 0x3b, 0x26, 0x3a, 0xa6, 0x08, 0x13, 0x3a, 0xb7, 0x68, 0x12, 0x3a,
  0x7b, 0xd6, 0x36, 0x3a, 0xff, 0xef, 0x36, 0x3a, 0x35, 0x00, 0x00, 0x00,
  0x53, 0x74, 0x61, 0x74, 0x65, 0x66, 0x75, 0x6c, 0x50, 0x61, 0x72, 0x74,
  0x69, 0x74, 0x69, 0x6f, 0x6e, 0x65, 0x64, 0x43, 0x61, 0x6c, 0x6c, 0x2f,
  0x73, 0x65, 0x71, 0x75, 0x65, 0x6e, 0x74, 0x69, 0x61, 0x6c, 0x2f, 0x63,
  0x6f, 0x6e, 0x76, 0x31, 0x64, 0x2f, 0x63, 0x6f, 0x6e, 0x76, 0x31, 0x64,
  0x5f, 0x62, 0x69, 0x61, 0x73, 0x00, 0x00, 0x00, 0x01, 0x00, 0x00, 0x00,
  0x08, 0x00, 0x00, 0x00, 0x0a, 0xfd, 0xff, 0xff, 0x00, 0x00, 0x00, 0x09,
  0x18, 0x01, 0x00, 0x00, 0x09, 0x00, 0x00, 0x00, 0xcc, 0x00, 0x00, 0x00,
  0x04, 0x00, 0x00, 0x00, 0xb4, 0xfd, 0xff, 0xff, 0x9c, 0x00, 0x00, 0x00,
  0x74, 0x00, 0x00, 0x00, 0x4c, 0x00, 0x00, 0x00, 0x04, 0x00, 0x00, 0x00,
  0x08, 0x00, 0x00, 0x00, 0x00, 0x00, 0x00, 0x00, 0x00, 0x00, 0x00, 0x00,
  0x00, 0x00, 0x00, 0x00, 0x00, 0x00, 0x00, 0x00, 0x00, 0x00, 0x00, 0x00,
  0x00, 0x00, 0x00, 0x00, 0x00, 0x00, 0x00, 0x00, 0x00, 0x00, 0x00, 0x00,
  0x00, 0x00, 0x00, 0x00, 0x00, 0x00, 0x00, 0x00, 0x00, 0x00, 0x00, 0x00,
  0x00, 0x00, 0x00, 0x00, 0x00, 0x00, 0x00, 0x00, 0x00, 0x00, 0x00, 0x00,
  0x00, 0x00, 0x00, 0x00, 0x00, 0x00, 0x00, 0x00, 0x08, 0x00, 0x00, 0x00,
  0x8a, 0x64, 0x8e, 0x3b, 0xe5, 0xf7, 0x6b, 0x3b, 0x1d, 0xc5, 0x7b, 0x3b,
  0xa9, 0x8f, 0x8d, 0x3b, 0xed, 0x6c, 0x7a, 0x3b, 0x87, 0x5c, 0x79, 0x3b,
  0x02, 0xb4, 0x9b, 0x3b, 0xbd, 0xc9, 0x9b, 0x3b, 0x08, 0x00, 0x00, 0x00,
  0x28, 0xc8, 0xcf, 0x3e, 0xf5, 0x1f, 0xea, 0x3e, 0x93, 0xcd, 0xf9, 0x3e,
  0x44, 0xb0, 0x08, 0x3f, 0xcb, 0xbb, 0xdf, 0x3e, 0xed, 0xa9, 0xe5, 0x3e,
  0xbd, 0xb2, 0xf9, 0x3e, 0x21, 0xf0, 0xe8, 0x3e, 0x08, 0x00, 0x00, 0x00,
  0xc1, 0x47, 0x0d, 0xbf, 0x04, 0xa7, 0xd5, 0xbe, 0x3c, 0xce, 0xf6, 0xbe,
  0x8a, 0x74, 0x0c, 0xbf, 0x13, 0x78, 0xf8, 0xbe, 0xce, 0x69, 0xf7, 0xbe,
  0x9a, 0x7c, 0x1a, 0xbf, 0x2a, 0x92, 0x1a, 0xbf, 0x3d, 0x00, 0x00, 0x00,
  0x53, 0x74, 0x61, 0x74, 0x65, 0x66, 0x75, 0x6c, 0x50, 0x61, 0x72, 0x74,
  0x69, 0x74, 0x69, 0x6f, 0x6e, 0x65, 0x64, 0x43, 0x61, 0x6c, 0x6c, 0x2f,
  0x73, 0x65, 0x71, 0x75, 0x65, 0x6e, 0x74, 0x69, 0x61, 0x6c, 0x2f, 0x63,
  0x6f, 0x6e, 0x76, 0x31, 0x64, 0x2f, 0x63, 0x6f, 0x6e, 0x76, 0x31, 0x64,
  0x2f, 0x45, 0x78, 0x70, 0x61, 0x6e, 0x64, 0x44, 0x69, 0x6d, 0x73, 0x5f,
  0x31, 0x00, 0x00, 0x00, 0x04, 0x00, 0x00, 0x00, 0x08, 0x00, 0x00, 0x00,
  0x01, 0x00, 0x00, 0x00, 0x03, 0x00, 0x00, 0x00, 0x1a, 0x00, 0x00, 0x00,
  0x3e, 0xfe, 0xff, 0xff, 0x00, 0x00, 0x00, 0x02, 0x60, 0x00, 0x00, 0x00,
  0x0f, 0x00, 0x00, 0x00, 0x10, 0x00, 0x00, 0x00, 0x08, 0x00, 0x00, 0x00,
  0x04, 0x00, 0x04, 0x00, 0x04, 0x00, 0x00, 0x00, 0x41, 0x00, 0x00, 0x00,
  0x53, 0x74, 0x61, 0x74, 0x65, 0x66, 0x75, 0x6c, 0x50, 0x61, 0x72, 0x74,
  0x69, 0x74, 0x69, 0x6f, 0x6e, 0x65, 0x64, 0x43, 0x61, 0x6c, 0x6c, 0x2f,
  0x73, 0x65, 0x71, 0x75, 0x65, 0x6e, 0x74, 0x69, 0x61, 0x6c, 0x2f, 0x63,
  0x6f, 0x6e, 0x76, 0x31, 0x64, 0x2f, 0x63, 0x6f, 0x6e, 0x76, 0x31, 0x64,
  0x2f, 0x45, 0x78, 0x70, 0x61, 0x6e, 0x64, 0x44, 0x69, 0x6d, 0x73, 0x2f,
  0x64, 0x69, 0x6d, 0x5f, 0x30, 0x00, 0x00, 0x00, 0x02, 0x00, 0x00, 0x00,
  0x01, 0x00, 0x00, 0x00, 0x04, 0x00, 0x00, 0x00, 0xb2, 0xfe, 0xff, 0xff,
  0x00, 0x00, 0x00, 0x09, 0x88, 0x00, 0x00, 0x00, 0x12, 0x00, 0x00, 0x00,
  0x40, 0x00, 0x00, 0x00, 0x04, 0x00, 0x00, 0x00, 0x5c, 0xff, 0xff, 0xff,
  0x2c, 0x00, 0x00, 0x00, 0x20, 0x00, 0x00, 0x00, 0x14, 0x00, 0x00, 0x00,
  0x04, 0x00, 0x00, 0x00, 0x01, 0x00, 0x00, 0x00, 0xfb, 0xff, 0xff, 0xff,
  0xff, 0xff, 0xff, 0xff, 0x01, 0x00, 0x00, 0x00, 0x89, 0x4e, 0x16, 0x3e,
  0x01, 0x00, 0x00, 0x00, 0x36, 0x1d, 0x9b, 0x41, 0x01, 0x00, 0x00, 0x00,
  0x3e, 0x53, 0x90, 0xc1, 0x3b, 0x00, 0x00, 0x00, 0x53, 0x74, 0x61, 0x74,
  0x65, 0x66, 0x75, 0x6c, 0x50, 0x61, 0x72, 0x74, 0x69, 0x74, 0x69, 0x6f,
  0x6e, 0x65, 0x64, 0x43, 0x61, 0x6c, 0x6c, 0x2f, 0x73, 0x65, 0x71, 0x75,
  0x65, 0x6e, 0x74, 0x69, 0x61, 0x6c, 0x2f, 0x63, 0x6f, 0x6e, 0x76, 0x31,
  0x64, 0x2f, 0x63, 0x6f, 0x6e, 0x76, 0x31, 0x64, 0x2f, 0x45, 0x78, 0x70,
  0x61, 0x6e, 0x64, 0x44, 0x69, 0x6d, 0x73, 0x00, 0x04, 0x00, 0x00, 0x00,
  0x01, 0x00, 0x00, 0x00, 0x01, 0x00, 0x00, 0x00, 0x96, 0x00, 0x00, 0x00,
  0x1a, 0x00, 0x00, 0x00, 0x56, 0xff, 0xff, 0xff, 0x00, 0x00, 0x00, 0x09,
  0x8c, 0x00, 0x00, 0x00, 0x0e, 0x00, 0x00, 0x00, 0x50, 0x00, 0x00, 0x00,
  0x10, 0x00, 0x00, 0x00, 0x0c, 0x00, 0x14, 0x00, 0x04, 0x00, 0x08, 0x00,
  0x0c, 0x00, 0x10, 0x00, 0x0c, 0x00, 0x00, 0x00, 0x30, 0x00, 0x00, 0x00,
  0x24, 0x00, 0x00, 0x00, 0x18, 0x00, 0x00, 0x00, 0x04, 0x00, 0x00, 0x00,
  0x01, 0x00, 0x00, 0x00, 0x80, 0xff, 0xff, 0xff, 0xff, 0xff, 0xff, 0xff,
  0x00, 0x00, 0x00, 0x00, 0x01, 0x00, 0x00, 0x00, 0xd4, 0x49, 0x04, 0x3d,
  0x01, 0x00, 0x00, 0x00, 0x8a, 0xc5, 0x03, 0x41, 0x01, 0x00, 0x00, 0x00,
  0x00, 0x00, 0x00, 0x00, 0x2e, 0x00, 0x00, 0x00, 0x53, 0x74, 0x61, 0x74,
  0x65, 0x66, 0x75, 0x6c, 0x50, 0x61, 0x72, 0x74, 0x69, 0x74, 0x69, 0x6f,
  0x6e, 0x65, 0x64, 0x43, 0x61, 0x6c, 0x6c, 0x2f, 0x73, 0x65, 0x71, 0x75,
  0x65, 0x6e, 0x74, 0x69, 0x61, 0x6c, 0x2f, 0x63, 0x6f, 0x6e, 0x76, 0x31,
  0x64, 0x2f, 0x52, 0x65, 0x6c, 0x75, 0x00, 0x00, 0x04, 0x00, 0x00, 0x00,
  0x01, 0x00, 0x00, 0x00, 0x01, 0x00, 0x00, 0x00, 0x96, 0x00, 0x00, 0x00,
  0x08, 0x00, 0x00, 0x00, 0x00, 0x00, 0x0e, 0x00, 0x18, 0x00, 0x08, 0x00,
  0x07, 0x00, 0x0c, 0x00, 0x10, 0x00, 0x14, 0x00, 0x0e, 0x00, 0x00, 0x00,
  0x00, 0x00, 0x00, 0x09, 0x54, 0x00, 0x00, 0x00, 0x0a, 0x00, 0x00, 0x00,
  0x38, 0x00, 0x00, 0x00, 0x10, 0x00, 0x00, 0x00, 0x0c, 0x00, 0x0c, 0x00,
  0x00, 0x00, 0x00, 0x00, 0x04, 0x00, 0x08, 0x00, 0x0c, 0x00, 0x00, 0x00,
  0x18, 0x00, 0x00, 0x00, 0x04, 0x00, 0x00, 0x00, 0x01, 0x00, 0x00, 0x00,
  0x80, 0xff, 0xff, 0xff, 0xff, 0xff, 0xff, 0xff, 0x00, 0x00, 0x00, 0x00,
  0x01, 0x00, 0x00, 0x00, 0x00, 0x00, 0x80, 0x3b, 0x0d, 0x00, 0x00, 0x00,
  0x49, 0x64, 0x65, 0x6e, 0x74, 0x69, 0x74, 0x79, 0x5f, 0x69, 0x6e, 0x74,
  0x38, 0x00, 0x00, 0x00, 0x02, 0x00, 0x00, 0x00, 0x01, 0x00, 0x00, 0x00,
  0x02, 0x00, 0x00, 0x00, 0x07, 0x00, 0x00, 0x00, 0x7c, 0x00, 0x00, 0x00,
  0x60, 0x00, 0x00, 0x00, 0x44, 0x00, 0x00, 0x00, 0x38, 0x00, 0x00, 0x00,
  0x20, 0x00, 0x00, 0x00, 0x14, 0x00, 0x00, 0x00, 0x04, 0x00, 0x00, 0x00,
  0xaa, 0xff, 0xff, 0xff, 0x00, 0x00, 0x00, 0x06, 0x02, 0x00, 0x00, 0x00,
  0xea, 0xff, 0xff, 0xff, 0x00, 0x00, 0x00, 0x72, 0xd6, 0xff, 0xff, 0xff,
  0x00, 0x00, 0x00, 0x19, 0x02, 0x00, 0x00, 0x00, 0x00, 0x00, 0x06, 0x00,
  0x08, 0x00, 0x07, 0x00, 0x06, 0x00, 0x00, 0x00, 0x00, 0x00, 0x00, 0x16,
  0xf2, 0xff, 0xff, 0xff, 0x00, 0x00, 0x00, 0x11, 0x02, 0x00, 0x00, 0x00,
  0x00, 0x00, 0x0a, 0x00, 0x0e, 0x00, 0x07, 0x00, 0x00, 0x00, 0x08, 0x00,
  0x0a, 0x00, 0x00, 0x00, 0x00, 0x00, 0x00, 0x09, 0x04, 0x00, 0x00, 0x00,
  0x00, 0x00, 0x0a, 0x00, 0x0c, 0x00, 0x07, 0x00, 0x00, 0x00, 0x08, 0x00,
  0x0a, 0x00, 0x00, 0x00, 0x00, 0x00, 0x00, 0x03, 0x03, 0x00, 0x00, 0x00
};
unsigned int mfcc_tflite_len = 8184;
