unsigned char saved_tflite_model_mfcc_tflite[] = {
  0x28, 0x00, 0x00, 0x00, 0x54, 0x46, 0x4c, 0x33, 0x00, 0x00, 0x00, 0x00,
  0x00, 0x00, 0x00, 0x00, 0x00, 0x00, 0x00, 0x00, 0x14, 0x00, 0x20, 0x00,
  0x04, 0x00, 0x08, 0x00, 0x0c, 0x00, 0x10, 0x00, 0x14, 0x00, 0x00, 0x00,
  0x18, 0x00, 0x1c, 0x00, 0x14, 0x00, 0x00, 0x00, 0x03, 0x00, 0x00, 0x00,
  0xcc, 0x27, 0x00, 0x00, 0xcc, 0x15, 0x00, 0x00, 0xb4, 0x15, 0x00, 0x00,
  0xb0, 0x00, 0x00, 0x00, 0x78, 0x00, 0x00, 0x00, 0x04, 0x00, 0x00, 0x00,
  0x01, 0x00, 0x00, 0x00, 0x04, 0x00, 0x00, 0x00, 0xee, 0xe6, 0xff, 0xff,
  0x40, 0x00, 0x00, 0x00, 0x1c, 0x00, 0x00, 0x00, 0x04, 0x00, 0x00, 0x00,
  0x0f, 0x00, 0x00, 0x00, 0x73, 0x65, 0x72, 0x76, 0x69, 0x6e, 0x67, 0x5f,
  0x64, 0x65, 0x66, 0x61, 0x75, 0x6c, 0x74, 0x00, 0x01, 0x00, 0x00, 0x00,
  0x04, 0x00, 0x00, 0x00, 0xbc, 0xff, 0xff, 0xff, 0x08, 0x00, 0x00, 0x00,
  0x22, 0x00, 0x00, 0x00, 0x06, 0x00, 0x00, 0x00, 0x79, 0x5f, 0x70, 0x72,
  0x65, 0x64, 0x00, 0x00, 0x01, 0x00, 0x00, 0x00, 0x04, 0x00, 0x00, 0x00,
  0xf2, 0xe6, 0xff, 0xff, 0x04, 0x00, 0x00, 0x00, 0x0d, 0x00, 0x00, 0x00,
  0x72, 0x65, 0x73, 0x68, 0x61, 0x70, 0x65, 0x5f, 0x69, 0x6e, 0x70, 0x75,
  0x74, 0x00, 0x00, 0x00, 0x01, 0x00, 0x00, 0x00, 0x0c, 0x00, 0x00, 0x00,
  0x08, 0x00, 0x0c, 0x00, 0x04, 0x00, 0x08, 0x00, 0x08, 0x00, 0x00, 0x00,
  0x08, 0x00, 0x00, 0x00, 0x24, 0x00, 0x00, 0x00, 0x13, 0x00, 0x00, 0x00,
  0x6d, 0x69, 0x6e, 0x5f, 0x72, 0x75, 0x6e, 0x74, 0x69, 0x6d, 0x65, 0x5f,
  0x76, 0x65, 0x72, 0x73, 0x69, 0x6f, 0x6e, 0x00, 0x25, 0x00, 0x00, 0x00,
  0xec, 0x14, 0x00, 0x00, 0xd8, 0x14, 0x00, 0x00, 0xbc, 0x14, 0x00, 0x00,
  0x68, 0x14, 0x00, 0x00, 0x34, 0x14, 0x00, 0x00, 0x20, 0x14, 0x00, 0x00,
  0x0c, 0x14, 0x00, 0x00, 0xf8, 0x13, 0x00, 0x00, 0xe4, 0x13, 0x00, 0x00,
  0xd0, 0x13, 0x00, 0x00, 0xac, 0x13, 0x00, 0x00, 0x98, 0x13, 0x00, 0x00,
  0x04, 0x0d, 0x00, 0x00, 0x10, 0x08, 0x00, 0x00, 0xfc, 0x01, 0x00, 0x00,
  0xd8, 0x01, 0x00, 0x00, 0xb4, 0x01, 0x00, 0x00, 0x90, 0x01, 0x00, 0x00,
  0x84, 0x01, 0x00, 0x00, 0x70, 0x01, 0x00, 0x00, 0x5c, 0x01, 0x00, 0x00,
  0x48, 0x01, 0x00, 0x00, 0x34, 0x01, 0x00, 0x00, 0x20, 0x01, 0x00, 0x00,
  0x0c, 0x01, 0x00, 0x00, 0xf8, 0x00, 0x00, 0x00, 0xe4, 0x00, 0x00, 0x00,
  0xd0, 0x00, 0x00, 0x00, 0xbc, 0x00, 0x00, 0x00, 0xa8, 0x00, 0x00, 0x00,
  0x94, 0x00, 0x00, 0x00, 0x80, 0x00, 0x00, 0x00, 0x6c, 0x00, 0x00, 0x00,
  0x58, 0x00, 0x00, 0x00, 0x44, 0x00, 0x00, 0x00, 0x30, 0x00, 0x00, 0x00,
  0x04, 0x00, 0x00, 0x00, 0xda, 0xe7, 0xff, 0xff, 0x04, 0x00, 0x00, 0x00,
  0x10, 0x00, 0x00, 0x00, 0x31, 0x2e, 0x31, 0x31, 0x2e, 0x30, 0x00, 0x00,
  0x00, 0x00, 0x00, 0x00, 0x00, 0x00, 0x00, 0x00, 0x00, 0x00, 0x00, 0x00,
  0x00, 0x00, 0x00, 0x00, 0x00, 0x00, 0x00, 0x00, 0xe8, 0xd9, 0xff, 0xff,
  0x00, 0x00, 0x00, 0x00, 0x00, 0x00, 0x00, 0x00, 0x00, 0x00, 0x00, 0x00,
  0xf8, 0xd9, 0xff, 0xff, 0x00, 0x00, 0x00, 0x00, 0x00, 0x00, 0x00, 0x00,
  0x00, 0x00, 0x00, 0x00, 0x08, 0xda, 0xff, 0xff, 0x00, 0x00, 0x00, 0x00,
  0x00, 0x00, 0x00, 0x00, 0x00, 0x00, 0x00, 0x00, 0x18, 0xda, 0xff, 0xff,
  0x00, 0x00, 0x00, 0x00, 0x00, 0x00, 0x00, 0x00, 0x00, 0x00, 0x00, 0x00,
  0x28, 0xda, 0xff, 0xff, 0x00, 0x00, 0x00, 0x00, 0x00, 0x00, 0x00, 0x00,
  0x00, 0x00, 0x00, 0x00, 0x38, 0xda, 0xff, 0xff, 0x00, 0x00, 0x00, 0x00,
  0x00, 0x00, 0x00, 0x00, 0x00, 0x00, 0x00, 0x00, 0x48, 0xda, 0xff, 0xff,
  0x00, 0x00, 0x00, 0x00, 0x00, 0x00, 0x00, 0x00, 0x00, 0x00, 0x00, 0x00,
  0x58, 0xda, 0xff, 0xff, 0x00, 0x00, 0x00, 0x00, 0x00, 0x00, 0x00, 0x00,
  0x00, 0x00, 0x00, 0x00, 0x68, 0xda, 0xff, 0xff, 0x00, 0x00, 0x00, 0x00,
  0x00, 0x00, 0x00, 0x00, 0x00, 0x00, 0x00, 0x00, 0x78, 0xda, 0xff, 0xff,
  0x00, 0x00, 0x00, 0x00, 0x00, 0x00, 0x00, 0x00, 0x00, 0x00, 0x00, 0x00,
  0x88, 0xda, 0xff, 0xff, 0x00, 0x00, 0x00, 0x00, 0x00, 0x00, 0x00, 0x00,
  0x00, 0x00, 0x00, 0x00, 0x98, 0xda, 0xff, 0xff, 0x00, 0x00, 0x00, 0x00,
  0x00, 0x00, 0x00, 0x00, 0x00, 0x00, 0x00, 0x00, 0xa8, 0xda, 0xff, 0xff,
  0x00, 0x00, 0x00, 0x00, 0x00, 0x00, 0x00, 0x00, 0x00, 0x00, 0x00, 0x00,
  0xb8, 0xda, 0xff, 0xff, 0x00, 0x00, 0x00, 0x00, 0x00, 0x00, 0x00, 0x00,
  0x00, 0x00, 0x00, 0x00, 0xc8, 0xda, 0xff, 0xff, 0x00, 0x00, 0x00, 0x00,
  0x00, 0x00, 0x00, 0x00, 0x00, 0x00, 0x00, 0x00, 0xd8, 0xda, 0xff, 0xff,
  0x00, 0x00, 0x00, 0x00, 0x00, 0x00, 0x00, 0x00, 0x00, 0x00, 0x00, 0x00,
  0xe8, 0xda, 0xff, 0xff, 0x00, 0x00, 0x00, 0x00, 0x00, 0x00, 0x00, 0x00,
  0x00, 0x00, 0x00, 0x00, 0xf8, 0xda, 0xff, 0xff, 0x00, 0x00, 0x00, 0x00,
  0x1a, 0xe9, 0xff, 0xff, 0x04, 0x00, 0x00, 0x00, 0x0c, 0x00, 0x00, 0x00,
  0xff, 0xff, 0xff, 0xff, 0x1a, 0x00, 0x00, 0x00, 0x10, 0x00, 0x00, 0x00,
  0x00, 0x00, 0x00, 0x00, 0x00, 0x00, 0x00, 0x00, 0x3a, 0xe9, 0xff, 0xff,
  0x04, 0x00, 0x00, 0x00, 0x0c, 0x00, 0x00, 0x00, 0xff, 0xff, 0xff, 0xff,
  0x1a, 0x00, 0x00, 0x00, 0x08, 0x00, 0x00, 0x00, 0x00, 0x00, 0x00, 0x00,
  0x00, 0x00, 0x00, 0x00, 0x5a, 0xe9, 0xff, 0xff, 0x04, 0x00, 0x00, 0x00,
  0x0c, 0x00, 0x00, 0x00, 0xff, 0xff, 0xff, 0xff, 0x34, 0x00, 0x00, 0x00,
  0x08, 0x00, 0x00, 0x00, 0x00, 0x00, 0x00, 0x00, 0x00, 0x00, 0x00, 0x00,
  0x7a, 0xe9, 0xff, 0xff, 0x04, 0x00, 0x00, 0x00, 0x00, 0x06, 0x00, 0x00,
  0xda, 0x25, 0x71, 0x3e, 0xb1, 0xd7, 0xed, 0xbe, 0x12, 0xb8, 0x5c, 0xbf,
  0x0b, 0x4f, 0xe5, 0x3d, 0x38, 0x60, 0x4f, 0xbe, 0xe2, 0xa5, 0x8b, 0xbb,
  0x64, 0x43, 0xc9, 0x3e, 0xcb, 0x40, 0x2c, 0xbd, 0x5e, 0xfe, 0x83, 0x3e,
  0x0f, 0x25, 0xe7, 0x3d, 0xb5, 0x7d, 0x97, 0xbe, 0x25, 0x9c, 0xa1, 0x3e,
  0x5a, 0xc0, 0xc4, 0xbe, 0x00, 0x28, 0x1a, 0x3e, 0x57, 0xa7, 0x7f, 0x3d,
  0xd2, 0x98, 0x84, 0xbd, 0xd4, 0xe8, 0x99, 0x3d, 0x79, 0x4c, 0x53, 0xba,
  0x1c, 0xad, 0x44, 0xbe, 0xcc, 0xe2, 0x55, 0xbe, 0x7e, 0xdb, 0x66, 0xbe,
  0x81, 0x06, 0xf0, 0xb9, 0x7d, 0xc9, 0x8c, 0xbb, 0xbb, 0xc9, 0xec, 0xbd,
  0x26, 0xab, 0x77, 0x3e, 0xa8, 0xb3, 0x44, 0x3d, 0x07, 0x4c, 0xaa, 0x3e,
  0x0e, 0xc9, 0xa3, 0x3e, 0x6a, 0xd7, 0xd2, 0xbd, 0x0b, 0xe0, 0xa6, 0x3e,
  0xe3, 0xd6, 0x51, 0x3e, 0x4e, 0xcc, 0x35, 0x3c, 0xd1, 0x1e, 0xea, 0xbd,
  0xea, 0x35, 0x91, 0xbe, 0x9b, 0x8f, 0x2f, 0xbf, 0xa1, 0x4b, 0xe7, 0xbe,
  0x8d, 0xef, 0x9a, 0xbd, 0x6c, 0xd9, 0x76, 0xbe, 0xc2, 0x36, 0xe0, 0xbe,
  0x7c, 0xdc, 0x97, 0xbe, 0x00, 0x71, 0x9a, 0x3a, 0x56, 0x33, 0x04, 0xbd,
  0x73, 0x4b, 0x72, 0xbd, 0xb7, 0x51, 0x6c, 0xbe, 0x03, 0x05, 0x2d, 0xbe,
  0x4f, 0x7c, 0x94, 0x3e, 0x42, 0x92, 0x0c, 0x3d, 0xe6, 0x5a, 0x1c, 0xbe,
  0xcb, 0x45, 0x8a, 0x3e, 0x85, 0x65, 0x46, 0x3e, 0x11, 0xff, 0x72, 0xbe,
  0xfd, 0xfa, 0x40, 0xbe, 0xb1, 0x09, 0x9f, 0xbe, 0x31, 0x0e, 0x35, 0xbe,
  0x88, 0x44, 0xc5, 0xbe, 0x08, 0x74, 0x7d, 0x3e, 0x48, 0x37, 0x02, 0xbf,
  0x94, 0x6d, 0x9b, 0xbe, 0xac, 0xd0, 0x9b, 0xbe, 0x55, 0xd5, 0x93, 0xbe,
  0xb4, 0x6e, 0xfa, 0xbe, 0xd1, 0x96, 0xdf, 0xbe, 0x11, 0x4f, 0x06, 0xbf,
  0xc0, 0x51, 0x07, 0xbd, 0xa2, 0x09, 0x2d, 0x3d, 0x43, 0x7f, 0x9b, 0x3e,
  0x8c, 0x09, 0x44, 0xbc, 0x63, 0x70, 0xd3, 0x3c, 0x0f, 0xd6, 0x97, 0xbe,
  0xe6, 0x66, 0x4c, 0x3e, 0x63, 0x8c, 0x70, 0x3d, 0x9d, 0xac, 0x2f, 0xbc,
  0xe6, 0xc4, 0x64, 0xbe, 0x67, 0x66, 0x28, 0x3e, 0xde, 0xa1, 0x9e, 0x3e,
  0x6b, 0xc6, 0x69, 0xbd, 0xea, 0x8f, 0xac, 0x3e, 0xe0, 0x0c, 0xb0, 0x3e,
  0xf3, 0xa3, 0xe6, 0xbb, 0xf3, 0xcb, 0xd0, 0xbd, 0x5f, 0x1b, 0x91, 0xbe,
  0x4f, 0xfa, 0x5c, 0xbd, 0x8c, 0x5b, 0x41, 0xbe, 0xbc, 0x65, 0x6f, 0xbe,
  0xb2, 0xdc, 0x6e, 0x3d, 0xfb, 0x01, 0xc6, 0xbe, 0xd3, 0x39, 0x52, 0xbe,
  0x9d, 0x12, 0xca, 0x3c, 0x70, 0x70, 0xb7, 0xbb, 0x0a, 0xf5, 0x89, 0x3c,
  0xa3, 0xff, 0x3d, 0xbd, 0xce, 0x92, 0x3a, 0x3e, 0xb9, 0x68, 0xff, 0xbe,
  0x7e, 0x40, 0x34, 0xbe, 0x07, 0x45, 0xaa, 0xbd, 0xb7, 0xba, 0xf1, 0x3d,
  0xec, 0xa0, 0x95, 0xbe, 0xf4, 0xe7, 0x18, 0xbe, 0x1e, 0x99, 0xc6, 0xbe,
  0x8e, 0x5b, 0xd7, 0xbe, 0x24, 0xb1, 0x60, 0x3c, 0x54, 0x18, 0x3f, 0xbe,
  0x41, 0xe5, 0x2d, 0x3f, 0x49, 0x87, 0xc4, 0x3d, 0x20, 0x79, 0x2a, 0xbe,
  0xcd, 0x58, 0x80, 0x3e, 0x9f, 0x64, 0xbb, 0x3e, 0x68, 0x5a, 0x23, 0xbe,
  0x10, 0xb9, 0xe3, 0x3d, 0xdc, 0xee, 0x7c, 0x3e, 0x5d, 0x59, 0x62, 0xbe,
  0x58, 0x31, 0x0a, 0x3e, 0x37, 0xf2, 0xb9, 0xbe, 0x71, 0xc4, 0x0b, 0xbe,
  0x12, 0xc5, 0x0c, 0x3d, 0x42, 0x8d, 0xb0, 0xbe, 0x91, 0x45, 0x02, 0xbf,
  0x3b, 0xdb, 0x8c, 0xbe, 0xb2, 0xa7, 0x80, 0xbe, 0xb6, 0x7f, 0x64, 0xbe,
  0xd6, 0xf7, 0xec, 0x3e, 0x0a, 0xd5, 0x2a, 0xbe, 0x2c, 0x01, 0x82, 0x3d,
  0x36, 0x9d, 0x2d, 0x3d, 0x4c, 0x46, 0xed, 0xbd, 0x05, 0xa0, 0x8d, 0xbd,
  0x37, 0xf0, 0x8d, 0x3d, 0x35, 0x9b, 0x71, 0xbe, 0xff, 0x01, 0x69, 0xbe,
  0x98, 0x68, 0xcc, 0x3d, 0x11, 0xfb, 0x1b, 0x3b, 0x3d, 0x1c, 0x4b, 0xbe,
  0x2f, 0x24, 0xf0, 0x3e, 0xfb, 0xdc, 0x72, 0xbd, 0x20, 0xb7, 0x9b, 0xbd,
  0x25, 0xf9, 0x23, 0xbe, 0xc6, 0xe9, 0xa7, 0x3e, 0x1d, 0x25, 0x1d, 0xbe,
  0x69, 0x0c, 0xe8, 0x3e, 0x92, 0xfd, 0x16, 0xbe, 0xe0, 0x5a, 0x19, 0xbe,
  0x17, 0x5e, 0xe4, 0x3d, 0x81, 0x6e, 0x83, 0xbc, 0xf6, 0xcc, 0x5f, 0x3e,
  0xb4, 0x1c, 0xfd, 0xbd, 0xd6, 0x5a, 0xb0, 0x3d, 0x71, 0x6a, 0x76, 0xbe,
  0xb8, 0xc0, 0xc5, 0xbe, 0x6c, 0xb5, 0xcb, 0xbe, 0xe8, 0xca, 0x42, 0xbe,
  0xec, 0x53, 0x15, 0xbe, 0xfe, 0x59, 0x35, 0xbc, 0x91, 0x07, 0xd7, 0xbd,
  0xc2, 0x28, 0x4e, 0x3c, 0x29, 0xbb, 0x5a, 0xbe, 0xc6, 0x05, 0x44, 0xbe,
  0x34, 0xe5, 0x9e, 0x3e, 0xf1, 0x83, 0x07, 0x3e, 0x04, 0x01, 0x08, 0x3f,
  0x88, 0x0f, 0xd7, 0x3d, 0x6f, 0xbc, 0xff, 0xbd, 0x8a, 0x24, 0x51, 0xbd,
  0x09, 0x1e, 0x5b, 0x3e, 0x2b, 0x0b, 0x25, 0x3e, 0xf5, 0xfe, 0x60, 0xbe,
  0x25, 0xfd, 0x37, 0xbe, 0x6f, 0x32, 0x4c, 0x3d, 0xa0, 0x65, 0xc1, 0xbe,
  0xdf, 0x40, 0xba, 0xbe, 0xad, 0xa7, 0xa4, 0x3d, 0xdc, 0xbd, 0x9d, 0xbe,
  0x10, 0x2c, 0x07, 0xbe, 0x1a, 0x99, 0x5a, 0xba, 0xf7, 0x27, 0x00, 0xbf,
  0xde, 0x34, 0x24, 0x3e, 0xe5, 0x4a, 0x10, 0xbe, 0x79, 0xf1, 0x1d, 0x3e,
  0xa5, 0xd6, 0xeb, 0xbe, 0xb2, 0x49, 0xb2, 0xbe, 0x0a, 0xe5, 0x8a, 0xbd,
  0x02, 0xf4, 0xa2, 0x3e, 0x6f, 0xfb, 0x68, 0xbe, 0x2d, 0xd4, 0x78, 0xbc,
  0x64, 0x60, 0xfc, 0x3e, 0x41, 0x5e, 0x63, 0xbe, 0x1e, 0xba, 0x05, 0xbf,
  0x12, 0x40, 0xba, 0x3d, 0xfb, 0x38, 0xf7, 0xbc, 0x1b, 0x4f, 0x34, 0xbe,
  0x89, 0x54, 0x5c, 0xbe, 0xee, 0xbd, 0x71, 0xbd, 0xeb, 0xe1, 0x0c, 0x3f,
  0xd4, 0xa7, 0x8e, 0xbe, 0xc9, 0x46, 0xf1, 0x3d, 0x12, 0xc6, 0x0d, 0xbe,
  0x83, 0xaf, 0x82, 0xbe, 0xc9, 0x23, 0x4d, 0xbe, 0xe1, 0x1d, 0x54, 0x3e,
  0x6f, 0x2f, 0xa1, 0x3e, 0xc3, 0x33, 0x61, 0x3e, 0xbe, 0x7d, 0x93, 0xbd,
  0xd8, 0x45, 0x49, 0xbe, 0xe0, 0xce, 0xb1, 0x3b, 0xf4, 0x3e, 0x11, 0x3e,
  0x13, 0xe0, 0xb1, 0xbe, 0xfb, 0x56, 0x93, 0xbe, 0x49, 0xdf, 0x0a, 0xbf,
  0xd4, 0x4c, 0x8e, 0x3e, 0xff, 0x21, 0x88, 0xbe, 0x9b, 0xe7, 0x13, 0xbe,
  0x27, 0x87, 0xb8, 0xbe, 0x86, 0x70, 0xa7, 0x3d, 0xa7, 0x55, 0xd0, 0xbe,
  0x19, 0x2b, 0x18, 0xbf, 0x55, 0xcf, 0x5b, 0xbe, 0xd2, 0x87, 0x83, 0xbe,
  0x8e, 0xae, 0xd5, 0xbe, 0x1a, 0x83, 0x96, 0x3e, 0x37, 0x03, 0xc1, 0x3e,
  0x14, 0xbb, 0xe8, 0x3d, 0x91, 0xa9, 0x4e, 0xbe, 0x6c, 0x29, 0x10, 0xbe,
  0x59, 0x4d, 0x3d, 0xbc, 0xb8, 0xbd, 0x38, 0xbd, 0x63, 0xb3, 0xc4, 0xbe,
  0x10, 0xd0, 0xc5, 0xbe, 0xe8, 0x5b, 0x31, 0xbe, 0x9b, 0x98, 0xea, 0x3b,
  0x97, 0xae, 0x8f, 0x3d, 0x1d, 0x4c, 0xc7, 0xbe, 0x2d, 0x73, 0x3d, 0xbf,
  0x8d, 0x4d, 0x89, 0x3d, 0x42, 0xbf, 0xd7, 0xbe, 0x33, 0x56, 0x13, 0x3e,
  0x33, 0x87, 0xea, 0xbe, 0x22, 0xe8, 0x27, 0xbe, 0x68, 0xb6, 0x4f, 0x3e,
  0xb4, 0x70, 0x8c, 0xbd, 0x57, 0xd9, 0x87, 0x3e, 0x99, 0x22, 0xb1, 0xbb,
  0x79, 0xe3, 0x91, 0xbc, 0x30, 0x6d, 0xe3, 0xbd, 0xb3, 0x95, 0x3d, 0xbf,
  0xcc, 0x8d, 0xa8, 0x3e, 0x63, 0x7f, 0xdb, 0x3d, 0xf5, 0x7d, 0x0d, 0xbf,
  0xbc, 0x31, 0x03, 0xbf, 0x88, 0x19, 0x5a, 0xbe, 0xf2, 0x00, 0x30, 0xbe,
  0xe3, 0x2f, 0xcf, 0xbe, 0x60, 0x18, 0x0e, 0xbe, 0x9b, 0xba, 0x7d, 0x3d,
  0xdc, 0x77, 0x4a, 0x3e, 0x72, 0x54, 0x0d, 0x3e, 0x0e, 0x57, 0xc2, 0x3e,
  0x4c, 0x82, 0xbd, 0x3e, 0x5e, 0x96, 0x11, 0xbe, 0x44, 0xa1, 0x40, 0xbe,
  0x99, 0x52, 0xb5, 0xbd, 0xe8, 0xb2, 0x10, 0x3e, 0x90, 0xc1, 0xea, 0xbe,
  0x8d, 0xbf, 0xa4, 0x3e, 0x6e, 0x72, 0xcf, 0x3d, 0x51, 0x40, 0xf4, 0xbd,
  0xd9, 0x84, 0x38, 0xbe, 0x6a, 0x86, 0x99, 0x3d, 0x9d, 0x29, 0x98, 0x3e,
  0x3e, 0xb2, 0xde, 0xbd, 0xd5, 0x9e, 0xbb, 0xbe, 0x81, 0x29, 0xa8, 0xbe,
  0xae, 0x50, 0x82, 0xbd, 0x1f, 0x39, 0x85, 0x3d, 0x89, 0xea, 0x0b, 0xbe,
  0x32, 0xe3, 0x46, 0xbd, 0xd0, 0x4c, 0x5c, 0x3d, 0x94, 0x00, 0xc2, 0xbd,
  0x62, 0xde, 0x5e, 0xbe, 0xb2, 0x84, 0xc2, 0xbc, 0xa9, 0xba, 0x36, 0x3e,
  0xa5, 0x8d, 0xe8, 0x3e, 0x38, 0x46, 0xe3, 0xbd, 0xd4, 0x8b, 0xa6, 0xbe,
  0x5d, 0xec, 0x57, 0xbe, 0xd0, 0x32, 0xd1, 0xbe, 0x51, 0x4e, 0x9e, 0xbe,
  0x92, 0x90, 0x12, 0xbf, 0xc9, 0x77, 0x96, 0xbe, 0x11, 0xb8, 0x1b, 0x3e,
  0x80, 0x89, 0x42, 0xbd, 0x46, 0x80, 0x62, 0xbd, 0x83, 0x9c, 0x08, 0xbf,
  0xd1, 0x8c, 0x4d, 0xbd, 0xf7, 0xfb, 0x9e, 0xbd, 0x9c, 0x9f, 0x18, 0x3f,
  0xd7, 0x3b, 0xe8, 0xbd, 0x17, 0x8c, 0xac, 0xbd, 0x5b, 0x5f, 0xf4, 0xbd,
  0x7a, 0xdf, 0x74, 0x3e, 0x89, 0xc4, 0x5d, 0xbd, 0x78, 0xc8, 0x25, 0x3e,
  0xc0, 0x6f, 0x1f, 0xbd, 0x9a, 0x2d, 0x1e, 0x3e, 0x5b, 0xeb, 0xc8, 0x3e,
  0x14, 0x43, 0x2c, 0xbe, 0xec, 0x03, 0x0f, 0xbe, 0x33, 0x87, 0x89, 0x3e,
  0x0b, 0x6f, 0x18, 0xbe, 0xe9, 0xd5, 0x7b, 0xbe, 0x66, 0x9d, 0xba, 0xbe,
  0x1a, 0xe9, 0x31, 0x3e, 0xb0, 0x3b, 0x39, 0xbe, 0x6c, 0x12, 0x96, 0xbe,
  0x9d, 0xa7, 0xe7, 0xbd, 0x0e, 0x7c, 0x9b, 0xbe, 0x75, 0xe4, 0x88, 0xbd,
  0x7d, 0xe0, 0x9b, 0xbe, 0x89, 0xe3, 0x8e, 0xbe, 0xcb, 0x40, 0xae, 0x3e,
  0x01, 0x23, 0x26, 0x3d, 0x54, 0x5a, 0x82, 0xbe, 0x47, 0xd9, 0xaa, 0xbe,
  0x34, 0x96, 0x15, 0xbe, 0x9d, 0x76, 0x81, 0xbe, 0x24, 0x0a, 0xa5, 0xbe,
  0x48, 0xb3, 0x81, 0xbf, 0x8f, 0xa9, 0xfc, 0x3e, 0x33, 0xb2, 0xbc, 0xbd,
  0xdc, 0x7a, 0x0e, 0xbe, 0x5e, 0x2a, 0x30, 0xbf, 0x11, 0x66, 0x0d, 0x3e,
  0x28, 0x18, 0x91, 0xbe, 0x86, 0x4c, 0x57, 0x3c, 0x3a, 0xbd, 0x42, 0xbd,
  0x3f, 0x19, 0x6b, 0xbe, 0x4e, 0xd9, 0xfd, 0xbe, 0xf3, 0x82, 0x50, 0xbe,
  0x5d, 0xe9, 0x62, 0x3e, 0xb5, 0x38, 0x1d, 0xbd, 0x83, 0x69, 0x54, 0x3e,
  0xab, 0xb6, 0xa7, 0x3e, 0x77, 0xaa, 0x42, 0x3d, 0x01, 0x60, 0x73, 0x3e,
  0x60, 0x7c, 0xe3, 0x3d, 0xc0, 0x9f, 0x75, 0x3d, 0xe3, 0xb2, 0xc0, 0xbd,
  0x2d, 0xd7, 0x2e, 0x3c, 0xe7, 0x03, 0x01, 0xbf, 0xe3, 0x9e, 0x24, 0xbe,
  0x33, 0x33, 0x61, 0xbe, 0x68, 0x78, 0xff, 0xbe, 0x27, 0xb3, 0x0c, 0xbf,
  0xb6, 0x11, 0x93, 0xbe, 0x6b, 0x76, 0xa5, 0xbd, 0xc6, 0xde, 0x83, 0xbe,
  0xaf, 0x04, 0xb1, 0x3c, 0xbd, 0x46, 0x1e, 0xbe, 0x74, 0x8e, 0x0f, 0x3e,
  0x6a, 0x02, 0x95, 0x3e, 0x96, 0x1c, 0xb9, 0xbd, 0x26, 0x54, 0x53, 0x3d,
  0x22, 0x48, 0x19, 0xbe, 0x15, 0x97, 0xd2, 0xbd, 0xe4, 0x85, 0x24, 0x3f,
  0xe9, 0x9c, 0x2a, 0xbe, 0xe2, 0xe4, 0x97, 0xbc, 0x47, 0x07, 0x80, 0xbe,
  0x8c, 0xf9, 0x93, 0xbd, 0xc3, 0x1b, 0x62, 0xbe, 0xb8, 0x0f, 0xe7, 0xbe,
  0x71, 0x78, 0x8c, 0xbe, 0x5d, 0x3a, 0x8c, 0xbc, 0x84, 0x35, 0x88, 0x3b,
  0xcc, 0xd2, 0xfd, 0x3d, 0x6d, 0xa1, 0xaf, 0x3e, 0xa2, 0xdc, 0xa6, 0x3e,
  0xf3, 0x07, 0x2e, 0xbe, 0xde, 0x0d, 0x00, 0xbe, 0xd7, 0x7e, 0xfe, 0x3c,
  0x4f, 0xdb, 0x4a, 0x3e, 0x2f, 0xa3, 0x3d, 0x3e, 0x12, 0xdf, 0x9c, 0xb9,
  0xcc, 0x1b, 0x19, 0xbe, 0x93, 0xd8, 0xd1, 0xbb, 0x6e, 0xc1, 0x0f, 0x3d,
  0x00, 0x00, 0x00, 0x00, 0x8a, 0xef, 0xff, 0xff, 0x04, 0x00, 0x00, 0x00,
  0xe0, 0x04, 0x00, 0x00, 0xa1, 0xab, 0x73, 0xbe, 0xc9, 0xaa, 0x42, 0xbe,
  0x29, 0xfb, 0x85, 0x3d, 0xbf, 0x1a, 0x85, 0xbe, 0xef, 0x23, 0x8a, 0xbb,
  0x7e, 0x1e, 0x74, 0xbe, 0xf0, 0x19, 0x82, 0x3e, 0xad, 0x0e, 0x38, 0x3d,
  0xa3, 0xa0, 0x39, 0xbd, 0x3a, 0x93, 0x27, 0x3d, 0xf5, 0x24, 0x8c, 0xbe,
  0x5e, 0x0f, 0x8b, 0x3e, 0xcd, 0x8b, 0x49, 0x3e, 0xd3, 0xe3, 0xc5, 0xbc,
  0x2b, 0xa7, 0x2f, 0xbf, 0x24, 0x35, 0x69, 0xbe, 0x09, 0x3a, 0x00, 0x3f,
  0x64, 0x7c, 0x2f, 0xbe, 0xbe, 0x44, 0x19, 0xbf, 0x3c, 0x1d, 0xe8, 0x3e,
  0x12, 0x25, 0x05, 0xbe, 0xfd, 0x30, 0x9d, 0xbe, 0xe4, 0x4a, 0x63, 0x3e,
  0x2f, 0x1b, 0x21, 0xbd, 0x82, 0xee, 0xbb, 0x3e, 0x43, 0x2c, 0x88, 0x3e,
  0xed, 0xd9, 0xa8, 0x3d, 0xae, 0x96, 0x65, 0x3e, 0xca, 0xb2, 0x0d, 0xbe,
  0x2e, 0x17, 0x35, 0xbe, 0x18, 0xd6, 0x3c, 0x3e, 0x4c, 0xbe, 0xb0, 0x3d,
  0xe9, 0x35, 0x68, 0xbd, 0x65, 0xa1, 0x1a, 0x3e, 0x2c, 0xe8, 0x75, 0xbe,
  0x99, 0x0e, 0x39, 0xbd, 0xac, 0x46, 0xd0, 0xbe, 0xfa, 0xc3, 0xbc, 0xbd,
  0x79, 0x04, 0xd0, 0xbd, 0x70, 0x4d, 0x6d, 0x3e, 0xc2, 0x8f, 0x1a, 0x3d,
  0x7d, 0x00, 0x16, 0xbe, 0xcb, 0xaa, 0xa0, 0xbe, 0xce, 0x54, 0x0b, 0xbe,
  0x25, 0xc0, 0xb5, 0xbd, 0x46, 0x09, 0x39, 0x3e, 0xa7, 0x6a, 0xdd, 0x3d,
  0x15, 0x76, 0xc5, 0x3d, 0xc0, 0x87, 0x17, 0x3e, 0x65, 0xd0, 0x8d, 0xbe,
  0xd4, 0x3c, 0x3f, 0x3d, 0x6a, 0xd2, 0xcf, 0x3d, 0x59, 0x92, 0x25, 0xbe,
  0x38, 0xd7, 0x94, 0xbd, 0x0f, 0xff, 0xb5, 0xbd, 0x51, 0xf7, 0x08, 0xbe,
  0xce, 0x12, 0x28, 0xbe, 0x71, 0x19, 0x5a, 0xbe, 0x33, 0x5b, 0xa8, 0xbe,
  0xf6, 0xa5, 0xbc, 0x3d, 0x52, 0x1f, 0x55, 0x3e, 0x3e, 0x23, 0x89, 0x3e,
  0x1d, 0x0a, 0x92, 0x3d, 0xec, 0x3f, 0xd7, 0x3c, 0xfa, 0xe1, 0x08, 0xbe,
  0xe9, 0x04, 0x2a, 0xbe, 0x6f, 0x44, 0x26, 0xbe, 0xfd, 0x72, 0x4a, 0xbe,
  0xdd, 0xe3, 0x9b, 0xbe, 0xdc, 0xd9, 0x25, 0x3e, 0xbf, 0x82, 0xbd, 0xbe,
  0x53, 0x22, 0x0d, 0x3e, 0xb4, 0xa1, 0x8d, 0xbe, 0x67, 0x25, 0x0b, 0xbd,
  0xda, 0xac, 0x73, 0x3e, 0xfa, 0x7a, 0x6f, 0x3c, 0x56, 0x3b, 0x4a, 0xbe,
  0xe8, 0x67, 0xbd, 0x3c, 0x30, 0x58, 0x8f, 0x3e, 0x7c, 0xd6, 0x6a, 0x3e,
  0x9a, 0xd4, 0x6d, 0xbe, 0x0e, 0xdc, 0x14, 0x3e, 0xc3, 0x6f, 0xee, 0xbe,
  0xba, 0x01, 0x6c, 0xbc, 0x29, 0x66, 0xa0, 0xbe, 0x4e, 0x9a, 0xa0, 0xbe,
  0xe0, 0xfa, 0x19, 0x3e, 0x87, 0x00, 0x17, 0xbe, 0xf0, 0x6b, 0x71, 0x3d,
  0x18, 0xe8, 0xf8, 0xbc, 0x76, 0x1e, 0x94, 0x3e, 0x32, 0x51, 0x72, 0xbe,
  0xbb, 0xc0, 0x0f, 0xbe, 0xe1, 0xa6, 0x47, 0xbe, 0x63, 0x91, 0x3f, 0xbe,
  0x50, 0x42, 0xf3, 0x3d, 0x40, 0xa0, 0xa1, 0x3e, 0x36, 0x5e, 0x06, 0x3e,
  0xe1, 0x00, 0x21, 0xbf, 0x58, 0x38, 0x03, 0xbe, 0x4f, 0xe4, 0xb7, 0xbe,
  0x64, 0x5c, 0x72, 0xbd, 0xab, 0x66, 0x00, 0xbf, 0x17, 0x4e, 0x16, 0xbe,
  0x2e, 0xc8, 0x07, 0x3e, 0x87, 0x3e, 0xc5, 0x3d, 0x30, 0x17, 0x94, 0x3e,
  0xd3, 0x15, 0xea, 0x3d, 0x0b, 0x3f, 0xb4, 0xbe, 0x94, 0x25, 0x8b, 0xbe,
  0xdc, 0x2c, 0x4e, 0xbe, 0x8d, 0x9c, 0x04, 0x3f, 0x48, 0x52, 0xe7, 0xbd,
  0x31, 0x5f, 0x0b, 0x3e, 0x8a, 0x75, 0xe3, 0x3d, 0x81, 0x28, 0x55, 0xbd,
  0x91, 0xfd, 0x19, 0xbe, 0x25, 0xe1, 0xad, 0xbd, 0xc1, 0x9e, 0xab, 0xbd,
  0xdc, 0xd2, 0x9b, 0xbd, 0xda, 0xbb, 0x6a, 0x3c, 0xb3, 0x20, 0xbb, 0xbe,
  0xc6, 0x80, 0x5f, 0x3e, 0x82, 0xb3, 0x6d, 0xbd, 0x6f, 0x71, 0x69, 0x3e,
  0x15, 0x64, 0x99, 0xbb, 0x3a, 0xc5, 0x8a, 0xbe, 0xff, 0xee, 0x52, 0x3e,
  0xb4, 0x72, 0x72, 0xbd, 0x92, 0xa4, 0xf8, 0x3d, 0xd4, 0xa7, 0x81, 0x3e,
  0x8f, 0x60, 0xde, 0xbd, 0xb8, 0x11, 0xde, 0xbe, 0xca, 0x2d, 0x4f, 0xbe,
  0x19, 0x6c, 0x01, 0x3c, 0x2a, 0x33, 0xa2, 0xbd, 0x1f, 0xd6, 0xb5, 0xbd,
  0x30, 0x9f, 0x9a, 0x3d, 0x05, 0xc0, 0x9a, 0xbe, 0x10, 0x55, 0x12, 0x3e,
  0x91, 0xaa, 0x61, 0xbe, 0x3a, 0x1b, 0xd1, 0xbd, 0x8e, 0x48, 0xc8, 0xbd,
  0xc5, 0x02, 0xdf, 0xbc, 0x29, 0xb1, 0x4e, 0xbe, 0xf5, 0xf2, 0xea, 0x3d,
  0x45, 0xb7, 0xcb, 0xbe, 0xfc, 0xab, 0xb4, 0xbe, 0x40, 0x95, 0xc3, 0x3e,
  0xc4, 0xc8, 0x32, 0x3e, 0x04, 0x47, 0x66, 0x3e, 0x72, 0xa7, 0xe5, 0x3d,
  0xd7, 0x61, 0x1a, 0x3e, 0xe7, 0x7b, 0x07, 0xbe, 0x85, 0xd6, 0xc9, 0x3d,
  0xff, 0x56, 0x43, 0x3e, 0x15, 0x63, 0x80, 0x3d, 0xf3, 0xf2, 0x93, 0x3e,
  0x4c, 0xba, 0x8b, 0x3d, 0x34, 0x0a, 0xb1, 0xbe, 0x47, 0xe1, 0x62, 0xbe,
  0xbd, 0x08, 0x23, 0xbd, 0xa3, 0x40, 0xf3, 0xbe, 0x4f, 0x22, 0x0b, 0x3e,
  0x3f, 0x7b, 0x65, 0xbd, 0x53, 0x03, 0xaa, 0xbe, 0x6c, 0x75, 0x2d, 0x3e,
  0x44, 0x6b, 0xe0, 0xbd, 0x1b, 0x21, 0x52, 0xbd, 0x70, 0x1f, 0x26, 0xbd,
  0x87, 0x4d, 0x6b, 0xbc, 0x3a, 0x63, 0xc4, 0x3e, 0xd3, 0xf2, 0x24, 0x3e,
  0x83, 0x78, 0x2a, 0x3e, 0x10, 0x3b, 0x69, 0xbe, 0x81, 0x57, 0x06, 0x3e,
  0xbc, 0xa0, 0xd7, 0xbd, 0x43, 0xb9, 0xbb, 0x3e, 0xc2, 0xb4, 0xb6, 0xbe,
  0x0b, 0x32, 0xa8, 0xbe, 0xe5, 0xac, 0xb9, 0x3d, 0xb9, 0x84, 0x09, 0x3e,
  0x09, 0x79, 0x93, 0xbe, 0xc1, 0x43, 0x13, 0xbe, 0xa5, 0x51, 0xc1, 0xbe,
  0x86, 0x94, 0xe9, 0x3d, 0x66, 0x2d, 0x7a, 0xbe, 0xf5, 0x17, 0xd2, 0x3c,
  0x30, 0x29, 0x87, 0xbe, 0x22, 0x1b, 0xac, 0xbd, 0x65, 0xcb, 0xe6, 0xbd,
  0xea, 0x73, 0xb0, 0xbe, 0xc5, 0xc7, 0x1a, 0xbf, 0x80, 0xb0, 0xa2, 0xbd,
  0xec, 0xad, 0x67, 0x3e, 0x6b, 0xb2, 0x4f, 0xbe, 0x61, 0xed, 0x2d, 0x3c,
  0xde, 0x4c, 0xcf, 0xbe, 0x91, 0x86, 0xb3, 0x3e, 0x89, 0x34, 0x1e, 0x3e,
  0x55, 0xda, 0x98, 0xbe, 0xc2, 0xcc, 0xd6, 0xbd, 0xb1, 0x34, 0xa5, 0x3e,
  0x3a, 0x18, 0xf0, 0xbe, 0xb9, 0x89, 0x87, 0x3e, 0xa5, 0x86, 0x04, 0xbe,
  0x32, 0xbe, 0x31, 0x3e, 0xfb, 0x22, 0x13, 0xbd, 0x15, 0x9b, 0xca, 0xbd,
  0x9c, 0xd4, 0xe7, 0x3d, 0xaa, 0x4d, 0xbc, 0x3e, 0x8c, 0x4c, 0x0b, 0x3e,
  0xf6, 0x4a, 0x1e, 0xbe, 0x15, 0x17, 0x83, 0xbe, 0xa2, 0xca, 0x9d, 0xbe,
  0x35, 0xf9, 0x0c, 0xbf, 0x89, 0xb0, 0x84, 0xbe, 0x62, 0xae, 0x94, 0x3e,
  0xdf, 0xe9, 0x74, 0xbc, 0x3d, 0xd7, 0x80, 0x3e, 0xd1, 0xe9, 0xd7, 0xbe,
  0x47, 0x2f, 0x86, 0xbd, 0x35, 0x91, 0xde, 0x3e, 0x79, 0xdb, 0x01, 0xbf,
  0xc8, 0x81, 0x44, 0x3e, 0x4a, 0xa0, 0x13, 0xbf, 0x3e, 0x24, 0x44, 0xbe,
  0xcb, 0x81, 0x68, 0x3d, 0xe7, 0x20, 0x80, 0x3d, 0x79, 0xaf, 0x86, 0xbd,
  0x79, 0xf0, 0x4d, 0x3d, 0x55, 0x14, 0xba, 0xbd, 0x09, 0xf3, 0xf7, 0xbc,
  0x6f, 0x6a, 0x19, 0xbe, 0xcf, 0x47, 0x96, 0x3e, 0x70, 0x59, 0x4a, 0x3c,
  0x63, 0x44, 0xf1, 0xbd, 0x66, 0x86, 0x03, 0xbd, 0x82, 0xd3, 0x80, 0xbe,
  0x83, 0x5e, 0x57, 0x3e, 0xf3, 0x71, 0x32, 0xbd, 0xb5, 0xc0, 0xf5, 0x3c,
  0x14, 0xab, 0x86, 0xbe, 0x1b, 0x6a, 0x4e, 0xbe, 0x3d, 0x0e, 0x76, 0x3e,
  0x01, 0xe8, 0x0d, 0xbc, 0xce, 0x6e, 0x03, 0xbe, 0xde, 0xb0, 0x80, 0x3d,
  0x2c, 0x12, 0xe4, 0x3e, 0xf2, 0xa8, 0xaf, 0xbd, 0xd6, 0x1b, 0xc3, 0x3d,
  0x8e, 0x7c, 0xa8, 0xbd, 0xf7, 0x82, 0x57, 0x3d, 0x1d, 0x7d, 0xeb, 0xbb,
  0x2b, 0x4c, 0xe6, 0xbd, 0x53, 0xfd, 0x10, 0xbe, 0x89, 0x37, 0x17, 0x3e,
  0xb0, 0x9a, 0x5b, 0xbf, 0x15, 0x94, 0xf4, 0xbe, 0xff, 0x39, 0xec, 0xbc,
  0x1c, 0xaf, 0x78, 0xbe, 0xc8, 0x3b, 0xe0, 0x3d, 0x14, 0x86, 0xe2, 0xbd,
  0x97, 0xb7, 0x2f, 0x3f, 0xad, 0xcc, 0xa4, 0xbe, 0x2f, 0xc6, 0x9a, 0xbe,
  0xc9, 0x6e, 0x5a, 0xbd, 0xb3, 0x3e, 0x16, 0xbf, 0xb2, 0xb2, 0xb1, 0xbe,
  0xaa, 0x59, 0x6d, 0xbd, 0xd9, 0x0a, 0x89, 0xbe, 0x19, 0x11, 0x9e, 0xbe,
  0xbd, 0x9d, 0x37, 0xbe, 0x0a, 0xed, 0x1a, 0xbe, 0x5c, 0x35, 0x8f, 0xbd,
  0x69, 0x10, 0x63, 0xbc, 0x5b, 0xce, 0x73, 0x3e, 0x7a, 0xa5, 0x11, 0x3f,
  0x7c, 0x32, 0xa6, 0xbc, 0x35, 0x7a, 0x82, 0x3d, 0xe3, 0xec, 0x36, 0xbf,
  0xd8, 0xab, 0x16, 0xbe, 0x81, 0x77, 0xd5, 0x3e, 0xda, 0x52, 0xb6, 0x3d,
  0xd3, 0x41, 0xee, 0x3d, 0x1e, 0xa8, 0xa8, 0xbe, 0x3b, 0xa4, 0xe2, 0xbc,
  0x8c, 0xb9, 0xcb, 0xbd, 0xb8, 0x31, 0x2a, 0xbe, 0x85, 0x46, 0xf5, 0xbd,
  0x3d, 0x62, 0x0f, 0x3e, 0xe9, 0x55, 0x3c, 0x3d, 0xd2, 0x45, 0x38, 0x3d,
  0x8d, 0xc8, 0x2a, 0xbe, 0xe5, 0xf9, 0x6b, 0xbc, 0x79, 0x1a, 0x0d, 0xbd,
  0xd2, 0x9b, 0x85, 0x3d, 0x57, 0x0f, 0xe7, 0xbd, 0x7c, 0x52, 0xd8, 0xbe,
  0xf8, 0x24, 0x57, 0xbe, 0x5a, 0x8e, 0x0b, 0xbe, 0xae, 0x7f, 0xf6, 0xbc,
  0x60, 0x7e, 0xae, 0x3d, 0x23, 0x03, 0xe4, 0xba, 0x1d, 0xe1, 0x6e, 0x3e,
  0xf5, 0x4f, 0x5b, 0x3e, 0x5d, 0x09, 0x16, 0x3e, 0x17, 0x72, 0x03, 0x3e,
  0xb2, 0x61, 0x9f, 0xbd, 0xb3, 0x85, 0x05, 0xbe, 0x2a, 0x39, 0x6a, 0xbd,
  0x73, 0x01, 0x51, 0x3d, 0x00, 0x00, 0x00, 0x00, 0x7a, 0xf4, 0xff, 0xff,
  0x04, 0x00, 0x00, 0x00, 0x80, 0x06, 0x00, 0x00, 0xa9, 0x65, 0x68, 0x3d,
  0x8c, 0x70, 0x92, 0xba, 0x5c, 0x7d, 0x9d, 0xbc, 0x60, 0x9e, 0x2e, 0xbd,
  0x8e, 0x42, 0x42, 0xbe, 0x9f, 0x83, 0x77, 0x3d, 0x80, 0x44, 0xce, 0xbd,
  0x9c, 0x84, 0xdc, 0x3d, 0x48, 0x44, 0x8a, 0x3d, 0xa1, 0x15, 0x0b, 0xbe,
  0x71, 0x37, 0xfd, 0xbc, 0x03, 0x42, 0x69, 0x3d, 0x4c, 0xd7, 0x91, 0xbb,
  0xd8, 0x7f, 0x48, 0xbc, 0x0a, 0xd6, 0x99, 0x3d, 0x50, 0xbf, 0x4e, 0xbe,
  0x5b, 0x79, 0x07, 0xbe, 0x39, 0xa7, 0x9c, 0xbd, 0xf5, 0x57, 0x83, 0xbe,
  0x14, 0x44, 0xb2, 0x3d, 0x21, 0xde, 0xe5, 0xbd, 0x80, 0x86, 0x9f, 0x3d,
  0x3b, 0xbd, 0xe3, 0x3d, 0x2b, 0x01, 0x2c, 0xbe, 0x96, 0xe7, 0xa9, 0xbd,
  0xaf, 0xb3, 0x37, 0xbe, 0x96, 0xf8, 0x20, 0x3d, 0x21, 0xaf, 0x69, 0xbe,
  0xd0, 0x19, 0x84, 0xbd, 0x8e, 0xaf, 0xd8, 0x3c, 0x47, 0x28, 0xbc, 0xbc,
  0xea, 0x2c, 0x18, 0xbe, 0x7c, 0xa9, 0xf0, 0x3d, 0x73, 0xb9, 0xcc, 0x3e,
  0xfd, 0x6f, 0x94, 0x3d, 0x1d, 0xa6, 0xbb, 0x3d, 0x9e, 0xf9, 0x7c, 0xbe,
  0xc2, 0xc4, 0xe0, 0xbc, 0xfd, 0x58, 0x24, 0xbd, 0xf3, 0xf5, 0xea, 0x3b,
  0xbe, 0xf3, 0x43, 0xbe, 0x87, 0xba, 0x3a, 0x3e, 0x14, 0xca, 0xf8, 0x3c,
  0x83, 0x32, 0x7f, 0xbe, 0x1e, 0xc0, 0xef, 0x3d, 0x0f, 0x6f, 0xc1, 0xbe,
  0xeb, 0x0e, 0x9c, 0x3e, 0x69, 0x0e, 0x0d, 0x3e, 0x75, 0x73, 0x33, 0x3d,
  0x1f, 0xcf, 0x41, 0x3e, 0x08, 0xf0, 0x94, 0x3d, 0xa7, 0x32, 0xbd, 0xbd,
  0xbe, 0xea, 0x1b, 0x3e, 0x25, 0x32, 0x52, 0x3d, 0xb1, 0x1c, 0xb2, 0xbe,
  0xea, 0xf0, 0xde, 0xbe, 0x9e, 0xfa, 0x6f, 0x3b, 0xb7, 0xf5, 0x9c, 0xbe,
  0xcc, 0x39, 0xc6, 0xbe, 0xf8, 0xf2, 0x9d, 0xbe, 0x6a, 0x02, 0x9f, 0xbc,
  0x38, 0x07, 0x07, 0xbc, 0x9d, 0xd8, 0x08, 0x3c, 0xef, 0xe3, 0x94, 0xbe,
  0xcf, 0xb9, 0x38, 0xbd, 0x92, 0xe2, 0x78, 0x3c, 0x11, 0x5e, 0xa5, 0xbd,
  0xe4, 0x12, 0x61, 0xbe, 0xfc, 0x8f, 0xa2, 0xbd, 0x1b, 0x25, 0xcd, 0x3d,
  0x32, 0x72, 0xfb, 0xbd, 0xda, 0x16, 0x8d, 0xbe, 0x7c, 0x95, 0x9a, 0x3d,
  0x16, 0x6c, 0xb7, 0xbe, 0x64, 0x75, 0x8f, 0x3c, 0x07, 0xe4, 0xa3, 0xbe,
  0x83, 0x10, 0x1b, 0xbe, 0xf0, 0x99, 0x28, 0x3f, 0x62, 0x87, 0x08, 0x3d,
  0x05, 0x8d, 0x2b, 0x3e, 0x28, 0x83, 0xd3, 0xbe, 0x3a, 0xd9, 0x3a, 0x3e,
  0x23, 0xc3, 0xa2, 0x3e, 0xf8, 0x65, 0x23, 0xbe, 0xc2, 0x52, 0x86, 0xbe,
  0xcc, 0x78, 0xb6, 0x3e, 0xea, 0x7b, 0xb9, 0xbd, 0xea, 0xf6, 0x99, 0x3e,
  0xe0, 0xa8, 0x74, 0x3d, 0x80, 0x82, 0x9b, 0xbe, 0x76, 0x29, 0x0c, 0x3e,
  0x0e, 0xfd, 0x31, 0x3e, 0x3d, 0x09, 0xbd, 0x3c, 0x44, 0x5d, 0x10, 0x3f,
  0x47, 0xac, 0xd6, 0x3e, 0xc9, 0xba, 0x66, 0xbe, 0x5f, 0x74, 0x4a, 0xbd,
  0x36, 0x12, 0x9e, 0xbd, 0x7a, 0xb7, 0xef, 0x3c, 0x2c, 0xdd, 0x52, 0xbe,
  0x46, 0x99, 0xb0, 0xbe, 0xd9, 0x70, 0x9d, 0xbd, 0x54, 0x05, 0xbc, 0xbe,
  0x7a, 0x05, 0xf8, 0xbd, 0x19, 0x68, 0x11, 0xbe, 0x12, 0xbd, 0x5d, 0xbe,
  0x9a, 0x55, 0x54, 0x3d, 0xe5, 0x17, 0xf2, 0xbd, 0x49, 0x11, 0x87, 0x3d,
  0x38, 0xd3, 0xac, 0x3e, 0xcc, 0x41, 0xd1, 0xb9, 0x1d, 0x9e, 0xca, 0xbe,
  0x08, 0x82, 0x16, 0xbe, 0xbd, 0xa3, 0x0f, 0x3e, 0xc8, 0x52, 0x19, 0xbf,
  0x0a, 0xda, 0xa2, 0x3e, 0xaf, 0x67, 0xb4, 0x3d, 0x81, 0xe5, 0xdc, 0xbe,
  0x45, 0xa7, 0xea, 0x3d, 0xf7, 0xb3, 0x40, 0x3d, 0x90, 0xf0, 0x4b, 0xbe,
  0x1a, 0x20, 0x18, 0xbe, 0x5b, 0xad, 0x54, 0xbd, 0xd8, 0xf3, 0x72, 0xbd,
  0x9c, 0xed, 0xc2, 0x3e, 0x29, 0x1e, 0x82, 0x3e, 0x0b, 0xf1, 0x58, 0x3e,
  0xa0, 0x63, 0x1c, 0xbe, 0xe5, 0x98, 0x5a, 0x3e, 0xf2, 0x68, 0x3d, 0xbe,
  0x2f, 0xd0, 0xf4, 0x3c, 0x83, 0x69, 0x3f, 0xbe, 0x84, 0x72, 0x36, 0xbf,
  0x4a, 0xdd, 0x6f, 0x3e, 0x90, 0x5e, 0x3f, 0x3e, 0x26, 0xf3, 0x8d, 0x3d,
  0x84, 0x80, 0xdd, 0xbd, 0x18, 0x14, 0x0b, 0xbf, 0x0e, 0x12, 0x91, 0xbe,
  0x45, 0xa3, 0x2f, 0xbf, 0xae, 0xd6, 0xe7, 0xbd, 0x1a, 0xf1, 0xa6, 0xbe,
  0xd4, 0x1c, 0x8e, 0xbd, 0x6f, 0x28, 0xff, 0xbe, 0x0a, 0x6e, 0xe4, 0x3e,
  0xa8, 0xf9, 0x95, 0x3c, 0x8f, 0x0c, 0x4d, 0xbe, 0xbf, 0xc0, 0x88, 0xbe,
  0xbb, 0x86, 0xeb, 0xbd, 0x02, 0xe9, 0x94, 0xbe, 0xae, 0x47, 0x15, 0xbb,
  0x09, 0x08, 0xd3, 0x3e, 0xee, 0xaa, 0x3c, 0xbf, 0xd9, 0xf0, 0x32, 0x3f,
  0x74, 0xeb, 0xf7, 0x3e, 0x51, 0x16, 0x78, 0xbd, 0x6f, 0xc5, 0xd3, 0xbd,
  0x74, 0x60, 0xe1, 0xbe, 0xf5, 0xe1, 0xe5, 0x3d, 0x5d, 0x42, 0x0e, 0x3c,
  0x25, 0xaf, 0xf2, 0x3e, 0xea, 0x82, 0xad, 0x3e, 0x39, 0x1a, 0x88, 0xbe,
  0x0b, 0x2d, 0xc7, 0xbe, 0x31, 0x3d, 0x01, 0xbf, 0x6c, 0xf2, 0xff, 0xbe,
  0x8d, 0xca, 0x08, 0x3f, 0xa9, 0xc8, 0x11, 0xbf, 0xd8, 0xca, 0x8c, 0xbe,
  0x38, 0xc2, 0x31, 0x3e, 0x2f, 0xd7, 0x25, 0x3f, 0x30, 0xbc, 0xd9, 0xbe,
  0xd0, 0x79, 0x14, 0x3f, 0x0b, 0x40, 0x09, 0x3d, 0xc6, 0xfb, 0xa9, 0x3e,
  0x00, 0x1a, 0xb9, 0xbe, 0x49, 0x3e, 0x55, 0x3f, 0x4a, 0x38, 0x93, 0x3e,
  0x90, 0x3f, 0x7f, 0xbd, 0xf4, 0xc3, 0xc6, 0xbe, 0xdf, 0x83, 0xae, 0x3e,
  0x3d, 0x22, 0x35, 0xbe, 0xd1, 0x92, 0xa8, 0x3e, 0x8b, 0x25, 0x27, 0xbf,
  0xe2, 0x35, 0xb4, 0x3e, 0x5a, 0xa7, 0x97, 0xbe, 0x86, 0xc9, 0x90, 0xbe,
  0x9f, 0xa6, 0x3d, 0xbe, 0x23, 0x6b, 0x40, 0x3f, 0xd1, 0x4d, 0x4c, 0x3f,
  0x34, 0x60, 0x90, 0x3e, 0x40, 0x50, 0xc0, 0x3e, 0x35, 0x71, 0x13, 0xbf,
  0xde, 0x25, 0x30, 0xbe, 0x93, 0x24, 0xaf, 0x3e, 0x7b, 0x0a, 0x61, 0xbe,
  0x9e, 0x8f, 0x44, 0xbf, 0xb3, 0x54, 0xb3, 0x3e, 0x7f, 0x97, 0xfd, 0xbd,
  0x63, 0xd3, 0x10, 0xbf, 0xca, 0xd7, 0xe5, 0xbe, 0x72, 0x20, 0xeb, 0x3d,
  0x58, 0x1e, 0xe7, 0xbe, 0x7f, 0x65, 0x23, 0xbe, 0x1a, 0xd9, 0x49, 0xbd,
  0x88, 0xea, 0xf2, 0x3d, 0x32, 0xde, 0x10, 0xbe, 0x3f, 0x72, 0xb5, 0x3c,
  0x87, 0x37, 0x3b, 0x3d, 0x9f, 0x78, 0xf0, 0xbb, 0xe7, 0xe1, 0x51, 0xbe,
  0x2d, 0xd2, 0x14, 0x3e, 0x1e, 0xc7, 0xc6, 0x3d, 0xde, 0x43, 0x8c, 0x3d,
  0x93, 0x16, 0xca, 0x3d, 0xe8, 0xd6, 0xb9, 0xbb, 0x78, 0x4d, 0xda, 0xbc,
  0xa0, 0x24, 0xcf, 0x3d, 0x78, 0xe2, 0x99, 0x3b, 0x04, 0xe1, 0xb8, 0xbd,
  0x96, 0x72, 0xf3, 0x3d, 0xd9, 0x8e, 0x99, 0x3d, 0x44, 0x0b, 0x13, 0x3e,
  0x82, 0x49, 0x2d, 0x3d, 0x28, 0x33, 0xd0, 0xbd, 0xca, 0x89, 0x53, 0xbd,
  0x5d, 0x29, 0xa1, 0x3d, 0xb3, 0x27, 0xbc, 0x3d, 0x93, 0x5e, 0x3f, 0xbc,
  0x77, 0x20, 0x2d, 0xbe, 0xfa, 0xee, 0xcf, 0x3d, 0x82, 0xbc, 0x13, 0xbe,
  0x7f, 0xad, 0x2b, 0x3e, 0x41, 0x19, 0x15, 0x3d, 0xcc, 0x4e, 0xe1, 0x3d,
  0x6f, 0x18, 0x33, 0x3e, 0xac, 0x9d, 0xe9, 0xbc, 0x8b, 0xd2, 0xf9, 0xbd,
  0x20, 0x67, 0x4e, 0x3d, 0xe2, 0xb5, 0x53, 0xbd, 0x87, 0x2e, 0xbb, 0x3d,
  0xa1, 0xcf, 0x84, 0xbe, 0xbd, 0xfb, 0x07, 0x3e, 0x28, 0x0b, 0x57, 0xbe,
  0x90, 0x35, 0x35, 0x3e, 0x34, 0x1f, 0x32, 0xbd, 0x5e, 0x25, 0x47, 0x3d,
  0xc3, 0xd2, 0x82, 0x3d, 0x6f, 0x2f, 0x97, 0x3e, 0xc6, 0x3c, 0x8e, 0xbd,
  0x5e, 0x30, 0x8c, 0xbc, 0xb5, 0xc2, 0x83, 0x3e, 0xd5, 0x5a, 0xf2, 0x3d,
  0x5a, 0xd0, 0xce, 0x3e, 0x99, 0x4b, 0x9c, 0xbe, 0x6e, 0x3d, 0xb2, 0xbd,
  0x01, 0xe7, 0xd9, 0x3d, 0x6b, 0xd0, 0xd9, 0x3d, 0x1a, 0xab, 0x40, 0xbd,
  0x29, 0x8c, 0x50, 0xbd, 0x7e, 0x7e, 0x77, 0x3d, 0x8a, 0x00, 0x10, 0x3e,
  0x37, 0x69, 0xc8, 0x3e, 0x93, 0xee, 0x40, 0x3e, 0x12, 0x35, 0x54, 0x3e,
  0xe9, 0x1c, 0x89, 0x3e, 0x6a, 0x47, 0x9d, 0x3e, 0x5c, 0x89, 0xe5, 0x3e,
  0x37, 0xc7, 0x0e, 0x3c, 0x04, 0x0d, 0x53, 0xbe, 0x39, 0x5e, 0xdc, 0x3c,
  0x64, 0x55, 0xa2, 0x3e, 0x53, 0x04, 0x31, 0x3e, 0xd5, 0x63, 0xee, 0x3d,
  0x26, 0xd4, 0x0c, 0x3e, 0x0a, 0x70, 0x01, 0x3e, 0x12, 0xf2, 0x82, 0x3e,
  0xcf, 0x6f, 0x22, 0x3e, 0x11, 0xed, 0x6f, 0x3d, 0x96, 0x37, 0xce, 0x3e,
  0x84, 0x9f, 0x3f, 0xbd, 0x1b, 0xef, 0x62, 0x3e, 0x2a, 0x97, 0x14, 0xbe,
  0x3f, 0xf3, 0xa4, 0x3e, 0xb7, 0xce, 0x63, 0x3b, 0xe3, 0x7b, 0xbd, 0xbe,
  0x63, 0x68, 0x10, 0x3d, 0x7b, 0x97, 0xba, 0x3c, 0x60, 0xd3, 0xea, 0x3e,
  0x6a, 0x24, 0xc2, 0xbe, 0xd0, 0x58, 0xc5, 0xbe, 0x46, 0x55, 0x71, 0x3e,
  0x5b, 0xd0, 0x27, 0x3e, 0x87, 0xa0, 0xc3, 0xbe, 0x59, 0x48, 0xde, 0x3d,
  0x68, 0xe7, 0x88, 0xbe, 0xc7, 0xa7, 0x7c, 0xbe, 0x6d, 0xbb, 0x15, 0x3f,
  0x70, 0x6a, 0xfd, 0xbd, 0xc5, 0xf4, 0x4c, 0xbd, 0x09, 0xf8, 0x94, 0xbd,
  0xee, 0x35, 0x09, 0xbf, 0xb5, 0xbd, 0xb2, 0xbe, 0xd4, 0x42, 0x21, 0x3e,
  0x5b, 0x6d, 0x09, 0x3c, 0x4a, 0xdd, 0x64, 0xbc, 0x85, 0x17, 0x1e, 0x3d,
  0xa7, 0x39, 0xdd, 0x3e, 0x05, 0x24, 0x51, 0x3e, 0xda, 0xe8, 0x19, 0x3e,
  0xeb, 0x1d, 0x92, 0x3e, 0x1b, 0xe1, 0x0f, 0x3e, 0x82, 0xfd, 0xdc, 0x3d,
  0xf0, 0x09, 0xcf, 0xbd, 0xdf, 0xb7, 0x80, 0x3d, 0x52, 0x17, 0xe2, 0x3d,
  0x4c, 0x10, 0x6d, 0x3b, 0x7b, 0xe3, 0xfa, 0xbe, 0xb9, 0x60, 0x17, 0xbc,
  0xa6, 0x43, 0xe1, 0x3e, 0x8b, 0x5d, 0x00, 0xbe, 0x99, 0x6d, 0x65, 0x3d,
  0xc5, 0x0b, 0x97, 0x3e, 0x17, 0xfe, 0xbd, 0xbe, 0x7a, 0xf5, 0x28, 0xbd,
  0x5f, 0xb4, 0x29, 0x3e, 0x93, 0xaa, 0xe1, 0xbd, 0x61, 0xef, 0x0c, 0xbe,
  0xa7, 0x57, 0x06, 0x3e, 0x55, 0x36, 0x23, 0x3e, 0x31, 0x7d, 0x57, 0xbc,
  0xa7, 0x40, 0xaf, 0x3d, 0xf6, 0x0b, 0x26, 0xbe, 0xd4, 0xf7, 0x5f, 0xbe,
  0xc1, 0xda, 0x47, 0x3d, 0xa0, 0xdf, 0x8c, 0x3e, 0xc1, 0xe5, 0x99, 0xbe,
  0x53, 0xba, 0x2c, 0x3e, 0x51, 0x0e, 0xac, 0xbc, 0xf7, 0x05, 0x13, 0x3e,
  0x31, 0xfd, 0x03, 0x3f, 0x56, 0x71, 0xbe, 0xbd, 0x76, 0x32, 0xd8, 0x3d,
  0xc6, 0x50, 0x31, 0x3d, 0x8e, 0xd6, 0x52, 0x3e, 0x93, 0xb0, 0xb8, 0x3e,
  0x88, 0x07, 0xc7, 0x3e, 0x1d, 0x0a, 0x39, 0x3f, 0x46, 0x2f, 0xb4, 0x3d,
  0x65, 0x33, 0xad, 0x3e, 0x78, 0x48, 0x59, 0xbc, 0x43, 0x55, 0x2e, 0x3f,
  0x31, 0xac, 0xad, 0xbe, 0x73, 0x57, 0x4d, 0xbe, 0xdf, 0x03, 0xfe, 0x3d,
  0x62, 0x8f, 0xe7, 0x3e, 0xb5, 0x07, 0x26, 0x3e, 0x44, 0x8d, 0x90, 0x3e,
  0xdc, 0xe7, 0x40, 0x3e, 0x3e, 0x8a, 0x68, 0xbe, 0xb0, 0xc4, 0x38, 0x3f,
  0x3a, 0xca, 0xd3, 0xbe, 0xd5, 0xb4, 0x13, 0xbf, 0x89, 0xc4, 0x4a, 0x3e,
  0x62, 0xd8, 0xda, 0x3c, 0x29, 0x83, 0x39, 0x3e, 0xc1, 0x2a, 0x90, 0xbe,
  0x4b, 0x81, 0x31, 0x3e, 0x5e, 0x6d, 0xfc, 0xbe, 0x00, 0x8d, 0x6c, 0xbe,
  0xba, 0x25, 0x88, 0x3e, 0x98, 0x3b, 0xbb, 0x3e, 0xe3, 0x36, 0xa3, 0x3e,
  0x50, 0x07, 0x06, 0x3f, 0xfb, 0x7b, 0x90, 0xbe, 0x52, 0x7f, 0x0b, 0x3f,
  0x9c, 0x32, 0x8d, 0x3e, 0x79, 0xe5, 0x91, 0xbe, 0x0a, 0x8c, 0x3e, 0xbf,
  0xf2, 0xfc, 0x08, 0x3f, 0xb6, 0xd5, 0x39, 0xbf, 0xcc, 0x09, 0x0a, 0xbe,
  0xe2, 0xcd, 0xbb, 0xbe, 0x27, 0x44, 0xf4, 0x3d, 0x89, 0x29, 0x2a, 0xbf,
  0xc4, 0x1c, 0x70, 0xbe, 0xc3, 0xa5, 0x75, 0xbd, 0x6f, 0x92, 0xa5, 0x3e,
  0xa5, 0xe8, 0x95, 0xbe, 0x5c, 0x1c, 0x6f, 0x3e, 0x59, 0x55, 0x40, 0xbe,
  0xd3, 0xf8, 0xf7, 0x3e, 0x22, 0xd4, 0x31, 0xbe, 0x29, 0x1f, 0x52, 0x3e,
  0xa8, 0x80, 0x65, 0x3e, 0x30, 0x18, 0x14, 0xbd, 0x0b, 0xdb, 0x1c, 0xbf,
  0x2d, 0x59, 0x39, 0xbf, 0xc5, 0xcf, 0x62, 0xbe, 0xaa, 0x76, 0x14, 0xbe,
  0x83, 0xb3, 0xd7, 0x3e, 0x03, 0xad, 0xa3, 0x3d, 0x7f, 0xf2, 0xa1, 0xbe,
  0xc0, 0xcc, 0x91, 0x3e, 0x9b, 0x58, 0x1e, 0x3f, 0xad, 0xc6, 0x55, 0xbe,
  0x23, 0xc3, 0xa2, 0x3e, 0xf3, 0xcc, 0x10, 0x3f, 0xc0, 0x5f, 0x13, 0x3f,
  0xf5, 0xa4, 0x59, 0xbe, 0x53, 0xb0, 0xd3, 0x3e, 0x93, 0xe9, 0xdd, 0xbd,
  0xca, 0x19, 0xc0, 0xbc, 0x63, 0xc3, 0x0e, 0x3c, 0x68, 0x91, 0xaa, 0x3e,
  0x93, 0x47, 0x0d, 0xbd, 0x00, 0x00, 0x00, 0x00, 0x0a, 0xfb, 0xff, 0xff,
  0x04, 0x00, 0x00, 0x00, 0x04, 0x00, 0x00, 0x00, 0xfd, 0xff, 0xff, 0xff,
  0x1a, 0xfb, 0xff, 0xff, 0x04, 0x00, 0x00, 0x00, 0x08, 0x00, 0x00, 0x00,
  0xff, 0xff, 0xff, 0xff, 0xd0, 0x00, 0x00, 0x00, 0x00, 0x00, 0x00, 0x00,
  0x00, 0x00, 0x00, 0x00, 0x00, 0x00, 0x00, 0x00, 0x3a, 0xfb, 0xff, 0xff,
  0x04, 0x00, 0x00, 0x00, 0x04, 0x00, 0x00, 0x00, 0x02, 0x00, 0x00, 0x00,
  0x4a, 0xfb, 0xff, 0xff, 0x04, 0x00, 0x00, 0x00, 0x04, 0x00, 0x00, 0x00,
  0x34, 0x00, 0x00, 0x00, 0x5a, 0xfb, 0xff, 0xff, 0x04, 0x00, 0x00, 0x00,
  0x04, 0x00, 0x00, 0x00, 0x0d, 0x00, 0x00, 0x00, 0x6a, 0xfb, 0xff, 0xff,
  0x04, 0x00, 0x00, 0x00, 0x04, 0x00, 0x00, 0x00, 0x00, 0x00, 0x00, 0x00,
  0x7a, 0xfb, 0xff, 0xff, 0x04, 0x00, 0x00, 0x00, 0x04, 0x00, 0x00, 0x00,
  0x01, 0x00, 0x00, 0x00, 0x8a, 0xfb, 0xff, 0xff, 0x04, 0x00, 0x00, 0x00,
  0x20, 0x00, 0x00, 0x00, 0x57, 0xf8, 0xa8, 0xbd, 0x5f, 0x4e, 0x85, 0xbe,
  0x8f, 0x1a, 0xb1, 0xbe, 0xc0, 0xc2, 0x41, 0xbd, 0x09, 0x1f, 0x71, 0xbe,
  0x14, 0x29, 0x5a, 0x3d, 0x89, 0x05, 0x27, 0xbd, 0xa3, 0x1f, 0xd2, 0xbd,
  0x00, 0x00, 0x00, 0x00, 0xba, 0xfb, 0xff, 0xff, 0x04, 0x00, 0x00, 0x00,
  0x40, 0x00, 0x00, 0x00, 0xaa, 0x4a, 0x5d, 0x3b, 0xd2, 0xa6, 0x5d, 0x3e,
  0xbb, 0x25, 0x7d, 0x3e, 0xac, 0x12, 0x1a, 0x3d, 0x04, 0x07, 0x06, 0xbc,
  0x2f, 0xb3, 0x98, 0xbe, 0xf8, 0x3d, 0x83, 0xbc, 0x55, 0xeb, 0x98, 0x3d,
  0x61, 0x61, 0x27, 0x3e, 0x88, 0xd1, 0x58, 0xbd, 0xc2, 0xa2, 0xa3, 0x3c,
  0x84, 0x1d, 0x8d, 0x3d, 0xf0, 0x9a, 0x94, 0x3d, 0xf1, 0xd8, 0x87, 0x3e,
  0xd2, 0x6a, 0xdb, 0x3d, 0xfa, 0x36, 0x69, 0xbe, 0x00, 0x00, 0x00, 0x00,
  0x0a, 0xfc, 0xff, 0xff, 0x04, 0x00, 0x00, 0x00, 0x08, 0x00, 0x00, 0x00,
  0x5c, 0x03, 0xef, 0x3e, 0x5f, 0x03, 0xef, 0xbe, 0x00, 0x00, 0x00, 0x00,
  0x08, 0xee, 0xff, 0xff, 0x00, 0x00, 0x00, 0x00, 0x00, 0x00, 0x00, 0x00,
  0x00, 0x00, 0x00, 0x00, 0x18, 0xee, 0xff, 0xff, 0x00, 0x00, 0x00, 0x00,
  0x00, 0x00, 0x00, 0x00, 0x00, 0x00, 0x00, 0x00, 0x0f, 0x00, 0x00, 0x00,
  0x4d, 0x4c, 0x49, 0x52, 0x20, 0x43, 0x6f, 0x6e, 0x76, 0x65, 0x72, 0x74,
  0x65, 0x64, 0x2e, 0x00, 0x01, 0x00, 0x00, 0x00, 0x14, 0x00, 0x00, 0x00,
  0x00, 0x00, 0x0e, 0x00, 0x18, 0x00, 0x04, 0x00, 0x08, 0x00, 0x0c, 0x00,
  0x10, 0x00, 0x14, 0x00, 0x0e, 0x00, 0x00, 0x00, 0x64, 0x04, 0x00, 0x00,
  0x58, 0x04, 0x00, 0x00, 0x4c, 0x04, 0x00, 0x00, 0x14, 0x00, 0x00, 0x00,
  0x04, 0x00, 0x00, 0x00, 0x04, 0x00, 0x00, 0x00, 0x6d, 0x61, 0x69, 0x6e,
  0x00, 0x00, 0x00, 0x00, 0x12, 0x00, 0x00, 0x00, 0xfc, 0x03, 0x00, 0x00,
  0x9c, 0x03, 0x00, 0x00, 0x48, 0x03, 0x00, 0x00, 0x20, 0x03, 0x00, 0x00,
  0xe0, 0x02, 0x00, 0x00, 0x80, 0x02, 0x00, 0x00, 0x58, 0x02, 0x00, 0x00,
  0x24, 0x02, 0x00, 0x00, 0xd4, 0x01, 0x00, 0x00, 0xac, 0x01, 0x00, 0x00,
  0x78, 0x01, 0x00, 0x00, 0x34, 0x01, 0x00, 0x00, 0x0c, 0x01, 0x00, 0x00,
  0xd8, 0x00, 0x00, 0x00, 0x98, 0x00, 0x00, 0x00, 0x70, 0x00, 0x00, 0x00,
  0x38, 0x00, 0x00, 0x00, 0x04, 0x00, 0x00, 0x00, 0x66, 0xfd, 0xff, 0xff,
  0x00, 0x00, 0x00, 0x09, 0x08, 0x00, 0x00, 0x00, 0x1c, 0x00, 0x00, 0x00,
  0x10, 0x00, 0x00, 0x00, 0x04, 0x00, 0x00, 0x00, 0xf6, 0xfc, 0xff, 0xff,
  0x00, 0x00, 0x80, 0x3f, 0x01, 0x00, 0x00, 0x00, 0x22, 0x00, 0x00, 0x00,
  0x01, 0x00, 0x00, 0x00, 0x21, 0x00, 0x00, 0x00, 0x96, 0xfd, 0xff, 0xff,
  0x00, 0x00, 0x00, 0x08, 0x07, 0x00, 0x00, 0x00, 0x18, 0x00, 0x00, 0x00,
  0x0c, 0x00, 0x00, 0x00, 0x04, 0x00, 0x00, 0x00, 0x0c, 0xef, 0xff, 0xff,
  0x01, 0x00, 0x00, 0x00, 0x21, 0x00, 0x00, 0x00, 0x03, 0x00, 0x00, 0x00,
  0x20, 0x00, 0x00, 0x00, 0x0b, 0x00, 0x00, 0x00, 0x01, 0x00, 0x00, 0x00,
  0x8a, 0xfd, 0xff, 0xff, 0x03, 0x00, 0x00, 0x00, 0x10, 0x00, 0x00, 0x00,
  0x04, 0x00, 0x00, 0x00, 0x01, 0x00, 0x00, 0x00, 0x20, 0x00, 0x00, 0x00,
  0x02, 0x00, 0x00, 0x00, 0x1f, 0x00, 0x00, 0x00, 0x09, 0x00, 0x00, 0x00,
  0xee, 0xfd, 0xff, 0xff, 0x00, 0x00, 0x00, 0x05, 0x06, 0x00, 0x00, 0x00,
  0x28, 0x00, 0x00, 0x00, 0x1c, 0x00, 0x00, 0x00, 0x04, 0x00, 0x00, 0x00,
  0xda, 0xfe, 0xff, 0xff, 0x01, 0x00, 0x00, 0x00, 0x02, 0x00, 0x00, 0x00,
  0x01, 0x00, 0x00, 0x00, 0x02, 0x00, 0x00, 0x00, 0x01, 0x00, 0x00, 0x00,
  0x1f, 0x00, 0x00, 0x00, 0x01, 0x00, 0x00, 0x00, 0x1e, 0x00, 0x00, 0x00,
  0x2a, 0xfe, 0xff, 0xff, 0x00, 0x00, 0x00, 0x34, 0x04, 0x00, 0x00, 0x00,
  0x18, 0x00, 0x00, 0x00, 0x0c, 0x00, 0x00, 0x00, 0x04, 0x00, 0x00, 0x00,
  0xa0, 0xef, 0xff, 0xff, 0x01, 0x00, 0x00, 0x00, 0x1e, 0x00, 0x00, 0x00,
  0x02, 0x00, 0x00, 0x00, 0x1d, 0x00, 0x00, 0x00, 0x08, 0x00, 0x00, 0x00,
  0x1a, 0xfe, 0xff, 0xff, 0x03, 0x00, 0x00, 0x00, 0x10, 0x00, 0x00, 0x00,
  0x04, 0x00, 0x00, 0x00, 0x01, 0x00, 0x00, 0x00, 0x1d, 0x00, 0x00, 0x00,
  0x02, 0x00, 0x00, 0x00, 0x1c, 0x00, 0x00, 0x00, 0x10, 0x00, 0x00, 0x00,
  0x7e, 0xfe, 0xff, 0xff, 0x00, 0x00, 0x00, 0x01, 0x05, 0x00, 0x00, 0x00,
  0x24, 0x00, 0x00, 0x00, 0x18, 0x00, 0x00, 0x00, 0x04, 0x00, 0x00, 0x00,
  0xcc, 0xfe, 0xff, 0xff, 0x00, 0x00, 0x00, 0x01, 0x01, 0x00, 0x00, 0x00,
  0x01, 0x00, 0x00, 0x00, 0x01, 0x00, 0x00, 0x00, 0x1c, 0x00, 0x00, 0x00,
  0x03, 0x00, 0x00, 0x00, 0x1b, 0x00, 0x00, 0x00, 0x0d, 0x00, 0x00, 0x00,
  0x02, 0x00, 0x00, 0x00, 0xbe, 0xfe, 0xff, 0xff, 0x00, 0x00, 0x00, 0x34,
  0x04, 0x00, 0x00, 0x00, 0x18, 0x00, 0x00, 0x00, 0x0c, 0x00, 0x00, 0x00,
  0x04, 0x00, 0x00, 0x00, 0x34, 0xf0, 0xff, 0xff, 0x01, 0x00, 0x00, 0x00,
  0x1b, 0x00, 0x00, 0x00, 0x02, 0x00, 0x00, 0x00, 0x1a, 0x00, 0x00, 0x00,
  0x0a, 0x00, 0x00, 0x00, 0xae, 0xfe, 0xff, 0xff, 0x03, 0x00, 0x00, 0x00,
  0x10, 0x00, 0x00, 0x00, 0x04, 0x00, 0x00, 0x00, 0x01, 0x00, 0x00, 0x00,
  0x1a, 0x00, 0x00, 0x00, 0x02, 0x00, 0x00, 0x00, 0x19, 0x00, 0x00, 0x00,
  0x0f, 0x00, 0x00, 0x00, 0x62, 0xfe, 0xff, 0xff, 0x00, 0x00, 0x00, 0x05,
  0x06, 0x00, 0x00, 0x00, 0x38, 0x00, 0x00, 0x00, 0x2c, 0x00, 0x00, 0x00,
  0x14, 0x00, 0x00, 0x00, 0x00, 0x00, 0x0e, 0x00, 0x14, 0x00, 0x00, 0x00,
  0x04, 0x00, 0x08, 0x00, 0x0c, 0x00, 0x10, 0x00, 0x0e, 0x00, 0x00, 0x00,
  0x01, 0x00, 0x00, 0x00, 0x02, 0x00, 0x00, 0x00, 0x01, 0x00, 0x00, 0x00,
  0x02, 0x00, 0x00, 0x00, 0x01, 0x00, 0x00, 0x00, 0x19, 0x00, 0x00, 0x00,
  0x01, 0x00, 0x00, 0x00, 0x18, 0x00, 0x00, 0x00, 0x5e, 0xff, 0xff, 0xff,
  0x00, 0x00, 0x00, 0x34, 0x04, 0x00, 0x00, 0x00, 0x18, 0x00, 0x00, 0x00,
  0x0c, 0x00, 0x00, 0x00, 0x04, 0x00, 0x00, 0x00, 0xd4, 0xf0, 0xff, 0xff,
  0x01, 0x00, 0x00, 0x00, 0x18, 0x00, 0x00, 0x00, 0x02, 0x00, 0x00, 0x00,
  0x17, 0x00, 0x00, 0x00, 0x08, 0x00, 0x00, 0x00, 0x4e, 0xff, 0xff, 0xff,
  0x03, 0x00, 0x00, 0x00, 0x10, 0x00, 0x00, 0x00, 0x04, 0x00, 0x00, 0x00,
  0x01, 0x00, 0x00, 0x00, 0x17, 0x00, 0x00, 0x00, 0x02, 0x00, 0x00, 0x00,
  0x16, 0x00, 0x00, 0x00, 0x0e, 0x00, 0x00, 0x00, 0xb2, 0xff, 0xff, 0xff,
  0x00, 0x00, 0x00, 0x01, 0x05, 0x00, 0x00, 0x00, 0x30, 0x00, 0x00, 0x00,
  0x24, 0x00, 0x00, 0x00, 0x10, 0x00, 0x00, 0x00, 0x0c, 0x00, 0x10, 0x00,
  0x00, 0x00, 0x08, 0x00, 0x0c, 0x00, 0x07, 0x00, 0x0c, 0x00, 0x00, 0x00,
  0x00, 0x00, 0x00, 0x01, 0x01, 0x00, 0x00, 0x00, 0x01, 0x00, 0x00, 0x00,
  0x01, 0x00, 0x00, 0x00, 0x16, 0x00, 0x00, 0x00, 0x03, 0x00, 0x00, 0x00,
  0x15, 0x00, 0x00, 0x00, 0x0c, 0x00, 0x00, 0x00, 0x03, 0x00, 0x00, 0x00,
  0x00, 0x00, 0x0e, 0x00, 0x18, 0x00, 0x08, 0x00, 0x0c, 0x00, 0x10, 0x00,
  0x07, 0x00, 0x14, 0x00, 0x0e, 0x00, 0x00, 0x00, 0x00, 0x00, 0x00, 0x34,
  0x04, 0x00, 0x00, 0x00, 0x18, 0x00, 0x00, 0x00, 0x0c, 0x00, 0x00, 0x00,
  0x04, 0x00, 0x00, 0x00, 0x84, 0xf1, 0xff, 0xff, 0x01, 0x00, 0x00, 0x00,
  0x15, 0x00, 0x00, 0x00, 0x02, 0x00, 0x00, 0x00, 0x14, 0x00, 0x00, 0x00,
  0x0a, 0x00, 0x00, 0x00, 0x00, 0x00, 0x0a, 0x00, 0x10, 0x00, 0x04, 0x00,
  0x08, 0x00, 0x0c, 0x00, 0x0a, 0x00, 0x00, 0x00, 0x03, 0x00, 0x00, 0x00,
  0x10, 0x00, 0x00, 0x00, 0x04, 0x00, 0x00, 0x00, 0x01, 0x00, 0x00, 0x00,
  0x14, 0x00, 0x00, 0x00, 0x02, 0x00, 0x00, 0x00, 0x00, 0x00, 0x00, 0x00,
  0x13, 0x00, 0x00, 0x00, 0xbe, 0xff, 0xff, 0xff, 0x00, 0x00, 0x00, 0x3b,
  0x02, 0x00, 0x00, 0x00, 0x24, 0x00, 0x00, 0x00, 0x18, 0x00, 0x00, 0x00,
  0x0c, 0x00, 0x00, 0x00, 0x00, 0x00, 0x06, 0x00, 0x08, 0x00, 0x04, 0x00,
  0x06, 0x00, 0x00, 0x00, 0x03, 0x00, 0x00, 0x00, 0x01, 0x00, 0x00, 0x00,
  0x13, 0x00, 0x00, 0x00, 0x03, 0x00, 0x00, 0x00, 0x12, 0x00, 0x00, 0x00,
  0x07, 0x00, 0x00, 0x00, 0x06, 0x00, 0x00, 0x00, 0x00, 0x00, 0x0e, 0x00,
  0x1a, 0x00, 0x08, 0x00, 0x0c, 0x00, 0x10, 0x00, 0x07, 0x00, 0x14, 0x00,
  0x0e, 0x00, 0x00, 0x00, 0x00, 0x00, 0x00, 0x20, 0x01, 0x00, 0x00, 0x00,
  0x2c, 0x00, 0x00, 0x00, 0x20, 0x00, 0x00, 0x00, 0x14, 0x00, 0x00, 0x00,
  0x00, 0x00, 0x0e, 0x00, 0x08, 0x00, 0x00, 0x00, 0x00, 0x00, 0x00, 0x00,
  0x00, 0x00, 0x04, 0x00, 0x0e, 0x00, 0x00, 0x00, 0x01, 0x00, 0x00, 0x00,
  0x01, 0x00, 0x00, 0x00, 0x12, 0x00, 0x00, 0x00, 0x04, 0x00, 0x00, 0x00,
  0x11, 0x00, 0x00, 0x00, 0x05, 0x00, 0x00, 0x00, 0x04, 0x00, 0x00, 0x00,
  0x04, 0x00, 0x00, 0x00, 0x00, 0x00, 0x0e, 0x00, 0x16, 0x00, 0x00, 0x00,
  0x08, 0x00, 0x0c, 0x00, 0x07, 0x00, 0x10, 0x00, 0x0e, 0x00, 0x00, 0x00,
  0x00, 0x00, 0x00, 0x37, 0x24, 0x00, 0x00, 0x00, 0x18, 0x00, 0x00, 0x00,
  0x0c, 0x00, 0x00, 0x00, 0x00, 0x00, 0x06, 0x00, 0x08, 0x00, 0x07, 0x00,
  0x06, 0x00, 0x00, 0x00, 0x00, 0x00, 0x00, 0x02, 0x01, 0x00, 0x00, 0x00,
  0x11, 0x00, 0x00, 0x00, 0x01, 0x00, 0x00, 0x00, 0x00, 0x00, 0x00, 0x00,
  0x01, 0x00, 0x00, 0x00, 0x22, 0x00, 0x00, 0x00, 0x01, 0x00, 0x00, 0x00,
  0x00, 0x00, 0x00, 0x00, 0x23, 0x00, 0x00, 0x00, 0x1c, 0x0d, 0x00, 0x00,
  0xd4, 0x0c, 0x00, 0x00, 0x8c, 0x0c, 0x00, 0x00, 0x58, 0x0c, 0x00, 0x00,
  0x00, 0x0c, 0x00, 0x00, 0x9c, 0x0b, 0x00, 0x00, 0x58, 0x0b, 0x00, 0x00,
  0x04, 0x0b, 0x00, 0x00, 0xbc, 0x0a, 0x00, 0x00, 0x74, 0x0a, 0x00, 0x00,
  0x2c, 0x0a, 0x00, 0x00, 0xe4, 0x09, 0x00, 0x00, 0x94, 0x09, 0x00, 0x00,
  0x44, 0x09, 0x00, 0x00, 0xf4, 0x08, 0x00, 0x00, 0xa4, 0x08, 0x00, 0x00,
  0x54, 0x08, 0x00, 0x00, 0x0c, 0x08, 0x00, 0x00, 0xc8, 0x07, 0x00, 0x00,
  0x78, 0x07, 0x00, 0x00, 0x18, 0x07, 0x00, 0x00, 0xa8, 0x06, 0x00, 0x00,
  0xe4, 0x05, 0x00, 0x00, 0x40, 0x05, 0x00, 0x00, 0xd0, 0x04, 0x00, 0x00,
  0x60, 0x04, 0x00, 0x00, 0xf8, 0x03, 0x00, 0x00, 0x84, 0x03, 0x00, 0x00,
  0xb4, 0x02, 0x00, 0x00, 0x08, 0x02, 0x00, 0x00, 0x94, 0x01, 0x00, 0x00,
  0x24, 0x01, 0x00, 0x00, 0xcc, 0x00, 0x00, 0x00, 0x5c, 0x00, 0x00, 0x00,
  0x04, 0x00, 0x00, 0x00, 0x84, 0xf3, 0xff, 0xff, 0x44, 0x00, 0x00, 0x00,
  0x23, 0x00, 0x00, 0x00, 0x1c, 0x00, 0x00, 0x00, 0x14, 0x00, 0x00, 0x00,
  0x04, 0x00, 0x00, 0x00, 0x02, 0x00, 0x00, 0x00, 0xff, 0xff, 0xff, 0xff,
  0x02, 0x00, 0x00, 0x00, 0x70, 0xf3, 0xff, 0xff, 0x19, 0x00, 0x00, 0x00,
  0x53, 0x74, 0x61, 0x74, 0x65, 0x66, 0x75, 0x6c, 0x50, 0x61, 0x72, 0x74,
  0x69, 0x74, 0x69, 0x6f, 0x6e, 0x65, 0x64, 0x43, 0x61, 0x6c, 0x6c, 0x3a,
  0x30, 0x00, 0x00, 0x00, 0x02, 0x00, 0x00, 0x00, 0x01, 0x00, 0x00, 0x00,
  0x02, 0x00, 0x00, 0x00, 0xd8, 0xf3, 0xff, 0xff, 0x5c, 0x00, 0x00, 0x00,
  0x22, 0x00, 0x00, 0x00, 0x1c, 0x00, 0x00, 0x00, 0x14, 0x00, 0x00, 0x00,
  0x04, 0x00, 0x00, 0x00, 0x02, 0x00, 0x00, 0x00, 0xff, 0xff, 0xff, 0xff,
  0x02, 0x00, 0x00, 0x00, 0xc4, 0xf3, 0xff, 0xff, 0x32, 0x00, 0x00, 0x00,
  0x73, 0x65, 0x71, 0x75, 0x65, 0x6e, 0x74, 0x69, 0x61, 0x6c, 0x2f, 0x79,
  0x5f, 0x70, 0x72, 0x65, 0x64, 0x2f, 0x4d, 0x61, 0x74, 0x4d, 0x75, 0x6c,
  0x3b, 0x73, 0x65, 0x71, 0x75, 0x65, 0x6e, 0x74, 0x69, 0x61, 0x6c, 0x2f,
  0x79, 0x5f, 0x70, 0x72, 0x65, 0x64, 0x2f, 0x42, 0x69, 0x61, 0x73, 0x41,
  0x64, 0x64, 0x00, 0x00, 0x02, 0x00, 0x00, 0x00, 0x01, 0x00, 0x00, 0x00,
  0x02, 0x00, 0x00, 0x00, 0x44, 0xf4, 0xff, 0xff, 0x44, 0x00, 0x00, 0x00,
  0x21, 0x00, 0x00, 0x00, 0x1c, 0x00, 0x00, 0x00, 0x14, 0x00, 0x00, 0x00,
  0x04, 0x00, 0x00, 0x00, 0x02, 0x00, 0x00, 0x00, 0xff, 0xff, 0xff, 0xff,
  0xd0, 0x00, 0x00, 0x00, 0x30, 0xf4, 0xff, 0xff, 0x1a, 0x00, 0x00, 0x00,
  0x73, 0x65, 0x71, 0x75, 0x65, 0x6e, 0x74, 0x69, 0x61, 0x6c, 0x2f, 0x66,
  0x6c, 0x61, 0x74, 0x74, 0x65, 0x6e, 0x2f, 0x52, 0x65, 0x73, 0x68, 0x61,
  0x70, 0x65, 0x00, 0x00, 0x02, 0x00, 0x00, 0x00, 0x01, 0x00, 0x00, 0x00,
  0xd0, 0x00, 0x00, 0x00, 0x98, 0xf4, 0xff, 0xff, 0x54, 0x00, 0x00, 0x00,
  0x20, 0x00, 0x00, 0x00, 0x24, 0x00, 0x00, 0x00, 0x1c, 0x00, 0x00, 0x00,
  0x04, 0x00, 0x00, 0x00, 0x04, 0x00, 0x00, 0x00, 0xff, 0xff, 0xff, 0xff,
  0x0d, 0x00, 0x00, 0x00, 0x01, 0x00, 0x00, 0x00, 0x10, 0x00, 0x00, 0x00,
  0x8c, 0xf4, 0xff, 0xff, 0x22, 0x00, 0x00, 0x00, 0x73, 0x65, 0x71, 0x75,
  0x65, 0x6e, 0x74, 0x69, 0x61, 0x6c, 0x2f, 0x6d, 0x61, 0x78, 0x5f, 0x70,
  0x6f, 0x6f, 0x6c, 0x69, 0x6e, 0x67, 0x31, 0x64, 0x5f, 0x31, 0x2f, 0x4d,
  0x61, 0x78, 0x50, 0x6f, 0x6f, 0x6c, 0x00, 0x00, 0x04, 0x00, 0x00, 0x00,
  0x01, 0x00, 0x00, 0x00, 0x0d, 0x00, 0x00, 0x00, 0x01, 0x00, 0x00, 0x00,
  0x10, 0x00, 0x00, 0x00, 0x04, 0xf5, 0xff, 0xff, 0x58, 0x00, 0x00, 0x00,
  0x1f, 0x00, 0x00, 0x00, 0x24, 0x00, 0x00, 0x00, 0x1c, 0x00, 0x00, 0x00,
  0x04, 0x00, 0x00, 0x00, 0x04, 0x00, 0x00, 0x00, 0xff, 0xff, 0xff, 0xff,
  0x1a, 0x00, 0x00, 0x00, 0x01, 0x00, 0x00, 0x00, 0x10, 0x00, 0x00, 0x00,
  0xf8, 0xf4, 0xff, 0xff, 0x25, 0x00, 0x00, 0x00, 0x73, 0x65, 0x71, 0x75,
  0x65, 0x6e, 0x74, 0x69, 0x61, 0x6c, 0x2f, 0x6d, 0x61, 0x78, 0x5f, 0x70,
  0x6f, 0x6f, 0x6c, 0x69, 0x6e, 0x67, 0x31, 0x64, 0x5f, 0x31, 0x2f, 0x45,
  0x78, 0x70, 0x61, 0x6e, 0x64, 0x44, 0x69, 0x6d, 0x73, 0x00, 0x00, 0x00,
  0x04, 0x00, 0x00, 0x00, 0x01, 0x00, 0x00, 0x00, 0x1a, 0x00, 0x00, 0x00,
  0x01, 0x00, 0x00, 0x00, 0x10, 0x00, 0x00, 0x00, 0x74, 0xf5, 0xff, 0xff,
  0x94, 0x00, 0x00, 0x00, 0x1e, 0x00, 0x00, 0x00, 0x20, 0x00, 0x00, 0x00,
  0x18, 0x00, 0x00, 0x00, 0x04, 0x00, 0x00, 0x00, 0x03, 0x00, 0x00, 0x00,
  0xff, 0xff, 0xff, 0xff, 0x1a, 0x00, 0x00, 0x00, 0x10, 0x00, 0x00, 0x00,
  0x64, 0xf5, 0xff, 0xff, 0x65, 0x00, 0x00, 0x00, 0x73, 0x65, 0x71, 0x75,
  0x65, 0x6e, 0x74, 0x69, 0x61, 0x6c, 0x2f, 0x63, 0x6f, 0x6e, 0x76, 0x31,
  0x64, 0x5f, 0x31, 0x2f, 0x52, 0x65, 0x6c, 0x75, 0x3b, 0x73, 0x65, 0x71,
  0x75, 0x65, 0x6e, 0x74, 0x69, 0x61, 0x6c, 0x2f, 0x63, 0x6f, 0x6e, 0x76,
  0x31, 0x64, 0x5f, 0x31, 0x2f, 0x42, 0x69, 0x61, 0x73, 0x41, 0x64, 0x64,
  0x3b, 0x73, 0x65, 0x71, 0x75, 0x65, 0x6e, 0x74, 0x69, 0x61, 0x6c, 0x2f,
  0x63, 0x6f, 0x6e, 0x76, 0x31, 0x64, 0x5f, 0x31, 0x2f, 0x43, 0x6f, 0x6e,
  0x76, 0x31, 0x44, 0x2f, 0x53, 0x71, 0x75, 0x65, 0x65, 0x7a, 0x65, 0x3b,
  0x63, 0x6f, 0x6e, 0x76, 0x31, 0x64, 0x5f, 0x31, 0x2f, 0x62, 0x69, 0x61,
  0x73, 0x00, 0x00, 0x00, 0x03, 0x00, 0x00, 0x00, 0x01, 0x00, 0x00, 0x00,
  0x1a, 0x00, 0x00, 0x00, 0x10, 0x00, 0x00, 0x00, 0x1c, 0xf6, 0xff, 0xff,
  0xb4, 0x00, 0x00, 0x00, 0x1d, 0x00, 0x00, 0x00, 0x24, 0x00, 0x00, 0x00,
  0x1c, 0x00, 0x00, 0x00, 0x04, 0x00, 0x00, 0x00, 0x04, 0x00, 0x00, 0x00,
  0xff, 0xff, 0xff, 0xff, 0x01, 0x00, 0x00, 0x00, 0x1a, 0x00, 0x00, 0x00,
  0x10, 0x00, 0x00, 0x00, 0x10, 0xf6, 0xff, 0xff, 0x80, 0x00, 0x00, 0x00,
  0x73, 0x65, 0x71, 0x75, 0x65, 0x6e, 0x74, 0x69, 0x61, 0x6c, 0x2f, 0x63,
  0x6f, 0x6e, 0x76, 0x31, 0x64, 0x5f, 0x31, 0x2f, 0x52, 0x65, 0x6c, 0x75,
  0x3b, 0x73, 0x65, 0x71, 0x75, 0x65, 0x6e, 0x74, 0x69, 0x61, 0x6c, 0x2f,
  0x63, 0x6f, 0x6e, 0x76, 0x31, 0x64, 0x5f, 0x31, 0x2f, 0x42, 0x69, 0x61,
  0x73, 0x41, 0x64, 0x64, 0x3b, 0x73, 0x65, 0x71, 0x75, 0x65, 0x6e, 0x74,
  0x69, 0x61, 0x6c, 0x2f, 0x63, 0x6f, 0x6e, 0x76, 0x31, 0x64, 0x5f, 0x31,
  0x2f, 0x43, 0x6f, 0x6e, 0x76, 0x31, 0x44, 0x2f, 0x53, 0x71, 0x75, 0x65,
  0x65, 0x7a, 0x65, 0x3b, 0x63, 0x6f, 0x6e, 0x76, 0x31, 0x64, 0x5f, 0x31,
  0x2f, 0x62, 0x69, 0x61, 0x73, 0x3b, 0x73, 0x65, 0x71, 0x75, 0x65, 0x6e,
  0x74, 0x69, 0x61, 0x6c, 0x2f, 0x63, 0x6f, 0x6e, 0x76, 0x31, 0x64, 0x5f,
  0x31, 0x2f, 0x43, 0x6f, 0x6e, 0x76, 0x31, 0x44, 0x00, 0x00, 0x00, 0x00,
  0x04, 0x00, 0x00, 0x00, 0x01, 0x00, 0x00, 0x00, 0x01, 0x00, 0x00, 0x00,
  0x1a, 0x00, 0x00, 0x00, 0x10, 0x00, 0x00, 0x00, 0xe8, 0xf6, 0xff, 0xff,
  0x58, 0x00, 0x00, 0x00, 0x1c, 0x00, 0x00, 0x00, 0x24, 0x00, 0x00, 0x00,
  0x1c, 0x00, 0x00, 0x00, 0x04, 0x00, 0x00, 0x00, 0x04, 0x00, 0x00, 0x00,
  0xff, 0xff, 0xff, 0xff, 0x01, 0x00, 0x00, 0x00, 0x1a, 0x00, 0x00, 0x00,
  0x08, 0x00, 0x00, 0x00, 0xdc, 0xf6, 0xff, 0xff, 0x25, 0x00, 0x00, 0x00,
  0x73, 0x65, 0x71, 0x75, 0x65, 0x6e, 0x74, 0x69, 0x61, 0x6c, 0x2f, 0x63,
  0x6f, 0x6e, 0x76, 0x31, 0x64, 0x5f, 0x31, 0x2f, 0x43, 0x6f, 0x6e, 0x76,
  0x31, 0x44, 0x2f, 0x45, 0x78, 0x70, 0x61, 0x6e, 0x64, 0x44, 0x69, 0x6d,
  0x73, 0x00, 0x00, 0x00, 0x04, 0x00, 0x00, 0x00, 0x01, 0x00, 0x00, 0x00,
  0x01, 0x00, 0x00, 0x00, 0x1a, 0x00, 0x00, 0x00, 0x08, 0x00, 0x00, 0x00,
  0x58, 0xf7, 0xff, 0xff, 0x50, 0x00, 0x00, 0x00, 0x1b, 0x00, 0x00, 0x00,
  0x20, 0x00, 0x00, 0x00, 0x18, 0x00, 0x00, 0x00, 0x04, 0x00, 0x00, 0x00,
  0x03, 0x00, 0x00, 0x00, 0xff, 0xff, 0xff, 0xff, 0x1a, 0x00, 0x00, 0x00,
  0x08, 0x00, 0x00, 0x00, 0x48, 0xf7, 0xff, 0xff, 0x21, 0x00, 0x00, 0x00,
  0x73, 0x65, 0x71, 0x75, 0x65, 0x6e, 0x74, 0x69, 0x61, 0x6c, 0x2f, 0x6d,
  0x61, 0x78, 0x5f, 0x70, 0x6f, 0x6f, 0x6c, 0x69, 0x6e, 0x67, 0x31, 0x64,
  0x2f, 0x53, 0x71, 0x75, 0x65, 0x65, 0x7a, 0x65, 0x31, 0x00, 0x00, 0x00,
  0x03, 0x00, 0x00, 0x00, 0x01, 0x00, 0x00, 0x00, 0x1a, 0x00, 0x00, 0x00,
  0x08, 0x00, 0x00, 0x00, 0xbc, 0xf7, 0xff, 0xff, 0x54, 0x00, 0x00, 0x00,
  0x1a, 0x00, 0x00, 0x00, 0x24, 0x00, 0x00, 0x00, 0x1c, 0x00, 0x00, 0x00,
  0x04, 0x00, 0x00, 0x00, 0x04, 0x00, 0x00, 0x00, 0xff, 0xff, 0xff, 0xff,
  0x1a, 0x00, 0x00, 0x00, 0x01, 0x00, 0x00, 0x00, 0x08, 0x00, 0x00, 0x00,
  0xb0, 0xf7, 0xff, 0xff, 0x20, 0x00, 0x00, 0x00, 0x73, 0x65, 0x71, 0x75,
  0x65, 0x6e, 0x74, 0x69, 0x61, 0x6c, 0x2f, 0x6d, 0x61, 0x78, 0x5f, 0x70,
  0x6f, 0x6f, 0x6c, 0x69, 0x6e, 0x67, 0x31, 0x64, 0x2f, 0x4d, 0x61, 0x78,
  0x50, 0x6f, 0x6f, 0x6c, 0x00, 0x00, 0x00, 0x00, 0x04, 0x00, 0x00, 0x00,
  0x01, 0x00, 0x00, 0x00, 0x1a, 0x00, 0x00, 0x00, 0x01, 0x00, 0x00, 0x00,
  0x08, 0x00, 0x00, 0x00, 0x28, 0xf8, 0xff, 0xff, 0x54, 0x00, 0x00, 0x00,
  0x19, 0x00, 0x00, 0x00, 0x24, 0x00, 0x00, 0x00, 0x1c, 0x00, 0x00, 0x00,
  0x04, 0x00, 0x00, 0x00, 0x04, 0x00, 0x00, 0x00, 0xff, 0xff, 0xff, 0xff,
  0x34, 0x00, 0x00, 0x00, 0x01, 0x00, 0x00, 0x00, 0x08, 0x00, 0x00, 0x00,
  0x1c, 0xf8, 0xff, 0xff, 0x23, 0x00, 0x00, 0x00, 0x73, 0x65, 0x71, 0x75,
  0x65, 0x6e, 0x74, 0x69, 0x61, 0x6c, 0x2f, 0x6d, 0x61, 0x78, 0x5f, 0x70,
  0x6f, 0x6f, 0x6c, 0x69, 0x6e, 0x67, 0x31, 0x64, 0x2f, 0x45, 0x78, 0x70,
  0x61, 0x6e, 0x64, 0x44, 0x69, 0x6d, 0x73, 0x00, 0x04, 0x00, 0x00, 0x00,
  0x01, 0x00, 0x00, 0x00, 0x34, 0x00, 0x00, 0x00, 0x01, 0x00, 0x00, 0x00,
  0x08, 0x00, 0x00, 0x00, 0x94, 0xf8, 0xff, 0xff, 0x8c, 0x00, 0x00, 0x00,
  0x18, 0x00, 0x00, 0x00, 0x20, 0x00, 0x00, 0x00, 0x18, 0x00, 0x00, 0x00,
  0x04, 0x00, 0x00, 0x00, 0x03, 0x00, 0x00, 0x00, 0xff, 0xff, 0xff, 0xff,
  0x34, 0x00, 0x00, 0x00, 0x08, 0x00, 0x00, 0x00, 0x84, 0xf8, 0xff, 0xff,
  0x5d, 0x00, 0x00, 0x00, 0x73, 0x65, 0x71, 0x75, 0x65, 0x6e, 0x74, 0x69,
  0x61, 0x6c, 0x2f, 0x63, 0x6f, 0x6e, 0x76, 0x31, 0x64, 0x2f, 0x52, 0x65,
  0x6c, 0x75, 0x3b, 0x73, 0x65, 0x71, 0x75, 0x65, 0x6e, 0x74, 0x69, 0x61,
  0x6c, 0x2f, 0x63, 0x6f, 0x6e, 0x76, 0x31, 0x64, 0x2f, 0x42, 0x69, 0x61,
  0x73, 0x41, 0x64, 0x64, 0x3b, 0x73, 0x65, 0x71, 0x75, 0x65, 0x6e, 0x74,
  0x69, 0x61, 0x6c, 0x2f, 0x63, 0x6f, 0x6e, 0x76, 0x31, 0x64, 0x2f, 0x43,
  0x6f, 0x6e, 0x76, 0x31, 0x44, 0x2f, 0x53, 0x71, 0x75, 0x65, 0x65, 0x7a,
  0x65, 0x3b, 0x63, 0x6f, 0x6e, 0x76, 0x31, 0x64, 0x2f, 0x62, 0x69, 0x61,
  0x73, 0x00, 0x00, 0x00, 0x03, 0x00, 0x00, 0x00, 0x01, 0x00, 0x00, 0x00,
  0x34, 0x00, 0x00, 0x00, 0x08, 0x00, 0x00, 0x00, 0x34, 0xf9, 0xff, 0xff,
  0xa8, 0x00, 0x00, 0x00, 0x17, 0x00, 0x00, 0x00, 0x24, 0x00, 0x00, 0x00,
  0x1c, 0x00, 0x00, 0x00, 0x04, 0x00, 0x00, 0x00, 0x04, 0x00, 0x00, 0x00,
  0xff, 0xff, 0xff, 0xff, 0x01, 0x00, 0x00, 0x00, 0x34, 0x00, 0x00, 0x00,
  0x08, 0x00, 0x00, 0x00, 0x28, 0xf9, 0xff, 0xff, 0x76, 0x00, 0x00, 0x00,
  0x73, 0x65, 0x71, 0x75, 0x65, 0x6e, 0x74, 0x69, 0x61, 0x6c, 0x2f, 0x63,
  0x6f, 0x6e, 0x76, 0x31, 0x64, 0x2f, 0x52, 0x65, 0x6c, 0x75, 0x3b, 0x73,
  0x65, 0x71, 0x75, 0x65, 0x6e, 0x74, 0x69, 0x61, 0x6c, 0x2f, 0x63, 0x6f,
  0x6e, 0x76, 0x31, 0x64, 0x2f, 0x42, 0x69, 0x61, 0x73, 0x41, 0x64, 0x64,
  0x3b, 0x73, 0x65, 0x71, 0x75, 0x65, 0x6e, 0x74, 0x69, 0x61, 0x6c, 0x2f,
  0x63, 0x6f, 0x6e, 0x76, 0x31, 0x64, 0x2f, 0x43, 0x6f, 0x6e, 0x76, 0x31,
  0x44, 0x2f, 0x53, 0x71, 0x75, 0x65, 0x65, 0x7a, 0x65, 0x3b, 0x63, 0x6f,
  0x6e, 0x76, 0x31, 0x64, 0x2f, 0x62, 0x69, 0x61, 0x73, 0x3b, 0x73, 0x65,
  0x71, 0x75, 0x65, 0x6e, 0x74, 0x69, 0x61, 0x6c, 0x2f, 0x63, 0x6f, 0x6e,
  0x76, 0x31, 0x64, 0x2f, 0x43, 0x6f, 0x6e, 0x76, 0x31, 0x44, 0x00, 0x00,
  0x04, 0x00, 0x00, 0x00, 0x01, 0x00, 0x00, 0x00, 0x01, 0x00, 0x00, 0x00,
  0x34, 0x00, 0x00, 0x00, 0x08, 0x00, 0x00, 0x00, 0xf4, 0xf9, 0xff, 0xff,
  0x54, 0x00, 0x00, 0x00, 0x16, 0x00, 0x00, 0x00, 0x24, 0x00, 0x00, 0x00,
  0x1c, 0x00, 0x00, 0x00, 0x04, 0x00, 0x00, 0x00, 0x04, 0x00, 0x00, 0x00,
  0xff, 0xff, 0xff, 0xff, 0x01, 0x00, 0x00, 0x00, 0x34, 0x00, 0x00, 0x00,
  0x0d, 0x00, 0x00, 0x00, 0xe8, 0xf9, 0xff, 0xff, 0x23, 0x00, 0x00, 0x00,
  0x73, 0x65, 0x71, 0x75, 0x65, 0x6e, 0x74, 0x69, 0x61, 0x6c, 0x2f, 0x63,
  0x6f, 0x6e, 0x76, 0x31, 0x64, 0x2f, 0x43, 0x6f, 0x6e, 0x76, 0x31, 0x44,
  0x2f, 0x45, 0x78, 0x70, 0x61, 0x6e, 0x64, 0x44, 0x69, 0x6d, 0x73, 0x00,
  0x04, 0x00, 0x00, 0x00, 0x01, 0x00, 0x00, 0x00, 0x01, 0x00, 0x00, 0x00,
  0x34, 0x00, 0x00, 0x00, 0x0d, 0x00, 0x00, 0x00, 0x60, 0xfa, 0xff, 0xff,
  0x48, 0x00, 0x00, 0x00, 0x15, 0x00, 0x00, 0x00, 0x20, 0x00, 0x00, 0x00,
  0x18, 0x00, 0x00, 0x00, 0x04, 0x00, 0x00, 0x00, 0x03, 0x00, 0x00, 0x00,
  0xff, 0xff, 0xff, 0xff, 0x34, 0x00, 0x00, 0x00, 0x0d, 0x00, 0x00, 0x00,
  0x50, 0xfa, 0xff, 0xff, 0x1a, 0x00, 0x00, 0x00, 0x73, 0x65, 0x71, 0x75,
  0x65, 0x6e, 0x74, 0x69, 0x61, 0x6c, 0x2f, 0x72, 0x65, 0x73, 0x68, 0x61,
  0x70, 0x65, 0x2f, 0x52, 0x65, 0x73, 0x68, 0x61, 0x70, 0x65, 0x00, 0x00,
  0x03, 0x00, 0x00, 0x00, 0x01, 0x00, 0x00, 0x00, 0x34, 0x00, 0x00, 0x00,
  0x0d, 0x00, 0x00, 0x00, 0xc2, 0xfb, 0xff, 0xff, 0x00, 0x00, 0x00, 0x02,
  0x3c, 0x00, 0x00, 0x00, 0x14, 0x00, 0x00, 0x00, 0x0c, 0x00, 0x00, 0x00,
  0x04, 0x00, 0x00, 0x00, 0x9c, 0xfa, 0xff, 0xff, 0x20, 0x00, 0x00, 0x00,
  0x73, 0x65, 0x71, 0x75, 0x65, 0x6e, 0x74, 0x69, 0x61, 0x6c, 0x2f, 0x72,
  0x65, 0x73, 0x68, 0x61, 0x70, 0x65, 0x2f, 0x52, 0x65, 0x73, 0x68, 0x61,
  0x70, 0x65, 0x2f, 0x73, 0x68, 0x61, 0x70, 0x65, 0x00, 0x00, 0x00, 0x00,
  0x01, 0x00, 0x00, 0x00, 0x03, 0x00, 0x00, 0x00, 0xae, 0xfc, 0xff, 0xff,
  0x00, 0x00, 0x00, 0x02, 0x13, 0x00, 0x00, 0x00, 0x0c, 0x00, 0x00, 0x00,
  0x04, 0x00, 0x00, 0x00, 0xe4, 0xfa, 0xff, 0xff, 0x20, 0x00, 0x00, 0x00,
  0x73, 0x65, 0x71, 0x75, 0x65, 0x6e, 0x74, 0x69, 0x61, 0x6c, 0x2f, 0x72,
  0x65, 0x73, 0x68, 0x61, 0x70, 0x65, 0x2f, 0x73, 0x74, 0x72, 0x69, 0x64,
  0x65, 0x64, 0x5f, 0x73, 0x6c, 0x69, 0x63, 0x65, 0x00, 0x00, 0x00, 0x00,
  0x4e, 0xfc, 0xff, 0xff, 0x00, 0x00, 0x00, 0x02, 0x34, 0x00, 0x00, 0x00,
  0x12, 0x00, 0x00, 0x00, 0x0c, 0x00, 0x00, 0x00, 0x04, 0x00, 0x00, 0x00,
  0x28, 0xfb, 0xff, 0xff, 0x18, 0x00, 0x00, 0x00, 0x73, 0x65, 0x71, 0x75,
  0x65, 0x6e, 0x74, 0x69, 0x61, 0x6c, 0x2f, 0x72, 0x65, 0x73, 0x68, 0x61,
  0x70, 0x65, 0x2f, 0x53, 0x68, 0x61, 0x70, 0x65, 0x00, 0x00, 0x00, 0x00,
  0x01, 0x00, 0x00, 0x00, 0x02, 0x00, 0x00, 0x00, 0x92, 0xfc, 0xff, 0xff,
  0x00, 0x00, 0x00, 0x02, 0x3c, 0x00, 0x00, 0x00, 0x11, 0x00, 0x00, 0x00,
  0x0c, 0x00, 0x00, 0x00, 0x04, 0x00, 0x00, 0x00, 0x6c, 0xfb, 0xff, 0xff,
  0x22, 0x00, 0x00, 0x00, 0x73, 0x65, 0x71, 0x75, 0x65, 0x6e, 0x74, 0x69,
  0x61, 0x6c, 0x2f, 0x63, 0x6f, 0x6e, 0x76, 0x31, 0x64, 0x5f, 0x31, 0x2f,
  0x43, 0x6f, 0x6e, 0x76, 0x31, 0x44, 0x2f, 0x53, 0x71, 0x75, 0x65, 0x65,
  0x7a, 0x65, 0x00, 0x00, 0x01, 0x00, 0x00, 0x00, 0x03, 0x00, 0x00, 0x00,
  0xde, 0xfc, 0xff, 0xff, 0x00, 0x00, 0x00, 0x02, 0x3c, 0x00, 0x00, 0x00,
  0x10, 0x00, 0x00, 0x00, 0x0c, 0x00, 0x00, 0x00, 0x04, 0x00, 0x00, 0x00,
  0xb8, 0xfb, 0xff, 0xff, 0x20, 0x00, 0x00, 0x00, 0x73, 0x65, 0x71, 0x75,
  0x65, 0x6e, 0x74, 0x69, 0x61, 0x6c, 0x2f, 0x6d, 0x61, 0x78, 0x5f, 0x70,
  0x6f, 0x6f, 0x6c, 0x69, 0x6e, 0x67, 0x31, 0x64, 0x2f, 0x53, 0x71, 0x75,
  0x65, 0x65, 0x7a, 0x65, 0x00, 0x00, 0x00, 0x00, 0x01, 0x00, 0x00, 0x00,
  0x03, 0x00, 0x00, 0x00, 0x2a, 0xfd, 0xff, 0xff, 0x00, 0x00, 0x00, 0x02,
  0x3c, 0x00, 0x00, 0x00, 0x0f, 0x00, 0x00, 0x00, 0x0c, 0x00, 0x00, 0x00,
  0x04, 0x00, 0x00, 0x00, 0x04, 0xfc, 0xff, 0xff, 0x20, 0x00, 0x00, 0x00,
  0x73, 0x65, 0x71, 0x75, 0x65, 0x6e, 0x74, 0x69, 0x61, 0x6c, 0x2f, 0x63,
  0x6f, 0x6e, 0x76, 0x31, 0x64, 0x2f, 0x43, 0x6f, 0x6e, 0x76, 0x31, 0x44,
  0x2f, 0x53, 0x71, 0x75, 0x65, 0x65, 0x7a, 0x65, 0x00, 0x00, 0x00, 0x00,
  0x01, 0x00, 0x00, 0x00, 0x03, 0x00, 0x00, 0x00, 0xae, 0xfc, 0xff, 0xff,
  0x34, 0x00, 0x00, 0x00, 0x0e, 0x00, 0x00, 0x00, 0x0c, 0x00, 0x00, 0x00,
  0x04, 0x00, 0x00, 0x00, 0x4c, 0xfc, 0xff, 0xff, 0x1a, 0x00, 0x00, 0x00,
  0x73, 0x65, 0x71, 0x75, 0x65, 0x6e, 0x74, 0x69, 0x61, 0x6c, 0x2f, 0x63,
  0x6f, 0x6e, 0x76, 0x31, 0x64, 0x5f, 0x31, 0x2f, 0x43, 0x6f, 0x6e, 0x76,
  0x31, 0x44, 0x00, 0x00, 0x04, 0x00, 0x00, 0x00, 0x10, 0x00, 0x00, 0x00,
  0x01, 0x00, 0x00, 0x00, 0x03, 0x00, 0x00, 0x00, 0x08, 0x00, 0x00, 0x00,
  0xfa, 0xfc, 0xff, 0xff, 0x34, 0x00, 0x00, 0x00, 0x0d, 0x00, 0x00, 0x00,
  0x0c, 0x00, 0x00, 0x00, 0x04, 0x00, 0x00, 0x00, 0x98, 0xfc, 0xff, 0xff,
  0x18, 0x00, 0x00, 0x00, 0x73, 0x65, 0x71, 0x75, 0x65, 0x6e, 0x74, 0x69,
  0x61, 0x6c, 0x2f, 0x63, 0x6f, 0x6e, 0x76, 0x31, 0x64, 0x2f, 0x43, 0x6f,
  0x6e, 0x76, 0x31, 0x44, 0x00, 0x00, 0x00, 0x00, 0x04, 0x00, 0x00, 0x00,
  0x08, 0x00, 0x00, 0x00, 0x01, 0x00, 0x00, 0x00, 0x03, 0x00, 0x00, 0x00,
  0x0d, 0x00, 0x00, 0x00, 0x46, 0xfd, 0xff, 0xff, 0x34, 0x00, 0x00, 0x00,
  0x0c, 0x00, 0x00, 0x00, 0x0c, 0x00, 0x00, 0x00, 0x04, 0x00, 0x00, 0x00,
  0xe4, 0xfc, 0xff, 0xff, 0x18, 0x00, 0x00, 0x00, 0x73, 0x65, 0x71, 0x75,
  0x65, 0x6e, 0x74, 0x69, 0x61, 0x6c, 0x2f, 0x79, 0x5f, 0x70, 0x72, 0x65,
  0x64, 0x2f, 0x4d, 0x61, 0x74, 0x4d, 0x75, 0x6c, 0x00, 0x00, 0x00, 0x00,
  0x02, 0x00, 0x00, 0x00, 0x02, 0x00, 0x00, 0x00, 0xd0, 0x00, 0x00, 0x00,
  0xf2, 0xfe, 0xff, 0xff, 0x00, 0x00, 0x00, 0x02, 0x0b, 0x00, 0x00, 0x00,
  0x0c, 0x00, 0x00, 0x00, 0x04, 0x00, 0x00, 0x00, 0x28, 0xfd, 0xff, 0xff,
  0x27, 0x00, 0x00, 0x00, 0x73, 0x65, 0x71, 0x75, 0x65, 0x6e, 0x74, 0x69,
  0x61, 0x6c, 0x2f, 0x63, 0x6f, 0x6e, 0x76, 0x31, 0x64, 0x2f, 0x43, 0x6f,
  0x6e, 0x76, 0x31, 0x44, 0x2f, 0x45, 0x78, 0x70, 0x61, 0x6e, 0x64, 0x44,
  0x69, 0x6d, 0x73, 0x2f, 0x64, 0x69, 0x6d, 0x00, 0x96, 0xfe, 0xff, 0xff,
  0x00, 0x00, 0x00, 0x02, 0x34, 0x00, 0x00, 0x00, 0x0a, 0x00, 0x00, 0x00,
  0x0c, 0x00, 0x00, 0x00, 0x04, 0x00, 0x00, 0x00, 0x70, 0xfd, 0xff, 0xff,
  0x18, 0x00, 0x00, 0x00, 0x73, 0x65, 0x71, 0x75, 0x65, 0x6e, 0x74, 0x69,
  0x61, 0x6c, 0x2f, 0x66, 0x6c, 0x61, 0x74, 0x74, 0x65, 0x6e, 0x2f, 0x43,
  0x6f, 0x6e, 0x73, 0x74, 0x00, 0x00, 0x00, 0x00, 0x01, 0x00, 0x00, 0x00,
  0x02, 0x00, 0x00, 0x00, 0x7a, 0xff, 0xff, 0xff, 0x00, 0x00, 0x00, 0x02,
  0x09, 0x00, 0x00, 0x00, 0x0c, 0x00, 0x00, 0x00, 0x04, 0x00, 0x00, 0x00,
  0xb0, 0xfd, 0xff, 0xff, 0x27, 0x00, 0x00, 0x00, 0x73, 0x65, 0x71, 0x75,
  0x65, 0x6e, 0x74, 0x69, 0x61, 0x6c, 0x2f, 0x6d, 0x61, 0x78, 0x5f, 0x70,
  0x6f, 0x6f, 0x6c, 0x69, 0x6e, 0x67, 0x31, 0x64, 0x2f, 0x45, 0x78, 0x70,
  0x61, 0x6e, 0x64, 0x44, 0x69, 0x6d, 0x73, 0x2f, 0x64, 0x69, 0x6d, 0x00,
  0xbe, 0xff, 0xff, 0xff, 0x00, 0x00, 0x00, 0x02, 0x08, 0x00, 0x00, 0x00,
  0x0c, 0x00, 0x00, 0x00, 0x04, 0x00, 0x00, 0x00, 0xf4, 0xfd, 0xff, 0xff,
  0x22, 0x00, 0x00, 0x00, 0x73, 0x65, 0x71, 0x75, 0x65, 0x6e, 0x74, 0x69,
  0x61, 0x6c, 0x2f, 0x72, 0x65, 0x73, 0x68, 0x61, 0x70, 0x65, 0x2f, 0x52,
  0x65, 0x73, 0x68, 0x61, 0x70, 0x65, 0x2f, 0x73, 0x68, 0x61, 0x70, 0x65,
  0x2f, 0x31, 0x00, 0x00, 0x00, 0x00, 0x0e, 0x00, 0x14, 0x00, 0x00, 0x00,
  0x07, 0x00, 0x08, 0x00, 0x0c, 0x00, 0x10, 0x00, 0x0e, 0x00, 0x00, 0x00,
  0x00, 0x00, 0x00, 0x02, 0x07, 0x00, 0x00, 0x00, 0x0c, 0x00, 0x00, 0x00,
  0x04, 0x00, 0x00, 0x00, 0x44, 0xfe, 0xff, 0xff, 0x22, 0x00, 0x00, 0x00,
  0x73, 0x65, 0x71, 0x75, 0x65, 0x6e, 0x74, 0x69, 0x61, 0x6c, 0x2f, 0x72,
  0x65, 0x73, 0x68, 0x61, 0x70, 0x65, 0x2f, 0x52, 0x65, 0x73, 0x68, 0x61,
  0x70, 0x65, 0x2f, 0x73, 0x68, 0x61, 0x70, 0x65, 0x2f, 0x32, 0x00, 0x00,
  0xae, 0xff, 0xff, 0xff, 0x00, 0x00, 0x00, 0x02, 0x40, 0x00, 0x00, 0x00,
  0x06, 0x00, 0x00, 0x00, 0x0c, 0x00, 0x00, 0x00, 0x04, 0x00, 0x00, 0x00,
  0x88, 0xfe, 0xff, 0xff, 0x26, 0x00, 0x00, 0x00, 0x73, 0x65, 0x71, 0x75,
  0x65, 0x6e, 0x74, 0x69, 0x61, 0x6c, 0x2f, 0x72, 0x65, 0x73, 0x68, 0x61,
  0x70, 0x65, 0x2f, 0x73, 0x74, 0x72, 0x69, 0x64, 0x65, 0x64, 0x5f, 0x73,
  0x6c, 0x69, 0x63, 0x65, 0x2f, 0x73, 0x74, 0x61, 0x63, 0x6b, 0x00, 0x00,
  0x01, 0x00, 0x00, 0x00, 0x01, 0x00, 0x00, 0x00, 0x00, 0x00, 0x0e, 0x00,
  0x18, 0x00, 0x08, 0x00, 0x07, 0x00, 0x0c, 0x00, 0x10, 0x00, 0x14, 0x00,
  0x0e, 0x00, 0x00, 0x00, 0x00, 0x00, 0x00, 0x02, 0x44, 0x00, 0x00, 0x00,
  0x05, 0x00, 0x00, 0x00, 0x0c, 0x00, 0x00, 0x00, 0x04, 0x00, 0x00, 0x00,
  0xe8, 0xfe, 0xff, 0xff, 0x28, 0x00, 0x00, 0x00, 0x73, 0x65, 0x71, 0x75,
  0x65, 0x6e, 0x74, 0x69, 0x61, 0x6c, 0x2f, 0x72, 0x65, 0x73, 0x68, 0x61,
  0x70, 0x65, 0x2f, 0x73, 0x74, 0x72, 0x69, 0x64, 0x65, 0x64, 0x5f, 0x73,
  0x6c, 0x69, 0x63, 0x65, 0x2f, 0x73, 0x74, 0x61, 0x63, 0x6b, 0x5f, 0x31,
  0x00, 0x00, 0x00, 0x00, 0x01, 0x00, 0x00, 0x00, 0x01, 0x00, 0x00, 0x00,
  0x9a, 0xff, 0xff, 0xff, 0x24, 0x00, 0x00, 0x00, 0x04, 0x00, 0x00, 0x00,
  0x0c, 0x00, 0x00, 0x00, 0x04, 0x00, 0x00, 0x00, 0x38, 0xff, 0xff, 0xff,
  0x0b, 0x00, 0x00, 0x00, 0x63, 0x6f, 0x6e, 0x76, 0x31, 0x64, 0x2f, 0x62,
  0x69, 0x61, 0x73, 0x00, 0x01, 0x00, 0x00, 0x00, 0x08, 0x00, 0x00, 0x00,
  0xca, 0xff, 0xff, 0xff, 0x28, 0x00, 0x00, 0x00, 0x03, 0x00, 0x00, 0x00,
  0x0c, 0x00, 0x00, 0x00, 0x04, 0x00, 0x00, 0x00, 0x68, 0xff, 0xff, 0xff,
  0x0d, 0x00, 0x00, 0x00, 0x63, 0x6f, 0x6e, 0x76, 0x31, 0x64, 0x5f, 0x31,
  0x2f, 0x62, 0x69, 0x61, 0x73, 0x00, 0x00, 0x00, 0x01, 0x00, 0x00, 0x00,
  0x10, 0x00, 0x00, 0x00, 0x00, 0x00, 0x0e, 0x00, 0x14, 0x00, 0x04, 0x00,
  0x00, 0x00, 0x08, 0x00, 0x0c, 0x00, 0x10, 0x00, 0x0e, 0x00, 0x00, 0x00,
  0x24, 0x00, 0x00, 0x00, 0x02, 0x00, 0x00, 0x00, 0x0c, 0x00, 0x00, 0x00,
  0x04, 0x00, 0x00, 0x00, 0xac, 0xff, 0xff, 0xff, 0x0b, 0x00, 0x00, 0x00,
  0x79, 0x5f, 0x70, 0x72, 0x65, 0x64, 0x2f, 0x62, 0x69, 0x61, 0x73, 0x00,
  0x01, 0x00, 0x00, 0x00, 0x02, 0x00, 0x00, 0x00, 0x14, 0x00, 0x18, 0x00,
  0x04, 0x00, 0x00, 0x00, 0x08, 0x00, 0x0c, 0x00, 0x10, 0x00, 0x00, 0x00,
  0x00, 0x00, 0x14, 0x00, 0x14, 0x00, 0x00, 0x00, 0x4c, 0x00, 0x00, 0x00,
  0x01, 0x00, 0x00, 0x00, 0x20, 0x00, 0x00, 0x00, 0x18, 0x00, 0x00, 0x00,
  0x04, 0x00, 0x00, 0x00, 0x02, 0x00, 0x00, 0x00, 0xff, 0xff, 0xff, 0xff,
  0xa4, 0x02, 0x00, 0x00, 0x04, 0x00, 0x04, 0x00, 0x04, 0x00, 0x00, 0x00,
  0x1f, 0x00, 0x00, 0x00, 0x73, 0x65, 0x72, 0x76, 0x69, 0x6e, 0x67, 0x5f,
  0x64, 0x65, 0x66, 0x61, 0x75, 0x6c, 0x74, 0x5f, 0x72, 0x65, 0x73, 0x68,
  0x61, 0x70, 0x65, 0x5f, 0x69, 0x6e, 0x70, 0x75, 0x74, 0x3a, 0x30, 0x00,
  0x02, 0x00, 0x00, 0x00, 0x01, 0x00, 0x00, 0x00, 0xa4, 0x02, 0x00, 0x00,
  0x09, 0x00, 0x00, 0x00, 0xa4, 0x00, 0x00, 0x00, 0x88, 0x00, 0x00, 0x00,
  0x78, 0x00, 0x00, 0x00, 0x68, 0x00, 0x00, 0x00, 0x58, 0x00, 0x00, 0x00,
  0x44, 0x00, 0x00, 0x00, 0x28, 0x00, 0x00, 0x00, 0x14, 0x00, 0x00, 0x00,
  0x04, 0x00, 0x00, 0x00, 0x8c, 0xff, 0xff, 0xff, 0x00, 0x00, 0x00, 0x19,
  0x19, 0x00, 0x00, 0x00, 0xe4, 0xff, 0xff, 0xff, 0x00, 0x00, 0x00, 0x09,
  0x09, 0x00, 0x00, 0x00, 0x09, 0x00, 0x00, 0x00, 0xa8, 0xff, 0xff, 0xff,
  0x00, 0x00, 0x00, 0x11, 0x11, 0x00, 0x00, 0x00, 0x0c, 0x00, 0x10, 0x00,
  0x07, 0x00, 0x00, 0x00, 0x08, 0x00, 0x0c, 0x00, 0x0c, 0x00, 0x00, 0x00,
  0x00, 0x00, 0x00, 0x03, 0x05, 0x00, 0x00, 0x00, 0x03, 0x00, 0x00, 0x00,
  0xd0, 0xff, 0xff, 0xff, 0x00, 0x00, 0x00, 0x46, 0x46, 0x00, 0x00, 0x00,
  0xdc, 0xff, 0xff, 0xff, 0x00, 0x00, 0x00, 0x16, 0x16, 0x00, 0x00, 0x00,
  0xe8, 0xff, 0xff, 0xff, 0x00, 0x00, 0x00, 0x53, 0x53, 0x00, 0x00, 0x00,
  0xf4, 0xff, 0xff, 0xff, 0x00, 0x00, 0x00, 0x2d, 0x2d, 0x00, 0x00, 0x00,
  0x0c, 0x00, 0x0c, 0x00, 0x07, 0x00, 0x00, 0x00, 0x00, 0x00, 0x08, 0x00,
  0x0c, 0x00, 0x00, 0x00, 0x00, 0x00, 0x00, 0x4d, 0x4d, 0x00, 0x00, 0x00
};
unsigned int saved_tflite_model_mfcc_tflite_len = 10416;
