unsigned char saved_tflite_model_mfcc_tflite[] = {
  0x28, 0x00, 0x00, 0x00, 0x54, 0x46, 0x4c, 0x33, 0x00, 0x00, 0x00, 0x00,
  0x00, 0x00, 0x00, 0x00, 0x00, 0x00, 0x00, 0x00, 0x14, 0x00, 0x20, 0x00,
  0x04, 0x00, 0x08, 0x00, 0x0c, 0x00, 0x10, 0x00, 0x14, 0x00, 0x00, 0x00,
  0x18, 0x00, 0x1c, 0x00, 0x14, 0x00, 0x00, 0x00, 0x03, 0x00, 0x00, 0x00,
  0xec, 0x2a, 0x00, 0x00, 0xac, 0x18, 0x00, 0x00, 0x94, 0x18, 0x00, 0x00,
  0xb0, 0x00, 0x00, 0x00, 0x78, 0x00, 0x00, 0x00, 0x04, 0x00, 0x00, 0x00,
  0x01, 0x00, 0x00, 0x00, 0x04, 0x00, 0x00, 0x00, 0xfe, 0xe3, 0xff, 0xff,
  0x40, 0x00, 0x00, 0x00, 0x1c, 0x00, 0x00, 0x00, 0x04, 0x00, 0x00, 0x00,
  0x0f, 0x00, 0x00, 0x00, 0x73, 0x65, 0x72, 0x76, 0x69, 0x6e, 0x67, 0x5f,
  0x64, 0x65, 0x66, 0x61, 0x75, 0x6c, 0x74, 0x00, 0x01, 0x00, 0x00, 0x00,
  0x04, 0x00, 0x00, 0x00, 0xbc, 0xff, 0xff, 0xff, 0x08, 0x00, 0x00, 0x00,
  0x22, 0x00, 0x00, 0x00, 0x06, 0x00, 0x00, 0x00, 0x79, 0x5f, 0x70, 0x72,
  0x65, 0x64, 0x00, 0x00, 0x01, 0x00, 0x00, 0x00, 0x04, 0x00, 0x00, 0x00,
  0x02, 0xe4, 0xff, 0xff, 0x04, 0x00, 0x00, 0x00, 0x0d, 0x00, 0x00, 0x00,
  0x72, 0x65, 0x73, 0x68, 0x61, 0x70, 0x65, 0x5f, 0x69, 0x6e, 0x70, 0x75,
  0x74, 0x00, 0x00, 0x00, 0x01, 0x00, 0x00, 0x00, 0x0c, 0x00, 0x00, 0x00,
  0x08, 0x00, 0x0c, 0x00, 0x04, 0x00, 0x08, 0x00, 0x08, 0x00, 0x00, 0x00,
  0x08, 0x00, 0x00, 0x00, 0x24, 0x00, 0x00, 0x00, 0x13, 0x00, 0x00, 0x00,
  0x6d, 0x69, 0x6e, 0x5f, 0x72, 0x75, 0x6e, 0x74, 0x69, 0x6d, 0x65, 0x5f,
  0x76, 0x65, 0x72, 0x73, 0x69, 0x6f, 0x6e, 0x00, 0x25, 0x00, 0x00, 0x00,
  0xcc, 0x17, 0x00, 0x00, 0xb8, 0x17, 0x00, 0x00, 0x9c, 0x17, 0x00, 0x00,
  0x48, 0x17, 0x00, 0x00, 0x14, 0x17, 0x00, 0x00, 0x00, 0x17, 0x00, 0x00,
  0xec, 0x16, 0x00, 0x00, 0xd8, 0x16, 0x00, 0x00, 0xc4, 0x16, 0x00, 0x00,
  0xb0, 0x16, 0x00, 0x00, 0x8c, 0x16, 0x00, 0x00, 0x78, 0x16, 0x00, 0x00,
  0x04, 0x0d, 0x00, 0x00, 0x10, 0x08, 0x00, 0x00, 0xfc, 0x01, 0x00, 0x00,
  0xd8, 0x01, 0x00, 0x00, 0xb4, 0x01, 0x00, 0x00, 0x90, 0x01, 0x00, 0x00,
  0x84, 0x01, 0x00, 0x00, 0x70, 0x01, 0x00, 0x00, 0x5c, 0x01, 0x00, 0x00,
  0x48, 0x01, 0x00, 0x00, 0x34, 0x01, 0x00, 0x00, 0x20, 0x01, 0x00, 0x00,
  0x0c, 0x01, 0x00, 0x00, 0xf8, 0x00, 0x00, 0x00, 0xe4, 0x00, 0x00, 0x00,
  0xd0, 0x00, 0x00, 0x00, 0xbc, 0x00, 0x00, 0x00, 0xa8, 0x00, 0x00, 0x00,
  0x94, 0x00, 0x00, 0x00, 0x80, 0x00, 0x00, 0x00, 0x6c, 0x00, 0x00, 0x00,
  0x58, 0x00, 0x00, 0x00, 0x44, 0x00, 0x00, 0x00, 0x30, 0x00, 0x00, 0x00,
  0x04, 0x00, 0x00, 0x00, 0xea, 0xe4, 0xff, 0xff, 0x04, 0x00, 0x00, 0x00,
  0x10, 0x00, 0x00, 0x00, 0x31, 0x2e, 0x31, 0x31, 0x2e, 0x30, 0x00, 0x00,
  0x00, 0x00, 0x00, 0x00, 0x00, 0x00, 0x00, 0x00, 0x00, 0x00, 0x00, 0x00,
  0x00, 0x00, 0x00, 0x00, 0x00, 0x00, 0x00, 0x00, 0xc8, 0xd6, 0xff, 0xff,
  0x00, 0x00, 0x00, 0x00, 0x00, 0x00, 0x00, 0x00, 0x00, 0x00, 0x00, 0x00,
  0xd8, 0xd6, 0xff, 0xff, 0x00, 0x00, 0x00, 0x00, 0x00, 0x00, 0x00, 0x00,
  0x00, 0x00, 0x00, 0x00, 0xe8, 0xd6, 0xff, 0xff, 0x00, 0x00, 0x00, 0x00,
  0x00, 0x00, 0x00, 0x00, 0x00, 0x00, 0x00, 0x00, 0xf8, 0xd6, 0xff, 0xff,
  0x00, 0x00, 0x00, 0x00, 0x00, 0x00, 0x00, 0x00, 0x00, 0x00, 0x00, 0x00,
  0x08, 0xd7, 0xff, 0xff, 0x00, 0x00, 0x00, 0x00, 0x00, 0x00, 0x00, 0x00,
  0x00, 0x00, 0x00, 0x00, 0x18, 0xd7, 0xff, 0xff, 0x00, 0x00, 0x00, 0x00,
  0x00, 0x00, 0x00, 0x00, 0x00, 0x00, 0x00, 0x00, 0x28, 0xd7, 0xff, 0xff,
  0x00, 0x00, 0x00, 0x00, 0x00, 0x00, 0x00, 0x00, 0x00, 0x00, 0x00, 0x00,
  0x38, 0xd7, 0xff, 0xff, 0x00, 0x00, 0x00, 0x00, 0x00, 0x00, 0x00, 0x00,
  0x00, 0x00, 0x00, 0x00, 0x48, 0xd7, 0xff, 0xff, 0x00, 0x00, 0x00, 0x00,
  0x00, 0x00, 0x00, 0x00, 0x00, 0x00, 0x00, 0x00, 0x58, 0xd7, 0xff, 0xff,
  0x00, 0x00, 0x00, 0x00, 0x00, 0x00, 0x00, 0x00, 0x00, 0x00, 0x00, 0x00,
  0x68, 0xd7, 0xff, 0xff, 0x00, 0x00, 0x00, 0x00, 0x00, 0x00, 0x00, 0x00,
  0x00, 0x00, 0x00, 0x00, 0x78, 0xd7, 0xff, 0xff, 0x00, 0x00, 0x00, 0x00,
  0x00, 0x00, 0x00, 0x00, 0x00, 0x00, 0x00, 0x00, 0x88, 0xd7, 0xff, 0xff,
  0x00, 0x00, 0x00, 0x00, 0x00, 0x00, 0x00, 0x00, 0x00, 0x00, 0x00, 0x00,
  0x98, 0xd7, 0xff, 0xff, 0x00, 0x00, 0x00, 0x00, 0x00, 0x00, 0x00, 0x00,
  0x00, 0x00, 0x00, 0x00, 0xa8, 0xd7, 0xff, 0xff, 0x00, 0x00, 0x00, 0x00,
  0x00, 0x00, 0x00, 0x00, 0x00, 0x00, 0x00, 0x00, 0xb8, 0xd7, 0xff, 0xff,
  0x00, 0x00, 0x00, 0x00, 0x00, 0x00, 0x00, 0x00, 0x00, 0x00, 0x00, 0x00,
  0xc8, 0xd7, 0xff, 0xff, 0x00, 0x00, 0x00, 0x00, 0x00, 0x00, 0x00, 0x00,
  0x00, 0x00, 0x00, 0x00, 0xd8, 0xd7, 0xff, 0xff, 0x00, 0x00, 0x00, 0x00,
  0x2a, 0xe6, 0xff, 0xff, 0x04, 0x00, 0x00, 0x00, 0x0c, 0x00, 0x00, 0x00,
  0xff, 0xff, 0xff, 0xff, 0x96, 0x00, 0x00, 0x00, 0x10, 0x00, 0x00, 0x00,
  0x00, 0x00, 0x00, 0x00, 0x00, 0x00, 0x00, 0x00, 0x4a, 0xe6, 0xff, 0xff,
  0x04, 0x00, 0x00, 0x00, 0x0c, 0x00, 0x00, 0x00, 0xff, 0xff, 0xff, 0xff,
  0x96, 0x00, 0x00, 0x00, 0x08, 0x00, 0x00, 0x00, 0x00, 0x00, 0x00, 0x00,
  0x00, 0x00, 0x00, 0x00, 0x6a, 0xe6, 0xff, 0xff, 0x04, 0x00, 0x00, 0x00,
  0x0c, 0x00, 0x00, 0x00, 0xff, 0xff, 0xff, 0xff, 0x2c, 0x01, 0x00, 0x00,
  0x08, 0x00, 0x00, 0x00, 0x00, 0x00, 0x00, 0x00, 0x00, 0x00, 0x00, 0x00,
  0x8a, 0xe6, 0xff, 0xff, 0x04, 0x00, 0x00, 0x00, 0x00, 0x06, 0x00, 0x00,
  0xf6, 0x98, 0x6b, 0xbd, 0x24, 0x76, 0xdc, 0x3d, 0xc2, 0x8f, 0x12, 0xbd,
  0xe9, 0xfd, 0x38, 0xbe, 0x54, 0x96, 0x2d, 0x3e, 0xc3, 0x19, 0xd0, 0x3e,
  0x22, 0xb6, 0xbd, 0xbd, 0x9c, 0xd1, 0x79, 0xbe, 0xcb, 0xf7, 0xa3, 0x3e,
  0xff, 0x13, 0x5f, 0x3d, 0x75, 0x0c, 0xdb, 0xbd, 0xb5, 0x88, 0xff, 0x3c,
  0x41, 0xec, 0x63, 0x3d, 0xfd, 0x42, 0xe0, 0xbd, 0xbb, 0x84, 0xa9, 0xbe,
  0x37, 0x29, 0x5b, 0xbe, 0x3a, 0xdc, 0x93, 0x3e, 0xfa, 0xf9, 0x64, 0x3e,
  0x76, 0x98, 0x81, 0xba, 0x12, 0x4b, 0x27, 0x3c, 0x75, 0x56, 0xb6, 0x3d,
  0x2e, 0x29, 0x24, 0x3d, 0xac, 0x61, 0x9c, 0xbd, 0x8a, 0xa8, 0x87, 0xbe,
  0x08, 0xf8, 0x8f, 0xbe, 0xe2, 0x4d, 0x1d, 0x3e, 0x87, 0xbc, 0x8d, 0x3e,
  0x7a, 0x9d, 0x0f, 0x3e, 0x0b, 0x1f, 0x82, 0x3e, 0xe4, 0x34, 0xf9, 0xbb,
  0x57, 0x37, 0xd3, 0xbe, 0xc2, 0x70, 0xd6, 0x3c, 0xc8, 0x2a, 0xf2, 0xbe,
  0x31, 0x92, 0x7e, 0xbe, 0xdf, 0x9f, 0x70, 0xbe, 0x96, 0x99, 0xe5, 0xbb,
  0x68, 0x25, 0x44, 0x3a, 0x79, 0xc5, 0x94, 0xbe, 0xac, 0x47, 0xae, 0xbe,
  0xcb, 0x35, 0x0a, 0x3e, 0xc9, 0xd2, 0xf9, 0xbd, 0x51, 0xe6, 0x2e, 0xbe,
  0x3d, 0xe7, 0x65, 0x3e, 0xe9, 0x0f, 0x86, 0x3d, 0x01, 0x21, 0x38, 0x3e,
  0xb9, 0x65, 0xc7, 0xbe, 0xc7, 0xf1, 0xa7, 0xbe, 0x5f, 0xac, 0x4f, 0x3e,
  0x59, 0x65, 0x70, 0xbe, 0x08, 0x60, 0x95, 0xbe, 0x0e, 0x3c, 0xcd, 0x3d,
  0x2e, 0xa0, 0x04, 0x3e, 0x2e, 0x25, 0xf4, 0xbc, 0x1b, 0x7f, 0x9b, 0xbd,
  0x24, 0xb2, 0x59, 0xbd, 0xaf, 0x85, 0x7a, 0xbd, 0xc8, 0x2f, 0x3f, 0xbe,
  0x60, 0x47, 0xc6, 0xbb, 0x80, 0xe5, 0x79, 0xbe, 0x2a, 0x8d, 0x74, 0x3e,
  0xc7, 0xb3, 0x5a, 0x3e, 0xf5, 0x50, 0x29, 0xbe, 0x3e, 0x98, 0x4d, 0x3d,
  0x2d, 0x14, 0x86, 0xbe, 0x71, 0x7f, 0xad, 0xbe, 0x03, 0x3f, 0x88, 0xbe,
  0x9e, 0x9a, 0x89, 0x3e, 0x9b, 0x5d, 0xa9, 0x3e, 0x1f, 0x9d, 0x6b, 0xbe,
  0x82, 0x84, 0x3f, 0x3b, 0x2d, 0xe3, 0x7d, 0x3e, 0x2d, 0xf7, 0x37, 0x3e,
  0x8f, 0x5c, 0x6e, 0xbc, 0x3f, 0x18, 0xdc, 0x3d, 0x28, 0x8c, 0x21, 0x3e,
  0x8d, 0x44, 0x89, 0xbe, 0x70, 0x1b, 0x2e, 0xbe, 0x40, 0x66, 0x84, 0xbe,
  0xa2, 0x5c, 0xed, 0x3d, 0x8b, 0x96, 0x96, 0xbe, 0x7d, 0xb5, 0x14, 0xbe,
  0x39, 0x27, 0x72, 0x3e, 0x2b, 0x55, 0x01, 0xbe, 0xa4, 0xe0, 0x56, 0x3d,
  0xf8, 0x34, 0xd2, 0x3d, 0x31, 0x24, 0x66, 0x3e, 0x1d, 0x5c, 0x0e, 0x3a,
  0xcd, 0xec, 0xf8, 0xbd, 0x9d, 0xed, 0x6a, 0x3d, 0xed, 0x62, 0xf5, 0x3d,
  0x5b, 0x5e, 0x9e, 0x3d, 0x51, 0x61, 0xda, 0x3d, 0xcb, 0x31, 0xa6, 0xbd,
  0x8c, 0xb8, 0x9c, 0x3e, 0xcf, 0x5b, 0x2b, 0xbc, 0xef, 0xd2, 0xa7, 0xbd,
  0x4e, 0x7b, 0x21, 0xbd, 0xaf, 0x83, 0x8b, 0x3e, 0x1d, 0xf0, 0x65, 0xbe,
  0xff, 0x0c, 0x91, 0xbe, 0x2c, 0xbc, 0xa1, 0x3e, 0xc1, 0x6b, 0x0a, 0x3f,
  0x3c, 0xf4, 0x12, 0x3e, 0x9c, 0x10, 0x37, 0x3e, 0x04, 0x3a, 0x22, 0x3d,
  0x89, 0x25, 0x22, 0xbe, 0x3d, 0xc7, 0x6d, 0xbe, 0xba, 0xa0, 0xeb, 0xbe,
  0x12, 0xf0, 0x87, 0x3e, 0xab, 0x35, 0x08, 0x3e, 0x0e, 0x25, 0xec, 0x3d,
  0x7e, 0x06, 0x89, 0xbd, 0xe4, 0xd0, 0x9f, 0xbd, 0xb6, 0x8a, 0x8d, 0xbe,
  0xb0, 0xa6, 0x5a, 0xbe, 0xce, 0x96, 0xa7, 0xbe, 0x49, 0xff, 0x0e, 0x3e,
  0xb8, 0xb2, 0xb3, 0x3c, 0x12, 0xaa, 0x58, 0xbd, 0x85, 0x96, 0xda, 0x3d,
  0x30, 0x7d, 0x31, 0xbe, 0xf6, 0x3d, 0xdf, 0xbd, 0xd0, 0xba, 0x22, 0xbe,
  0x01, 0x49, 0x42, 0x3d, 0x2d, 0x9b, 0x32, 0x3e, 0xbd, 0xd6, 0xa4, 0xbc,
  0x4d, 0x6e, 0x26, 0x3d, 0x2b, 0xf2, 0x7b, 0x3d, 0x16, 0xc2, 0xe9, 0xbd,
  0x16, 0x26, 0x0d, 0x3c, 0x0d, 0xcb, 0xd8, 0x3c, 0x3e, 0x02, 0x34, 0x3a,
  0x5f, 0x72, 0x87, 0xbe, 0x44, 0x85, 0xf2, 0x3e, 0xc5, 0xce, 0xc9, 0xbe,
  0x1b, 0x45, 0x47, 0xbe, 0xf1, 0x7d, 0x86, 0x3e, 0x16, 0x25, 0xde, 0xbc,
  0xcd, 0x19, 0x0c, 0xbe, 0x11, 0x20, 0xdb, 0x3d, 0xe9, 0x3b, 0x4d, 0xbe,
  0xc1, 0x1e, 0xb0, 0x3e, 0x74, 0xba, 0x48, 0xbe, 0x29, 0xc4, 0x86, 0xbe,
  0x8a, 0xb8, 0xdb, 0x3d, 0x51, 0xe2, 0x22, 0xbe, 0x57, 0x19, 0x23, 0xbe,
  0x83, 0xa5, 0xe0, 0x3d, 0x4c, 0x51, 0x97, 0xbe, 0x89, 0x99, 0x7b, 0x3e,
  0x72, 0x7f, 0x2d, 0x3d, 0xc3, 0x62, 0xb0, 0xbe, 0xf7, 0x45, 0x94, 0x3e,
  0x3f, 0x36, 0x84, 0x3e, 0xef, 0x75, 0xc5, 0xbc, 0x2f, 0xb3, 0xe9, 0xbb,
  0xcb, 0xe3, 0x57, 0x3e, 0x20, 0x68, 0x0a, 0xbe, 0xe7, 0x97, 0x7f, 0xbe,
  0x1b, 0x16, 0xae, 0xbe, 0xa9, 0x39, 0xd2, 0xbd, 0xde, 0xc8, 0xfe, 0x3d,
  0x17, 0xe8, 0x04, 0xbd, 0xf1, 0x39, 0x09, 0x3e, 0x1c, 0x38, 0x0e, 0xbe,
  0x80, 0xb5, 0x2f, 0x3e, 0x0e, 0x28, 0x86, 0xbe, 0x1e, 0x7a, 0x00, 0xbf,
  0xe6, 0x45, 0xea, 0x3d, 0x94, 0x36, 0x76, 0x3e, 0x37, 0x52, 0x1f, 0xbe,
  0x02, 0xa0, 0xa1, 0xbe, 0xf9, 0x51, 0x07, 0xbe, 0x08, 0x0d, 0xe4, 0xbe,
  0x97, 0x7e, 0xb8, 0x3d, 0xc9, 0xed, 0xa7, 0x3e, 0xe4, 0x9e, 0x6e, 0xbd,
  0xa8, 0xfc, 0x0f, 0x3e, 0x9d, 0x0b, 0xa3, 0xbd, 0xf9, 0x56, 0x5c, 0xbe,
  0x49, 0x32, 0x03, 0xbe, 0x96, 0xb1, 0xb4, 0xbe, 0xed, 0xb4, 0x1c, 0xbe,
  0x98, 0xf6, 0xb7, 0x3d, 0x5b, 0xbc, 0x68, 0xbe, 0xd5, 0x0b, 0xe6, 0x3d,
  0xbe, 0x7d, 0x49, 0xbe, 0xfd, 0x4b, 0x02, 0xbe, 0xe7, 0xa1, 0xf9, 0x3d,
  0x7d, 0xf1, 0xb8, 0xbe, 0x1f, 0x31, 0xaa, 0xbd, 0xa1, 0x3f, 0x0a, 0x3e,
  0x0a, 0x49, 0xed, 0xbd, 0x66, 0xff, 0xc8, 0xbe, 0x3d, 0x29, 0x54, 0xbd,
  0x4e, 0x19, 0x5a, 0x3e, 0x54, 0xe9, 0xb2, 0x3e, 0x20, 0x9f, 0x81, 0xbe,
  0xaf, 0x9d, 0xa9, 0xbd, 0x9f, 0x01, 0x28, 0xbd, 0x2f, 0xbc, 0xe5, 0x3e,
  0x8d, 0x0f, 0xa9, 0xbe, 0x75, 0x6e, 0xfd, 0x3d, 0xdc, 0xae, 0x5a, 0xbd,
  0x82, 0x2b, 0x6e, 0x3d, 0xb2, 0x8b, 0x90, 0xbd, 0x95, 0xc9, 0x16, 0x3e,
  0x08, 0x84, 0xe6, 0xbd, 0xb4, 0x62, 0xc2, 0xb9, 0xf3, 0xbc, 0x09, 0xbf,
  0x4f, 0x91, 0xcb, 0xbd, 0x5d, 0xd1, 0xdd, 0x3d, 0xfe, 0x2b, 0x85, 0x3e,
  0x13, 0x30, 0xdb, 0xbe, 0x74, 0x52, 0x29, 0x3e, 0xb8, 0xce, 0x64, 0xbd,
  0x57, 0x76, 0xa5, 0x3e, 0x5c, 0xbe, 0xc1, 0x3e, 0x97, 0x8f, 0x1f, 0xbe,
  0xa4, 0xc4, 0xde, 0xbe, 0x8c, 0x1a, 0x77, 0x3c, 0xbe, 0x69, 0xf6, 0x3d,
  0xb7, 0x7d, 0x80, 0x3e, 0x84, 0xd1, 0x94, 0xbd, 0xfa, 0x98, 0xa2, 0x3c,
  0x6c, 0x6e, 0x68, 0xbd, 0x01, 0x28, 0x02, 0xbe, 0x88, 0x5f, 0x03, 0xbf,
  0xcf, 0xa9, 0x8a, 0x3c, 0xda, 0x04, 0x58, 0xbc, 0x2c, 0xcf, 0x0a, 0xbc,
  0xaa, 0xd6, 0xf9, 0xbd, 0xe0, 0x6c, 0xb2, 0x3d, 0xb7, 0x1f, 0x1e, 0xbe,
  0xf2, 0xf5, 0x00, 0xbd, 0x9b, 0x49, 0x90, 0xbe, 0x7a, 0x80, 0x98, 0x3d,
  0xe4, 0x91, 0x49, 0xbe, 0x0e, 0x24, 0xfd, 0xbd, 0x66, 0x58, 0xb4, 0x3e,
  0x39, 0xd4, 0x75, 0xbd, 0x26, 0x78, 0xc5, 0xbd, 0xf5, 0x25, 0x67, 0xbe,
  0xf4, 0x58, 0x77, 0xbd, 0xfc, 0xda, 0xab, 0xbe, 0x48, 0x86, 0x2e, 0xbe,
  0x32, 0xc7, 0xbe, 0xbc, 0x4f, 0x49, 0x7d, 0x3e, 0x25, 0xf9, 0xb7, 0xbe,
  0xe5, 0xd6, 0x57, 0x3e, 0xc5, 0x4a, 0xc2, 0xbe, 0x7c, 0x76, 0x86, 0xbe,
  0xe2, 0x3a, 0x8b, 0xbd, 0x07, 0x3c, 0x0b, 0xbe, 0xea, 0x1e, 0x4f, 0x3e,
  0x6a, 0xab, 0xa8, 0x3e, 0xa7, 0xd3, 0x74, 0x3c, 0xe3, 0xf2, 0x66, 0x3e,
  0x26, 0xa6, 0xa0, 0xbe, 0xa2, 0x4d, 0x11, 0x3e, 0x2b, 0x4e, 0x8e, 0x3e,
  0x49, 0x8f, 0xcc, 0xbc, 0xba, 0xd0, 0x9e, 0xbc, 0x6c, 0x33, 0x6d, 0xbe,
  0xf8, 0x64, 0xfe, 0x3d, 0x00, 0x22, 0xaa, 0xbe, 0xd2, 0x82, 0x8f, 0x3d,
  0xc4, 0xfb, 0xe3, 0x3d, 0xac, 0xac, 0x3d, 0xbe, 0x85, 0x48, 0x2c, 0x3e,
  0xfc, 0x00, 0x8c, 0xbd, 0xdc, 0x95, 0x13, 0x3e, 0xf8, 0x9b, 0x01, 0x3e,
  0xaa, 0xd2, 0x80, 0xbd, 0x74, 0x37, 0xcb, 0xbd, 0x02, 0xe1, 0x6c, 0x3d,
  0x30, 0xe5, 0x0d, 0x3d, 0x36, 0xb9, 0x92, 0x3c, 0x8c, 0x85, 0xe3, 0xbd,
  0xcf, 0x88, 0xbe, 0xbd, 0xb1, 0xc7, 0xc1, 0x3e, 0x17, 0x93, 0x72, 0xbe,
  0xe8, 0xad, 0x06, 0xbd, 0x68, 0xc4, 0x52, 0xbd, 0xb8, 0x0e, 0xfe, 0x3e,
  0x74, 0xdb, 0xa6, 0xbe, 0x95, 0xb5, 0x96, 0xbd, 0xff, 0xf6, 0x9b, 0xbe,
  0xea, 0x5f, 0x10, 0x3e, 0x28, 0xc6, 0x1f, 0x3e, 0x7c, 0x43, 0x87, 0xbc,
  0x0c, 0x67, 0x88, 0x3e, 0xa3, 0xf2, 0xbc, 0xbd, 0x97, 0x4c, 0x23, 0x3e,
  0x59, 0x66, 0x1d, 0x3d, 0xe4, 0x71, 0x87, 0xbe, 0xc3, 0xf2, 0xce, 0x3e,
  0x02, 0x79, 0xb3, 0xbd, 0x52, 0x0d, 0x8e, 0xbe, 0xa9, 0x74, 0xc1, 0xbc,
  0x84, 0xbf, 0x96, 0xbe, 0x51, 0x2e, 0x8b, 0xbd, 0x5c, 0x42, 0x9f, 0xbe,
  0xe0, 0xa5, 0x11, 0x3e, 0xf9, 0x7d, 0x82, 0x3d, 0x3b, 0xd5, 0x64, 0xbe,
  0x2c, 0x77, 0xe7, 0x3b, 0x5e, 0xf0, 0x35, 0xbe, 0xf7, 0x16, 0x83, 0xbd,
  0x37, 0x0f, 0x46, 0x3e, 0x8d, 0x46, 0x0a, 0xbe, 0xa9, 0x07, 0x80, 0xbd,
  0xd4, 0x88, 0xa6, 0xbe, 0xae, 0x35, 0x1e, 0x3e, 0x7a, 0xea, 0x3f, 0x3e,
  0x10, 0x91, 0xac, 0xbe, 0xed, 0x51, 0xb2, 0xbe, 0x51, 0x9a, 0x9b, 0x3d,
  0x9a, 0xff, 0x14, 0x3d, 0xf5, 0xea, 0x5e, 0x3e, 0x4f, 0x12, 0xba, 0xbe,
  0xbb, 0x0d, 0xbc, 0xbe, 0x1e, 0xd8, 0x8b, 0x3e, 0x1f, 0x7c, 0xe4, 0x3d,
  0xeb, 0x8d, 0xae, 0xbe, 0x38, 0xb8, 0x9f, 0x3c, 0xb7, 0x6e, 0x69, 0xbe,
  0x56, 0x97, 0x5e, 0x3e, 0xb2, 0x43, 0x5c, 0xbc, 0xf2, 0xcb, 0xad, 0xbe,
  0x15, 0x31, 0x70, 0x3e, 0xcc, 0x60, 0x8d, 0xbe, 0x96, 0x52, 0x9d, 0xbd,
  0x37, 0xbc, 0xb7, 0x3d, 0x56, 0x71, 0x1c, 0x3d, 0x1d, 0xa9, 0xe0, 0x3c,
  0x9b, 0x71, 0x6a, 0xbe, 0xd4, 0x41, 0xbe, 0xbe, 0x1f, 0xab, 0xc5, 0x3e,
  0x1a, 0x43, 0xc4, 0xbd, 0x77, 0xad, 0x17, 0xbe, 0x96, 0x45, 0xb3, 0xbe,
  0x03, 0xb5, 0x4c, 0x3e, 0x78, 0x89, 0xda, 0x3e, 0xdc, 0xd8, 0xa9, 0xbe,
  0xab, 0x65, 0xfe, 0x3c, 0x34, 0xb2, 0x7d, 0xbd, 0x0e, 0x66, 0x96, 0x3d,
  0xbe, 0x26, 0x55, 0xbd, 0xe0, 0xc7, 0xb9, 0xbe, 0xd1, 0x81, 0x89, 0xbe,
  0x66, 0xa2, 0xa2, 0xbd, 0xbe, 0xbb, 0x67, 0xbe, 0x9f, 0xa0, 0xf2, 0xbd,
  0x71, 0xc6, 0xc3, 0xbd, 0x24, 0x75, 0x5d, 0xbe, 0x5b, 0xa4, 0x55, 0xbe,
  0xab, 0x14, 0xd4, 0x3d, 0x5b, 0xb7, 0xef, 0xbe, 0x3c, 0x04, 0x07, 0xbe,
  0xed, 0xde, 0xae, 0xbe, 0x8c, 0x37, 0x14, 0x3d, 0xac, 0x82, 0x1f, 0x3e,
  0xe1, 0xfc, 0xa8, 0xbe, 0x37, 0xc9, 0x0c, 0xbd, 0xa2, 0xa2, 0xe5, 0x3e,
  0xaf, 0x3c, 0x42, 0x3d, 0x1c, 0xca, 0x85, 0x3e, 0x89, 0x0e, 0x9b, 0xbe,
  0x0e, 0xb0, 0x91, 0xbc, 0x17, 0x71, 0xd7, 0x3d, 0xc2, 0x7d, 0xa5, 0x3d,
  0x52, 0xfb, 0x2d, 0xbe, 0x34, 0xeb, 0x1d, 0x3e, 0x48, 0x26, 0x90, 0xbe,
  0x88, 0x7d, 0xd7, 0x3d, 0xc3, 0x8c, 0xb3, 0xbd, 0xbf, 0x78, 0xb6, 0xbe,
  0x75, 0x62, 0x70, 0x3d, 0xa6, 0x5d, 0x49, 0x3e, 0x0c, 0xa3, 0x9c, 0x3d,
  0x7c, 0xaa, 0xf2, 0xbd, 0x21, 0x8e, 0x3d, 0xbe, 0xcd, 0xf1, 0x09, 0xbe,
  0x00, 0x00, 0x00, 0x00, 0x9a, 0xec, 0xff, 0xff, 0x04, 0x00, 0x00, 0x00,
  0xe0, 0x04, 0x00, 0x00, 0x99, 0xc5, 0xfb, 0x3c, 0x27, 0xc4, 0x37, 0x3e,
  0xad, 0x18, 0x9e, 0xbd, 0x97, 0x60, 0x30, 0x3e, 0xf9, 0x6b, 0xdc, 0xbc,
  0xd6, 0x12, 0x7c, 0xbe, 0x3e, 0xbc, 0x86, 0xbe, 0xff, 0x1f, 0xd0, 0x3e,
  0x98, 0x4c, 0x07, 0x3f, 0x88, 0xbf, 0x74, 0x3e, 0x7d, 0x9b, 0xe4, 0xbd,
  0xe5, 0xee, 0x64, 0xbe, 0x0f, 0x1a, 0xa8, 0xbe, 0x6e, 0x62, 0xbf, 0x3e,
  0x69, 0x6b, 0x81, 0xbe, 0x59, 0x0e, 0xfb, 0x3d, 0x5f, 0x66, 0xab, 0xbe,
  0x40, 0x7e, 0x25, 0xbe, 0x18, 0x40, 0x55, 0x3e, 0xad, 0xbb, 0x95, 0xbd,
  0x57, 0x1a, 0xa0, 0xbe, 0xda, 0x99, 0x87, 0x3e, 0x90, 0x2c, 0x76, 0xbd,
  0xdf, 0x50, 0x22, 0x3e, 0x44, 0x4a, 0xa1, 0x3c, 0x49, 0x5b, 0x65, 0xbe,
  0xfa, 0xe6, 0xa9, 0xbc, 0xd8, 0xfa, 0x90, 0xbb, 0xf9, 0x28, 0x85, 0xbe,
  0x7d, 0xe3, 0xe7, 0x3e, 0x44, 0xba, 0x6a, 0xbd, 0xfe, 0x4b, 0x22, 0x3c,
  0xee, 0xe6, 0xd8, 0xbd, 0x9d, 0xa6, 0x2b, 0xbf, 0x6c, 0xf2, 0x8a, 0x3e,
  0xc6, 0x30, 0x89, 0xbd, 0x82, 0x25, 0x37, 0x3e, 0x5a, 0xe6, 0xac, 0x3e,
  0x8c, 0xc9, 0xd3, 0xbe, 0x7e, 0x37, 0xec, 0xbd, 0xb7, 0xcb, 0x7e, 0xbd,
  0x04, 0x92, 0x4a, 0x3e, 0x79, 0x01, 0x01, 0x3e, 0xfc, 0xbc, 0x08, 0xbe,
  0xa1, 0x45, 0x3e, 0xbe, 0x26, 0x3d, 0xfd, 0x3e, 0x3c, 0x0d, 0x86, 0x3d,
  0x60, 0x1e, 0x65, 0xbe, 0xec, 0x76, 0x32, 0x3e, 0x21, 0x9f, 0x0e, 0x3e,
  0x95, 0x37, 0x1e, 0x3d, 0x98, 0x35, 0xb5, 0x3c, 0xfc, 0xf4, 0xb9, 0x3e,
  0x24, 0x56, 0xf6, 0x3d, 0xea, 0xf8, 0x7c, 0xbe, 0x1d, 0x07, 0xd4, 0x3e,
  0xdb, 0x20, 0x7c, 0xbe, 0xfd, 0xf0, 0x7e, 0xbd, 0xcb, 0x7f, 0x31, 0x3e,
  0x4c, 0x50, 0x1b, 0x3e, 0x17, 0xae, 0x19, 0x3f, 0x2d, 0x25, 0xaf, 0x3e,
  0x71, 0xa7, 0x8c, 0xbe, 0xa3, 0xf1, 0xee, 0xbe, 0x0e, 0x78, 0xed, 0xbc,
  0x19, 0xc1, 0xa2, 0x3d, 0x39, 0xa0, 0x2a, 0x3e, 0x69, 0xb6, 0xfd, 0x3d,
  0x96, 0x12, 0x13, 0x3e, 0x76, 0x1f, 0x61, 0xbd, 0xf1, 0x82, 0xce, 0xbe,
  0x4c, 0x18, 0xba, 0x3e, 0x0b, 0x91, 0x4f, 0xbe, 0x5f, 0x36, 0xc2, 0xbe,
  0x39, 0x91, 0xb2, 0x3e, 0x18, 0x97, 0x65, 0x3e, 0xba, 0x57, 0xaf, 0xbe,
  0x9d, 0xc0, 0x08, 0xbe, 0x3e, 0xad, 0x25, 0xbe, 0xad, 0x91, 0xbe, 0x3d,
  0x36, 0xa2, 0x7d, 0xbe, 0x80, 0x08, 0x52, 0xbe, 0x56, 0x7d, 0x12, 0xbd,
  0x1c, 0x81, 0x36, 0x3c, 0xe8, 0x7d, 0x08, 0xbf, 0x44, 0xd8, 0x9c, 0xbc,
  0xf4, 0xe2, 0x5c, 0x3e, 0x4a, 0x4a, 0xbe, 0x3d, 0x8a, 0xdd, 0x8c, 0xbe,
  0xce, 0xc3, 0x82, 0x3e, 0x3d, 0x90, 0x94, 0xbe, 0x36, 0x89, 0x2e, 0xbd,
  0xc7, 0x54, 0x93, 0x3d, 0x36, 0x9b, 0x85, 0xbe, 0x9d, 0x5e, 0xbd, 0xbd,
  0x0c, 0xc8, 0x90, 0x3e, 0x83, 0xd5, 0xf5, 0xbe, 0xf0, 0x1c, 0x0a, 0xbe,
  0xb1, 0x0a, 0xb8, 0x3b, 0x67, 0xee, 0x20, 0xbe, 0xe0, 0xc0, 0x8b, 0xbd,
  0xed, 0x13, 0x1c, 0xbe, 0xf3, 0xa1, 0x7e, 0xbe, 0x3f, 0x27, 0x3d, 0xbe,
  0x9b, 0xfd, 0x45, 0x3d, 0x7b, 0x48, 0x50, 0xbe, 0x3a, 0x29, 0x96, 0x3e,
  0x87, 0x6e, 0xd3, 0xbd, 0x08, 0x9b, 0x3f, 0x3c, 0x88, 0x3b, 0x8c, 0x3e,
  0x81, 0xda, 0x02, 0xbf, 0x0a, 0xe7, 0xb8, 0x3e, 0x84, 0xf3, 0xe5, 0x3d,
  0x02, 0xf2, 0xc7, 0x3d, 0x46, 0x71, 0x88, 0xbd, 0x87, 0x06, 0xcf, 0xbd,
  0x81, 0x2e, 0x7b, 0x3e, 0x09, 0x29, 0x69, 0xbe, 0xc7, 0xef, 0x64, 0x3e,
  0xd5, 0xf6, 0xb5, 0xbe, 0x92, 0xa5, 0x7d, 0xba, 0xf5, 0xe2, 0x8c, 0x3e,
  0xb1, 0x25, 0xc5, 0xbe, 0xe7, 0x62, 0x7b, 0x3e, 0xa8, 0x81, 0x9a, 0xbd,
  0x3e, 0xa2, 0xfc, 0x3d, 0x28, 0xe5, 0xed, 0xbe, 0x92, 0x88, 0x08, 0xbd,
  0x74, 0xee, 0x6a, 0xbd, 0xe3, 0xd9, 0xf1, 0x3c, 0x4a, 0xfd, 0x99, 0xbd,
  0x4f, 0xda, 0x4d, 0xbe, 0xb9, 0xd4, 0xd1, 0xbd, 0x75, 0x94, 0xa4, 0xbe,
  0xee, 0x50, 0xa1, 0x3c, 0x6f, 0x05, 0xa7, 0xbc, 0xbb, 0x7d, 0xd4, 0xbd,
  0xf9, 0x2d, 0x08, 0x3e, 0xd2, 0xa3, 0xcb, 0x3e, 0x1f, 0x45, 0x9d, 0xbc,
  0x3c, 0x1e, 0x44, 0xbc, 0x3c, 0xd7, 0x66, 0x3e, 0x6c, 0xf4, 0x24, 0xbf,
  0xea, 0xd8, 0xae, 0x3d, 0x11, 0xc6, 0xf6, 0x3d, 0x2a, 0xea, 0xa2, 0xbe,
  0xda, 0x7a, 0xc5, 0xbd, 0x97, 0x33, 0x98, 0x3e, 0x6a, 0x69, 0xef, 0xbe,
  0x0f, 0x59, 0x94, 0xbd, 0x93, 0x1b, 0xbd, 0x3e, 0x54, 0xdb, 0x69, 0xbd,
  0xff, 0x77, 0x52, 0xbe, 0xf0, 0xd8, 0x8e, 0x3d, 0xb6, 0xdf, 0x8f, 0xbe,
  0x97, 0x42, 0xd4, 0x3d, 0x86, 0x2c, 0x99, 0x3a, 0xac, 0xc3, 0x73, 0x3a,
  0x02, 0xf3, 0x91, 0xbe, 0x96, 0xc4, 0x5c, 0xbe, 0x23, 0x24, 0x1d, 0x3e,
  0x01, 0x46, 0xe5, 0xbe, 0x7e, 0x26, 0x61, 0x3e, 0x79, 0x09, 0x82, 0xbd,
  0x7c, 0x31, 0x45, 0xbc, 0xcb, 0xfa, 0x50, 0xbe, 0x4b, 0x9f, 0x91, 0x3d,
  0x2d, 0xef, 0x7a, 0xbe, 0x6a, 0xf5, 0x55, 0xbe, 0x61, 0x04, 0x45, 0x3e,
  0x2a, 0x8f, 0x9c, 0x3d, 0x36, 0xc4, 0x26, 0x3e, 0xe7, 0x62, 0xb3, 0xbc,
  0x5c, 0xf7, 0x90, 0xbe, 0x0c, 0xce, 0xac, 0x3c, 0xf4, 0x4b, 0xa1, 0xbe,
  0x87, 0xac, 0x03, 0xbf, 0xea, 0xcc, 0xbb, 0xbe, 0x2a, 0xe2, 0x26, 0xbe,
  0xf6, 0xf7, 0x8b, 0x3e, 0x38, 0x98, 0x75, 0x3e, 0xd0, 0x24, 0xb4, 0xbd,
  0x8d, 0xdd, 0xd0, 0x3c, 0xe6, 0x58, 0x1e, 0x3e, 0x5a, 0xbe, 0xa2, 0xbd,
  0x56, 0x26, 0xc2, 0xbe, 0xc2, 0x37, 0x6e, 0x3e, 0x14, 0x93, 0x6c, 0x3e,
  0x66, 0x93, 0x99, 0x3e, 0xc2, 0x3e, 0x55, 0x3d, 0xea, 0xe1, 0x01, 0x3e,
  0x41, 0xd5, 0x77, 0xbe, 0xc7, 0xc7, 0x9e, 0xbe, 0x2c, 0xe3, 0xfe, 0xbd,
  0x4c, 0xfc, 0x30, 0xbf, 0x36, 0xcf, 0xd6, 0xbd, 0xaf, 0x0f, 0x8d, 0xbe,
  0x39, 0xc4, 0xff, 0xbd, 0x0c, 0x64, 0x91, 0xbe, 0x74, 0xa7, 0x47, 0x3e,
  0xac, 0x8e, 0xc6, 0x3d, 0xf1, 0x36, 0x53, 0x3c, 0x07, 0x66, 0xc1, 0x3e,
  0x76, 0x47, 0x03, 0x3f, 0x62, 0x1a, 0x32, 0xbe, 0x83, 0x9e, 0x01, 0xbf,
  0x84, 0xc6, 0x4b, 0x3e, 0x02, 0x7c, 0xe0, 0x3e, 0xf8, 0xb3, 0x02, 0x3e,
  0x84, 0x99, 0x20, 0x3e, 0x76, 0xb9, 0x67, 0x3e, 0xf5, 0x37, 0x34, 0x3e,
  0xae, 0x61, 0x82, 0xbe, 0x1e, 0x4a, 0x31, 0x3d, 0x7e, 0x2e, 0x01, 0x3e,
  0xb8, 0x36, 0x16, 0x3f, 0x3c, 0x22, 0xc6, 0xbd, 0x04, 0xc6, 0xc8, 0x3e,
  0x34, 0x56, 0x84, 0x3e, 0x03, 0x0b, 0x4c, 0x3e, 0x3a, 0x8e, 0x1e, 0xbf,
  0x65, 0x55, 0xe7, 0x3e, 0x83, 0x66, 0x26, 0xbe, 0x81, 0xe4, 0x13, 0xbe,
  0x64, 0xfc, 0x7e, 0xbe, 0x8f, 0x1b, 0x07, 0xbe, 0x8c, 0xb8, 0x08, 0x3d,
  0xc8, 0x00, 0xa2, 0xbe, 0x8c, 0xe6, 0xd6, 0x3e, 0xc8, 0x81, 0x33, 0x3f,
  0x68, 0x56, 0x90, 0xbe, 0xb1, 0x5d, 0xf2, 0xbe, 0x1d, 0x21, 0xaa, 0x3e,
  0x27, 0xda, 0x1a, 0xbe, 0x3f, 0x4e, 0x08, 0xbd, 0xc1, 0x68, 0x7d, 0xbe,
  0x17, 0xfb, 0xa6, 0x3d, 0xa1, 0xbd, 0x52, 0x3e, 0xe1, 0x2d, 0x77, 0x3e,
  0x94, 0x0d, 0x9f, 0xbe, 0x79, 0x8a, 0x46, 0xbe, 0x13, 0x57, 0xe9, 0x3e,
  0xe8, 0x86, 0x6d, 0xbe, 0x79, 0x83, 0x64, 0xbe, 0x50, 0xcc, 0xc5, 0x3e,
  0x19, 0x95, 0x8f, 0xbe, 0xc1, 0x5a, 0x5b, 0xbe, 0xc2, 0x54, 0xf4, 0xbd,
  0x67, 0xe4, 0x5b, 0x3e, 0x17, 0xeb, 0xc8, 0xbe, 0x16, 0xa5, 0xbe, 0xbe,
  0xfc, 0x3f, 0x79, 0x3d, 0x42, 0x7e, 0x0e, 0xbd, 0x1a, 0x39, 0x8f, 0xbd,
  0x6d, 0x71, 0x12, 0xbf, 0x80, 0x47, 0x16, 0xbe, 0x08, 0x3d, 0xe0, 0x3d,
  0xf1, 0x6c, 0x06, 0xbd, 0xfa, 0x30, 0x89, 0x3d, 0xc4, 0x64, 0x67, 0xbe,
  0xd3, 0x0f, 0x85, 0x3e, 0x31, 0x06, 0x2e, 0xbd, 0x4b, 0xd2, 0x8c, 0x3e,
  0xd8, 0xd1, 0xa8, 0x3e, 0x5d, 0x97, 0x49, 0x3e, 0x30, 0x54, 0x85, 0xbe,
  0xa3, 0x73, 0x78, 0xbd, 0x76, 0x5a, 0xa2, 0x3e, 0xea, 0x5f, 0x70, 0x3d,
  0x2b, 0x61, 0x21, 0x3e, 0x48, 0xa6, 0x19, 0xbe, 0xec, 0xaf, 0xc8, 0xbd,
  0xb7, 0x1c, 0x16, 0xbd, 0xd5, 0x2f, 0x91, 0x3e, 0x12, 0xba, 0x8d, 0xbd,
  0x3b, 0x8a, 0xc6, 0x3e, 0x3a, 0x9f, 0x1f, 0x3d, 0x95, 0x17, 0xaa, 0xbe,
  0xf0, 0xe4, 0xbe, 0x3d, 0x8c, 0xc5, 0x1f, 0x3d, 0x67, 0x0e, 0x30, 0xbc,
  0xcc, 0xfd, 0x64, 0xbe, 0x5a, 0x5f, 0x45, 0x3e, 0xd5, 0x3c, 0x7a, 0x3e,
  0x60, 0x96, 0x57, 0xbd, 0xae, 0x0e, 0x8c, 0x3e, 0x16, 0xe5, 0x83, 0xbe,
  0x58, 0xcb, 0xed, 0xbd, 0x0c, 0x41, 0xb9, 0xbd, 0xd3, 0x7b, 0xae, 0xbe,
  0xd6, 0x98, 0xe4, 0xbe, 0x7b, 0x69, 0xf9, 0xbd, 0x0c, 0xb6, 0x14, 0xbe,
  0x9d, 0x32, 0x81, 0xbe, 0x58, 0x00, 0xee, 0xbe, 0x61, 0xba, 0xc8, 0xbe,
  0x8c, 0x7a, 0xbc, 0x3e, 0x3f, 0x46, 0x7e, 0xbd, 0x8f, 0x5a, 0x7c, 0x3e,
  0x74, 0xae, 0x9f, 0x3c, 0x88, 0x7f, 0x83, 0xbe, 0x0d, 0x2a, 0xde, 0x3e,
  0xa8, 0x10, 0x51, 0xbc, 0x98, 0xa9, 0x87, 0xbe, 0xab, 0x25, 0xbe, 0x3e,
  0x57, 0x96, 0x91, 0xbc, 0x8a, 0x25, 0x5b, 0x3d, 0x2a, 0x40, 0x8b, 0xbe,
  0x53, 0x24, 0x8d, 0x3d, 0x26, 0xe1, 0x00, 0xbc, 0x97, 0x80, 0x1a, 0xbd,
  0x21, 0x03, 0x2f, 0x3e, 0x00, 0x00, 0x00, 0x00, 0x8a, 0xf1, 0xff, 0xff,
  0x04, 0x00, 0x00, 0x00, 0x60, 0x09, 0x00, 0x00, 0x07, 0x1e, 0xec, 0x20,
  0x29, 0x1a, 0xf2, 0xe9, 0x1a, 0x21, 0xff, 0x34, 0x22, 0x07, 0xc2, 0xfe,
  0x0b, 0x02, 0xfa, 0xe4, 0x1b, 0xcc, 0x12, 0xfe, 0x1c, 0xd5, 0xf5, 0x00,
  0x08, 0x02, 0x12, 0xf5, 0x0c, 0x17, 0x13, 0xf7, 0x24, 0xf4, 0x07, 0xe8,
  0x08, 0x18, 0x1b, 0xfe, 0xdc, 0x0e, 0x18, 0xfd, 0xf0, 0x22, 0x07, 0x0c,
  0xe9, 0x14, 0x12, 0x20, 0x03, 0x19, 0xf3, 0xd4, 0x14, 0xf2, 0x1e, 0x10,
  0x02, 0x0e, 0x11, 0xea, 0xe1, 0x03, 0xf0, 0xef, 0xfb, 0xc6, 0xda, 0xd3,
  0xee, 0xf1, 0xd4, 0x06, 0xf9, 0x0c, 0xf5, 0xe8, 0xe3, 0xec, 0xfc, 0x00,
  0xe2, 0xef, 0xf1, 0xd3, 0xf5, 0x04, 0xe3, 0xf3, 0xf8, 0x06, 0x1c, 0x1d,
  0xc9, 0x1f, 0xd5, 0xf7, 0xe0, 0xba, 0x06, 0xe6, 0xe3, 0xea, 0xbf, 0x05,
  0x0c, 0xf9, 0xf5, 0x0a, 0xe9, 0x08, 0xef, 0x09, 0xfb, 0xf8, 0x00, 0xf1,
  0xf6, 0xf5, 0xfe, 0xec, 0x0a, 0xe5, 0x13, 0x19, 0x31, 0x16, 0x21, 0xf5,
  0x1f, 0x04, 0x26, 0x13, 0xfd, 0xef, 0xd4, 0xf8, 0x0a, 0xfd, 0x10, 0xed,
  0x1b, 0xef, 0x02, 0xd2, 0x12, 0xe0, 0xf9, 0xe0, 0x06, 0x02, 0x0c, 0xf5,
  0x06, 0xfd, 0xe9, 0x0b, 0x10, 0x27, 0xe9, 0x14, 0x08, 0xfd, 0xeb, 0x02,
  0x10, 0xf7, 0x09, 0xee, 0xf3, 0x0f, 0xee, 0xdc, 0x46, 0x02, 0x20, 0x0c,
  0xfb, 0x13, 0x2b, 0x0e, 0xe4, 0x0c, 0xbd, 0x10, 0x26, 0xd6, 0x01, 0x09,
  0x61, 0x2b, 0x1c, 0x1b, 0x0b, 0x4f, 0x11, 0x0e, 0xe1, 0xd9, 0xe2, 0xf1,
  0x2f, 0xcc, 0xf9, 0x16, 0x00, 0x18, 0x0f, 0x2b, 0xf8, 0x2c, 0x24, 0xe9,
  0x01, 0xde, 0xd0, 0xdd, 0xf9, 0xed, 0xec, 0x11, 0xdd, 0x07, 0x01, 0xfe,
  0xfc, 0x21, 0x03, 0xfc, 0xfd, 0xe1, 0x1e, 0x0a, 0xec, 0xf3, 0xf2, 0x05,
  0x00, 0xe7, 0x0f, 0xe7, 0x16, 0xf8, 0xe9, 0xec, 0x26, 0xde, 0xe5, 0xff,
  0x1b, 0xe1, 0xf7, 0xf3, 0x0b, 0x0a, 0xef, 0xf4, 0x31, 0xdb, 0xf5, 0x14,
  0xfb, 0xdf, 0xab, 0xde, 0x16, 0xe4, 0xea, 0x13, 0x18, 0x24, 0x1d, 0xd7,
  0x03, 0x04, 0xf3, 0x0d, 0x0c, 0xe7, 0xd5, 0xfb, 0x24, 0xbd, 0xe0, 0x17,
  0xde, 0x41, 0x35, 0xe2, 0xec, 0x26, 0xe7, 0x04, 0x1b, 0xf1, 0x94, 0xf2,
  0x1c, 0xe0, 0xf3, 0xf0, 0x02, 0x20, 0x28, 0x02, 0x09, 0x31, 0xf5, 0x02,
  0x30, 0xe8, 0xe0, 0xe2, 0x0c, 0x04, 0xf8, 0x0f, 0x15, 0x1f, 0xf6, 0xe6,
  0x18, 0xf4, 0x3e, 0x0c, 0x1a, 0x08, 0xb8, 0xf1, 0x12, 0xea, 0xf0, 0x02,
  0x27, 0xf3, 0x17, 0xdf, 0x28, 0xff, 0xf2, 0x01, 0xff, 0xcf, 0xce, 0xf5,
  0xfd, 0x08, 0xf9, 0x01, 0xd1, 0x37, 0xfb, 0xbd, 0x22, 0xbe, 0xe8, 0xea,
  0xee, 0xfe, 0xcb, 0x0e, 0xfd, 0x0f, 0x05, 0x04, 0x30, 0xde, 0xf9, 0xbe,
  0x2c, 0xf6, 0xe3, 0x1e, 0xfd, 0xe2, 0xcc, 0xf1, 0xff, 0xfa, 0x0c, 0xeb,
  0xe7, 0xe6, 0xf5, 0xe6, 0x22, 0xe2, 0xe7, 0x22, 0xf7, 0x12, 0x02, 0xe5,
  0xd6, 0xe5, 0xeb, 0xf8, 0x0c, 0x0d, 0xf3, 0xdb, 0x22, 0xef, 0xca, 0x15,
  0xe6, 0xf7, 0xfc, 0xfe, 0xf4, 0xfb, 0xf6, 0xfb, 0xf2, 0x11, 0xe9, 0xde,
  0x1e, 0xd6, 0x00, 0xef, 0x0d, 0xf7, 0xe3, 0xf3, 0xe9, 0x00, 0xf2, 0x0f,
  0xb6, 0xc0, 0x01, 0xda, 0x16, 0xbb, 0xf5, 0xf5, 0xdf, 0x00, 0x01, 0xe6,
  0x0a, 0xf8, 0xe4, 0x0e, 0xb0, 0x17, 0x28, 0xf8, 0x05, 0xca, 0xd3, 0x09,
  0xe6, 0xf6, 0x67, 0xea, 0x0f, 0xe4, 0x0e, 0xe9, 0xd8, 0x25, 0x41, 0xc7,
  0x11, 0xde, 0x02, 0x0a, 0x01, 0x07, 0xc4, 0x1b, 0x0d, 0x05, 0x02, 0x12,
  0xc5, 0x20, 0x1b, 0xbe, 0x06, 0x81, 0xdf, 0x00, 0x0a, 0xe8, 0xe6, 0x10,
  0x00, 0x08, 0xfc, 0x06, 0xea, 0x0f, 0x25, 0xe2, 0x0c, 0x17, 0x04, 0xde,
  0x0e, 0x00, 0xb5, 0xfd, 0x28, 0xee, 0x03, 0x06, 0x07, 0x34, 0x1f, 0xea,
  0xe4, 0xfc, 0xea, 0x0a, 0x03, 0xf3, 0x32, 0xfa, 0x11, 0xe5, 0xdc, 0xf5,
  0xf9, 0x12, 0x0f, 0x0e, 0xd8, 0xf7, 0xe0, 0x07, 0xf3, 0x0e, 0x50, 0xfd,
  0x0a, 0xfd, 0xd9, 0xf2, 0xe2, 0xdf, 0x12, 0xf9, 0xd8, 0x09, 0xc1, 0xe4,
  0x1e, 0xfc, 0xf0, 0xfa, 0xfb, 0x11, 0xf0, 0x00, 0x23, 0x07, 0x11, 0x13,
  0xcb, 0xd1, 0xcc, 0xdf, 0xeb, 0x1d, 0xfd, 0x0a, 0x31, 0xf9, 0xc8, 0xdf,
  0x2e, 0x4b, 0xec, 0xff, 0xc5, 0x3c, 0xc9, 0x05, 0x19, 0x0a, 0x14, 0x06,
  0x13, 0x03, 0xe8, 0x03, 0xca, 0xd7, 0x21, 0xc8, 0xaf, 0x18, 0xe2, 0xe4,
  0x1b, 0x04, 0x29, 0xdf, 0x0a, 0xff, 0xe6, 0x0e, 0xf4, 0x13, 0xfc, 0xe9,
  0xdb, 0x01, 0x0b, 0xed, 0xe8, 0x0b, 0x35, 0x18, 0x10, 0xf8, 0xfe, 0x00,
  0x3c, 0x2f, 0x25, 0xd6, 0xd1, 0x57, 0xf0, 0xd0, 0x0c, 0xfb, 0x05, 0x1f,
  0x27, 0xf5, 0x02, 0x0c, 0x1d, 0x0c, 0x14, 0xff, 0xd9, 0x12, 0xff, 0x12,
  0xe8, 0xec, 0xf2, 0x28, 0xf9, 0x20, 0x08, 0x03, 0x2f, 0x01, 0xe4, 0xdc,
  0x1d, 0xff, 0xc8, 0xdf, 0xe0, 0x01, 0x0b, 0x11, 0x00, 0x07, 0x16, 0x01,
  0xf4, 0xd6, 0xef, 0x03, 0x1b, 0x36, 0xd3, 0xf1, 0xe7, 0x08, 0xdd, 0xf9,
  0xec, 0xfa, 0x12, 0x12, 0xd3, 0x1f, 0xe9, 0xfa, 0xe8, 0xcd, 0xee, 0xc4,
  0x07, 0x0a, 0x3e, 0xf1, 0x0a, 0x0b, 0x00, 0x05, 0x10, 0x0b, 0xfc, 0xcb,
  0xd8, 0x01, 0xe8, 0x09, 0x0c, 0x38, 0x0d, 0x21, 0xff, 0x09, 0xf9, 0x00,
  0x39, 0x2d, 0xe9, 0x02, 0xde, 0x3b, 0xe5, 0x04, 0x1b, 0x0a, 0x33, 0x18,
  0x0d, 0x13, 0x13, 0x17, 0x0c, 0x08, 0x00, 0xfe, 0xd2, 0xc8, 0xf5, 0xee,
  0xee, 0x25, 0x3b, 0x07, 0x05, 0x1f, 0xfd, 0x02, 0x17, 0x35, 0xff, 0x00,
  0x13, 0xbb, 0xe3, 0x0a, 0xeb, 0x05, 0xd7, 0x1d, 0xf7, 0x0b, 0xef, 0xf7,
  0x23, 0x02, 0x00, 0x04, 0x03, 0xf5, 0xf9, 0x21, 0x09, 0xf8, 0x0f, 0x04,
  0x21, 0xec, 0x0a, 0xfd, 0x31, 0xf3, 0x0e, 0xf4, 0xe2, 0x16, 0xfb, 0x02,
  0x1e, 0xf8, 0xe3, 0xfe, 0xf5, 0x01, 0xfd, 0x0c, 0xeb, 0x09, 0x00, 0x0b,
  0xe5, 0xe1, 0x10, 0xf4, 0x02, 0xf7, 0x07, 0x07, 0x05, 0xf8, 0x14, 0xf4,
  0xc3, 0xe2, 0x00, 0xdb, 0x00, 0xdd, 0xec, 0x00, 0xf6, 0x05, 0xf5, 0xfc,
  0x16, 0x02, 0xf0, 0x07, 0xc1, 0xb3, 0xfc, 0xf6, 0xf7, 0xd6, 0xcb, 0xe7,
  0x00, 0xe9, 0xc7, 0xe4, 0xf6, 0xf3, 0x29, 0xf5, 0xf3, 0x1b, 0x1e, 0xcb,
  0x08, 0xcb, 0x03, 0xf5, 0xeb, 0x00, 0xa7, 0x09, 0x05, 0x1f, 0x10, 0x10,
  0x2a, 0x0e, 0x24, 0xda, 0x0d, 0x17, 0xd7, 0xfd, 0x03, 0x03, 0xcd, 0xf1,
  0x05, 0x19, 0x0b, 0xff, 0xfc, 0x2b, 0x2e, 0xdd, 0x20, 0xfa, 0x03, 0x1b,
  0xf7, 0xd8, 0xd6, 0xde, 0xfe, 0x08, 0x16, 0x19, 0xfb, 0x09, 0x11, 0x00,
  0x16, 0x00, 0xe7, 0xf7, 0x1a, 0xe2, 0xec, 0xdc, 0x05, 0xe5, 0x05, 0x1d,
  0x03, 0xfd, 0x06, 0x37, 0xfc, 0x0f, 0x1d, 0xca, 0x20, 0xdd, 0xf5, 0xe5,
  0xe0, 0xf1, 0xf7, 0xff, 0x4f, 0x10, 0x12, 0x30, 0xc5, 0x55, 0x3c, 0xfd,
  0xe9, 0xff, 0xe7, 0x01, 0x25, 0xdb, 0xd3, 0x0b, 0x1c, 0x54, 0x37, 0x21,
  0xd5, 0x1e, 0x22, 0x09, 0x2b, 0xf7, 0x17, 0xde, 0x28, 0xf8, 0xde, 0xf8,
  0x2a, 0x40, 0x0f, 0xe6, 0xe0, 0x1d, 0xea, 0x0b, 0x0d, 0xf5, 0xf1, 0x23,
  0x0d, 0xff, 0x0c, 0x0f, 0xe2, 0x20, 0x19, 0xd5, 0xf8, 0x14, 0xf1, 0x0d,
  0x0f, 0x0e, 0x39, 0x12, 0x25, 0xe3, 0xe7, 0x05, 0xb2, 0x1a, 0x2b, 0xe4,
  0x14, 0x1c, 0xfd, 0x28, 0x2d, 0x01, 0x4b, 0xe5, 0x13, 0xd6, 0xd4, 0xe0,
  0x15, 0x24, 0x12, 0x01, 0xff, 0x54, 0xd8, 0x02, 0x10, 0xdb, 0xdb, 0xf4,
  0x1a, 0xec, 0xf8, 0x02, 0xf5, 0x10, 0xf5, 0xea, 0x1c, 0xc5, 0xe0, 0xfc,
  0xf5, 0x04, 0x9c, 0xfc, 0xe6, 0xfa, 0xfc, 0x00, 0x50, 0xfb, 0x08, 0xd7,
  0x26, 0x0f, 0x14, 0x0a, 0x3d, 0x12, 0xe5, 0x15, 0xe1, 0x07, 0x1a, 0xee,
  0x4a, 0xfd, 0xf8, 0xf4, 0x06, 0xde, 0x20, 0x18, 0x00, 0x18, 0xfb, 0x10,
  0x13, 0x0a, 0x04, 0x0a, 0xdc, 0x2b, 0x0a, 0xea, 0x0b, 0xca, 0x13, 0x2e,
  0x1a, 0xf8, 0x4a, 0x15, 0xf6, 0x21, 0x06, 0xe6, 0xa5, 0xf0, 0x02, 0xed,
  0x16, 0xc2, 0xd5, 0x0a, 0xf1, 0xd6, 0xf1, 0xd6, 0xed, 0x14, 0x07, 0xea,
  0xd6, 0x0b, 0xef, 0xfc, 0xec, 0xe9, 0xf2, 0xef, 0x1d, 0xe3, 0x1b, 0xe8,
  0xef, 0x06, 0xeb, 0xe2, 0xcd, 0x1b, 0x17, 0x00, 0xe9, 0x06, 0x1d, 0x0f,
  0x0f, 0xef, 0xe4, 0xe8, 0xf7, 0xed, 0xf2, 0x09, 0xef, 0x00, 0x12, 0xf0,
  0x31, 0x0b, 0xe9, 0x22, 0xed, 0x1c, 0xab, 0x1f, 0xf7, 0xe9, 0xfb, 0x0d,
  0x33, 0x24, 0x09, 0x0d, 0x11, 0x0b, 0x00, 0x3c, 0x03, 0x22, 0x21, 0x10,
  0xfb, 0x14, 0x1f, 0xf0, 0x3e, 0xeb, 0xf8, 0xf2, 0x1c, 0x2e, 0xc0, 0xf2,
  0x0e, 0x08, 0xd1, 0x10, 0xe9, 0x05, 0x15, 0x00, 0x1e, 0x0f, 0xcc, 0xf4,
  0x1a, 0x28, 0x20, 0xf2, 0xef, 0x0e, 0x14, 0xef, 0xea, 0xf6, 0x06, 0x10,
  0xe3, 0xdf, 0x0b, 0x42, 0xd8, 0xed, 0xfb, 0xec, 0xe4, 0xf4, 0x1a, 0xfb,
  0xf3, 0x04, 0x1e, 0x0c, 0xdf, 0x34, 0xfd, 0x11, 0xe7, 0x13, 0x0e, 0xe0,
  0xe6, 0xf2, 0xe1, 0x10, 0x10, 0xfd, 0x11, 0x15, 0xef, 0x1a, 0x0f, 0xf7,
  0x14, 0xfd, 0xd4, 0xed, 0x12, 0xe4, 0xdb, 0xdc, 0xf3, 0xfc, 0x0c, 0xed,
  0x04, 0x15, 0xf8, 0xdf, 0x0e, 0x01, 0x0f, 0x03, 0xf3, 0x0b, 0xbb, 0x0f,
  0x17, 0xf0, 0xfd, 0xef, 0x0e, 0xda, 0x02, 0x0c, 0x27, 0x38, 0x1e, 0x4b,
  0x25, 0x1f, 0x14, 0xec, 0xf9, 0xf8, 0xf6, 0x20, 0x40, 0xf1, 0x0d, 0xf3,
  0x33, 0x3a, 0x07, 0x21, 0xfc, 0xf0, 0x1c, 0x04, 0x32, 0xde, 0xf8, 0x02,
  0x3b, 0xfd, 0x0d, 0x07, 0x11, 0x2b, 0xf0, 0x35, 0x2c, 0xf6, 0x24, 0x12,
  0x0d, 0x1d, 0xfb, 0x07, 0xea, 0xd4, 0xfc, 0xe0, 0xf1, 0x25, 0xfc, 0x2c,
  0x1d, 0x10, 0x13, 0x0e, 0x06, 0xf4, 0xf6, 0xf7, 0xdb, 0xd8, 0xe2, 0xeb,
  0xd5, 0xe1, 0x01, 0xe8, 0xfe, 0x12, 0x45, 0xfd, 0x0c, 0x06, 0xd0, 0x2b,
  0xee, 0x23, 0x0f, 0xfc, 0xe4, 0x27, 0x0c, 0x13, 0x02, 0x02, 0xee, 0xf4,
  0x1c, 0x17, 0xf3, 0xfd, 0xc1, 0xdd, 0x2e, 0xed, 0x1a, 0xec, 0xf3, 0x16,
  0xfc, 0x01, 0xe7, 0x11, 0xe4, 0xff, 0xfc, 0xf3, 0xea, 0xff, 0xde, 0xfc,
  0x2b, 0x0b, 0xe6, 0xf1, 0x1a, 0x21, 0x1e, 0x13, 0xe3, 0x30, 0xfd, 0x12,
  0xbe, 0xe7, 0xe3, 0xd2, 0x0a, 0xc4, 0xed, 0x00, 0xf3, 0x2b, 0x4e, 0x02,
  0xdf, 0x2d, 0xf5, 0xf5, 0xea, 0x0f, 0xd9, 0xfb, 0xe6, 0xce, 0xf8, 0x1d,
  0x01, 0x16, 0x29, 0x21, 0xf9, 0x38, 0x16, 0x1c, 0x0c, 0x07, 0xfc, 0xf7,
  0x06, 0xf2, 0x01, 0x16, 0xf7, 0x08, 0xd7, 0x1f, 0xf3, 0x41, 0x04, 0x0a,
  0xfd, 0x15, 0x13, 0x24, 0x00, 0x1d, 0x16, 0xf7, 0xd2, 0x24, 0x05, 0x31,
  0xe3, 0x38, 0x04, 0xde, 0xf7, 0xe6, 0x04, 0x22, 0xe8, 0x2f, 0xf4, 0xe8,
  0x06, 0x20, 0x68, 0x13, 0xef, 0x06, 0x18, 0xe6, 0xcb, 0x0a, 0xcd, 0x2f,
  0x1c, 0xe3, 0xfc, 0x18, 0xdf, 0x16, 0x2d, 0x1b, 0xe1, 0x2c, 0xf4, 0x08,
  0x1e, 0xcc, 0xc9, 0x2a, 0x12, 0xfd, 0x22, 0xd0, 0xf1, 0x19, 0x69, 0x18,
  0xe5, 0x31, 0xf4, 0xf7, 0xda, 0xe4, 0xf5, 0x0e, 0x07, 0xc9, 0x00, 0xf1,
  0xcf, 0x1e, 0x32, 0xf4, 0x13, 0x0b, 0x18, 0x0e, 0xea, 0xda, 0xe8, 0x1d,
  0xff, 0x0a, 0xe9, 0xf4, 0xf8, 0x19, 0x3c, 0xff, 0xfb, 0xfe, 0x11, 0x18,
  0xe8, 0x04, 0x11, 0x17, 0xd8, 0x13, 0xdd, 0xf7, 0x0a, 0x05, 0x2f, 0xf8,
  0x14, 0x0a, 0x03, 0xe0, 0x33, 0xeb, 0x09, 0x27, 0xef, 0x37, 0x1f, 0xe8,
  0x02, 0x33, 0x24, 0x1b, 0xea, 0xff, 0xfd, 0xfe, 0xec, 0x06, 0xdd, 0x4a,
  0xe7, 0xf2, 0x11, 0xee, 0x11, 0xfb, 0x06, 0x17, 0x00, 0x1d, 0x07, 0xe9,
  0xf1, 0x1c, 0xfd, 0xf7, 0xdb, 0x3d, 0x39, 0x03, 0x15, 0xf5, 0xf7, 0x03,
  0xfe, 0xfd, 0x04, 0xe9, 0x05, 0x0d, 0x1f, 0x1b, 0xca, 0x00, 0x4e, 0xf6,
  0x01, 0x09, 0x24, 0x1e, 0x18, 0x11, 0x18, 0xfb, 0xfd, 0x01, 0xfd, 0x18,
  0xe9, 0x15, 0x23, 0x03, 0x0e, 0x0d, 0x1f, 0x13, 0xf6, 0x02, 0x02, 0x0b,
  0x34, 0x47, 0xf3, 0x14, 0x08, 0x42, 0xd9, 0x1c, 0x30, 0xef, 0xf5, 0x02,
  0xf1, 0x17, 0xf4, 0x07, 0x38, 0xe1, 0xd4, 0x14, 0xfd, 0x1b, 0x13, 0x01,
  0x25, 0xfa, 0xae, 0xfb, 0xfa, 0xf6, 0x07, 0xf1, 0x38, 0xd3, 0xe7, 0x1e,
  0xf1, 0x20, 0x17, 0xff, 0xf5, 0x0b, 0x4c, 0xe6, 0xec, 0x08, 0xf8, 0x0f,
  0x35, 0xe6, 0xef, 0x4e, 0xf8, 0x7e, 0x0f, 0xe0, 0xf9, 0x23, 0x12, 0x00,
  0xf7, 0xf0, 0xea, 0xf7, 0x04, 0xfb, 0x04, 0x1f, 0xe7, 0xe6, 0x1b, 0xfc,
  0xf3, 0x07, 0x48, 0xf3, 0xe2, 0x22, 0x01, 0xf1, 0xf2, 0xcf, 0xdf, 0x0e,
  0x01, 0xf0, 0x24, 0xe6, 0xd5, 0x01, 0xcd, 0x09, 0x01, 0xfa, 0x1e, 0x02,
  0x07, 0xf7, 0xf1, 0x0d, 0x2a, 0x2a, 0xf1, 0x07, 0xef, 0x0d, 0xc7, 0x04,
  0x04, 0xe3, 0x12, 0x07, 0x06, 0x11, 0x04, 0x05, 0x27, 0xf1, 0x39, 0x2b,
  0xf2, 0xf4, 0x16, 0x08, 0xf8, 0x07, 0x24, 0xf4, 0xfb, 0xf7, 0xde, 0xeb,
  0x1c, 0x33, 0x0e, 0x11, 0xf1, 0xf9, 0xe6, 0xe7, 0xda, 0x18, 0x19, 0xf2,
  0xc1, 0xc6, 0xf9, 0xf9, 0x38, 0xc5, 0x13, 0x01, 0xd0, 0xe8, 0xf3, 0xfa,
  0xe2, 0x0e, 0x0a, 0x0c, 0x31, 0x0d, 0xe3, 0x18, 0x53, 0xf3, 0x2e, 0x3a,
  0xf0, 0xf1, 0xd3, 0xef, 0xea, 0xfb, 0x02, 0xed, 0x14, 0xcf, 0xe3, 0x03,
  0x2e, 0xed, 0xf5, 0x0d, 0xe6, 0xfc, 0xc9, 0x18, 0xf4, 0x0a, 0x17, 0x00,
  0xc2, 0xcd, 0xf7, 0x01, 0x28, 0xc9, 0xf4, 0x20, 0x08, 0xf0, 0xef, 0xf6,
  0xff, 0xf8, 0xfe, 0xf7, 0x03, 0x05, 0xfa, 0x15, 0x10, 0xd5, 0x00, 0x01,
  0x0c, 0xfa, 0x07, 0x01, 0x07, 0xed, 0x0f, 0xff, 0xdb, 0x0c, 0x1f, 0x10,
  0xfc, 0xe5, 0x45, 0xff, 0x24, 0x10, 0x01, 0xf7, 0x15, 0x0a, 0xf5, 0x0e,
  0x1d, 0x20, 0xf6, 0xfc, 0xe1, 0xd3, 0x2a, 0x0f, 0x15, 0xf2, 0x33, 0xf9,
  0x18, 0xf6, 0xf8, 0xf7, 0x31, 0xec, 0x1a, 0xf4, 0x2e, 0x1f, 0x2e, 0x39,
  0x05, 0xd9, 0xc2, 0xf7, 0x04, 0x15, 0xe5, 0xf4, 0x1e, 0xea, 0x0c, 0x1d,
  0x1c, 0x14, 0xe7, 0x09, 0xf7, 0xec, 0xfa, 0xeb, 0xf9, 0xf3, 0xf9, 0x07,
  0xed, 0xdc, 0x03, 0x11, 0x08, 0xc2, 0x09, 0xf9, 0xf8, 0xec, 0xc7, 0xd8,
  0x0f, 0xd5, 0xfa, 0x11, 0xeb, 0xee, 0x28, 0x03, 0x06, 0x10, 0x0b, 0x08,
  0x35, 0xed, 0xca, 0xf8, 0xdd, 0xc8, 0xef, 0xf3, 0xe4, 0xd1, 0x01, 0x06,
  0xf7, 0x23, 0x1a, 0xdf, 0x0f, 0xf6, 0x10, 0x07, 0xfc, 0x01, 0x0f, 0xec,
  0xdb, 0xde, 0xfb, 0x0c, 0xfe, 0xea, 0xe5, 0xe8, 0x03, 0x12, 0x02, 0xef,
  0x0b, 0x00, 0x0d, 0xfb, 0xce, 0xe7, 0x00, 0xf8, 0x12, 0xd8, 0x0e, 0x04,
  0xe2, 0x0e, 0xed, 0xe8, 0xf1, 0xf5, 0xe6, 0x1c, 0x0e, 0xec, 0xdb, 0xfe,
  0xf4, 0xfd, 0xdf, 0x23, 0xfe, 0xda, 0xf6, 0xe7, 0x03, 0x11, 0x10, 0xfa,
  0x3d, 0xf7, 0xf6, 0x24, 0x24, 0x1a, 0x0b, 0x00, 0xfe, 0xea, 0x14, 0xfa,
  0xf9, 0x0e, 0xe2, 0xfd, 0x3c, 0x26, 0xe2, 0x28, 0x14, 0x29, 0x36, 0x21,
  0x01, 0xe3, 0x19, 0xe7, 0xe0, 0xea, 0xd6, 0xe5, 0x1c, 0x15, 0xdd, 0x2b,
  0xfa, 0x46, 0x01, 0xe7, 0xed, 0x01, 0x55, 0xfa, 0xe1, 0xea, 0xdc, 0x11,
  0xdb, 0x28, 0xe0, 0x42, 0xe1, 0xf2, 0x2d, 0xf7, 0xf9, 0x0c, 0x0f, 0x11,
  0xe1, 0x19, 0xdd, 0xf7, 0x06, 0xfd, 0xeb, 0xf7, 0xee, 0x05, 0x03, 0xc5,
  0xf5, 0x37, 0x07, 0xf9, 0xfe, 0xf4, 0xfe, 0x0b, 0xe8, 0xfb, 0xf8, 0xfb,
  0xdf, 0x0a, 0x17, 0xff, 0x0c, 0x27, 0xf3, 0xf8, 0x06, 0x13, 0x04, 0x05,
  0xf8, 0xed, 0x14, 0xbb, 0x08, 0xdd, 0xd6, 0x24, 0xfa, 0x20, 0x00, 0x0b,
  0x09, 0x10, 0x1c, 0xea, 0xb1, 0xfe, 0xe9, 0xb5, 0x17, 0xaa, 0xd3, 0x2a,
  0x2d, 0x0b, 0x1c, 0x00, 0xe0, 0xf2, 0x0e, 0xee, 0xf2, 0xae, 0xe1, 0xff,
  0x04, 0xee, 0xfa, 0x17, 0xfb, 0xeb, 0xd7, 0xf0, 0xc9, 0x0b, 0xf4, 0xf8,
  0xcf, 0x8f, 0xd7, 0x08, 0xfd, 0xfd, 0x21, 0xe0, 0xe1, 0xe6, 0x17, 0xe0,
  0xd4, 0xf2, 0xf0, 0x04, 0x20, 0xec, 0xf0, 0x29, 0x32, 0xdb, 0x12, 0xdb,
  0xe8, 0x12, 0xe1, 0xfe, 0xde, 0x0c, 0x2d, 0x0c, 0x34, 0x00, 0xf7, 0x38,
  0x05, 0x0a, 0x18, 0xe7, 0x04, 0x0e, 0xd1, 0xf5, 0xfc, 0x16, 0x24, 0xfb,
  0x02, 0xbe, 0xf1, 0x2d, 0xfb, 0x9e, 0x44, 0xf4, 0xc7, 0x2a, 0x1a, 0x09,
  0x0c, 0x07, 0xe7, 0x10, 0xf9, 0xdc, 0x16, 0x36, 0xef, 0x39, 0x1d, 0x04,
  0x03, 0xeb, 0x49, 0x1b, 0x02, 0xf3, 0x02, 0x14, 0xc6, 0xed, 0xe7, 0x13,
  0xe1, 0x00, 0xf8, 0xfe, 0xe6, 0xfc, 0x3c, 0xf5, 0x0b, 0xf1, 0xe3, 0xff,
  0xbe, 0xef, 0xf2, 0x28, 0xca, 0x1d, 0xe7, 0x0d, 0x03, 0xe0, 0x16, 0x05,
  0x03, 0xfe, 0xf0, 0xeb, 0x03, 0xe0, 0x0b, 0x16, 0xdb, 0x3b, 0xfe, 0xff,
  0xff, 0xfb, 0xd4, 0x17, 0x11, 0xf7, 0xf7, 0x1b, 0x52, 0x28, 0xe7, 0x18,
  0xd7, 0x3a, 0x06, 0x16, 0xed, 0x0d, 0x1c, 0xfa, 0x14, 0x02, 0x04, 0x18,
  0x26, 0xe6, 0x07, 0x01, 0x02, 0x27, 0x0e, 0x1b, 0x0d, 0x04, 0x01, 0x01,
  0xf3, 0xfc, 0x0a, 0x16, 0x0f, 0xe6, 0xe8, 0x02, 0x19, 0x16, 0xce, 0xf2,
  0x0d, 0xe7, 0x17, 0x0e, 0x07, 0x16, 0x04, 0x00, 0x39, 0xef, 0xf8, 0xfb,
  0xdd, 0xdb, 0xf6, 0xff, 0xfb, 0x14, 0x48, 0x11, 0x16, 0xfc, 0x09, 0xf7,
  0xf5, 0xf7, 0xfd, 0x04, 0xe7, 0x05, 0xe9, 0xbe, 0xfb, 0x06, 0xf7, 0xeb,
  0xfc, 0x0c, 0xf9, 0x0a, 0xe6, 0x0c, 0x23, 0x00, 0xd6, 0xd0, 0x14, 0xee,
  0x12, 0x11, 0x2a, 0x16, 0x00, 0xfa, 0xe6, 0x05, 0xe6, 0xf2, 0x33, 0xe8,
  0xe4, 0xe4, 0xef, 0xff, 0x0d, 0x08, 0xfa, 0x09, 0x00, 0x00, 0x00, 0x00,
  0xfa, 0xfa, 0xff, 0xff, 0x04, 0x00, 0x00, 0x00, 0x04, 0x00, 0x00, 0x00,
  0xfd, 0xff, 0xff, 0xff, 0x0a, 0xfb, 0xff, 0xff, 0x04, 0x00, 0x00, 0x00,
  0x08, 0x00, 0x00, 0x00, 0xff, 0xff, 0xff, 0xff, 0xb0, 0x04, 0x00, 0x00,
  0x00, 0x00, 0x00, 0x00, 0x00, 0x00, 0x00, 0x00, 0x00, 0x00, 0x00, 0x00,
  0x2a, 0xfb, 0xff, 0xff, 0x04, 0x00, 0x00, 0x00, 0x04, 0x00, 0x00, 0x00,
  0x02, 0x00, 0x00, 0x00, 0x3a, 0xfb, 0xff, 0xff, 0x04, 0x00, 0x00, 0x00,
  0x04, 0x00, 0x00, 0x00, 0x2c, 0x01, 0x00, 0x00, 0x4a, 0xfb, 0xff, 0xff,
  0x04, 0x00, 0x00, 0x00, 0x04, 0x00, 0x00, 0x00, 0x0d, 0x00, 0x00, 0x00,
  0x5a, 0xfb, 0xff, 0xff, 0x04, 0x00, 0x00, 0x00, 0x04, 0x00, 0x00, 0x00,
  0x00, 0x00, 0x00, 0x00, 0x6a, 0xfb, 0xff, 0xff, 0x04, 0x00, 0x00, 0x00,
  0x04, 0x00, 0x00, 0x00, 0x01, 0x00, 0x00, 0x00, 0x7a, 0xfb, 0xff, 0xff,
  0x04, 0x00, 0x00, 0x00, 0x20, 0x00, 0x00, 0x00, 0x16, 0xf2, 0x1f, 0x3d,
  0x52, 0xbe, 0x8a, 0xbd, 0xac, 0xeb, 0x9e, 0xbe, 0xb4, 0x8a, 0xd7, 0xbd,
  0xad, 0xb9, 0x95, 0xbd, 0x38, 0xbd, 0xf6, 0x3c, 0x1f, 0x37, 0x06, 0xbe,
  0x77, 0xc2, 0xd6, 0xbd, 0x00, 0x00, 0x00, 0x00, 0xaa, 0xfb, 0xff, 0xff,
  0x04, 0x00, 0x00, 0x00, 0x40, 0x00, 0x00, 0x00, 0x9a, 0xdb, 0xac, 0xbd,
  0x0b, 0x1c, 0x2d, 0x3d, 0x18, 0xf7, 0x97, 0xbd, 0xe1, 0x5c, 0x8e, 0xbd,
  0xf4, 0xfc, 0x34, 0xbd, 0x3f, 0x2e, 0xc6, 0xbc, 0x2d, 0xb2, 0x6a, 0xbd,
  0x65, 0xb3, 0x9c, 0xbc, 0x18, 0xf9, 0xcc, 0xbd, 0x6d, 0xe7, 0xcc, 0xbb,
  0x56, 0xa0, 0xcb, 0xbd, 0x48, 0x1f, 0x67, 0xbe, 0x7e, 0x28, 0xa2, 0x3a,
  0x60, 0xd9, 0x6b, 0xbd, 0xa6, 0xc8, 0xae, 0xbc, 0xb6, 0x09, 0xd3, 0xbd,
  0x00, 0x00, 0x00, 0x00, 0xfa, 0xfb, 0xff, 0xff, 0x04, 0x00, 0x00, 0x00,
  0x08, 0x00, 0x00, 0x00, 0x3c, 0xc2, 0xde, 0xbc, 0x42, 0xc2, 0xde, 0x3c,
  0x00, 0x00, 0x00, 0x00, 0xc8, 0xed, 0xff, 0xff, 0x00, 0x00, 0x00, 0x00,
  0x00, 0x00, 0x00, 0x00, 0x00, 0x00, 0x00, 0x00, 0xd8, 0xed, 0xff, 0xff,
  0x00, 0x00, 0x00, 0x00, 0x00, 0x00, 0x00, 0x00, 0x00, 0x00, 0x00, 0x00,
  0x0f, 0x00, 0x00, 0x00, 0x4d, 0x4c, 0x49, 0x52, 0x20, 0x43, 0x6f, 0x6e,
  0x76, 0x65, 0x72, 0x74, 0x65, 0x64, 0x2e, 0x00, 0x01, 0x00, 0x00, 0x00,
  0x14, 0x00, 0x00, 0x00, 0x00, 0x00, 0x0e, 0x00, 0x18, 0x00, 0x04, 0x00,
  0x08, 0x00, 0x0c, 0x00, 0x10, 0x00, 0x14, 0x00, 0x0e, 0x00, 0x00, 0x00,
  0x74, 0x04, 0x00, 0x00, 0x68, 0x04, 0x00, 0x00, 0x5c, 0x04, 0x00, 0x00,
  0x14, 0x00, 0x00, 0x00, 0x04, 0x00, 0x00, 0x00, 0x04, 0x00, 0x00, 0x00,
  0x6d, 0x61, 0x69, 0x6e, 0x00, 0x00, 0x00, 0x00, 0x12, 0x00, 0x00, 0x00,
  0x0c, 0x04, 0x00, 0x00, 0xac, 0x03, 0x00, 0x00, 0x58, 0x03, 0x00, 0x00,
  0x30, 0x03, 0x00, 0x00, 0xf0, 0x02, 0x00, 0x00, 0x90, 0x02, 0x00, 0x00,
  0x68, 0x02, 0x00, 0x00, 0x34, 0x02, 0x00, 0x00, 0xe4, 0x01, 0x00, 0x00,
  0xbc, 0x01, 0x00, 0x00, 0x88, 0x01, 0x00, 0x00, 0x44, 0x01, 0x00, 0x00,
  0x1c, 0x01, 0x00, 0x00, 0xe8, 0x00, 0x00, 0x00, 0xa8, 0x00, 0x00, 0x00,
  0x80, 0x00, 0x00, 0x00, 0x38, 0x00, 0x00, 0x00, 0x04, 0x00, 0x00, 0x00,
  0x56, 0xfd, 0xff, 0xff, 0x00, 0x00, 0x00, 0x09, 0x08, 0x00, 0x00, 0x00,
  0x1c, 0x00, 0x00, 0x00, 0x10, 0x00, 0x00, 0x00, 0x04, 0x00, 0x00, 0x00,
  0xe6, 0xfc, 0xff, 0xff, 0x00, 0x00, 0x80, 0x3f, 0x01, 0x00, 0x00, 0x00,
  0x22, 0x00, 0x00, 0x00, 0x01, 0x00, 0x00, 0x00, 0x21, 0x00, 0x00, 0x00,
  0x86, 0xfd, 0xff, 0xff, 0x00, 0x00, 0x00, 0x08, 0x07, 0x00, 0x00, 0x00,
  0x28, 0x00, 0x00, 0x00, 0x1c, 0x00, 0x00, 0x00, 0x10, 0x00, 0x00, 0x00,
  0x0c, 0x00, 0x08, 0x00, 0x00, 0x00, 0x00, 0x00, 0x00, 0x00, 0x07, 0x00,
  0x0c, 0x00, 0x00, 0x00, 0x00, 0x00, 0x00, 0x01, 0x01, 0x00, 0x00, 0x00,
  0x21, 0x00, 0x00, 0x00, 0x03, 0x00, 0x00, 0x00, 0x20, 0x00, 0x00, 0x00,
  0x0b, 0x00, 0x00, 0x00, 0x01, 0x00, 0x00, 0x00, 0x8a, 0xfd, 0xff, 0xff,
  0x03, 0x00, 0x00, 0x00, 0x10, 0x00, 0x00, 0x00, 0x04, 0x00, 0x00, 0x00,
  0x01, 0x00, 0x00, 0x00, 0x20, 0x00, 0x00, 0x00, 0x02, 0x00, 0x00, 0x00,
  0x1f, 0x00, 0x00, 0x00, 0x09, 0x00, 0x00, 0x00, 0xee, 0xfd, 0xff, 0xff,
  0x00, 0x00, 0x00, 0x05, 0x06, 0x00, 0x00, 0x00, 0x28, 0x00, 0x00, 0x00,
  0x1c, 0x00, 0x00, 0x00, 0x04, 0x00, 0x00, 0x00, 0xda, 0xfe, 0xff, 0xff,
  0x01, 0x00, 0x00, 0x00, 0x02, 0x00, 0x00, 0x00, 0x01, 0x00, 0x00, 0x00,
  0x02, 0x00, 0x00, 0x00, 0x01, 0x00, 0x00, 0x00, 0x1f, 0x00, 0x00, 0x00,
  0x01, 0x00, 0x00, 0x00, 0x1e, 0x00, 0x00, 0x00, 0x2a, 0xfe, 0xff, 0xff,
  0x00, 0x00, 0x00, 0x34, 0x04, 0x00, 0x00, 0x00, 0x18, 0x00, 0x00, 0x00,
  0x0c, 0x00, 0x00, 0x00, 0x04, 0x00, 0x00, 0x00, 0x70, 0xef, 0xff, 0xff,
  0x01, 0x00, 0x00, 0x00, 0x1e, 0x00, 0x00, 0x00, 0x02, 0x00, 0x00, 0x00,
  0x1d, 0x00, 0x00, 0x00, 0x08, 0x00, 0x00, 0x00, 0x1a, 0xfe, 0xff, 0xff,
  0x03, 0x00, 0x00, 0x00, 0x10, 0x00, 0x00, 0x00, 0x04, 0x00, 0x00, 0x00,
  0x01, 0x00, 0x00, 0x00, 0x1d, 0x00, 0x00, 0x00, 0x02, 0x00, 0x00, 0x00,
  0x1c, 0x00, 0x00, 0x00, 0x10, 0x00, 0x00, 0x00, 0x7e, 0xfe, 0xff, 0xff,
  0x00, 0x00, 0x00, 0x01, 0x05, 0x00, 0x00, 0x00, 0x24, 0x00, 0x00, 0x00,
  0x18, 0x00, 0x00, 0x00, 0x04, 0x00, 0x00, 0x00, 0xcc, 0xfe, 0xff, 0xff,
  0x00, 0x00, 0x00, 0x01, 0x01, 0x00, 0x00, 0x00, 0x01, 0x00, 0x00, 0x00,
  0x01, 0x00, 0x00, 0x00, 0x1c, 0x00, 0x00, 0x00, 0x03, 0x00, 0x00, 0x00,
  0x1b, 0x00, 0x00, 0x00, 0x0d, 0x00, 0x00, 0x00, 0x02, 0x00, 0x00, 0x00,
  0xbe, 0xfe, 0xff, 0xff, 0x00, 0x00, 0x00, 0x34, 0x04, 0x00, 0x00, 0x00,
  0x18, 0x00, 0x00, 0x00, 0x0c, 0x00, 0x00, 0x00, 0x04, 0x00, 0x00, 0x00,
  0x04, 0xf0, 0xff, 0xff, 0x01, 0x00, 0x00, 0x00, 0x1b, 0x00, 0x00, 0x00,
  0x02, 0x00, 0x00, 0x00, 0x1a, 0x00, 0x00, 0x00, 0x0a, 0x00, 0x00, 0x00,
  0xae, 0xfe, 0xff, 0xff, 0x03, 0x00, 0x00, 0x00, 0x10, 0x00, 0x00, 0x00,
  0x04, 0x00, 0x00, 0x00, 0x01, 0x00, 0x00, 0x00, 0x1a, 0x00, 0x00, 0x00,
  0x02, 0x00, 0x00, 0x00, 0x19, 0x00, 0x00, 0x00, 0x0f, 0x00, 0x00, 0x00,
  0x62, 0xfe, 0xff, 0xff, 0x00, 0x00, 0x00, 0x05, 0x06, 0x00, 0x00, 0x00,
  0x38, 0x00, 0x00, 0x00, 0x2c, 0x00, 0x00, 0x00, 0x14, 0x00, 0x00, 0x00,
  0x00, 0x00, 0x0e, 0x00, 0x14, 0x00, 0x00, 0x00, 0x04, 0x00, 0x08, 0x00,
  0x0c, 0x00, 0x10, 0x00, 0x0e, 0x00, 0x00, 0x00, 0x01, 0x00, 0x00, 0x00,
  0x02, 0x00, 0x00, 0x00, 0x01, 0x00, 0x00, 0x00, 0x02, 0x00, 0x00, 0x00,
  0x01, 0x00, 0x00, 0x00, 0x19, 0x00, 0x00, 0x00, 0x01, 0x00, 0x00, 0x00,
  0x18, 0x00, 0x00, 0x00, 0x5e, 0xff, 0xff, 0xff, 0x00, 0x00, 0x00, 0x34,
  0x04, 0x00, 0x00, 0x00, 0x18, 0x00, 0x00, 0x00, 0x0c, 0x00, 0x00, 0x00,
  0x04, 0x00, 0x00, 0x00, 0xa4, 0xf0, 0xff, 0xff, 0x01, 0x00, 0x00, 0x00,
  0x18, 0x00, 0x00, 0x00, 0x02, 0x00, 0x00, 0x00, 0x17, 0x00, 0x00, 0x00,
  0x08, 0x00, 0x00, 0x00, 0x4e, 0xff, 0xff, 0xff, 0x03, 0x00, 0x00, 0x00,
  0x10, 0x00, 0x00, 0x00, 0x04, 0x00, 0x00, 0x00, 0x01, 0x00, 0x00, 0x00,
  0x17, 0x00, 0x00, 0x00, 0x02, 0x00, 0x00, 0x00, 0x16, 0x00, 0x00, 0x00,
  0x0e, 0x00, 0x00, 0x00, 0xb2, 0xff, 0xff, 0xff, 0x00, 0x00, 0x00, 0x01,
  0x05, 0x00, 0x00, 0x00, 0x30, 0x00, 0x00, 0x00, 0x24, 0x00, 0x00, 0x00,
  0x10, 0x00, 0x00, 0x00, 0x0c, 0x00, 0x10, 0x00, 0x00, 0x00, 0x08, 0x00,
  0x0c, 0x00, 0x07, 0x00, 0x0c, 0x00, 0x00, 0x00, 0x00, 0x00, 0x00, 0x01,
  0x01, 0x00, 0x00, 0x00, 0x01, 0x00, 0x00, 0x00, 0x01, 0x00, 0x00, 0x00,
  0x16, 0x00, 0x00, 0x00, 0x03, 0x00, 0x00, 0x00, 0x15, 0x00, 0x00, 0x00,
  0x0c, 0x00, 0x00, 0x00, 0x03, 0x00, 0x00, 0x00, 0x00, 0x00, 0x0e, 0x00,
  0x18, 0x00, 0x08, 0x00, 0x0c, 0x00, 0x10, 0x00, 0x07, 0x00, 0x14, 0x00,
  0x0e, 0x00, 0x00, 0x00, 0x00, 0x00, 0x00, 0x34, 0x04, 0x00, 0x00, 0x00,
  0x18, 0x00, 0x00, 0x00, 0x0c, 0x00, 0x00, 0x00, 0x04, 0x00, 0x00, 0x00,
  0x54, 0xf1, 0xff, 0xff, 0x01, 0x00, 0x00, 0x00, 0x15, 0x00, 0x00, 0x00,
  0x02, 0x00, 0x00, 0x00, 0x14, 0x00, 0x00, 0x00, 0x0a, 0x00, 0x00, 0x00,
  0x00, 0x00, 0x0a, 0x00, 0x10, 0x00, 0x04, 0x00, 0x08, 0x00, 0x0c, 0x00,
  0x0a, 0x00, 0x00, 0x00, 0x03, 0x00, 0x00, 0x00, 0x10, 0x00, 0x00, 0x00,
  0x04, 0x00, 0x00, 0x00, 0x01, 0x00, 0x00, 0x00, 0x14, 0x00, 0x00, 0x00,
  0x02, 0x00, 0x00, 0x00, 0x00, 0x00, 0x00, 0x00, 0x13, 0x00, 0x00, 0x00,
  0xbe, 0xff, 0xff, 0xff, 0x00, 0x00, 0x00, 0x3b, 0x02, 0x00, 0x00, 0x00,
  0x24, 0x00, 0x00, 0x00, 0x18, 0x00, 0x00, 0x00, 0x0c, 0x00, 0x00, 0x00,
  0x00, 0x00, 0x06, 0x00, 0x08, 0x00, 0x04, 0x00, 0x06, 0x00, 0x00, 0x00,
  0x03, 0x00, 0x00, 0x00, 0x01, 0x00, 0x00, 0x00, 0x13, 0x00, 0x00, 0x00,
  0x03, 0x00, 0x00, 0x00, 0x12, 0x00, 0x00, 0x00, 0x07, 0x00, 0x00, 0x00,
  0x06, 0x00, 0x00, 0x00, 0x00, 0x00, 0x0e, 0x00, 0x1a, 0x00, 0x08, 0x00,
  0x0c, 0x00, 0x10, 0x00, 0x07, 0x00, 0x14, 0x00, 0x0e, 0x00, 0x00, 0x00,
  0x00, 0x00, 0x00, 0x20, 0x01, 0x00, 0x00, 0x00, 0x2c, 0x00, 0x00, 0x00,
  0x20, 0x00, 0x00, 0x00, 0x14, 0x00, 0x00, 0x00, 0x00, 0x00, 0x0e, 0x00,
  0x08, 0x00, 0x00, 0x00, 0x00, 0x00, 0x00, 0x00, 0x00, 0x00, 0x04, 0x00,
  0x0e, 0x00, 0x00, 0x00, 0x01, 0x00, 0x00, 0x00, 0x01, 0x00, 0x00, 0x00,
  0x12, 0x00, 0x00, 0x00, 0x04, 0x00, 0x00, 0x00, 0x11, 0x00, 0x00, 0x00,
  0x05, 0x00, 0x00, 0x00, 0x04, 0x00, 0x00, 0x00, 0x04, 0x00, 0x00, 0x00,
  0x00, 0x00, 0x0e, 0x00, 0x16, 0x00, 0x00, 0x00, 0x08, 0x00, 0x0c, 0x00,
  0x07, 0x00, 0x10, 0x00, 0x0e, 0x00, 0x00, 0x00, 0x00, 0x00, 0x00, 0x37,
  0x24, 0x00, 0x00, 0x00, 0x18, 0x00, 0x00, 0x00, 0x0c, 0x00, 0x00, 0x00,
  0x00, 0x00, 0x06, 0x00, 0x08, 0x00, 0x07, 0x00, 0x06, 0x00, 0x00, 0x00,
  0x00, 0x00, 0x00, 0x02, 0x01, 0x00, 0x00, 0x00, 0x11, 0x00, 0x00, 0x00,
  0x01, 0x00, 0x00, 0x00, 0x00, 0x00, 0x00, 0x00, 0x01, 0x00, 0x00, 0x00,
  0x22, 0x00, 0x00, 0x00, 0x01, 0x00, 0x00, 0x00, 0x00, 0x00, 0x00, 0x00,
  0x23, 0x00, 0x00, 0x00, 0x4c, 0x0d, 0x00, 0x00, 0x04, 0x0d, 0x00, 0x00,
  0xbc, 0x0c, 0x00, 0x00, 0x88, 0x0c, 0x00, 0x00, 0x30, 0x0c, 0x00, 0x00,
  0xcc, 0x0b, 0x00, 0x00, 0x88, 0x0b, 0x00, 0x00, 0x34, 0x0b, 0x00, 0x00,
  0xec, 0x0a, 0x00, 0x00, 0xa4, 0x0a, 0x00, 0x00, 0x5c, 0x0a, 0x00, 0x00,
  0xe4, 0x09, 0x00, 0x00, 0x94, 0x09, 0x00, 0x00, 0x44, 0x09, 0x00, 0x00,
  0xf4, 0x08, 0x00, 0x00, 0xa4, 0x08, 0x00, 0x00, 0x54, 0x08, 0x00, 0x00,
  0x0c, 0x08, 0x00, 0x00, 0xc8, 0x07, 0x00, 0x00, 0x78, 0x07, 0x00, 0x00,
  0x18, 0x07, 0x00, 0x00, 0xa8, 0x06, 0x00, 0x00, 0xe4, 0x05, 0x00, 0x00,
  0x40, 0x05, 0x00, 0x00, 0xd0, 0x04, 0x00, 0x00, 0x60, 0x04, 0x00, 0x00,
  0xf8, 0x03, 0x00, 0x00, 0x84, 0x03, 0x00, 0x00, 0xb4, 0x02, 0x00, 0x00,
  0x08, 0x02, 0x00, 0x00, 0x94, 0x01, 0x00, 0x00, 0x24, 0x01, 0x00, 0x00,
  0xcc, 0x00, 0x00, 0x00, 0x5c, 0x00, 0x00, 0x00, 0x04, 0x00, 0x00, 0x00,
  0x54, 0xf3, 0xff, 0xff, 0x44, 0x00, 0x00, 0x00, 0x23, 0x00, 0x00, 0x00,
  0x1c, 0x00, 0x00, 0x00, 0x14, 0x00, 0x00, 0x00, 0x04, 0x00, 0x00, 0x00,
  0x02, 0x00, 0x00, 0x00, 0xff, 0xff, 0xff, 0xff, 0x02, 0x00, 0x00, 0x00,
  0x40, 0xf3, 0xff, 0xff, 0x19, 0x00, 0x00, 0x00, 0x53, 0x74, 0x61, 0x74,
  0x65, 0x66, 0x75, 0x6c, 0x50, 0x61, 0x72, 0x74, 0x69, 0x74, 0x69, 0x6f,
  0x6e, 0x65, 0x64, 0x43, 0x61, 0x6c, 0x6c, 0x3a, 0x30, 0x00, 0x00, 0x00,
  0x02, 0x00, 0x00, 0x00, 0x01, 0x00, 0x00, 0x00, 0x02, 0x00, 0x00, 0x00,
  0xa8, 0xf3, 0xff, 0xff, 0x5c, 0x00, 0x00, 0x00, 0x22, 0x00, 0x00, 0x00,
  0x1c, 0x00, 0x00, 0x00, 0x14, 0x00, 0x00, 0x00, 0x04, 0x00, 0x00, 0x00,
  0x02, 0x00, 0x00, 0x00, 0xff, 0xff, 0xff, 0xff, 0x02, 0x00, 0x00, 0x00,
  0x94, 0xf3, 0xff, 0xff, 0x32, 0x00, 0x00, 0x00, 0x73, 0x65, 0x71, 0x75,
  0x65, 0x6e, 0x74, 0x69, 0x61, 0x6c, 0x2f, 0x79, 0x5f, 0x70, 0x72, 0x65,
  0x64, 0x2f, 0x4d, 0x61, 0x74, 0x4d, 0x75, 0x6c, 0x3b, 0x73, 0x65, 0x71,
  0x75, 0x65, 0x6e, 0x74, 0x69, 0x61, 0x6c, 0x2f, 0x79, 0x5f, 0x70, 0x72,
  0x65, 0x64, 0x2f, 0x42, 0x69, 0x61, 0x73, 0x41, 0x64, 0x64, 0x00, 0x00,
  0x02, 0x00, 0x00, 0x00, 0x01, 0x00, 0x00, 0x00, 0x02, 0x00, 0x00, 0x00,
  0x14, 0xf4, 0xff, 0xff, 0x44, 0x00, 0x00, 0x00, 0x21, 0x00, 0x00, 0x00,
  0x1c, 0x00, 0x00, 0x00, 0x14, 0x00, 0x00, 0x00, 0x04, 0x00, 0x00, 0x00,
  0x02, 0x00, 0x00, 0x00, 0xff, 0xff, 0xff, 0xff, 0xb0, 0x04, 0x00, 0x00,
  0x00, 0xf4, 0xff, 0xff, 0x1a, 0x00, 0x00, 0x00, 0x73, 0x65, 0x71, 0x75,
  0x65, 0x6e, 0x74, 0x69, 0x61, 0x6c, 0x2f, 0x66, 0x6c, 0x61, 0x74, 0x74,
  0x65, 0x6e, 0x2f, 0x52, 0x65, 0x73, 0x68, 0x61, 0x70, 0x65, 0x00, 0x00,
  0x02, 0x00, 0x00, 0x00, 0x01, 0x00, 0x00, 0x00, 0xb0, 0x04, 0x00, 0x00,
  0x68, 0xf4, 0xff, 0xff, 0x54, 0x00, 0x00, 0x00, 0x20, 0x00, 0x00, 0x00,
  0x24, 0x00, 0x00, 0x00, 0x1c, 0x00, 0x00, 0x00, 0x04, 0x00, 0x00, 0x00,
  0x04, 0x00, 0x00, 0x00, 0xff, 0xff, 0xff, 0xff, 0x4b, 0x00, 0x00, 0x00,
  0x01, 0x00, 0x00, 0x00, 0x10, 0x00, 0x00, 0x00, 0x5c, 0xf4, 0xff, 0xff,
  0x22, 0x00, 0x00, 0x00, 0x73, 0x65, 0x71, 0x75, 0x65, 0x6e, 0x74, 0x69,
  0x61, 0x6c, 0x2f, 0x6d, 0x61, 0x78, 0x5f, 0x70, 0x6f, 0x6f, 0x6c, 0x69,
  0x6e, 0x67, 0x31, 0x64, 0x5f, 0x31, 0x2f, 0x4d, 0x61, 0x78, 0x50, 0x6f,
  0x6f, 0x6c, 0x00, 0x00, 0x04, 0x00, 0x00, 0x00, 0x01, 0x00, 0x00, 0x00,
  0x4b, 0x00, 0x00, 0x00, 0x01, 0x00, 0x00, 0x00, 0x10, 0x00, 0x00, 0x00,
  0xd4, 0xf4, 0xff, 0xff, 0x58, 0x00, 0x00, 0x00, 0x1f, 0x00, 0x00, 0x00,
  0x24, 0x00, 0x00, 0x00, 0x1c, 0x00, 0x00, 0x00, 0x04, 0x00, 0x00, 0x00,
  0x04, 0x00, 0x00, 0x00, 0xff, 0xff, 0xff, 0xff, 0x96, 0x00, 0x00, 0x00,
  0x01, 0x00, 0x00, 0x00, 0x10, 0x00, 0x00, 0x00, 0xc8, 0xf4, 0xff, 0xff,
  0x25, 0x00, 0x00, 0x00, 0x73, 0x65, 0x71, 0x75, 0x65, 0x6e, 0x74, 0x69,
  0x61, 0x6c, 0x2f, 0x6d, 0x61, 0x78, 0x5f, 0x70, 0x6f, 0x6f, 0x6c, 0x69,
  0x6e, 0x67, 0x31, 0x64, 0x5f, 0x31, 0x2f, 0x45, 0x78, 0x70, 0x61, 0x6e,
  0x64, 0x44, 0x69, 0x6d, 0x73, 0x00, 0x00, 0x00, 0x04, 0x00, 0x00, 0x00,
  0x01, 0x00, 0x00, 0x00, 0x96, 0x00, 0x00, 0x00, 0x01, 0x00, 0x00, 0x00,
  0x10, 0x00, 0x00, 0x00, 0x44, 0xf5, 0xff, 0xff, 0x94, 0x00, 0x00, 0x00,
  0x1e, 0x00, 0x00, 0x00, 0x20, 0x00, 0x00, 0x00, 0x18, 0x00, 0x00, 0x00,
  0x04, 0x00, 0x00, 0x00, 0x03, 0x00, 0x00, 0x00, 0xff, 0xff, 0xff, 0xff,
  0x96, 0x00, 0x00, 0x00, 0x10, 0x00, 0x00, 0x00, 0x34, 0xf5, 0xff, 0xff,
  0x65, 0x00, 0x00, 0x00, 0x73, 0x65, 0x71, 0x75, 0x65, 0x6e, 0x74, 0x69,
  0x61, 0x6c, 0x2f, 0x63, 0x6f, 0x6e, 0x76, 0x31, 0x64, 0x5f, 0x31, 0x2f,
  0x52, 0x65, 0x6c, 0x75, 0x3b, 0x73, 0x65, 0x71, 0x75, 0x65, 0x6e, 0x74,
  0x69, 0x61, 0x6c, 0x2f, 0x63, 0x6f, 0x6e, 0x76, 0x31, 0x64, 0x5f, 0x31,
  0x2f, 0x42, 0x69, 0x61, 0x73, 0x41, 0x64, 0x64, 0x3b, 0x73, 0x65, 0x71,
  0x75, 0x65, 0x6e, 0x74, 0x69, 0x61, 0x6c, 0x2f, 0x63, 0x6f, 0x6e, 0x76,
  0x31, 0x64, 0x5f, 0x31, 0x2f, 0x43, 0x6f, 0x6e, 0x76, 0x31, 0x44, 0x2f,
  0x53, 0x71, 0x75, 0x65, 0x65, 0x7a, 0x65, 0x3b, 0x63, 0x6f, 0x6e, 0x76,
  0x31, 0x64, 0x5f, 0x31, 0x2f, 0x62, 0x69, 0x61, 0x73, 0x00, 0x00, 0x00,
  0x03, 0x00, 0x00, 0x00, 0x01, 0x00, 0x00, 0x00, 0x96, 0x00, 0x00, 0x00,
  0x10, 0x00, 0x00, 0x00, 0xec, 0xf5, 0xff, 0xff, 0xb4, 0x00, 0x00, 0x00,
  0x1d, 0x00, 0x00, 0x00, 0x24, 0x00, 0x00, 0x00, 0x1c, 0x00, 0x00, 0x00,
  0x04, 0x00, 0x00, 0x00, 0x04, 0x00, 0x00, 0x00, 0xff, 0xff, 0xff, 0xff,
  0x01, 0x00, 0x00, 0x00, 0x96, 0x00, 0x00, 0x00, 0x10, 0x00, 0x00, 0x00,
  0xe0, 0xf5, 0xff, 0xff, 0x80, 0x00, 0x00, 0x00, 0x73, 0x65, 0x71, 0x75,
  0x65, 0x6e, 0x74, 0x69, 0x61, 0x6c, 0x2f, 0x63, 0x6f, 0x6e, 0x76, 0x31,
  0x64, 0x5f, 0x31, 0x2f, 0x52, 0x65, 0x6c, 0x75, 0x3b, 0x73, 0x65, 0x71,
  0x75, 0x65, 0x6e, 0x74, 0x69, 0x61, 0x6c, 0x2f, 0x63, 0x6f, 0x6e, 0x76,
  0x31, 0x64, 0x5f, 0x31, 0x2f, 0x42, 0x69, 0x61, 0x73, 0x41, 0x64, 0x64,
  0x3b, 0x73, 0x65, 0x71, 0x75, 0x65, 0x6e, 0x74, 0x69, 0x61, 0x6c, 0x2f,
  0x63, 0x6f, 0x6e, 0x76, 0x31, 0x64, 0x5f, 0x31, 0x2f, 0x43, 0x6f, 0x6e,
  0x76, 0x31, 0x44, 0x2f, 0x53, 0x71, 0x75, 0x65, 0x65, 0x7a, 0x65, 0x3b,
  0x63, 0x6f, 0x6e, 0x76, 0x31, 0x64, 0x5f, 0x31, 0x2f, 0x62, 0x69, 0x61,
  0x73, 0x3b, 0x73, 0x65, 0x71, 0x75, 0x65, 0x6e, 0x74, 0x69, 0x61, 0x6c,
  0x2f, 0x63, 0x6f, 0x6e, 0x76, 0x31, 0x64, 0x5f, 0x31, 0x2f, 0x43, 0x6f,
  0x6e, 0x76, 0x31, 0x44, 0x00, 0x00, 0x00, 0x00, 0x04, 0x00, 0x00, 0x00,
  0x01, 0x00, 0x00, 0x00, 0x01, 0x00, 0x00, 0x00, 0x96, 0x00, 0x00, 0x00,
  0x10, 0x00, 0x00, 0x00, 0xb8, 0xf6, 0xff, 0xff, 0x58, 0x00, 0x00, 0x00,
  0x1c, 0x00, 0x00, 0x00, 0x24, 0x00, 0x00, 0x00, 0x1c, 0x00, 0x00, 0x00,
  0x04, 0x00, 0x00, 0x00, 0x04, 0x00, 0x00, 0x00, 0xff, 0xff, 0xff, 0xff,
  0x01, 0x00, 0x00, 0x00, 0x96, 0x00, 0x00, 0x00, 0x08, 0x00, 0x00, 0x00,
  0xac, 0xf6, 0xff, 0xff, 0x25, 0x00, 0x00, 0x00, 0x73, 0x65, 0x71, 0x75,
  0x65, 0x6e, 0x74, 0x69, 0x61, 0x6c, 0x2f, 0x63, 0x6f, 0x6e, 0x76, 0x31,
  0x64, 0x5f, 0x31, 0x2f, 0x43, 0x6f, 0x6e, 0x76, 0x31, 0x44, 0x2f, 0x45,
  0x78, 0x70, 0x61, 0x6e, 0x64, 0x44, 0x69, 0x6d, 0x73, 0x00, 0x00, 0x00,
  0x04, 0x00, 0x00, 0x00, 0x01, 0x00, 0x00, 0x00, 0x01, 0x00, 0x00, 0x00,
  0x96, 0x00, 0x00, 0x00, 0x08, 0x00, 0x00, 0x00, 0x28, 0xf7, 0xff, 0xff,
  0x50, 0x00, 0x00, 0x00, 0x1b, 0x00, 0x00, 0x00, 0x20, 0x00, 0x00, 0x00,
  0x18, 0x00, 0x00, 0x00, 0x04, 0x00, 0x00, 0x00, 0x03, 0x00, 0x00, 0x00,
  0xff, 0xff, 0xff, 0xff, 0x96, 0x00, 0x00, 0x00, 0x08, 0x00, 0x00, 0x00,
  0x18, 0xf7, 0xff, 0xff, 0x21, 0x00, 0x00, 0x00, 0x73, 0x65, 0x71, 0x75,
  0x65, 0x6e, 0x74, 0x69, 0x61, 0x6c, 0x2f, 0x6d, 0x61, 0x78, 0x5f, 0x70,
  0x6f, 0x6f, 0x6c, 0x69, 0x6e, 0x67, 0x31, 0x64, 0x2f, 0x53, 0x71, 0x75,
  0x65, 0x65, 0x7a, 0x65, 0x31, 0x00, 0x00, 0x00, 0x03, 0x00, 0x00, 0x00,
  0x01, 0x00, 0x00, 0x00, 0x96, 0x00, 0x00, 0x00, 0x08, 0x00, 0x00, 0x00,
  0x8c, 0xf7, 0xff, 0xff, 0x54, 0x00, 0x00, 0x00, 0x1a, 0x00, 0x00, 0x00,
  0x24, 0x00, 0x00, 0x00, 0x1c, 0x00, 0x00, 0x00, 0x04, 0x00, 0x00, 0x00,
  0x04, 0x00, 0x00, 0x00, 0xff, 0xff, 0xff, 0xff, 0x96, 0x00, 0x00, 0x00,
  0x01, 0x00, 0x00, 0x00, 0x08, 0x00, 0x00, 0x00, 0x80, 0xf7, 0xff, 0xff,
  0x20, 0x00, 0x00, 0x00, 0x73, 0x65, 0x71, 0x75, 0x65, 0x6e, 0x74, 0x69,
  0x61, 0x6c, 0x2f, 0x6d, 0x61, 0x78, 0x5f, 0x70, 0x6f, 0x6f, 0x6c, 0x69,
  0x6e, 0x67, 0x31, 0x64, 0x2f, 0x4d, 0x61, 0x78, 0x50, 0x6f, 0x6f, 0x6c,
  0x00, 0x00, 0x00, 0x00, 0x04, 0x00, 0x00, 0x00, 0x01, 0x00, 0x00, 0x00,
  0x96, 0x00, 0x00, 0x00, 0x01, 0x00, 0x00, 0x00, 0x08, 0x00, 0x00, 0x00,
  0xf8, 0xf7, 0xff, 0xff, 0x54, 0x00, 0x00, 0x00, 0x19, 0x00, 0x00, 0x00,
  0x24, 0x00, 0x00, 0x00, 0x1c, 0x00, 0x00, 0x00, 0x04, 0x00, 0x00, 0x00,
  0x04, 0x00, 0x00, 0x00, 0xff, 0xff, 0xff, 0xff, 0x2c, 0x01, 0x00, 0x00,
  0x01, 0x00, 0x00, 0x00, 0x08, 0x00, 0x00, 0x00, 0xec, 0xf7, 0xff, 0xff,
  0x23, 0x00, 0x00, 0x00, 0x73, 0x65, 0x71, 0x75, 0x65, 0x6e, 0x74, 0x69,
  0x61, 0x6c, 0x2f, 0x6d, 0x61, 0x78, 0x5f, 0x70, 0x6f, 0x6f, 0x6c, 0x69,
  0x6e, 0x67, 0x31, 0x64, 0x2f, 0x45, 0x78, 0x70, 0x61, 0x6e, 0x64, 0x44,
  0x69, 0x6d, 0x73, 0x00, 0x04, 0x00, 0x00, 0x00, 0x01, 0x00, 0x00, 0x00,
  0x2c, 0x01, 0x00, 0x00, 0x01, 0x00, 0x00, 0x00, 0x08, 0x00, 0x00, 0x00,
  0x64, 0xf8, 0xff, 0xff, 0x8c, 0x00, 0x00, 0x00, 0x18, 0x00, 0x00, 0x00,
  0x20, 0x00, 0x00, 0x00, 0x18, 0x00, 0x00, 0x00, 0x04, 0x00, 0x00, 0x00,
  0x03, 0x00, 0x00, 0x00, 0xff, 0xff, 0xff, 0xff, 0x2c, 0x01, 0x00, 0x00,
  0x08, 0x00, 0x00, 0x00, 0x54, 0xf8, 0xff, 0xff, 0x5d, 0x00, 0x00, 0x00,
  0x73, 0x65, 0x71, 0x75, 0x65, 0x6e, 0x74, 0x69, 0x61, 0x6c, 0x2f, 0x63,
  0x6f, 0x6e, 0x76, 0x31, 0x64, 0x2f, 0x52, 0x65, 0x6c, 0x75, 0x3b, 0x73,
  0x65, 0x71, 0x75, 0x65, 0x6e, 0x74, 0x69, 0x61, 0x6c, 0x2f, 0x63, 0x6f,
  0x6e, 0x76, 0x31, 0x64, 0x2f, 0x42, 0x69, 0x61, 0x73, 0x41, 0x64, 0x64,
  0x3b, 0x73, 0x65, 0x71, 0x75, 0x65, 0x6e, 0x74, 0x69, 0x61, 0x6c, 0x2f,
  0x63, 0x6f, 0x6e, 0x76, 0x31, 0x64, 0x2f, 0x43, 0x6f, 0x6e, 0x76, 0x31,
  0x44, 0x2f, 0x53, 0x71, 0x75, 0x65, 0x65, 0x7a, 0x65, 0x3b, 0x63, 0x6f,
  0x6e, 0x76, 0x31, 0x64, 0x2f, 0x62, 0x69, 0x61, 0x73, 0x00, 0x00, 0x00,
  0x03, 0x00, 0x00, 0x00, 0x01, 0x00, 0x00, 0x00, 0x2c, 0x01, 0x00, 0x00,
  0x08, 0x00, 0x00, 0x00, 0x04, 0xf9, 0xff, 0xff, 0xa8, 0x00, 0x00, 0x00,
  0x17, 0x00, 0x00, 0x00, 0x24, 0x00, 0x00, 0x00, 0x1c, 0x00, 0x00, 0x00,
  0x04, 0x00, 0x00, 0x00, 0x04, 0x00, 0x00, 0x00, 0xff, 0xff, 0xff, 0xff,
  0x01, 0x00, 0x00, 0x00, 0x2c, 0x01, 0x00, 0x00, 0x08, 0x00, 0x00, 0x00,
  0xf8, 0xf8, 0xff, 0xff, 0x76, 0x00, 0x00, 0x00, 0x73, 0x65, 0x71, 0x75,
  0x65, 0x6e, 0x74, 0x69, 0x61, 0x6c, 0x2f, 0x63, 0x6f, 0x6e, 0x76, 0x31,
  0x64, 0x2f, 0x52, 0x65, 0x6c, 0x75, 0x3b, 0x73, 0x65, 0x71, 0x75, 0x65,
  0x6e, 0x74, 0x69, 0x61, 0x6c, 0x2f, 0x63, 0x6f, 0x6e, 0x76, 0x31, 0x64,
  0x2f, 0x42, 0x69, 0x61, 0x73, 0x41, 0x64, 0x64, 0x3b, 0x73, 0x65, 0x71,
  0x75, 0x65, 0x6e, 0x74, 0x69, 0x61, 0x6c, 0x2f, 0x63, 0x6f, 0x6e, 0x76,
  0x31, 0x64, 0x2f, 0x43, 0x6f, 0x6e, 0x76, 0x31, 0x44, 0x2f, 0x53, 0x71,
  0x75, 0x65, 0x65, 0x7a, 0x65, 0x3b, 0x63, 0x6f, 0x6e, 0x76, 0x31, 0x64,
  0x2f, 0x62, 0x69, 0x61, 0x73, 0x3b, 0x73, 0x65, 0x71, 0x75, 0x65, 0x6e,
  0x74, 0x69, 0x61, 0x6c, 0x2f, 0x63, 0x6f, 0x6e, 0x76, 0x31, 0x64, 0x2f,
  0x43, 0x6f, 0x6e, 0x76, 0x31, 0x44, 0x00, 0x00, 0x04, 0x00, 0x00, 0x00,
  0x01, 0x00, 0x00, 0x00, 0x01, 0x00, 0x00, 0x00, 0x2c, 0x01, 0x00, 0x00,
  0x08, 0x00, 0x00, 0x00, 0xc4, 0xf9, 0xff, 0xff, 0x54, 0x00, 0x00, 0x00,
  0x16, 0x00, 0x00, 0x00, 0x24, 0x00, 0x00, 0x00, 0x1c, 0x00, 0x00, 0x00,
  0x04, 0x00, 0x00, 0x00, 0x04, 0x00, 0x00, 0x00, 0xff, 0xff, 0xff, 0xff,
  0x01, 0x00, 0x00, 0x00, 0x2c, 0x01, 0x00, 0x00, 0x0d, 0x00, 0x00, 0x00,
  0xb8, 0xf9, 0xff, 0xff, 0x23, 0x00, 0x00, 0x00, 0x73, 0x65, 0x71, 0x75,
  0x65, 0x6e, 0x74, 0x69, 0x61, 0x6c, 0x2f, 0x63, 0x6f, 0x6e, 0x76, 0x31,
  0x64, 0x2f, 0x43, 0x6f, 0x6e, 0x76, 0x31, 0x44, 0x2f, 0x45, 0x78, 0x70,
  0x61, 0x6e, 0x64, 0x44, 0x69, 0x6d, 0x73, 0x00, 0x04, 0x00, 0x00, 0x00,
  0x01, 0x00, 0x00, 0x00, 0x01, 0x00, 0x00, 0x00, 0x2c, 0x01, 0x00, 0x00,
  0x0d, 0x00, 0x00, 0x00, 0x30, 0xfa, 0xff, 0xff, 0x48, 0x00, 0x00, 0x00,
  0x15, 0x00, 0x00, 0x00, 0x20, 0x00, 0x00, 0x00, 0x18, 0x00, 0x00, 0x00,
  0x04, 0x00, 0x00, 0x00, 0x03, 0x00, 0x00, 0x00, 0xff, 0xff, 0xff, 0xff,
  0x2c, 0x01, 0x00, 0x00, 0x0d, 0x00, 0x00, 0x00, 0x20, 0xfa, 0xff, 0xff,
  0x1a, 0x00, 0x00, 0x00, 0x73, 0x65, 0x71, 0x75, 0x65, 0x6e, 0x74, 0x69,
  0x61, 0x6c, 0x2f, 0x72, 0x65, 0x73, 0x68, 0x61, 0x70, 0x65, 0x2f, 0x52,
  0x65, 0x73, 0x68, 0x61, 0x70, 0x65, 0x00, 0x00, 0x03, 0x00, 0x00, 0x00,
  0x01, 0x00, 0x00, 0x00, 0x2c, 0x01, 0x00, 0x00, 0x0d, 0x00, 0x00, 0x00,
  0x92, 0xfb, 0xff, 0xff, 0x00, 0x00, 0x00, 0x02, 0x3c, 0x00, 0x00, 0x00,
  0x14, 0x00, 0x00, 0x00, 0x0c, 0x00, 0x00, 0x00, 0x04, 0x00, 0x00, 0x00,
  0x6c, 0xfa, 0xff, 0xff, 0x20, 0x00, 0x00, 0x00, 0x73, 0x65, 0x71, 0x75,
  0x65, 0x6e, 0x74, 0x69, 0x61, 0x6c, 0x2f, 0x72, 0x65, 0x73, 0x68, 0x61,
  0x70, 0x65, 0x2f, 0x52, 0x65, 0x73, 0x68, 0x61, 0x70, 0x65, 0x2f, 0x73,
  0x68, 0x61, 0x70, 0x65, 0x00, 0x00, 0x00, 0x00, 0x01, 0x00, 0x00, 0x00,
  0x03, 0x00, 0x00, 0x00, 0x7e, 0xfc, 0xff, 0xff, 0x00, 0x00, 0x00, 0x02,
  0x13, 0x00, 0x00, 0x00, 0x0c, 0x00, 0x00, 0x00, 0x04, 0x00, 0x00, 0x00,
  0xb4, 0xfa, 0xff, 0xff, 0x20, 0x00, 0x00, 0x00, 0x73, 0x65, 0x71, 0x75,
  0x65, 0x6e, 0x74, 0x69, 0x61, 0x6c, 0x2f, 0x72, 0x65, 0x73, 0x68, 0x61,
  0x70, 0x65, 0x2f, 0x73, 0x74, 0x72, 0x69, 0x64, 0x65, 0x64, 0x5f, 0x73,
  0x6c, 0x69, 0x63, 0x65, 0x00, 0x00, 0x00, 0x00, 0x1e, 0xfc, 0xff, 0xff,
  0x00, 0x00, 0x00, 0x02, 0x34, 0x00, 0x00, 0x00, 0x12, 0x00, 0x00, 0x00,
  0x0c, 0x00, 0x00, 0x00, 0x04, 0x00, 0x00, 0x00, 0xf8, 0xfa, 0xff, 0xff,
  0x18, 0x00, 0x00, 0x00, 0x73, 0x65, 0x71, 0x75, 0x65, 0x6e, 0x74, 0x69,
  0x61, 0x6c, 0x2f, 0x72, 0x65, 0x73, 0x68, 0x61, 0x70, 0x65, 0x2f, 0x53,
  0x68, 0x61, 0x70, 0x65, 0x00, 0x00, 0x00, 0x00, 0x01, 0x00, 0x00, 0x00,
  0x02, 0x00, 0x00, 0x00, 0x62, 0xfc, 0xff, 0xff, 0x00, 0x00, 0x00, 0x02,
  0x3c, 0x00, 0x00, 0x00, 0x11, 0x00, 0x00, 0x00, 0x0c, 0x00, 0x00, 0x00,
  0x04, 0x00, 0x00, 0x00, 0x3c, 0xfb, 0xff, 0xff, 0x22, 0x00, 0x00, 0x00,
  0x73, 0x65, 0x71, 0x75, 0x65, 0x6e, 0x74, 0x69, 0x61, 0x6c, 0x2f, 0x63,
  0x6f, 0x6e, 0x76, 0x31, 0x64, 0x5f, 0x31, 0x2f, 0x43, 0x6f, 0x6e, 0x76,
  0x31, 0x44, 0x2f, 0x53, 0x71, 0x75, 0x65, 0x65, 0x7a, 0x65, 0x00, 0x00,
  0x01, 0x00, 0x00, 0x00, 0x03, 0x00, 0x00, 0x00, 0xae, 0xfc, 0xff, 0xff,
  0x00, 0x00, 0x00, 0x02, 0x3c, 0x00, 0x00, 0x00, 0x10, 0x00, 0x00, 0x00,
  0x0c, 0x00, 0x00, 0x00, 0x04, 0x00, 0x00, 0x00, 0x88, 0xfb, 0xff, 0xff,
  0x20, 0x00, 0x00, 0x00, 0x73, 0x65, 0x71, 0x75, 0x65, 0x6e, 0x74, 0x69,
  0x61, 0x6c, 0x2f, 0x6d, 0x61, 0x78, 0x5f, 0x70, 0x6f, 0x6f, 0x6c, 0x69,
  0x6e, 0x67, 0x31, 0x64, 0x2f, 0x53, 0x71, 0x75, 0x65, 0x65, 0x7a, 0x65,
  0x00, 0x00, 0x00, 0x00, 0x01, 0x00, 0x00, 0x00, 0x03, 0x00, 0x00, 0x00,
  0xfa, 0xfc, 0xff, 0xff, 0x00, 0x00, 0x00, 0x02, 0x3c, 0x00, 0x00, 0x00,
  0x0f, 0x00, 0x00, 0x00, 0x0c, 0x00, 0x00, 0x00, 0x04, 0x00, 0x00, 0x00,
  0xd4, 0xfb, 0xff, 0xff, 0x20, 0x00, 0x00, 0x00, 0x73, 0x65, 0x71, 0x75,
  0x65, 0x6e, 0x74, 0x69, 0x61, 0x6c, 0x2f, 0x63, 0x6f, 0x6e, 0x76, 0x31,
  0x64, 0x2f, 0x43, 0x6f, 0x6e, 0x76, 0x31, 0x44, 0x2f, 0x53, 0x71, 0x75,
  0x65, 0x65, 0x7a, 0x65, 0x00, 0x00, 0x00, 0x00, 0x01, 0x00, 0x00, 0x00,
  0x03, 0x00, 0x00, 0x00, 0x7e, 0xfc, 0xff, 0xff, 0x34, 0x00, 0x00, 0x00,
  0x0e, 0x00, 0x00, 0x00, 0x0c, 0x00, 0x00, 0x00, 0x04, 0x00, 0x00, 0x00,
  0x1c, 0xfc, 0xff, 0xff, 0x1a, 0x00, 0x00, 0x00, 0x73, 0x65, 0x71, 0x75,
  0x65, 0x6e, 0x74, 0x69, 0x61, 0x6c, 0x2f, 0x63, 0x6f, 0x6e, 0x76, 0x31,
  0x64, 0x5f, 0x31, 0x2f, 0x43, 0x6f, 0x6e, 0x76, 0x31, 0x44, 0x00, 0x00,
  0x04, 0x00, 0x00, 0x00, 0x10, 0x00, 0x00, 0x00, 0x01, 0x00, 0x00, 0x00,
  0x03, 0x00, 0x00, 0x00, 0x08, 0x00, 0x00, 0x00, 0xca, 0xfc, 0xff, 0xff,
  0x34, 0x00, 0x00, 0x00, 0x0d, 0x00, 0x00, 0x00, 0x0c, 0x00, 0x00, 0x00,
  0x04, 0x00, 0x00, 0x00, 0x68, 0xfc, 0xff, 0xff, 0x18, 0x00, 0x00, 0x00,
  0x73, 0x65, 0x71, 0x75, 0x65, 0x6e, 0x74, 0x69, 0x61, 0x6c, 0x2f, 0x63,
  0x6f, 0x6e, 0x76, 0x31, 0x64, 0x2f, 0x43, 0x6f, 0x6e, 0x76, 0x31, 0x44,
  0x00, 0x00, 0x00, 0x00, 0x04, 0x00, 0x00, 0x00, 0x08, 0x00, 0x00, 0x00,
  0x01, 0x00, 0x00, 0x00, 0x03, 0x00, 0x00, 0x00, 0x0d, 0x00, 0x00, 0x00,
  0xde, 0xfd, 0xff, 0xff, 0x00, 0x00, 0x00, 0x09, 0x60, 0x00, 0x00, 0x00,
  0x0c, 0x00, 0x00, 0x00, 0x38, 0x00, 0x00, 0x00, 0x10, 0x00, 0x00, 0x00,
  0x0c, 0x00, 0x0c, 0x00, 0x00, 0x00, 0x00, 0x00, 0x04, 0x00, 0x08, 0x00,
  0x0c, 0x00, 0x00, 0x00, 0x18, 0x00, 0x00, 0x00, 0x04, 0x00, 0x00, 0x00,
  0x01, 0x00, 0x00, 0x00, 0x00, 0x00, 0x00, 0x00, 0x00, 0x00, 0x00, 0x00,
  0x00, 0x00, 0x00, 0x00, 0x01, 0x00, 0x00, 0x00, 0x8d, 0x5c, 0x2b, 0x3b,
  0x18, 0x00, 0x00, 0x00, 0x73, 0x65, 0x71, 0x75, 0x65, 0x6e, 0x74, 0x69,
  0x61, 0x6c, 0x2f, 0x79, 0x5f, 0x70, 0x72, 0x65, 0x64, 0x2f, 0x4d, 0x61,
  0x74, 0x4d, 0x75, 0x6c, 0x00, 0x00, 0x00, 0x00, 0x02, 0x00, 0x00, 0x00,
  0x02, 0x00, 0x00, 0x00, 0xb0, 0x04, 0x00, 0x00, 0xf2, 0xfe, 0xff, 0xff,
  0x00, 0x00, 0x00, 0x02, 0x0b, 0x00, 0x00, 0x00, 0x0c, 0x00, 0x00, 0x00,
  0x04, 0x00, 0x00, 0x00, 0x28, 0xfd, 0xff, 0xff, 0x27, 0x00, 0x00, 0x00,
  0x73, 0x65, 0x71, 0x75, 0x65, 0x6e, 0x74, 0x69, 0x61, 0x6c, 0x2f, 0x63,
  0x6f, 0x6e, 0x76, 0x31, 0x64, 0x2f, 0x43, 0x6f, 0x6e, 0x76, 0x31, 0x44,
  0x2f, 0x45, 0x78, 0x70, 0x61, 0x6e, 0x64, 0x44, 0x69, 0x6d, 0x73, 0x2f,
  0x64, 0x69, 0x6d, 0x00, 0x96, 0xfe, 0xff, 0xff, 0x00, 0x00, 0x00, 0x02,
  0x34, 0x00, 0x00, 0x00, 0x0a, 0x00, 0x00, 0x00, 0x0c, 0x00, 0x00, 0x00,
  0x04, 0x00, 0x00, 0x00, 0x70, 0xfd, 0xff, 0xff, 0x18, 0x00, 0x00, 0x00,
  0x73, 0x65, 0x71, 0x75, 0x65, 0x6e, 0x74, 0x69, 0x61, 0x6c, 0x2f, 0x66,
  0x6c, 0x61, 0x74, 0x74, 0x65, 0x6e, 0x2f, 0x43, 0x6f, 0x6e, 0x73, 0x74,
  0x00, 0x00, 0x00, 0x00, 0x01, 0x00, 0x00, 0x00, 0x02, 0x00, 0x00, 0x00,
  0x7a, 0xff, 0xff, 0xff, 0x00, 0x00, 0x00, 0x02, 0x09, 0x00, 0x00, 0x00,
  0x0c, 0x00, 0x00, 0x00, 0x04, 0x00, 0x00, 0x00, 0xb0, 0xfd, 0xff, 0xff,
  0x27, 0x00, 0x00, 0x00, 0x73, 0x65, 0x71, 0x75, 0x65, 0x6e, 0x74, 0x69,
  0x61, 0x6c, 0x2f, 0x6d, 0x61, 0x78, 0x5f, 0x70, 0x6f, 0x6f, 0x6c, 0x69,
  0x6e, 0x67, 0x31, 0x64, 0x2f, 0x45, 0x78, 0x70, 0x61, 0x6e, 0x64, 0x44,
  0x69, 0x6d, 0x73, 0x2f, 0x64, 0x69, 0x6d, 0x00, 0xbe, 0xff, 0xff, 0xff,
  0x00, 0x00, 0x00, 0x02, 0x08, 0x00, 0x00, 0x00, 0x0c, 0x00, 0x00, 0x00,
  0x04, 0x00, 0x00, 0x00, 0xf4, 0xfd, 0xff, 0xff, 0x22, 0x00, 0x00, 0x00,
  0x73, 0x65, 0x71, 0x75, 0x65, 0x6e, 0x74, 0x69, 0x61, 0x6c, 0x2f, 0x72,
  0x65, 0x73, 0x68, 0x61, 0x70, 0x65, 0x2f, 0x52, 0x65, 0x73, 0x68, 0x61,
  0x70, 0x65, 0x2f, 0x73, 0x68, 0x61, 0x70, 0x65, 0x2f, 0x31, 0x00, 0x00,
  0x00, 0x00, 0x0e, 0x00, 0x14, 0x00, 0x00, 0x00, 0x07, 0x00, 0x08, 0x00,
  0x0c, 0x00, 0x10, 0x00, 0x0e, 0x00, 0x00, 0x00, 0x00, 0x00, 0x00, 0x02,
  0x07, 0x00, 0x00, 0x00, 0x0c, 0x00, 0x00, 0x00, 0x04, 0x00, 0x00, 0x00,
  0x44, 0xfe, 0xff, 0xff, 0x22, 0x00, 0x00, 0x00, 0x73, 0x65, 0x71, 0x75,
  0x65, 0x6e, 0x74, 0x69, 0x61, 0x6c, 0x2f, 0x72, 0x65, 0x73, 0x68, 0x61,
  0x70, 0x65, 0x2f, 0x52, 0x65, 0x73, 0x68, 0x61, 0x70, 0x65, 0x2f, 0x73,
  0x68, 0x61, 0x70, 0x65, 0x2f, 0x32, 0x00, 0x00, 0xae, 0xff, 0xff, 0xff,
  0x00, 0x00, 0x00, 0x02, 0x40, 0x00, 0x00, 0x00, 0x06, 0x00, 0x00, 0x00,
  0x0c, 0x00, 0x00, 0x00, 0x04, 0x00, 0x00, 0x00, 0x88, 0xfe, 0xff, 0xff,
  0x26, 0x00, 0x00, 0x00, 0x73, 0x65, 0x71, 0x75, 0x65, 0x6e, 0x74, 0x69,
  0x61, 0x6c, 0x2f, 0x72, 0x65, 0x73, 0x68, 0x61, 0x70, 0x65, 0x2f, 0x73,
  0x74, 0x72, 0x69, 0x64, 0x65, 0x64, 0x5f, 0x73, 0x6c, 0x69, 0x63, 0x65,
  0x2f, 0x73, 0x74, 0x61, 0x63, 0x6b, 0x00, 0x00, 0x01, 0x00, 0x00, 0x00,
  0x01, 0x00, 0x00, 0x00, 0x00, 0x00, 0x0e, 0x00, 0x18, 0x00, 0x08, 0x00,
  0x07, 0x00, 0x0c, 0x00, 0x10, 0x00, 0x14, 0x00, 0x0e, 0x00, 0x00, 0x00,
  0x00, 0x00, 0x00, 0x02, 0x44, 0x00, 0x00, 0x00, 0x05, 0x00, 0x00, 0x00,
  0x0c, 0x00, 0x00, 0x00, 0x04, 0x00, 0x00, 0x00, 0xe8, 0xfe, 0xff, 0xff,
  0x28, 0x00, 0x00, 0x00, 0x73, 0x65, 0x71, 0x75, 0x65, 0x6e, 0x74, 0x69,
  0x61, 0x6c, 0x2f, 0x72, 0x65, 0x73, 0x68, 0x61, 0x70, 0x65, 0x2f, 0x73,
  0x74, 0x72, 0x69, 0x64, 0x65, 0x64, 0x5f, 0x73, 0x6c, 0x69, 0x63, 0x65,
  0x2f, 0x73, 0x74, 0x61, 0x63, 0x6b, 0x5f, 0x31, 0x00, 0x00, 0x00, 0x00,
  0x01, 0x00, 0x00, 0x00, 0x01, 0x00, 0x00, 0x00, 0x9a, 0xff, 0xff, 0xff,
  0x24, 0x00, 0x00, 0x00, 0x04, 0x00, 0x00, 0x00, 0x0c, 0x00, 0x00, 0x00,
  0x04, 0x00, 0x00, 0x00, 0x38, 0xff, 0xff, 0xff, 0x0b, 0x00, 0x00, 0x00,
  0x63, 0x6f, 0x6e, 0x76, 0x31, 0x64, 0x2f, 0x62, 0x69, 0x61, 0x73, 0x00,
  0x01, 0x00, 0x00, 0x00, 0x08, 0x00, 0x00, 0x00, 0xca, 0xff, 0xff, 0xff,
  0x28, 0x00, 0x00, 0x00, 0x03, 0x00, 0x00, 0x00, 0x0c, 0x00, 0x00, 0x00,
  0x04, 0x00, 0x00, 0x00, 0x68, 0xff, 0xff, 0xff, 0x0d, 0x00, 0x00, 0x00,
  0x63, 0x6f, 0x6e, 0x76, 0x31, 0x64, 0x5f, 0x31, 0x2f, 0x62, 0x69, 0x61,
  0x73, 0x00, 0x00, 0x00, 0x01, 0x00, 0x00, 0x00, 0x10, 0x00, 0x00, 0x00,
  0x00, 0x00, 0x0e, 0x00, 0x14, 0x00, 0x04, 0x00, 0x00, 0x00, 0x08, 0x00,
  0x0c, 0x00, 0x10, 0x00, 0x0e, 0x00, 0x00, 0x00, 0x24, 0x00, 0x00, 0x00,
  0x02, 0x00, 0x00, 0x00, 0x0c, 0x00, 0x00, 0x00, 0x04, 0x00, 0x00, 0x00,
  0xac, 0xff, 0xff, 0xff, 0x0b, 0x00, 0x00, 0x00, 0x79, 0x5f, 0x70, 0x72,
  0x65, 0x64, 0x2f, 0x62, 0x69, 0x61, 0x73, 0x00, 0x01, 0x00, 0x00, 0x00,
  0x02, 0x00, 0x00, 0x00, 0x14, 0x00, 0x18, 0x00, 0x04, 0x00, 0x00, 0x00,
  0x08, 0x00, 0x0c, 0x00, 0x10, 0x00, 0x00, 0x00, 0x00, 0x00, 0x14, 0x00,
  0x14, 0x00, 0x00, 0x00, 0x4c, 0x00, 0x00, 0x00, 0x01, 0x00, 0x00, 0x00,
  0x20, 0x00, 0x00, 0x00, 0x18, 0x00, 0x00, 0x00, 0x04, 0x00, 0x00, 0x00,
  0x02, 0x00, 0x00, 0x00, 0xff, 0xff, 0xff, 0xff, 0x3c, 0x0f, 0x00, 0x00,
  0x04, 0x00, 0x04, 0x00, 0x04, 0x00, 0x00, 0x00, 0x1f, 0x00, 0x00, 0x00,
  0x73, 0x65, 0x72, 0x76, 0x69, 0x6e, 0x67, 0x5f, 0x64, 0x65, 0x66, 0x61,
  0x75, 0x6c, 0x74, 0x5f, 0x72, 0x65, 0x73, 0x68, 0x61, 0x70, 0x65, 0x5f,
  0x69, 0x6e, 0x70, 0x75, 0x74, 0x3a, 0x30, 0x00, 0x02, 0x00, 0x00, 0x00,
  0x01, 0x00, 0x00, 0x00, 0x3c, 0x0f, 0x00, 0x00, 0x09, 0x00, 0x00, 0x00,
  0xa4, 0x00, 0x00, 0x00, 0x88, 0x00, 0x00, 0x00, 0x78, 0x00, 0x00, 0x00,
  0x68, 0x00, 0x00, 0x00, 0x58, 0x00, 0x00, 0x00, 0x44, 0x00, 0x00, 0x00,
  0x28, 0x00, 0x00, 0x00, 0x14, 0x00, 0x00, 0x00, 0x04, 0x00, 0x00, 0x00,
  0x8c, 0xff, 0xff, 0xff, 0x00, 0x00, 0x00, 0x19, 0x19, 0x00, 0x00, 0x00,
  0xe4, 0xff, 0xff, 0xff, 0x00, 0x00, 0x00, 0x09, 0x09, 0x00, 0x00, 0x00,
  0x09, 0x00, 0x00, 0x00, 0xa8, 0xff, 0xff, 0xff, 0x00, 0x00, 0x00, 0x11,
  0x11, 0x00, 0x00, 0x00, 0x0c, 0x00, 0x10, 0x00, 0x07, 0x00, 0x00, 0x00,
  0x08, 0x00, 0x0c, 0x00, 0x0c, 0x00, 0x00, 0x00, 0x00, 0x00, 0x00, 0x03,
  0x05, 0x00, 0x00, 0x00, 0x03, 0x00, 0x00, 0x00, 0xd0, 0xff, 0xff, 0xff,
  0x00, 0x00, 0x00, 0x46, 0x46, 0x00, 0x00, 0x00, 0xdc, 0xff, 0xff, 0xff,
  0x00, 0x00, 0x00, 0x16, 0x16, 0x00, 0x00, 0x00, 0xe8, 0xff, 0xff, 0xff,
  0x00, 0x00, 0x00, 0x53, 0x53, 0x00, 0x00, 0x00, 0xf4, 0xff, 0xff, 0xff,
  0x00, 0x00, 0x00, 0x2d, 0x2d, 0x00, 0x00, 0x00, 0x0c, 0x00, 0x0c, 0x00,
  0x07, 0x00, 0x00, 0x00, 0x00, 0x00, 0x08, 0x00, 0x0c, 0x00, 0x00, 0x00,
  0x00, 0x00, 0x00, 0x4d, 0x4d, 0x00, 0x00, 0x00
};
unsigned int saved_tflite_model_mfcc_tflite_len = 11216;
