unsigned char mfcc_int8_tflite[] = {
  0x1c, 0x00, 0x00, 0x00, 0x54, 0x46, 0x4c, 0x33, 0x14, 0x00, 0x20, 0x00,
  0x04, 0x00, 0x08, 0x00, 0x0c, 0x00, 0x10, 0x00, 0x14, 0x00, 0x00, 0x00,
  0x18, 0x00, 0x1c, 0x00, 0x14, 0x00, 0x00, 0x00, 0x03, 0x00, 0x00, 0x00,
  0xb8, 0x00, 0x00, 0x00, 0xac, 0x00, 0x00, 0x00, 0xac, 0x01, 0x00, 0x00,
  0x0c, 0x00, 0x00, 0x00, 0x54, 0x01, 0x00, 0x00, 0xcc, 0x00, 0x00, 0x00,
  0x25, 0x00, 0x00, 0x00, 0x54, 0x28, 0x00, 0x00, 0x50, 0x28, 0x00, 0x00,
  0x18, 0x27, 0x00, 0x00, 0x7c, 0x26, 0x00, 0x00, 0xfc, 0x25, 0x00, 0x00,
  0x7c, 0x25, 0x00, 0x00, 0xf4, 0x24, 0x00, 0x00, 0x6c, 0x24, 0x00, 0x00,
  0xe4, 0x23, 0x00, 0x00, 0x5c, 0x23, 0x00, 0x00, 0xd0, 0x22, 0x00, 0x00,
  0x5c, 0x22, 0x00, 0x00, 0x00, 0x1f, 0x00, 0x00, 0x28, 0x1e, 0x00, 0x00,
  0x5c, 0x1b, 0x00, 0x00, 0x04, 0x1a, 0x00, 0x00, 0xb8, 0x14, 0x00, 0x00,
  0x50, 0x14, 0x00, 0x00, 0x0c, 0x28, 0x00, 0x00, 0x08, 0x28, 0x00, 0x00,
  0x04, 0x28, 0x00, 0x00, 0x00, 0x28, 0x00, 0x00, 0xfc, 0x27, 0x00, 0x00,
  0xf8, 0x27, 0x00, 0x00, 0xf4, 0x27, 0x00, 0x00, 0xf0, 0x27, 0x00, 0x00,
  0xec, 0x27, 0x00, 0x00, 0xe8, 0x27, 0x00, 0x00, 0xe4, 0x27, 0x00, 0x00,
  0xe0, 0x27, 0x00, 0x00, 0xdc, 0x27, 0x00, 0x00, 0xd8, 0x27, 0x00, 0x00,
  0xd4, 0x27, 0x00, 0x00, 0xd0, 0x27, 0x00, 0x00, 0xcc, 0x27, 0x00, 0x00,
  0xc8, 0x27, 0x00, 0x00, 0xec, 0x00, 0x00, 0x00, 0x01, 0x00, 0x00, 0x00,
  0x24, 0x01, 0x00, 0x00, 0x09, 0x00, 0x00, 0x00, 0x88, 0x13, 0x00, 0x00,
  0xbc, 0x12, 0x00, 0x00, 0xe0, 0x11, 0x00, 0x00, 0xec, 0x10, 0x00, 0x00,
  0xf8, 0x0f, 0x00, 0x00, 0x68, 0x0e, 0x00, 0x00, 0x44, 0x0b, 0x00, 0x00,
  0xfc, 0x02, 0x00, 0x00, 0x3c, 0x02, 0x00, 0x00, 0x01, 0x00, 0x00, 0x00,
  0x10, 0x00, 0x00, 0x00, 0x00, 0x00, 0x0a, 0x00, 0x10, 0x00, 0x0c, 0x00,
  0x08, 0x00, 0x04, 0x00, 0x0a, 0x00, 0x00, 0x00, 0x0c, 0x00, 0x00, 0x00,
  0x1c, 0x00, 0x00, 0x00, 0x20, 0x00, 0x00, 0x00, 0x0f, 0x00, 0x00, 0x00,
  0x73, 0x65, 0x72, 0x76, 0x69, 0x6e, 0x67, 0x5f, 0x64, 0x65, 0x66, 0x61,
  0x75, 0x6c, 0x74, 0x00, 0x01, 0x00, 0x00, 0x00, 0x14, 0x00, 0x00, 0x00,
  0x01, 0x00, 0x00, 0x00, 0x24, 0x00, 0x00, 0x00, 0x08, 0x00, 0x0c, 0x00,
  0x08, 0x00, 0x04, 0x00, 0x08, 0x00, 0x00, 0x00, 0x22, 0x00, 0x00, 0x00,
  0x04, 0x00, 0x00, 0x00, 0x06, 0x00, 0x00, 0x00, 0x79, 0x5f, 0x70, 0x72,
  0x65, 0x64, 0x00, 0x00, 0x12, 0xda, 0xff, 0xff, 0x04, 0x00, 0x00, 0x00,
  0x0d, 0x00, 0x00, 0x00, 0x72, 0x65, 0x73, 0x68, 0x61, 0x70, 0x65, 0x5f,
  0x69, 0x6e, 0x70, 0x75, 0x74, 0x00, 0x00, 0x00, 0x01, 0x00, 0x00, 0x00,
  0x0c, 0x00, 0x00, 0x00, 0x08, 0x00, 0x0c, 0x00, 0x04, 0x00, 0x08, 0x00,
  0x08, 0x00, 0x00, 0x00, 0x08, 0x00, 0x00, 0x00, 0x24, 0x00, 0x00, 0x00,
  0x13, 0x00, 0x00, 0x00, 0x6d, 0x69, 0x6e, 0x5f, 0x72, 0x75, 0x6e, 0x74,
  0x69, 0x6d, 0x65, 0x5f, 0x76, 0x65, 0x72, 0x73, 0x69, 0x6f, 0x6e, 0x00,
  0x62, 0xda, 0xff, 0xff, 0x04, 0x00, 0x00, 0x00, 0x10, 0x00, 0x00, 0x00,
  0x31, 0x2e, 0x31, 0x34, 0x2e, 0x30, 0x00, 0x00, 0x00, 0x00, 0x00, 0x00,
  0x00, 0x00, 0x00, 0x00, 0x0f, 0x00, 0x00, 0x00, 0x4d, 0x4c, 0x49, 0x52,
  0x20, 0x43, 0x6f, 0x6e, 0x76, 0x65, 0x72, 0x74, 0x65, 0x64, 0x2e, 0x00,
  0x00, 0x00, 0x0e, 0x00, 0x18, 0x00, 0x04, 0x00, 0x08, 0x00, 0x0c, 0x00,
  0x10, 0x00, 0x14, 0x00, 0x0e, 0x00, 0x00, 0x00, 0x7c, 0x00, 0x00, 0x00,
  0x70, 0x00, 0x00, 0x00, 0x64, 0x00, 0x00, 0x00, 0x14, 0x00, 0x00, 0x00,
  0x04, 0x00, 0x00, 0x00, 0x04, 0x00, 0x00, 0x00, 0x6d, 0x61, 0x69, 0x6e,
  0x00, 0x00, 0x00, 0x00, 0x12, 0x00, 0x00, 0x00, 0x04, 0x12, 0x00, 0x00,
  0x2c, 0x11, 0x00, 0x00, 0x64, 0x10, 0x00, 0x00, 0x84, 0x0f, 0x00, 0x00,
  0x84, 0x0e, 0x00, 0x00, 0xd8, 0x0c, 0x00, 0x00, 0xa0, 0x0b, 0x00, 0x00,
  0xb8, 0x0a, 0x00, 0x00, 0xac, 0x09, 0x00, 0x00, 0xe0, 0x08, 0x00, 0x00,
  0xf8, 0x07, 0x00, 0x00, 0x54, 0x06, 0x00, 0x00, 0x08, 0x05, 0x00, 0x00,
  0x1c, 0x04, 0x00, 0x00, 0x28, 0x03, 0x00, 0x00, 0x6c, 0x02, 0x00, 0x00,
  0x60, 0x01, 0x00, 0x00, 0xa4, 0x00, 0x00, 0x00, 0x01, 0x00, 0x00, 0x00,
  0x22, 0x00, 0x00, 0x00, 0x01, 0x00, 0x00, 0x00, 0x00, 0x00, 0x00, 0x00,
  0x23, 0x00, 0x00, 0x00, 0x8c, 0x25, 0x00, 0x00, 0xfc, 0x24, 0x00, 0x00,
  0x50, 0x24, 0x00, 0x00, 0xd0, 0x23, 0x00, 0x00, 0x50, 0x23, 0x00, 0x00,
  0xc8, 0x22, 0x00, 0x00, 0x48, 0x22, 0x00, 0x00, 0xb8, 0x21, 0x00, 0x00,
  0x38, 0x21, 0x00, 0x00, 0xac, 0x20, 0x00, 0x00, 0x34, 0x20, 0x00, 0x00,
  0x40, 0x1f, 0x00, 0x00, 0x18, 0x1c, 0x00, 0x00, 0xac, 0x1a, 0x00, 0x00,
  0x14, 0x18, 0x00, 0x00, 0x48, 0x17, 0x00, 0x00, 0x28, 0x12, 0x00, 0x00,
  0xb4, 0x11, 0x00, 0x00, 0xe8, 0x10, 0x00, 0x00, 0x0c, 0x10, 0x00, 0x00,
  0x18, 0x0f, 0x00, 0x00, 0x24, 0x0e, 0x00, 0x00, 0x94, 0x0c, 0x00, 0x00,
  0x24, 0x0b, 0x00, 0x00, 0x48, 0x0a, 0x00, 0x00, 0x68, 0x09, 0x00, 0x00,
  0x64, 0x08, 0x00, 0x00, 0x88, 0x07, 0x00, 0x00, 0xf4, 0x05, 0x00, 0x00,
  0x8c, 0x04, 0x00, 0x00, 0xac, 0x03, 0x00, 0x00, 0xc4, 0x02, 0x00, 0x00,
  0xf0, 0x01, 0x00, 0x00, 0x04, 0x01, 0x00, 0x00, 0x44, 0x00, 0x00, 0x00,
  0x8a, 0xf0, 0xff, 0xff, 0x00, 0x00, 0x00, 0x09, 0x08, 0x00, 0x00, 0x00,
  0x1c, 0x00, 0x00, 0x00, 0x10, 0x00, 0x00, 0x00, 0x04, 0x00, 0x00, 0x00,
  0xca, 0xdb, 0xff, 0xff, 0x00, 0x00, 0x80, 0x3f, 0x01, 0x00, 0x00, 0x00,
  0x22, 0x00, 0x00, 0x00, 0x01, 0x00, 0x00, 0x00, 0x21, 0x00, 0x00, 0x00,
  0xe0, 0xee, 0xff, 0xff, 0x19, 0x00, 0x00, 0x00, 0x00, 0x00, 0x00, 0x19,
  0x02, 0x00, 0x00, 0x00, 0x54, 0xdb, 0xff, 0xff, 0x00, 0x00, 0x00, 0x09,
  0x40, 0x00, 0x00, 0x00, 0x23, 0x00, 0x00, 0x00, 0x18, 0x00, 0x00, 0x00,
  0x40, 0x00, 0x00, 0x00, 0x04, 0x00, 0x00, 0x00, 0x02, 0x00, 0x00, 0x00,
  0xff, 0xff, 0xff, 0xff, 0x02, 0x00, 0x00, 0x00, 0x19, 0x00, 0x00, 0x00,
  0x53, 0x74, 0x61, 0x74, 0x65, 0x66, 0x75, 0x6c, 0x50, 0x61, 0x72, 0x74,
  0x69, 0x74, 0x69, 0x6f, 0x6e, 0x65, 0x64, 0x43, 0x61, 0x6c, 0x6c, 0x3a,
  0x30, 0x00, 0x00, 0x00, 0x02, 0x00, 0x00, 0x00, 0x01, 0x00, 0x00, 0x00,
  0x02, 0x00, 0x00, 0x00, 0x3c, 0xdb, 0xff, 0xff, 0x18, 0x00, 0x00, 0x00,
  0x04, 0x00, 0x00, 0x00, 0x01, 0x00, 0x00, 0x00, 0x80, 0xff, 0xff, 0xff,
  0xff, 0xff, 0xff, 0xff, 0x00, 0x00, 0x00, 0x00, 0x01, 0x00, 0x00, 0x00,
  0x00, 0x00, 0x80, 0x3b, 0x42, 0xf1, 0xff, 0xff, 0x00, 0x00, 0x00, 0x08,
  0x07, 0x00, 0x00, 0x00, 0x18, 0x00, 0x00, 0x00, 0x0c, 0x00, 0x00, 0x00,
  0x04, 0x00, 0x00, 0x00, 0x4c, 0xdb, 0xff, 0xff, 0x01, 0x00, 0x00, 0x00,
  0x21, 0x00, 0x00, 0x00, 0x03, 0x00, 0x00, 0x00, 0x20, 0x00, 0x00, 0x00,
  0x0f, 0x00, 0x00, 0x00, 0x10, 0x00, 0x00, 0x00, 0x9c, 0xef, 0xff, 0xff,
  0x09, 0x00, 0x00, 0x00, 0x00, 0x00, 0x00, 0x09, 0x04, 0x00, 0x00, 0x00,
  0x10, 0xdc, 0xff, 0xff, 0x00, 0x00, 0x00, 0x09, 0x8c, 0x00, 0x00, 0x00,
  0x22, 0x00, 0x00, 0x00, 0x18, 0x00, 0x00, 0x00, 0x8c, 0x00, 0x00, 0x00,
  0x04, 0x00, 0x00, 0x00, 0x02, 0x00, 0x00, 0x00, 0xff, 0xff, 0xff, 0xff,
  0x02, 0x00, 0x00, 0x00, 0x65, 0x00, 0x00, 0x00, 0x73, 0x65, 0x71, 0x75,
  0x65, 0x6e, 0x74, 0x69, 0x61, 0x6c, 0x2f, 0x79, 0x5f, 0x70, 0x72, 0x65,
  0x64, 0x2f, 0x4d, 0x61, 0x74, 0x4d, 0x75, 0x6c, 0x3b, 0x73, 0x65, 0x71,
  0x75, 0x65, 0x6e, 0x74, 0x69, 0x61, 0x6c, 0x2f, 0x79, 0x5f, 0x70, 0x72,
  0x65, 0x64, 0x2f, 0x4d, 0x61, 0x74, 0x4d, 0x75, 0x6c, 0x3b, 0x73, 0x65,
  0x71, 0x75, 0x65, 0x6e, 0x74, 0x69, 0x61, 0x6c, 0x2f, 0x79, 0x5f, 0x70,
  0x72, 0x65, 0x64, 0x2f, 0x42, 0x69, 0x61, 0x73, 0x41, 0x64, 0x64, 0x3b,
  0x73, 0x65, 0x71, 0x75, 0x65, 0x6e, 0x74, 0x69, 0x61, 0x6c, 0x2f, 0x79,
  0x5f, 0x70, 0x72, 0x65, 0x64, 0x2f, 0x42, 0x69, 0x61, 0x73, 0x41, 0x64,
  0x64, 0x00, 0x00, 0x00, 0x02, 0x00, 0x00, 0x00, 0x01, 0x00, 0x00, 0x00,
  0x02, 0x00, 0x00, 0x00, 0x44, 0xdc, 0xff, 0xff, 0x18, 0x00, 0x00, 0x00,
  0x04, 0x00, 0x00, 0x00, 0x01, 0x00, 0x00, 0x00, 0x05, 0x00, 0x00, 0x00,
  0x00, 0x00, 0x00, 0x00, 0x00, 0x00, 0x00, 0x00, 0x01, 0x00, 0x00, 0x00,
  0x9f, 0x5c, 0x57, 0x3d, 0x22, 0xf3, 0xff, 0xff, 0x03, 0x00, 0x00, 0x00,
  0x10, 0x00, 0x00, 0x00, 0x04, 0x00, 0x00, 0x00, 0x01, 0x00, 0x00, 0x00,
  0x20, 0x00, 0x00, 0x00, 0x02, 0x00, 0x00, 0x00, 0x1f, 0x00, 0x00, 0x00,
  0x0a, 0x00, 0x00, 0x00, 0xf8, 0xdc, 0xff, 0xff, 0x00, 0x00, 0x00, 0x09,
  0x5c, 0x00, 0x00, 0x00, 0x21, 0x00, 0x00, 0x00, 0x18, 0x00, 0x00, 0x00,
  0x5c, 0x00, 0x00, 0x00, 0x04, 0x00, 0x00, 0x00, 0x02, 0x00, 0x00, 0x00,
  0xff, 0xff, 0xff, 0xff, 0x60, 0x02, 0x00, 0x00, 0x35, 0x00, 0x00, 0x00,
  0x73, 0x65, 0x71, 0x75, 0x65, 0x6e, 0x74, 0x69, 0x61, 0x6c, 0x2f, 0x66,
  0x6c, 0x61, 0x74, 0x74, 0x65, 0x6e, 0x2f, 0x52, 0x65, 0x73, 0x68, 0x61,
  0x70, 0x65, 0x3b, 0x73, 0x65, 0x71, 0x75, 0x65, 0x6e, 0x74, 0x69, 0x61,
  0x6c, 0x2f, 0x66, 0x6c, 0x61, 0x74, 0x74, 0x65, 0x6e, 0x2f, 0x52, 0x65,
  0x73, 0x68, 0x61, 0x70, 0x65, 0x00, 0x00, 0x00, 0x02, 0x00, 0x00, 0x00,
  0x01, 0x00, 0x00, 0x00, 0x60, 0x02, 0x00, 0x00, 0xfc, 0xdc, 0xff, 0xff,
  0x18, 0x00, 0x00, 0x00, 0x04, 0x00, 0x00, 0x00, 0x01, 0x00, 0x00, 0x00,
  0x80, 0xff, 0xff, 0xff, 0xff, 0xff, 0xff, 0xff, 0x00, 0x00, 0x00, 0x00,
  0x01, 0x00, 0x00, 0x00, 0xf5, 0xd7, 0xed, 0x3c, 0x02, 0xf3, 0xff, 0xff,
  0x00, 0x00, 0x00, 0x05, 0x06, 0x00, 0x00, 0x00, 0x28, 0x00, 0x00, 0x00,
  0x1c, 0x00, 0x00, 0x00, 0x04, 0x00, 0x00, 0x00, 0x92, 0xf9, 0xff, 0xff,
  0x02, 0x00, 0x00, 0x00, 0x01, 0x00, 0x00, 0x00, 0x02, 0x00, 0x00, 0x00,
  0x01, 0x00, 0x00, 0x00, 0x01, 0x00, 0x00, 0x00, 0x1f, 0x00, 0x00, 0x00,
  0x01, 0x00, 0x00, 0x00, 0x1e, 0x00, 0x00, 0x00, 0xc8, 0xdd, 0xff, 0xff,
  0x00, 0x00, 0x00, 0x09, 0x74, 0x00, 0x00, 0x00, 0x20, 0x00, 0x00, 0x00,
  0x20, 0x00, 0x00, 0x00, 0x7c, 0x00, 0x00, 0x00, 0x04, 0x00, 0x00, 0x00,
  0x04, 0x00, 0x00, 0x00, 0xff, 0xff, 0xff, 0xff, 0x26, 0x00, 0x00, 0x00,
  0x01, 0x00, 0x00, 0x00, 0x10, 0x00, 0x00, 0x00, 0x45, 0x00, 0x00, 0x00,
  0x73, 0x65, 0x71, 0x75, 0x65, 0x6e, 0x74, 0x69, 0x61, 0x6c, 0x2f, 0x6d,
  0x61, 0x78, 0x5f, 0x70, 0x6f, 0x6f, 0x6c, 0x69, 0x6e, 0x67, 0x31, 0x64,
  0x5f, 0x31, 0x2f, 0x4d, 0x61, 0x78, 0x50, 0x6f, 0x6f, 0x6c, 0x3b, 0x73,
  0x65, 0x71, 0x75, 0x65, 0x6e, 0x74, 0x69, 0x61, 0x6c, 0x2f, 0x6d, 0x61,
  0x78, 0x5f, 0x70, 0x6f, 0x6f, 0x6c, 0x69, 0x6e, 0x67, 0x31, 0x64, 0x5f,
  0x31, 0x2f, 0x4d, 0x61, 0x78, 0x50, 0x6f, 0x6f, 0x6c, 0x00, 0x00, 0x00,
  0x04, 0x00, 0x00, 0x00, 0x01, 0x00, 0x00, 0x00, 0x26, 0x00, 0x00, 0x00,
  0x01, 0x00, 0x00, 0x00, 0x10, 0x00, 0x00, 0x00, 0xec, 0xdd, 0xff, 0xff,
  0x18, 0x00, 0x00, 0x00, 0x04, 0x00, 0x00, 0x00, 0x01, 0x00, 0x00, 0x00,
  0x80, 0xff, 0xff, 0xff, 0xff, 0xff, 0xff, 0xff, 0x00, 0x00, 0x00, 0x00,
  0x01, 0x00, 0x00, 0x00, 0xf5, 0xd7, 0xed, 0x3c, 0xf2, 0xf3, 0xff, 0xff,
  0x00, 0x00, 0x00, 0x34, 0x04, 0x00, 0x00, 0x00, 0x18, 0x00, 0x00, 0x00,
  0x0c, 0x00, 0x00, 0x00, 0x04, 0x00, 0x00, 0x00, 0xfc, 0xdd, 0xff, 0xff,
  0x01, 0x00, 0x00, 0x00, 0x1e, 0x00, 0x00, 0x00, 0x02, 0x00, 0x00, 0x00,
  0x1d, 0x00, 0x00, 0x00, 0x07, 0x00, 0x00, 0x00, 0xac, 0xde, 0xff, 0xff,
  0x00, 0x00, 0x00, 0x09, 0x78, 0x00, 0x00, 0x00, 0x1f, 0x00, 0x00, 0x00,
  0x20, 0x00, 0x00, 0x00, 0x80, 0x00, 0x00, 0x00, 0x04, 0x00, 0x00, 0x00,
  0x04, 0x00, 0x00, 0x00, 0xff, 0xff, 0xff, 0xff, 0x4b, 0x00, 0x00, 0x00,
  0x01, 0x00, 0x00, 0x00, 0x10, 0x00, 0x00, 0x00, 0x4b, 0x00, 0x00, 0x00,
  0x73, 0x65, 0x71, 0x75, 0x65, 0x6e, 0x74, 0x69, 0x61, 0x6c, 0x2f, 0x6d,
  0x61, 0x78, 0x5f, 0x70, 0x6f, 0x6f, 0x6c, 0x69, 0x6e, 0x67, 0x31, 0x64,
  0x5f, 0x31, 0x2f, 0x45, 0x78, 0x70, 0x61, 0x6e, 0x64, 0x44, 0x69, 0x6d,
  0x73, 0x3b, 0x73, 0x65, 0x71, 0x75, 0x65, 0x6e, 0x74, 0x69, 0x61, 0x6c,
  0x2f, 0x6d, 0x61, 0x78, 0x5f, 0x70, 0x6f, 0x6f, 0x6c, 0x69, 0x6e, 0x67,
  0x31, 0x64, 0x5f, 0x31, 0x2f, 0x45, 0x78, 0x70, 0x61, 0x6e, 0x64, 0x44,
  0x69, 0x6d, 0x73, 0x00, 0x04, 0x00, 0x00, 0x00, 0x01, 0x00, 0x00, 0x00,
  0x4b, 0x00, 0x00, 0x00, 0x01, 0x00, 0x00, 0x00, 0x10, 0x00, 0x00, 0x00,
  0xd4, 0xde, 0xff, 0xff, 0x18, 0x00, 0x00, 0x00, 0x04, 0x00, 0x00, 0x00,
  0x01, 0x00, 0x00, 0x00, 0x80, 0xff, 0xff, 0xff, 0xff, 0xff, 0xff, 0xff,
  0x00, 0x00, 0x00, 0x00, 0x01, 0x00, 0x00, 0x00, 0xf5, 0xd7, 0xed, 0x3c,
  0xb2, 0xf5, 0xff, 0xff, 0x03, 0x00, 0x00, 0x00, 0x10, 0x00, 0x00, 0x00,
  0x04, 0x00, 0x00, 0x00, 0x01, 0x00, 0x00, 0x00, 0x1d, 0x00, 0x00, 0x00,
  0x02, 0x00, 0x00, 0x00, 0x1c, 0x00, 0x00, 0x00, 0x09, 0x00, 0x00, 0x00,
  0x88, 0xdf, 0xff, 0xff, 0x00, 0x00, 0x00, 0x09, 0xe8, 0x00, 0x00, 0x00,
  0x1e, 0x00, 0x00, 0x00, 0x1c, 0x00, 0x00, 0x00, 0xec, 0x00, 0x00, 0x00,
  0x04, 0x00, 0x00, 0x00, 0x03, 0x00, 0x00, 0x00, 0xff, 0xff, 0xff, 0xff,
  0x4b, 0x00, 0x00, 0x00, 0x10, 0x00, 0x00, 0x00, 0xbd, 0x00, 0x00, 0x00,
  0x73, 0x65, 0x71, 0x75, 0x65, 0x6e, 0x74, 0x69, 0x61, 0x6c, 0x2f, 0x63,
  0x6f, 0x6e, 0x76, 0x31, 0x64, 0x5f, 0x31, 0x2f, 0x52, 0x65, 0x6c, 0x75,
  0x3b, 0x73, 0x65, 0x71, 0x75, 0x65, 0x6e, 0x74, 0x69, 0x61, 0x6c, 0x2f,
  0x63, 0x6f, 0x6e, 0x76, 0x31, 0x64, 0x5f, 0x31, 0x2f, 0x52, 0x65, 0x6c,
  0x75, 0x3b, 0x73, 0x65, 0x71, 0x75, 0x65, 0x6e, 0x74, 0x69, 0x61, 0x6c,
  0x2f, 0x63, 0x6f, 0x6e, 0x76, 0x31, 0x64, 0x5f, 0x31, 0x2f, 0x42, 0x69,
  0x61, 0x73, 0x41, 0x64, 0x64, 0x3b, 0x73, 0x65, 0x71, 0x75, 0x65, 0x6e,
  0x74, 0x69, 0x61, 0x6c, 0x2f, 0x63, 0x6f, 0x6e, 0x76, 0x31, 0x64, 0x5f,
  0x31, 0x2f, 0x42, 0x69, 0x61, 0x73, 0x41, 0x64, 0x64, 0x3b, 0x73, 0x65,
  0x71, 0x75, 0x65, 0x6e, 0x74, 0x69, 0x61, 0x6c, 0x2f, 0x63, 0x6f, 0x6e,
  0x76, 0x31, 0x64, 0x5f, 0x31, 0x2f, 0x63, 0x6f, 0x6e, 0x76, 0x31, 0x64,
  0x2f, 0x53, 0x71, 0x75, 0x65, 0x65, 0x7a, 0x65, 0x3b, 0x73, 0x65, 0x71,
  0x75, 0x65, 0x6e, 0x74, 0x69, 0x61, 0x6c, 0x2f, 0x63, 0x6f, 0x6e, 0x76,
  0x31, 0x64, 0x5f, 0x31, 0x2f, 0x63, 0x6f, 0x6e, 0x76, 0x31, 0x64, 0x2f,
  0x53, 0x71, 0x75, 0x65, 0x65, 0x7a, 0x65, 0x3b, 0x63, 0x6f, 0x6e, 0x76,
  0x31, 0x64, 0x5f, 0x31, 0x2f, 0x62, 0x69, 0x61, 0x73, 0x00, 0x00, 0x00,
  0x03, 0x00, 0x00, 0x00, 0x01, 0x00, 0x00, 0x00, 0x4b, 0x00, 0x00, 0x00,
  0x10, 0x00, 0x00, 0x00, 0x1c, 0xe0, 0xff, 0xff, 0x18, 0x00, 0x00, 0x00,
  0x04, 0x00, 0x00, 0x00, 0x01, 0x00, 0x00, 0x00, 0x80, 0xff, 0xff, 0xff,
  0xff, 0xff, 0xff, 0xff, 0x00, 0x00, 0x00, 0x00, 0x01, 0x00, 0x00, 0x00,
  0xf5, 0xd7, 0xed, 0x3c, 0x22, 0xf6, 0xff, 0xff, 0x00, 0x00, 0x00, 0x01,
  0x05, 0x00, 0x00, 0x00, 0x24, 0x00, 0x00, 0x00, 0x18, 0x00, 0x00, 0x00,
  0x04, 0x00, 0x00, 0x00, 0x94, 0xf9, 0xff, 0xff, 0x01, 0x00, 0x00, 0x00,
  0x01, 0x00, 0x00, 0x00, 0x00, 0x00, 0x00, 0x01, 0x01, 0x00, 0x00, 0x00,
  0x1c, 0x00, 0x00, 0x00, 0x03, 0x00, 0x00, 0x00, 0x1b, 0x00, 0x00, 0x00,
  0x0d, 0x00, 0x00, 0x00, 0x0e, 0x00, 0x00, 0x00, 0xec, 0xe0, 0xff, 0xff,
  0x00, 0x00, 0x00, 0x09, 0x20, 0x01, 0x00, 0x00, 0x1d, 0x00, 0x00, 0x00,
  0x20, 0x00, 0x00, 0x00, 0x28, 0x01, 0x00, 0x00, 0x04, 0x00, 0x00, 0x00,
  0x04, 0x00, 0x00, 0x00, 0xff, 0xff, 0xff, 0xff, 0x01, 0x00, 0x00, 0x00,
  0x4b, 0x00, 0x00, 0x00, 0x10, 0x00, 0x00, 0x00, 0xf3, 0x00, 0x00, 0x00,
  0x73, 0x65, 0x71, 0x75, 0x65, 0x6e, 0x74, 0x69, 0x61, 0x6c, 0x2f, 0x63,
  0x6f, 0x6e, 0x76, 0x31, 0x64, 0x5f, 0x31, 0x2f, 0x52, 0x65, 0x6c, 0x75,
  0x3b, 0x73, 0x65, 0x71, 0x75, 0x65, 0x6e, 0x74, 0x69, 0x61, 0x6c, 0x2f,
  0x63, 0x6f, 0x6e, 0x76, 0x31, 0x64, 0x5f, 0x31, 0x2f, 0x52, 0x65, 0x6c,
  0x75, 0x3b, 0x73, 0x65, 0x71, 0x75, 0x65, 0x6e, 0x74, 0x69, 0x61, 0x6c,
  0x2f, 0x63, 0x6f, 0x6e, 0x76, 0x31, 0x64, 0x5f, 0x31, 0x2f, 0x42, 0x69,
  0x61, 0x73, 0x41, 0x64, 0x64, 0x3b, 0x73, 0x65, 0x71, 0x75, 0x65, 0x6e,
  0x74, 0x69, 0x61, 0x6c, 0x2f, 0x63, 0x6f, 0x6e, 0x76, 0x31, 0x64, 0x5f,
  0x31, 0x2f, 0x42, 0x69, 0x61, 0x73, 0x41, 0x64, 0x64, 0x3b, 0x73, 0x65,
  0x71, 0x75, 0x65, 0x6e, 0x74, 0x69, 0x61, 0x6c, 0x2f, 0x63, 0x6f, 0x6e,
  0x76, 0x31, 0x64, 0x5f, 0x31, 0x2f, 0x63, 0x6f, 0x6e, 0x76, 0x31, 0x64,
  0x2f, 0x53, 0x71, 0x75, 0x65, 0x65, 0x7a, 0x65, 0x3b, 0x73, 0x65, 0x71,
  0x75, 0x65, 0x6e, 0x74, 0x69, 0x61, 0x6c, 0x2f, 0x63, 0x6f, 0x6e, 0x76,
  0x31, 0x64, 0x5f, 0x31, 0x2f, 0x63, 0x6f, 0x6e, 0x76, 0x31, 0x64, 0x2f,
  0x53, 0x71, 0x75, 0x65, 0x65, 0x7a, 0x65, 0x3b, 0x63, 0x6f, 0x6e, 0x76,
  0x31, 0x64, 0x5f, 0x31, 0x2f, 0x62, 0x69, 0x61, 0x73, 0x3b, 0x73, 0x65,
  0x71, 0x75, 0x65, 0x6e, 0x74, 0x69, 0x61, 0x6c, 0x2f, 0x63, 0x6f, 0x6e,
  0x76, 0x31, 0x64, 0x5f, 0x31, 0x2f, 0x63, 0x6f, 0x6e, 0x76, 0x31, 0x64,
  0x3b, 0x73, 0x65, 0x71, 0x75, 0x65, 0x6e, 0x74, 0x69, 0x61, 0x6c, 0x2f,
  0x63, 0x6f, 0x6e, 0x76, 0x31, 0x64, 0x5f, 0x31, 0x2f, 0x63, 0x6f, 0x6e,
  0x76, 0x31, 0x64, 0x00, 0x04, 0x00, 0x00, 0x00, 0x01, 0x00, 0x00, 0x00,
  0x01, 0x00, 0x00, 0x00, 0x4b, 0x00, 0x00, 0x00, 0x10, 0x00, 0x00, 0x00,
  0xbc, 0xe1, 0xff, 0xff, 0x18, 0x00, 0x00, 0x00, 0x04, 0x00, 0x00, 0x00,
  0x01, 0x00, 0x00, 0x00, 0x80, 0xff, 0xff, 0xff, 0xff, 0xff, 0xff, 0xff,
  0x00, 0x00, 0x00, 0x00, 0x01, 0x00, 0x00, 0x00, 0xf5, 0xd7, 0xed, 0x3c,
  0xc2, 0xf7, 0xff, 0xff, 0x00, 0x00, 0x00, 0x34, 0x04, 0x00, 0x00, 0x00,
  0x18, 0x00, 0x00, 0x00, 0x0c, 0x00, 0x00, 0x00, 0x04, 0x00, 0x00, 0x00,
  0xcc, 0xe1, 0xff, 0xff, 0x01, 0x00, 0x00, 0x00, 0x1b, 0x00, 0x00, 0x00,
  0x02, 0x00, 0x00, 0x00, 0x1a, 0x00, 0x00, 0x00, 0x05, 0x00, 0x00, 0x00,
  0x7c, 0xe2, 0xff, 0xff, 0x00, 0x00, 0x00, 0x09, 0x78, 0x00, 0x00, 0x00,
  0x1c, 0x00, 0x00, 0x00, 0x20, 0x00, 0x00, 0x00, 0x80, 0x00, 0x00, 0x00,
  0x04, 0x00, 0x00, 0x00, 0x04, 0x00, 0x00, 0x00, 0xff, 0xff, 0xff, 0xff,
  0x01, 0x00, 0x00, 0x00, 0x4b, 0x00, 0x00, 0x00, 0x08, 0x00, 0x00, 0x00,
  0x4b, 0x00, 0x00, 0x00, 0x73, 0x65, 0x71, 0x75, 0x65, 0x6e, 0x74, 0x69,
  0x61, 0x6c, 0x2f, 0x63, 0x6f, 0x6e, 0x76, 0x31, 0x64, 0x5f, 0x31, 0x2f,
  0x63, 0x6f, 0x6e, 0x76, 0x31, 0x64, 0x2f, 0x45, 0x78, 0x70, 0x61, 0x6e,
  0x64, 0x44, 0x69, 0x6d, 0x73, 0x3b, 0x73, 0x65, 0x71, 0x75, 0x65, 0x6e,
  0x74, 0x69, 0x61, 0x6c, 0x2f, 0x63, 0x6f, 0x6e, 0x76, 0x31, 0x64, 0x5f,
  0x31, 0x2f, 0x63, 0x6f, 0x6e, 0x76, 0x31, 0x64, 0x2f, 0x45, 0x78, 0x70,
  0x61, 0x6e, 0x64, 0x44, 0x69, 0x6d, 0x73, 0x00, 0x04, 0x00, 0x00, 0x00,
  0x01, 0x00, 0x00, 0x00, 0x01, 0x00, 0x00, 0x00, 0x4b, 0x00, 0x00, 0x00,
  0x08, 0x00, 0x00, 0x00, 0xa4, 0xe2, 0xff, 0xff, 0x14, 0x00, 0x00, 0x00,
  0x04, 0x00, 0x00, 0x00, 0x01, 0x00, 0x00, 0x00, 0x80, 0xff, 0xff, 0xff,
  0xff, 0xff, 0xff, 0xff, 0x01, 0x00, 0x00, 0x00, 0x38, 0xb7, 0xbd, 0x3c,
  0x7e, 0xf9, 0xff, 0xff, 0x03, 0x00, 0x00, 0x00, 0x10, 0x00, 0x00, 0x00,
  0x04, 0x00, 0x00, 0x00, 0x01, 0x00, 0x00, 0x00, 0x1a, 0x00, 0x00, 0x00,
  0x02, 0x00, 0x00, 0x00, 0x19, 0x00, 0x00, 0x00, 0x08, 0x00, 0x00, 0x00,
  0x54, 0xe3, 0xff, 0xff, 0x00, 0x00, 0x00, 0x09, 0x6c, 0x00, 0x00, 0x00,
  0x1b, 0x00, 0x00, 0x00, 0x1c, 0x00, 0x00, 0x00, 0x70, 0x00, 0x00, 0x00,
  0x04, 0x00, 0x00, 0x00, 0x03, 0x00, 0x00, 0x00, 0xff, 0xff, 0xff, 0xff,
  0x4b, 0x00, 0x00, 0x00, 0x08, 0x00, 0x00, 0x00, 0x42, 0x00, 0x00, 0x00,
  0x73, 0x65, 0x71, 0x75, 0x65, 0x6e, 0x74, 0x69, 0x61, 0x6c, 0x2f, 0x6d,
  0x61, 0x78, 0x5f, 0x70, 0x6f, 0x6f, 0x6c, 0x69, 0x6e, 0x67, 0x31, 0x64,
  0x2f, 0x53, 0x71, 0x75, 0x65, 0x65, 0x7a, 0x65, 0x3b, 0x73, 0x65, 0x71,
  0x75, 0x65, 0x6e, 0x74, 0x69, 0x61, 0x6c, 0x2f, 0x6d, 0x61, 0x78, 0x5f,
  0x70, 0x6f, 0x6f, 0x6c, 0x69, 0x6e, 0x67, 0x31, 0x64, 0x2f, 0x53, 0x71,
  0x75, 0x65, 0x65, 0x7a, 0x65, 0x31, 0x00, 0x00, 0x03, 0x00, 0x00, 0x00,
  0x01, 0x00, 0x00, 0x00, 0x4b, 0x00, 0x00, 0x00, 0x08, 0x00, 0x00, 0x00,
  0x6c, 0xe3, 0xff, 0xff, 0x14, 0x00, 0x00, 0x00, 0x04, 0x00, 0x00, 0x00,
  0x01, 0x00, 0x00, 0x00, 0x80, 0xff, 0xff, 0xff, 0xff, 0xff, 0xff, 0xff,
  0x01, 0x00, 0x00, 0x00, 0x38, 0xb7, 0xbd, 0x3c, 0xaa, 0xf8, 0xff, 0xff,
  0x00, 0x00, 0x00, 0x05, 0x06, 0x00, 0x00, 0x00, 0x38, 0x00, 0x00, 0x00,
  0x2c, 0x00, 0x00, 0x00, 0x14, 0x00, 0x00, 0x00, 0x00, 0x00, 0x0e, 0x00,
  0x14, 0x00, 0x00, 0x00, 0x10, 0x00, 0x0c, 0x00, 0x08, 0x00, 0x04, 0x00,
  0x0e, 0x00, 0x00, 0x00, 0x02, 0x00, 0x00, 0x00, 0x01, 0x00, 0x00, 0x00,
  0x02, 0x00, 0x00, 0x00, 0x01, 0x00, 0x00, 0x00, 0x01, 0x00, 0x00, 0x00,
  0x19, 0x00, 0x00, 0x00, 0x01, 0x00, 0x00, 0x00, 0x18, 0x00, 0x00, 0x00,
  0xe0, 0xf7, 0xff, 0xff, 0x11, 0x00, 0x00, 0x00, 0x00, 0x00, 0x00, 0x11,
  0x02, 0x00, 0x00, 0x00, 0x54, 0xe4, 0xff, 0xff, 0x00, 0x00, 0x00, 0x09,
  0x70, 0x00, 0x00, 0x00, 0x1a, 0x00, 0x00, 0x00, 0x20, 0x00, 0x00, 0x00,
  0x78, 0x00, 0x00, 0x00, 0x04, 0x00, 0x00, 0x00, 0x04, 0x00, 0x00, 0x00,
  0xff, 0xff, 0xff, 0xff, 0x4b, 0x00, 0x00, 0x00, 0x01, 0x00, 0x00, 0x00,
  0x08, 0x00, 0x00, 0x00, 0x41, 0x00, 0x00, 0x00, 0x73, 0x65, 0x71, 0x75,
  0x65, 0x6e, 0x74, 0x69, 0x61, 0x6c, 0x2f, 0x6d, 0x61, 0x78, 0x5f, 0x70,
  0x6f, 0x6f, 0x6c, 0x69, 0x6e, 0x67, 0x31, 0x64, 0x2f, 0x4d, 0x61, 0x78,
  0x50, 0x6f, 0x6f, 0x6c, 0x3b, 0x73, 0x65, 0x71, 0x75, 0x65, 0x6e, 0x74,
  0x69, 0x61, 0x6c, 0x2f, 0x6d, 0x61, 0x78, 0x5f, 0x70, 0x6f, 0x6f, 0x6c,
  0x69, 0x6e, 0x67, 0x31, 0x64, 0x2f, 0x4d, 0x61, 0x78, 0x50, 0x6f, 0x6f,
  0x6c, 0x00, 0x00, 0x00, 0x04, 0x00, 0x00, 0x00, 0x01, 0x00, 0x00, 0x00,
  0x4b, 0x00, 0x00, 0x00, 0x01, 0x00, 0x00, 0x00, 0x08, 0x00, 0x00, 0x00,
  0x74, 0xe4, 0xff, 0xff, 0x14, 0x00, 0x00, 0x00, 0x04, 0x00, 0x00, 0x00,
  0x01, 0x00, 0x00, 0x00, 0x80, 0xff, 0xff, 0xff, 0xff, 0xff, 0xff, 0xff,
  0x01, 0x00, 0x00, 0x00, 0x38, 0xb7, 0xbd, 0x3c, 0x76, 0xfa, 0xff, 0xff,
  0x00, 0x00, 0x00, 0x34, 0x04, 0x00, 0x00, 0x00, 0x18, 0x00, 0x00, 0x00,
  0x0c, 0x00, 0x00, 0x00, 0x04, 0x00, 0x00, 0x00, 0x80, 0xe4, 0xff, 0xff,
  0x01, 0x00, 0x00, 0x00, 0x18, 0x00, 0x00, 0x00, 0x02, 0x00, 0x00, 0x00,
  0x17, 0x00, 0x00, 0x00, 0x07, 0x00, 0x00, 0x00, 0x30, 0xe5, 0xff, 0xff,
  0x00, 0x00, 0x00, 0x09, 0x74, 0x00, 0x00, 0x00, 0x19, 0x00, 0x00, 0x00,
  0x20, 0x00, 0x00, 0x00, 0x7c, 0x00, 0x00, 0x00, 0x04, 0x00, 0x00, 0x00,
  0x04, 0x00, 0x00, 0x00, 0xff, 0xff, 0xff, 0xff, 0x96, 0x00, 0x00, 0x00,
  0x01, 0x00, 0x00, 0x00, 0x08, 0x00, 0x00, 0x00, 0x47, 0x00, 0x00, 0x00,
  0x73, 0x65, 0x71, 0x75, 0x65, 0x6e, 0x74, 0x69, 0x61, 0x6c, 0x2f, 0x6d,
  0x61, 0x78, 0x5f, 0x70, 0x6f, 0x6f, 0x6c, 0x69, 0x6e, 0x67, 0x31, 0x64,
  0x2f, 0x45, 0x78, 0x70, 0x61, 0x6e, 0x64, 0x44, 0x69, 0x6d, 0x73, 0x3b,
  0x73, 0x65, 0x71, 0x75, 0x65, 0x6e, 0x74, 0x69, 0x61, 0x6c, 0x2f, 0x6d,
  0x61, 0x78, 0x5f, 0x70, 0x6f, 0x6f, 0x6c, 0x69, 0x6e, 0x67, 0x31, 0x64,
  0x2f, 0x45, 0x78, 0x70, 0x61, 0x6e, 0x64, 0x44, 0x69, 0x6d, 0x73, 0x00,
  0x04, 0x00, 0x00, 0x00, 0x01, 0x00, 0x00, 0x00, 0x96, 0x00, 0x00, 0x00,
  0x01, 0x00, 0x00, 0x00, 0x08, 0x00, 0x00, 0x00, 0x54, 0xe5, 0xff, 0xff,
  0x18, 0x00, 0x00, 0x00, 0x04, 0x00, 0x00, 0x00, 0x01, 0x00, 0x00, 0x00,
  0x80, 0xff, 0xff, 0xff, 0xff, 0xff, 0xff, 0xff, 0x00, 0x00, 0x00, 0x00,
  0x01, 0x00, 0x00, 0x00, 0x38, 0xb7, 0xbd, 0x3c, 0x32, 0xfc, 0xff, 0xff,
  0x03, 0x00, 0x00, 0x00, 0x10, 0x00, 0x00, 0x00, 0x04, 0x00, 0x00, 0x00,
  0x01, 0x00, 0x00, 0x00, 0x17, 0x00, 0x00, 0x00, 0x02, 0x00, 0x00, 0x00,
  0x16, 0x00, 0x00, 0x00, 0x06, 0x00, 0x00, 0x00, 0x08, 0xe6, 0xff, 0xff,
  0x00, 0x00, 0x00, 0x09, 0xd8, 0x00, 0x00, 0x00, 0x18, 0x00, 0x00, 0x00,
  0x1c, 0x00, 0x00, 0x00, 0xdc, 0x00, 0x00, 0x00, 0x04, 0x00, 0x00, 0x00,
  0x03, 0x00, 0x00, 0x00, 0xff, 0xff, 0xff, 0xff, 0x96, 0x00, 0x00, 0x00,
  0x08, 0x00, 0x00, 0x00, 0xaf, 0x00, 0x00, 0x00, 0x73, 0x65, 0x71, 0x75,
  0x65, 0x6e, 0x74, 0x69, 0x61, 0x6c, 0x2f, 0x63, 0x6f, 0x6e, 0x76, 0x31,
  0x64, 0x2f, 0x52, 0x65, 0x6c, 0x75, 0x3b, 0x73, 0x65, 0x71, 0x75, 0x65,
  0x6e, 0x74, 0x69, 0x61, 0x6c, 0x2f, 0x63, 0x6f, 0x6e, 0x76, 0x31, 0x64,
  0x2f, 0x52, 0x65, 0x6c, 0x75, 0x3b, 0x73, 0x65, 0x71, 0x75, 0x65, 0x6e,
  0x74, 0x69, 0x61, 0x6c, 0x2f, 0x63, 0x6f, 0x6e, 0x76, 0x31, 0x64, 0x2f,
  0x42, 0x69, 0x61, 0x73, 0x41, 0x64, 0x64, 0x3b, 0x73, 0x65, 0x71, 0x75,
  0x65, 0x6e, 0x74, 0x69, 0x61, 0x6c, 0x2f, 0x63, 0x6f, 0x6e, 0x76, 0x31,
  0x64, 0x2f, 0x42, 0x69, 0x61, 0x73, 0x41, 0x64, 0x64, 0x3b, 0x73, 0x65,
  0x71, 0x75, 0x65, 0x6e, 0x74, 0x69, 0x61, 0x6c, 0x2f, 0x63, 0x6f, 0x6e,
  0x76, 0x31, 0x64, 0x2f, 0x63, 0x6f, 0x6e, 0x76, 0x31, 0x64, 0x2f, 0x53,
  0x71, 0x75, 0x65, 0x65, 0x7a, 0x65, 0x3b, 0x73, 0x65, 0x71, 0x75, 0x65,
  0x6e, 0x74, 0x69, 0x61, 0x6c, 0x2f, 0x63, 0x6f, 0x6e, 0x76, 0x31, 0x64,
  0x2f, 0x63, 0x6f, 0x6e, 0x76, 0x31, 0x64, 0x2f, 0x53, 0x71, 0x75, 0x65,
  0x65, 0x7a, 0x65, 0x3b, 0x63, 0x6f, 0x6e, 0x76, 0x31, 0x64, 0x2f, 0x62,
  0x69, 0x61, 0x73, 0x00, 0x03, 0x00, 0x00, 0x00, 0x01, 0x00, 0x00, 0x00,
  0x96, 0x00, 0x00, 0x00, 0x08, 0x00, 0x00, 0x00, 0x8c, 0xe6, 0xff, 0xff,
  0x14, 0x00, 0x00, 0x00, 0x04, 0x00, 0x00, 0x00, 0x01, 0x00, 0x00, 0x00,
  0x80, 0xff, 0xff, 0xff, 0xff, 0xff, 0xff, 0xff, 0x01, 0x00, 0x00, 0x00,
  0x38, 0xb7, 0xbd, 0x3c, 0x8e, 0xfc, 0xff, 0xff, 0x00, 0x00, 0x00, 0x01,
  0x05, 0x00, 0x00, 0x00, 0x30, 0x00, 0x00, 0x00, 0x24, 0x00, 0x00, 0x00,
  0x10, 0x00, 0x00, 0x00, 0x0c, 0x00, 0x10, 0x00, 0x00, 0x00, 0x04, 0x00,
  0x08, 0x00, 0x0f, 0x00, 0x0c, 0x00, 0x00, 0x00, 0x01, 0x00, 0x00, 0x00,
  0x01, 0x00, 0x00, 0x00, 0x00, 0x00, 0x00, 0x01, 0x01, 0x00, 0x00, 0x00,
  0x16, 0x00, 0x00, 0x00, 0x03, 0x00, 0x00, 0x00, 0x15, 0x00, 0x00, 0x00,
  0x0b, 0x00, 0x00, 0x00, 0x0c, 0x00, 0x00, 0x00, 0x00, 0xfb, 0xff, 0xff,
  0x03, 0x00, 0x00, 0x00, 0x00, 0x00, 0x00, 0x03, 0x03, 0x00, 0x00, 0x00,
  0x74, 0xe7, 0xff, 0xff, 0x00, 0x00, 0x00, 0x09, 0x10, 0x01, 0x00, 0x00,
  0x17, 0x00, 0x00, 0x00, 0x20, 0x00, 0x00, 0x00, 0x18, 0x01, 0x00, 0x00,
  0x04, 0x00, 0x00, 0x00, 0x04, 0x00, 0x00, 0x00, 0xff, 0xff, 0xff, 0xff,
  0x01, 0x00, 0x00, 0x00, 0x96, 0x00, 0x00, 0x00, 0x08, 0x00, 0x00, 0x00,
  0xe1, 0x00, 0x00, 0x00, 0x73, 0x65, 0x71, 0x75, 0x65, 0x6e, 0x74, 0x69,
  0x61, 0x6c, 0x2f, 0x63, 0x6f, 0x6e, 0x76, 0x31, 0x64, 0x2f, 0x52, 0x65,
  0x6c, 0x75, 0x3b, 0x73, 0x65, 0x71, 0x75, 0x65, 0x6e, 0x74, 0x69, 0x61,
  0x6c, 0x2f, 0x63, 0x6f, 0x6e, 0x76, 0x31, 0x64, 0x2f, 0x52, 0x65, 0x6c,
  0x75, 0x3b, 0x73, 0x65, 0x71, 0x75, 0x65, 0x6e, 0x74, 0x69, 0x61, 0x6c,
  0x2f, 0x63, 0x6f, 0x6e, 0x76, 0x31, 0x64, 0x2f, 0x42, 0x69, 0x61, 0x73,
  0x41, 0x64, 0x64, 0x3b, 0x73, 0x65, 0x71, 0x75, 0x65, 0x6e, 0x74, 0x69,
  0x61, 0x6c, 0x2f, 0x63, 0x6f, 0x6e, 0x76, 0x31, 0x64, 0x2f, 0x42, 0x69,
  0x61, 0x73, 0x41, 0x64, 0x64, 0x3b, 0x73, 0x65, 0x71, 0x75, 0x65, 0x6e,
  0x74, 0x69, 0x61, 0x6c, 0x2f, 0x63, 0x6f, 0x6e, 0x76, 0x31, 0x64, 0x2f,
  0x63, 0x6f, 0x6e, 0x76, 0x31, 0x64, 0x2f, 0x53, 0x71, 0x75, 0x65, 0x65,
  0x7a, 0x65, 0x3b, 0x73, 0x65, 0x71, 0x75, 0x65, 0x6e, 0x74, 0x69, 0x61,
  0x6c, 0x2f, 0x63, 0x6f, 0x6e, 0x76, 0x31, 0x64, 0x2f, 0x63, 0x6f, 0x6e,
  0x76, 0x31, 0x64, 0x2f, 0x53, 0x71, 0x75, 0x65, 0x65, 0x7a, 0x65, 0x3b,
  0x63, 0x6f, 0x6e, 0x76, 0x31, 0x64, 0x2f, 0x62, 0x69, 0x61, 0x73, 0x3b,
  0x73, 0x65, 0x71, 0x75, 0x65, 0x6e, 0x74, 0x69, 0x61, 0x6c, 0x2f, 0x63,
  0x6f, 0x6e, 0x76, 0x31, 0x64, 0x2f, 0x63, 0x6f, 0x6e, 0x76, 0x31, 0x64,
  0x3b, 0x73, 0x65, 0x71, 0x75, 0x65, 0x6e, 0x74, 0x69, 0x61, 0x6c, 0x2f,
  0x63, 0x6f, 0x6e, 0x76, 0x31, 0x64, 0x2f, 0x63, 0x6f, 0x6e, 0x76, 0x31,
  0x64, 0x00, 0x00, 0x00, 0x04, 0x00, 0x00, 0x00, 0x01, 0x00, 0x00, 0x00,
  0x01, 0x00, 0x00, 0x00, 0x96, 0x00, 0x00, 0x00, 0x08, 0x00, 0x00, 0x00,
  0x34, 0xe8, 0xff, 0xff, 0x14, 0x00, 0x00, 0x00, 0x04, 0x00, 0x00, 0x00,
  0x01, 0x00, 0x00, 0x00, 0x80, 0xff, 0xff, 0xff, 0xff, 0xff, 0xff, 0xff,
  0x01, 0x00, 0x00, 0x00, 0x38, 0xb7, 0xbd, 0x3c, 0x36, 0xfe, 0xff, 0xff,
  0x00, 0x00, 0x00, 0x34, 0x04, 0x00, 0x00, 0x00, 0x18, 0x00, 0x00, 0x00,
  0x0c, 0x00, 0x00, 0x00, 0x04, 0x00, 0x00, 0x00, 0x40, 0xe8, 0xff, 0xff,
  0x01, 0x00, 0x00, 0x00, 0x15, 0x00, 0x00, 0x00, 0x02, 0x00, 0x00, 0x00,
  0x14, 0x00, 0x00, 0x00, 0x05, 0x00, 0x00, 0x00, 0x8c, 0xfc, 0xff, 0xff,
  0x46, 0x00, 0x00, 0x00, 0x00, 0x00, 0x00, 0x46, 0x01, 0x00, 0x00, 0x00,
  0x00, 0xe9, 0xff, 0xff, 0x00, 0x00, 0x00, 0x09, 0x74, 0x00, 0x00, 0x00,
  0x16, 0x00, 0x00, 0x00, 0x20, 0x00, 0x00, 0x00, 0x7c, 0x00, 0x00, 0x00,
  0x04, 0x00, 0x00, 0x00, 0x04, 0x00, 0x00, 0x00, 0xff, 0xff, 0xff, 0xff,
  0x01, 0x00, 0x00, 0x00, 0x96, 0x00, 0x00, 0x00, 0x1a, 0x00, 0x00, 0x00,
  0x47, 0x00, 0x00, 0x00, 0x73, 0x65, 0x71, 0x75, 0x65, 0x6e, 0x74, 0x69,
  0x61, 0x6c, 0x2f, 0x63, 0x6f, 0x6e, 0x76, 0x31, 0x64, 0x2f, 0x63, 0x6f,
  0x6e, 0x76, 0x31, 0x64, 0x2f, 0x45, 0x78, 0x70, 0x61, 0x6e, 0x64, 0x44,
  0x69, 0x6d, 0x73, 0x3b, 0x73, 0x65, 0x71, 0x75, 0x65, 0x6e, 0x74, 0x69,
  0x61, 0x6c, 0x2f, 0x63, 0x6f, 0x6e, 0x76, 0x31, 0x64, 0x2f, 0x63, 0x6f,
  0x6e, 0x76, 0x31, 0x64, 0x2f, 0x45, 0x78, 0x70, 0x61, 0x6e, 0x64, 0x44,
  0x69, 0x6d, 0x73, 0x00, 0x04, 0x00, 0x00, 0x00, 0x01, 0x00, 0x00, 0x00,
  0x01, 0x00, 0x00, 0x00, 0x96, 0x00, 0x00, 0x00, 0x1a, 0x00, 0x00, 0x00,
  0x24, 0xe9, 0xff, 0xff, 0x14, 0x00, 0x00, 0x00, 0x04, 0x00, 0x00, 0x00,
  0x01, 0x00, 0x00, 0x00, 0x09, 0x00, 0x00, 0x00, 0x00, 0x00, 0x00, 0x00,
  0x01, 0x00, 0x00, 0x00, 0xa1, 0x18, 0x10, 0x3e, 0x00, 0x00, 0x0a, 0x00,
  0x10, 0x00, 0x04, 0x00, 0x08, 0x00, 0x0c, 0x00, 0x0a, 0x00, 0x00, 0x00,
  0x03, 0x00, 0x00, 0x00, 0x10, 0x00, 0x00, 0x00, 0x04, 0x00, 0x00, 0x00,
  0x01, 0x00, 0x00, 0x00, 0x14, 0x00, 0x00, 0x00, 0x02, 0x00, 0x00, 0x00,
  0x00, 0x00, 0x00, 0x00, 0x13, 0x00, 0x00, 0x00, 0x7c, 0xfd, 0xff, 0xff,
  0x16, 0x00, 0x00, 0x00, 0x00, 0x00, 0x00, 0x16, 0x01, 0x00, 0x00, 0x00,
  0xf0, 0xe9, 0xff, 0xff, 0x00, 0x00, 0x00, 0x09, 0x60, 0x00, 0x00, 0x00,
  0x15, 0x00, 0x00, 0x00, 0x1c, 0x00, 0x00, 0x00, 0x64, 0x00, 0x00, 0x00,
  0x04, 0x00, 0x00, 0x00, 0x03, 0x00, 0x00, 0x00, 0xff, 0xff, 0xff, 0xff,
  0x96, 0x00, 0x00, 0x00, 0x1a, 0x00, 0x00, 0x00, 0x35, 0x00, 0x00, 0x00,
  0x73, 0x65, 0x71, 0x75, 0x65, 0x6e, 0x74, 0x69, 0x61, 0x6c, 0x2f, 0x72,
  0x65, 0x73, 0x68, 0x61, 0x70, 0x65, 0x2f, 0x52, 0x65, 0x73, 0x68, 0x61,
  0x70, 0x65, 0x3b, 0x73, 0x65, 0x71, 0x75, 0x65, 0x6e, 0x74, 0x69, 0x61,
  0x6c, 0x2f, 0x72, 0x65, 0x73, 0x68, 0x61, 0x70, 0x65, 0x2f, 0x52, 0x65,
  0x73, 0x68, 0x61, 0x70, 0x65, 0x00, 0x00, 0x00, 0x03, 0x00, 0x00, 0x00,
  0x01, 0x00, 0x00, 0x00, 0x96, 0x00, 0x00, 0x00, 0x1a, 0x00, 0x00, 0x00,
  0xfc, 0xe9, 0xff, 0xff, 0x14, 0x00, 0x00, 0x00, 0x04, 0x00, 0x00, 0x00,
  0x01, 0x00, 0x00, 0x00, 0x09, 0x00, 0x00, 0x00, 0x00, 0x00, 0x00, 0x00,
  0x01, 0x00, 0x00, 0x00, 0xa1, 0x18, 0x10, 0x3e, 0x00, 0x00, 0x0e, 0x00,
  0x18, 0x00, 0x08, 0x00, 0x0c, 0x00, 0x10, 0x00, 0x07, 0x00, 0x14, 0x00,
  0x0e, 0x00, 0x00, 0x00, 0x00, 0x00, 0x00, 0x3b, 0x02, 0x00, 0x00, 0x00,
  0x1c, 0x00, 0x00, 0x00, 0x10, 0x00, 0x00, 0x00, 0x04, 0x00, 0x00, 0x00,
  0x4e, 0xeb, 0xff, 0xff, 0x03, 0x00, 0x00, 0x00, 0x01, 0x00, 0x00, 0x00,
  0x13, 0x00, 0x00, 0x00, 0x03, 0x00, 0x00, 0x00, 0x12, 0x00, 0x00, 0x00,
  0x03, 0x00, 0x00, 0x00, 0x04, 0x00, 0x00, 0x00, 0x6c, 0xfe, 0xff, 0xff,
  0x53, 0x00, 0x00, 0x00, 0x00, 0x00, 0x00, 0x53, 0x01, 0x00, 0x00, 0x00,
  0x66, 0xeb, 0xff, 0xff, 0x00, 0x00, 0x00, 0x02, 0x58, 0x00, 0x00, 0x00,
  0x14, 0x00, 0x00, 0x00, 0x08, 0x00, 0x00, 0x00, 0x54, 0x00, 0x00, 0x00,
  0x41, 0x00, 0x00, 0x00, 0x73, 0x65, 0x71, 0x75, 0x65, 0x6e, 0x74, 0x69,
  0x61, 0x6c, 0x2f, 0x72, 0x65, 0x73, 0x68, 0x61, 0x70, 0x65, 0x2f, 0x52,
  0x65, 0x73, 0x68, 0x61, 0x70, 0x65, 0x2f, 0x73, 0x68, 0x61, 0x70, 0x65,
  0x3b, 0x73, 0x65, 0x71, 0x75, 0x65, 0x6e, 0x74, 0x69, 0x61, 0x6c, 0x2f,
  0x72, 0x65, 0x73, 0x68, 0x61, 0x70, 0x65, 0x2f, 0x52, 0x65, 0x73, 0x68,
  0x61, 0x70, 0x65, 0x2f, 0x73, 0x68, 0x61, 0x70, 0x65, 0x00, 0x00, 0x00,
  0x01, 0x00, 0x00, 0x00, 0x03, 0x00, 0x00, 0x00, 0xf0, 0xeb, 0xff, 0xff,
  0x00, 0x00, 0x0e, 0x00, 0x1a, 0x00, 0x08, 0x00, 0x0c, 0x00, 0x10, 0x00,
  0x07, 0x00, 0x14, 0x00, 0x0e, 0x00, 0x00, 0x00, 0x00, 0x00, 0x00, 0x20,
  0x01, 0x00, 0x00, 0x00, 0x2c, 0x00, 0x00, 0x00, 0x20, 0x00, 0x00, 0x00,
  0x14, 0x00, 0x00, 0x00, 0x00, 0x00, 0x0e, 0x00, 0x08, 0x00, 0x00, 0x00,
  0x00, 0x00, 0x00, 0x00, 0x00, 0x00, 0x04, 0x00, 0x0e, 0x00, 0x00, 0x00,
  0x01, 0x00, 0x00, 0x00, 0x01, 0x00, 0x00, 0x00, 0x12, 0x00, 0x00, 0x00,
  0x04, 0x00, 0x00, 0x00, 0x11, 0x00, 0x00, 0x00, 0x01, 0x00, 0x00, 0x00,
  0x02, 0x00, 0x00, 0x00, 0x02, 0x00, 0x00, 0x00, 0x44, 0xff, 0xff, 0xff,
  0x2d, 0x00, 0x00, 0x00, 0x00, 0x00, 0x00, 0x2d, 0x01, 0x00, 0x00, 0x00,
  0x3e, 0xec, 0xff, 0xff, 0x00, 0x00, 0x00, 0x02, 0x58, 0x00, 0x00, 0x00,
  0x13, 0x00, 0x00, 0x00, 0x08, 0x00, 0x00, 0x00, 0x50, 0x00, 0x00, 0x00,
  0x41, 0x00, 0x00, 0x00, 0x73, 0x65, 0x71, 0x75, 0x65, 0x6e, 0x74, 0x69,
  0x61, 0x6c, 0x2f, 0x72, 0x65, 0x73, 0x68, 0x61, 0x70, 0x65, 0x2f, 0x73,
  0x74, 0x72, 0x69, 0x64, 0x65, 0x64, 0x5f, 0x73, 0x6c, 0x69, 0x63, 0x65,
  0x3b, 0x73, 0x65, 0x71, 0x75, 0x65, 0x6e, 0x74, 0x69, 0x61, 0x6c, 0x2f,
  0x72, 0x65, 0x73, 0x68, 0x61, 0x70, 0x65, 0x2f, 0x73, 0x74, 0x72, 0x69,
  0x64, 0x65, 0x64, 0x5f, 0x73, 0x6c, 0x69, 0x63, 0x65, 0x00, 0x00, 0x00,
  0x00, 0x00, 0x00, 0x00, 0xc4, 0xec, 0xff, 0xff, 0x00, 0x00, 0x0e, 0x00,
  0x16, 0x00, 0x00, 0x00, 0x08, 0x00, 0x0c, 0x00, 0x07, 0x00, 0x10, 0x00,
  0x0e, 0x00, 0x00, 0x00, 0x00, 0x00, 0x00, 0x37, 0x24, 0x00, 0x00, 0x00,
  0x18, 0x00, 0x00, 0x00, 0x0c, 0x00, 0x00, 0x00, 0x00, 0x00, 0x06, 0x00,
  0x08, 0x00, 0x07, 0x00, 0x06, 0x00, 0x00, 0x00, 0x00, 0x00, 0x00, 0x02,
  0x01, 0x00, 0x00, 0x00, 0x11, 0x00, 0x00, 0x00, 0x01, 0x00, 0x00, 0x00,
  0x00, 0x00, 0x00, 0x00, 0x0c, 0x00, 0x10, 0x00, 0x0b, 0x00, 0x00, 0x00,
  0x0c, 0x00, 0x04, 0x00, 0x0c, 0x00, 0x00, 0x00, 0x4d, 0x00, 0x00, 0x00,
  0x00, 0x00, 0x00, 0x4d, 0x01, 0x00, 0x00, 0x00, 0x06, 0xed, 0xff, 0xff,
  0x00, 0x00, 0x00, 0x02, 0x48, 0x00, 0x00, 0x00, 0x12, 0x00, 0x00, 0x00,
  0x08, 0x00, 0x00, 0x00, 0x44, 0x00, 0x00, 0x00, 0x31, 0x00, 0x00, 0x00,
  0x73, 0x65, 0x71, 0x75, 0x65, 0x6e, 0x74, 0x69, 0x61, 0x6c, 0x2f, 0x72,
  0x65, 0x73, 0x68, 0x61, 0x70, 0x65, 0x2f, 0x53, 0x68, 0x61, 0x70, 0x65,
  0x3b, 0x73, 0x65, 0x71, 0x75, 0x65, 0x6e, 0x74, 0x69, 0x61, 0x6c, 0x2f,
  0x72, 0x65, 0x73, 0x68, 0x61, 0x70, 0x65, 0x2f, 0x53, 0x68, 0x61, 0x70,
  0x65, 0x00, 0x00, 0x00, 0x01, 0x00, 0x00, 0x00, 0x02, 0x00, 0x00, 0x00,
  0x40, 0xec, 0xff, 0xff, 0x7a, 0xed, 0xff, 0xff, 0x04, 0x00, 0x00, 0x00,
  0x08, 0x00, 0x00, 0x00, 0xe6, 0xfd, 0xff, 0xff, 0x1a, 0x02, 0x00, 0x00,
  0x76, 0xed, 0xff, 0xff, 0x00, 0x00, 0x00, 0x02, 0x20, 0x00, 0x00, 0x00,
  0x11, 0x00, 0x00, 0x00, 0x08, 0x00, 0x00, 0x00, 0x1c, 0x00, 0x00, 0x00,
  0x0b, 0x00, 0x00, 0x00, 0x79, 0x5f, 0x70, 0x72, 0x65, 0x64, 0x2f, 0x62,
  0x69, 0x61, 0x73, 0x00, 0x01, 0x00, 0x00, 0x00, 0x02, 0x00, 0x00, 0x00,
  0xb4, 0xec, 0xff, 0xff, 0x14, 0x00, 0x00, 0x00, 0x04, 0x00, 0x00, 0x00,
  0x01, 0x00, 0x00, 0x00, 0x00, 0x00, 0x00, 0x00, 0x00, 0x00, 0x00, 0x00,
  0x01, 0x00, 0x00, 0x00, 0x67, 0x97, 0xa6, 0x38, 0xde, 0xed, 0xff, 0xff,
  0x04, 0x00, 0x00, 0x00, 0xc0, 0x04, 0x00, 0x00, 0xcb, 0xb8, 0x30, 0xe5,
  0x0e, 0xf4, 0xdf, 0xb9, 0x27, 0x0c, 0x06, 0xfb, 0x11, 0xaa, 0xdf, 0x05,
  0xd4, 0xdf, 0xe3, 0xe5, 0x02, 0xcb, 0x23, 0x02, 0x0d, 0x01, 0xfd, 0xee,
  0x22, 0xe9, 0xeb, 0x1b, 0x88, 0xb2, 0xfe, 0x16, 0x39, 0xe7, 0x11, 0xc1,
  0x13, 0x05, 0xe9, 0xcb, 0xf0, 0xd4, 0xeb, 0xf9, 0xd3, 0xb6, 0x17, 0xde,
  0x0f, 0xe5, 0xd8, 0xab, 0x23, 0xdd, 0xe0, 0xfc, 0x13, 0xfd, 0x0c, 0x02,
  0x2c, 0x20, 0x0b, 0x3e, 0x2d, 0x22, 0x0e, 0x08, 0x2a, 0x0c, 0x76, 0xea,
  0x34, 0xfe, 0xf9, 0x16, 0x15, 0xeb, 0x23, 0x25, 0x75, 0x00, 0xfb, 0x22,
  0x24, 0x3a, 0x5b, 0xfe, 0x2e, 0xe5, 0xdd, 0x4d, 0x3c, 0x1b, 0x30, 0x24,
  0x52, 0xee, 0xf7, 0x42, 0x2c, 0x68, 0x38, 0x30, 0x4e, 0xf5, 0xec, 0x32,
  0xe9, 0xdc, 0x36, 0xcb, 0x0a, 0x4c, 0xef, 0xda, 0x35, 0x35, 0x01, 0x06,
  0x31, 0x2f, 0x05, 0x14, 0xcd, 0xe2, 0xfe, 0xc1, 0xe0, 0x01, 0xf0, 0xf6,
  0x0b, 0x08, 0xc4, 0x0d, 0x55, 0xf6, 0x38, 0x14, 0xe5, 0x31, 0x12, 0x0b,
  0xe7, 0x34, 0x04, 0x0b, 0x47, 0x1a, 0xd6, 0x24, 0xf5, 0x01, 0x4a, 0xe4,
  0xfb, 0xe7, 0x0c, 0xb2, 0x37, 0x3b, 0x0a, 0xfd, 0x13, 0x0a, 0x5d, 0x16,
  0xe1, 0xe8, 0x15, 0x04, 0x47, 0x12, 0x1d, 0xa5, 0x2c, 0x1d, 0x0b, 0xe3,
  0xf1, 0x10, 0x22, 0x25, 0x17, 0xee, 0x17, 0x3f, 0xe3, 0xe9, 0xd3, 0x21,
  0x38, 0x1d, 0x06, 0xfd, 0x0a, 0xdf, 0xfe, 0x10, 0x29, 0xbb, 0xf1, 0x1e,
  0x38, 0x21, 0xcd, 0x0a, 0x41, 0x23, 0xfe, 0xd2, 0x33, 0x0b, 0x33, 0x0a,
  0xf4, 0x1e, 0xd2, 0x0d, 0x16, 0xf4, 0x3e, 0x08, 0xf1, 0x40, 0xf0, 0xf4,
  0x1f, 0x2a, 0x08, 0xf2, 0x59, 0x14, 0xf6, 0x11, 0xdb, 0xf9, 0x09, 0xe3,
  0xd4, 0x31, 0xd2, 0xe3, 0x07, 0x13, 0xf9, 0xf7, 0x45, 0x06, 0x00, 0xf5,
  0x1c, 0x3c, 0x13, 0xd5, 0xee, 0x6e, 0x15, 0x16, 0x28, 0x20, 0x3f, 0x1b,
  0x22, 0xfe, 0x26, 0x08, 0x0c, 0xdd, 0xf0, 0xc3, 0xee, 0x27, 0xdd, 0xda,
  0x27, 0x0d, 0xa4, 0x0c, 0x1d, 0x02, 0x0a, 0xf0, 0xab, 0xe5, 0xfb, 0xe7,
  0xb9, 0x09, 0xe7, 0xed, 0xfa, 0x05, 0xa1, 0xf7, 0x0d, 0xf6, 0xf1, 0xc8,
  0xea, 0xac, 0xde, 0xea, 0xc9, 0x10, 0xc5, 0xd6, 0xe5, 0xf3, 0xb9, 0x06,
  0xec, 0xf3, 0xdd, 0xe5, 0x8d, 0xaf, 0x05, 0xde, 0xea, 0x10, 0xe8, 0xe0,
  0xdc, 0xf0, 0xff, 0xfb, 0x1b, 0xac, 0xd2, 0xde, 0xd5, 0xbe, 0xf0, 0x20,
  0x11, 0xe7, 0xed, 0x25, 0xe8, 0x1d, 0xf1, 0x08, 0x00, 0xfb, 0xfb, 0x09,
  0xbb, 0xaa, 0xe4, 0xf5, 0x2c, 0xe1, 0xba, 0xe5, 0xff, 0xe6, 0xaf, 0xe9,
  0x2d, 0x16, 0xf2, 0x1c, 0xbe, 0xba, 0xd9, 0x21, 0xd9, 0xec, 0xeb, 0xdf,
  0x0f, 0x0b, 0xfd, 0xdd, 0xff, 0x0f, 0xea, 0x16, 0x0a, 0xf6, 0xfe, 0xce,
  0x2a, 0xf0, 0x27, 0xf3, 0x30, 0x00, 0x37, 0x09, 0xf4, 0xe8, 0x04, 0x13,
  0xd2, 0xc0, 0xff, 0xda, 0x00, 0x17, 0xfd, 0xbf, 0x2f, 0xcd, 0xf5, 0x23,
  0xf5, 0x0b, 0x12, 0xf0, 0xdc, 0x98, 0x0d, 0xab, 0x0c, 0x02, 0x02, 0xbc,
  0x00, 0xe8, 0x19, 0xfa, 0x17, 0xc3, 0xc4, 0x08, 0xd0, 0xfd, 0x10, 0xc9,
  0x02, 0x1e, 0xd7, 0xf7, 0x06, 0xfe, 0xd6, 0x0e, 0x2e, 0xdb, 0x01, 0xf0,
  0xdc, 0xf8, 0xf6, 0xf1, 0xf2, 0x46, 0xc5, 0xdf, 0x14, 0x2b, 0xd7, 0x0c,
  0x26, 0x0c, 0x34, 0x00, 0x1a, 0xeb, 0x0b, 0xfc, 0xda, 0x1f, 0xf9, 0xe8,
  0x1c, 0xff, 0x9c, 0xfd, 0x13, 0x17, 0x12, 0x10, 0xcd, 0x1d, 0xdf, 0x33,
  0xe8, 0x09, 0xea, 0x20, 0xd8, 0x19, 0x23, 0xf7, 0x12, 0xe8, 0xf1, 0xff,
  0x41, 0x4b, 0x0b, 0x19, 0xf1, 0x53, 0xfb, 0x09, 0x0e, 0x0e, 0x06, 0x29,
  0x06, 0x3c, 0x36, 0xde, 0x00, 0xeb, 0xeb, 0xef, 0x16, 0x2f, 0xff, 0xf2,
  0x04, 0x09, 0x0c, 0x1a, 0x28, 0xf4, 0xf8, 0x2a, 0xf9, 0xe8, 0xfa, 0x10,
  0x06, 0xf9, 0x09, 0xf0, 0x00, 0xce, 0xe9, 0xee, 0x09, 0xfa, 0x0e, 0x13,
  0x1a, 0xcd, 0x04, 0xed, 0x13, 0x04, 0x07, 0x05, 0x2d, 0x04, 0xec, 0xea,
  0x2f, 0x20, 0x03, 0x0b, 0xbd, 0xfb, 0x1a, 0x00, 0xce, 0x06, 0x0e, 0x23,
  0x0b, 0x16, 0xcc, 0xfd, 0xf9, 0x1a, 0xe8, 0xee, 0xf3, 0x2a, 0x1d, 0xf7,
  0xcc, 0x1b, 0xfb, 0x15, 0x09, 0x17, 0x11, 0x00, 0x03, 0x0e, 0x04, 0xf6,
  0xf7, 0x19, 0xc0, 0x01, 0xe0, 0xda, 0xfe, 0x01, 0xfb, 0xeb, 0x29, 0x17,
  0xd9, 0xd7, 0xe7, 0x0e, 0x02, 0x4c, 0x02, 0x0e, 0xd3, 0xd9, 0x1a, 0x33,
  0xfc, 0xef, 0xff, 0x01, 0xdd, 0x33, 0x1e, 0xf1, 0x40, 0x1b, 0xfd, 0x1a,
  0xd5, 0x16, 0x1f, 0x24, 0xda, 0x22, 0xe2, 0x1f, 0xfc, 0xf8, 0xf8, 0xda,
  0x50, 0x58, 0x37, 0x15, 0xd7, 0x20, 0xee, 0x03, 0xfd, 0x17, 0x09, 0x11,
  0xfc, 0x27, 0x38, 0x23, 0x2a, 0x2a, 0x12, 0x32, 0xea, 0xf6, 0x19, 0x2a,
  0xcc, 0x19, 0x00, 0x1e, 0xfa, 0x17, 0x27, 0xfe, 0xd3, 0x09, 0x0d, 0xe3,
  0xe4, 0xe1, 0x01, 0xff, 0xf4, 0xe7, 0x85, 0xda, 0xef, 0x1c, 0x13, 0xf2,
  0xcd, 0x06, 0xb3, 0x13, 0xc9, 0xfa, 0xfb, 0xe1, 0xd8, 0x07, 0xcb, 0xd3,
  0xd1, 0xf9, 0x26, 0xf2, 0xce, 0xf7, 0xa7, 0xeb, 0xec, 0xd4, 0x0a, 0xfb,
  0xb4, 0xa0, 0xbf, 0xd3, 0xbc, 0xfe, 0x11, 0x0c, 0x0e, 0x12, 0xbd, 0x0a,
  0xc2, 0xd4, 0x23, 0x0b, 0xcd, 0xd2, 0xf1, 0xe3, 0xe9, 0xf3, 0xff, 0xbf,
  0xfe, 0x02, 0xd8, 0x31, 0xe8, 0xcc, 0x1b, 0x0f, 0xe7, 0xe5, 0x26, 0x05,
  0x99, 0xda, 0xc5, 0xfc, 0x23, 0xdf, 0x07, 0x29, 0x2c, 0xc7, 0x08, 0x00,
  0xf0, 0xd4, 0x16, 0xdf, 0xdc, 0xe9, 0xda, 0x0c, 0xf1, 0xf4, 0xd1, 0x39,
  0xdd, 0xdf, 0x0a, 0xeb, 0xe2, 0xee, 0xd2, 0xcd, 0xf2, 0x24, 0x20, 0xed,
  0xb5, 0xca, 0xfb, 0x35, 0xc2, 0xdd, 0xd5, 0xe2, 0xdc, 0x03, 0xf1, 0xef,
  0xfc, 0x02, 0xfa, 0xeb, 0xf1, 0x3f, 0xf2, 0x23, 0xc4, 0xe9, 0x11, 0x0d,
  0x01, 0xf1, 0xfc, 0x1f, 0xfe, 0x1f, 0x0c, 0xe1, 0xce, 0xd9, 0xff, 0x07,
  0xd5, 0xbe, 0x11, 0x2a, 0xea, 0x1d, 0xf6, 0xea, 0xfd, 0x10, 0x08, 0x0e,
  0xec, 0x20, 0xf2, 0x2f, 0xfc, 0xcc, 0x19, 0x00, 0x06, 0xe5, 0x2e, 0xe1,
  0xbc, 0x0b, 0xd0, 0xed, 0x2c, 0x39, 0xeb, 0xf6, 0x1a, 0xd6, 0x26, 0x29,
  0xcc, 0x01, 0x18, 0x2b, 0xf4, 0x2c, 0x0c, 0xfa, 0x0e, 0xd3, 0xf1, 0x25,
  0xf5, 0x81, 0xec, 0x24, 0xe9, 0xc4, 0xf1, 0xe9, 0xaf, 0xfe, 0xea, 0xf9,
  0x22, 0x51, 0xdc, 0x4c, 0x1b, 0xba, 0xdf, 0x15, 0xc1, 0xd9, 0x5d, 0x09,
  0xfe, 0x09, 0xee, 0xeb, 0x4d, 0x51, 0xf9, 0x03, 0x46, 0x01, 0x39, 0x08,
  0x0b, 0x0e, 0x6e, 0x19, 0x17, 0xf8, 0x20, 0x1c, 0x4f, 0x49, 0x17, 0x02,
  0x4f, 0xee, 0x1e, 0x32, 0x17, 0xf8, 0x56, 0x17, 0x38, 0xfc, 0x12, 0x3c,
  0x6e, 0x49, 0xef, 0x14, 0x12, 0x0b, 0x3c, 0x34, 0xeb, 0xf7, 0xf7, 0x32,
  0xef, 0x4c, 0x3a, 0xff, 0xfa, 0x59, 0xd7, 0xf2, 0xcc, 0x0f, 0x42, 0xfe,
  0xef, 0x1a, 0xfd, 0x14, 0xe1, 0x0e, 0xfb, 0xf4, 0x43, 0x66, 0xd8, 0xe6,
  0xf4, 0xff, 0x3a, 0x3e, 0xe9, 0xef, 0x0a, 0x27, 0xe4, 0xf8, 0xf7, 0x16,
  0x06, 0x2e, 0x19, 0xf7, 0x36, 0x32, 0x1f, 0x17, 0xf4, 0x3b, 0xf9, 0x1e,
  0x0d, 0xf9, 0x0e, 0xee, 0x02, 0xdf, 0x0d, 0x14, 0xf1, 0xed, 0x00, 0xf2,
  0xd0, 0x02, 0xe3, 0x09, 0x05, 0x41, 0x0c, 0xf0, 0x2b, 0x20, 0x28, 0x25,
  0xd6, 0x13, 0xef, 0x18, 0xc0, 0xf2, 0x0b, 0x17, 0x23, 0x0f, 0x04, 0x00,
  0x25, 0x2e, 0x04, 0x2a, 0xe8, 0x04, 0x25, 0x30, 0xfc, 0xf2, 0xfa, 0x05,
  0x1b, 0x48, 0x11, 0xec, 0x2c, 0x0e, 0x1b, 0x2c, 0x12, 0xe9, 0xf0, 0xd1,
  0x0e, 0xfb, 0x13, 0x11, 0xe1, 0x25, 0xfa, 0x1f, 0x06, 0x2c, 0xdd, 0x18,
  0x02, 0xba, 0xf6, 0x01, 0xfa, 0xef, 0x2a, 0x01, 0xd9, 0xbe, 0xb6, 0xe4,
  0xdc, 0x15, 0x0f, 0x38, 0x21, 0x13, 0x1b, 0x00, 0x13, 0xf4, 0x48, 0x19,
  0xbc, 0xd2, 0x01, 0xfc, 0x4c, 0xef, 0xf2, 0x05, 0x4f, 0xf9, 0x0d, 0xf0,
  0xf8, 0x11, 0x16, 0x16, 0xda, 0x13, 0x0c, 0x1d, 0xdb, 0xbc, 0xf0, 0x06,
  0x34, 0xdb, 0xdd, 0xfd, 0x1c, 0xe7, 0xea, 0xd8, 0x17, 0xd3, 0xe3, 0x07,
  0xdf, 0xf3, 0xf6, 0x32, 0x00, 0xf7, 0xf1, 0x0d, 0xef, 0x00, 0xfe, 0x09,
  0x1d, 0x18, 0xd5, 0x0f, 0xf0, 0xe5, 0x05, 0xf6, 0xe5, 0x0c, 0xd3, 0xfe,
  0x08, 0xf8, 0x17, 0xe9, 0x06, 0xd5, 0xef, 0xf3, 0x0e, 0x1e, 0xe9, 0x04,
  0x04, 0x0d, 0x1e, 0x24, 0xe4, 0x08, 0x1c, 0x00, 0x0c, 0x0d, 0xee, 0xd1,
  0x48, 0x14, 0x24, 0xe8, 0x2c, 0x16, 0x0f, 0xe9, 0x05, 0x0d, 0xf7, 0x1d,
  0xed, 0x08, 0xfe, 0x1b, 0xef, 0xf2, 0x01, 0x1e, 0x03, 0xdd, 0xef, 0x02,
  0xeb, 0xfe, 0x1f, 0x02, 0x1f, 0xf3, 0x0c, 0x2b, 0x3d, 0xde, 0x09, 0xff,
  0xfc, 0x2f, 0x18, 0x06, 0x05, 0xed, 0xc1, 0x17, 0xf1, 0x23, 0x14, 0x2c,
  0x92, 0xf2, 0xff, 0xff, 0x00, 0x00, 0x00, 0x09, 0x48, 0x00, 0x00, 0x00,
  0x10, 0x00, 0x00, 0x00, 0x08, 0x00, 0x00, 0x00, 0x48, 0x00, 0x00, 0x00,
  0x31, 0x00, 0x00, 0x00, 0x73, 0x65, 0x71, 0x75, 0x65, 0x6e, 0x74, 0x69,
  0x61, 0x6c, 0x2f, 0x79, 0x5f, 0x70, 0x72, 0x65, 0x64, 0x2f, 0x4d, 0x61,
  0x74, 0x4d, 0x75, 0x6c, 0x3b, 0x73, 0x65, 0x71, 0x75, 0x65, 0x6e, 0x74,
  0x69, 0x61, 0x6c, 0x2f, 0x79, 0x5f, 0x70, 0x72, 0x65, 0x64, 0x2f, 0x4d,
  0x61, 0x74, 0x4d, 0x75, 0x6c, 0x00, 0x00, 0x00, 0x02, 0x00, 0x00, 0x00,
  0x02, 0x00, 0x00, 0x00, 0x60, 0x02, 0x00, 0x00, 0xfc, 0xf1, 0xff, 0xff,
  0x14, 0x00, 0x00, 0x00, 0x04, 0x00, 0x00, 0x00, 0x01, 0x00, 0x00, 0x00,
  0x00, 0x00, 0x00, 0x00, 0x00, 0x00, 0x00, 0x00, 0x01, 0x00, 0x00, 0x00,
  0x01, 0x4f, 0x33, 0x3b, 0x26, 0xf3, 0xff, 0xff, 0x04, 0x00, 0x00, 0x00,
  0x40, 0x00, 0x00, 0x00, 0xd5, 0xfb, 0xff, 0xff, 0x5d, 0xfe, 0xff, 0xff,
  0xc2, 0xf9, 0xff, 0xff, 0xa1, 0x02, 0x00, 0x00, 0x4e, 0xf9, 0xff, 0xff,
  0xaa, 0x01, 0x00, 0x00, 0x07, 0xfd, 0xff, 0xff, 0x01, 0xfa, 0xff, 0xff,
  0x95, 0xfe, 0xff, 0xff, 0x10, 0xfd, 0xff, 0xff, 0x88, 0xfd, 0xff, 0xff,
  0x65, 0xf8, 0xff, 0xff, 0xe3, 0xfe, 0xff, 0xff, 0x84, 0x02, 0x00, 0x00,
  0xbc, 0x04, 0x00, 0x00, 0x3c, 0xfc, 0xff, 0xff, 0x5a, 0xf3, 0xff, 0xff,
  0x00, 0x00, 0x00, 0x02, 0x24, 0x00, 0x00, 0x00, 0x0f, 0x00, 0x00, 0x00,
  0x08, 0x00, 0x00, 0x00, 0x20, 0x00, 0x00, 0x00, 0x0d, 0x00, 0x00, 0x00,
  0x63, 0x6f, 0x6e, 0x76, 0x31, 0x64, 0x5f, 0x31, 0x2f, 0x62, 0x69, 0x61,
  0x73, 0x00, 0x00, 0x00, 0x01, 0x00, 0x00, 0x00, 0x10, 0x00, 0x00, 0x00,
  0x9c, 0xf2, 0xff, 0xff, 0x8c, 0x00, 0x00, 0x00, 0x04, 0x00, 0x00, 0x00,
  0x10, 0x00, 0x00, 0x00, 0x00, 0x00, 0x00, 0x00, 0x00, 0x00, 0x00, 0x00,
  0x00, 0x00, 0x00, 0x00, 0x00, 0x00, 0x00, 0x00, 0x00, 0x00, 0x00, 0x00,
  0x00, 0x00, 0x00, 0x00, 0x00, 0x00, 0x00, 0x00, 0x00, 0x00, 0x00, 0x00,
  0x00, 0x00, 0x00, 0x00, 0x00, 0x00, 0x00, 0x00, 0x00, 0x00, 0x00, 0x00,
  0x00, 0x00, 0x00, 0x00, 0x00, 0x00, 0x00, 0x00, 0x00, 0x00, 0x00, 0x00,
  0x00, 0x00, 0x00, 0x00, 0x00, 0x00, 0x00, 0x00, 0x00, 0x00, 0x00, 0x00,
  0x00, 0x00, 0x00, 0x00, 0x00, 0x00, 0x00, 0x00, 0x00, 0x00, 0x00, 0x00,
  0x00, 0x00, 0x00, 0x00, 0x00, 0x00, 0x00, 0x00, 0x00, 0x00, 0x00, 0x00,
  0x00, 0x00, 0x00, 0x00, 0x00, 0x00, 0x00, 0x00, 0x00, 0x00, 0x00, 0x00,
  0x00, 0x00, 0x00, 0x00, 0x00, 0x00, 0x00, 0x00, 0x00, 0x00, 0x00, 0x00,
  0x00, 0x00, 0x00, 0x00, 0x00, 0x00, 0x00, 0x00, 0x00, 0x00, 0x00, 0x00,
  0x10, 0x00, 0x00, 0x00, 0x23, 0xec, 0xde, 0x38, 0x18, 0xa6, 0x99, 0x38,
  0x5e, 0xd0, 0xb0, 0x38, 0xc2, 0x9e, 0xcf, 0x38, 0x52, 0x62, 0x03, 0x39,
  0x39, 0x8c, 0xa7, 0x38, 0xa1, 0x21, 0x8e, 0x38, 0x33, 0xbf, 0xb3, 0x38,
  0x7e, 0xf2, 0xb9, 0x38, 0x66, 0xc1, 0xa6, 0x38, 0xb7, 0xce, 0xf6, 0x38,
  0x97, 0x1b, 0x93, 0x38, 0xbc, 0x4e, 0xef, 0x38, 0xd1, 0xb4, 0xc1, 0x38,
  0xf7, 0x80, 0x9d, 0x38, 0xe4, 0xd7, 0xd0, 0x38, 0x7a, 0xf4, 0xff, 0xff,
  0x04, 0x00, 0x00, 0x00, 0x80, 0x01, 0x00, 0x00, 0x0c, 0x45, 0x32, 0xef,
  0x09, 0x11, 0xdf, 0xd9, 0xfb, 0x1e, 0xf2, 0x24, 0x7f, 0xe5, 0xed, 0x5a,
  0xd6, 0xae, 0xf4, 0xd9, 0x11, 0xe0, 0xd6, 0xd6, 0xda, 0xe2, 0xf2, 0xc6,
  0x14, 0x39, 0xa6, 0xff, 0x1d, 0x43, 0x09, 0x88, 0x42, 0xe8, 0xb5, 0x2d,
  0xef, 0x88, 0xd2, 0xee, 0x76, 0xab, 0xfc, 0x7f, 0x74, 0xbb, 0x3a, 0x7f,
  0xf1, 0xa2, 0x26, 0xf7, 0x2e, 0xc0, 0xd8, 0x71, 0x18, 0xd7, 0x1c, 0x23,
  0x2f, 0xce, 0xf5, 0x3f, 0x24, 0x29, 0x20, 0xf9, 0xb7, 0x17, 0xeb, 0x81,
  0x1f, 0x39, 0xaa, 0xf2, 0xe3, 0xf7, 0xfb, 0x9c, 0xc8, 0x6a, 0xd8, 0xbc,
  0xe6, 0xec, 0x2a, 0x0c, 0x4f, 0x10, 0x2d, 0xef, 0xde, 0xf3, 0x7f, 0x3a,
  0xfd, 0xdd, 0x26, 0x0a, 0xbe, 0x2d, 0x3b, 0xf0, 0x13, 0xe6, 0x10, 0x01,
  0xb5, 0xdd, 0xfe, 0x34, 0x11, 0x00, 0x2f, 0x04, 0x7f, 0x46, 0xd5, 0x17,
  0xb9, 0xe5, 0xc3, 0xfb, 0xb3, 0x34, 0xdb, 0x26, 0x18, 0x9e, 0x26, 0xd6,
  0x14, 0x52, 0xee, 0x20, 0x1f, 0x8b, 0xfa, 0xe1, 0xe4, 0x40, 0x4b, 0xa5,
  0x39, 0xaf, 0xab, 0x63, 0x8c, 0x8a, 0x12, 0xc0, 0xfa, 0x35, 0x1b, 0x29,
  0x1a, 0xa8, 0x56, 0xa1, 0xfd, 0xac, 0x2f, 0x7f, 0x0c, 0xf4, 0x00, 0xe7,
  0x7f, 0xd5, 0xc8, 0x1b, 0xf1, 0xce, 0x40, 0x96, 0x10, 0x7b, 0xbd, 0x4c,
  0x26, 0x1c, 0xe5, 0xc5, 0x41, 0xfa, 0xcf, 0x45, 0xc8, 0x48, 0xe0, 0xd3,
  0xd1, 0x07, 0x61, 0xf5, 0x48, 0x2c, 0x37, 0x7f, 0xd1, 0xcc, 0x59, 0xbb,
  0x44, 0xc4, 0x06, 0x0c, 0xd0, 0xf6, 0x38, 0xaf, 0x76, 0x05, 0xf2, 0x7f,
  0x52, 0x29, 0xe2, 0xf6, 0x66, 0x3d, 0x12, 0x6d, 0xc2, 0x21, 0x04, 0xf4,
  0x0b, 0xa9, 0xc3, 0x77, 0xea, 0xda, 0x06, 0xdd, 0xef, 0xe3, 0xde, 0xde,
  0x3c, 0x0c, 0xdf, 0xc2, 0xfc, 0x18, 0x7f, 0xe1, 0x12, 0xe7, 0xf5, 0xda,
  0x03, 0x28, 0x1f, 0x35, 0x39, 0xe0, 0xef, 0xf3, 0x54, 0x3b, 0x22, 0x94,
  0x1d, 0x1b, 0xb5, 0xe9, 0x44, 0x40, 0x14, 0x8f, 0x56, 0xca, 0x3f, 0x67,
  0x11, 0xd4, 0x09, 0x7f, 0x1e, 0x02, 0xce, 0x11, 0xfd, 0xf6, 0xde, 0x7f,
  0xfc, 0xcc, 0xf9, 0xf7, 0x1f, 0x29, 0x09, 0x4f, 0xf7, 0xd1, 0xe6, 0xf8,
  0xf5, 0x23, 0xc2, 0x33, 0xc8, 0x27, 0x22, 0xf8, 0xed, 0x1e, 0xc6, 0x07,
  0xe4, 0x7f, 0x02, 0x28, 0xe3, 0xf3, 0xb0, 0x15, 0xf9, 0xd1, 0x17, 0x36,
  0x11, 0xfb, 0xd9, 0x02, 0xf7, 0xfb, 0xc6, 0x2b, 0x17, 0x26, 0xbc, 0x35,
  0xba, 0x14, 0x0a, 0x4e, 0x24, 0x23, 0xc9, 0x6c, 0xcf, 0x09, 0xf9, 0x08,
  0x94, 0x1f, 0xd6, 0xd2, 0xf3, 0xbb, 0x0e, 0x7f, 0xdf, 0x2a, 0x21, 0x5b,
  0x4f, 0x03, 0x55, 0xd5, 0xd3, 0x0e, 0x30, 0x7f, 0x2e, 0x0d, 0x3e, 0x36,
  0xd6, 0x41, 0xf4, 0x2a, 0xe4, 0xec, 0xe6, 0xd9, 0xee, 0xf5, 0xff, 0xff,
  0x00, 0x00, 0x00, 0x09, 0x4c, 0x00, 0x00, 0x00, 0x0e, 0x00, 0x00, 0x00,
  0x08, 0x00, 0x00, 0x00, 0x54, 0x00, 0x00, 0x00, 0x35, 0x00, 0x00, 0x00,
  0x73, 0x65, 0x71, 0x75, 0x65, 0x6e, 0x74, 0x69, 0x61, 0x6c, 0x2f, 0x63,
  0x6f, 0x6e, 0x76, 0x31, 0x64, 0x5f, 0x31, 0x2f, 0x63, 0x6f, 0x6e, 0x76,
  0x31, 0x64, 0x3b, 0x73, 0x65, 0x71, 0x75, 0x65, 0x6e, 0x74, 0x69, 0x61,
  0x6c, 0x2f, 0x63, 0x6f, 0x6e, 0x76, 0x31, 0x64, 0x5f, 0x31, 0x2f, 0x63,
  0x6f, 0x6e, 0x76, 0x31, 0x64, 0x00, 0x00, 0x00, 0x04, 0x00, 0x00, 0x00,
  0x10, 0x00, 0x00, 0x00, 0x01, 0x00, 0x00, 0x00, 0x03, 0x00, 0x00, 0x00,
  0x08, 0x00, 0x00, 0x00, 0x64, 0xf5, 0xff, 0xff, 0x8c, 0x00, 0x00, 0x00,
  0x04, 0x00, 0x00, 0x00, 0x10, 0x00, 0x00, 0x00, 0x00, 0x00, 0x00, 0x00,
  0x00, 0x00, 0x00, 0x00, 0x00, 0x00, 0x00, 0x00, 0x00, 0x00, 0x00, 0x00,
  0x00, 0x00, 0x00, 0x00, 0x00, 0x00, 0x00, 0x00, 0x00, 0x00, 0x00, 0x00,
  0x00, 0x00, 0x00, 0x00, 0x00, 0x00, 0x00, 0x00, 0x00, 0x00, 0x00, 0x00,
  0x00, 0x00, 0x00, 0x00, 0x00, 0x00, 0x00, 0x00, 0x00, 0x00, 0x00, 0x00,
  0x00, 0x00, 0x00, 0x00, 0x00, 0x00, 0x00, 0x00, 0x00, 0x00, 0x00, 0x00,
  0x00, 0x00, 0x00, 0x00, 0x00, 0x00, 0x00, 0x00, 0x00, 0x00, 0x00, 0x00,
  0x00, 0x00, 0x00, 0x00, 0x00, 0x00, 0x00, 0x00, 0x00, 0x00, 0x00, 0x00,
  0x00, 0x00, 0x00, 0x00, 0x00, 0x00, 0x00, 0x00, 0x00, 0x00, 0x00, 0x00,
  0x00, 0x00, 0x00, 0x00, 0x00, 0x00, 0x00, 0x00, 0x00, 0x00, 0x00, 0x00,
  0x00, 0x00, 0x00, 0x00, 0x00, 0x00, 0x00, 0x00, 0x00, 0x00, 0x00, 0x00,
  0x00, 0x00, 0x00, 0x00, 0x10, 0x00, 0x00, 0x00, 0x84, 0x67, 0x96, 0x3b,
  0xef, 0x54, 0x4f, 0x3b, 0x2d, 0x97, 0x6e, 0x3b, 0x7c, 0x14, 0x8c, 0x3b,
  0xbb, 0x49, 0xb1, 0x3b, 0x3b, 0x16, 0x62, 0x3b, 0x50, 0xca, 0x3f, 0x3b,
  0x56, 0x8c, 0x72, 0x3b, 0x36, 0xea, 0x7a, 0x3b, 0x8b, 0x04, 0x61, 0x3b,
  0xfc, 0x84, 0xa6, 0x3b, 0x62, 0x81, 0x46, 0x3b, 0x96, 0x75, 0xa1, 0x3b,
  0x44, 0xb1, 0x82, 0x3b, 0x9b, 0x88, 0x54, 0x3b, 0xc1, 0xe7, 0x8c, 0x3b,
  0x42, 0xf7, 0xff, 0xff, 0x04, 0x00, 0x00, 0x00, 0x20, 0x00, 0x00, 0x00,
  0x50, 0x00, 0x00, 0x00, 0x65, 0xff, 0xff, 0xff, 0x04, 0xff, 0xff, 0xff,
  0x87, 0x01, 0x00, 0x00, 0xb7, 0xfe, 0xff, 0xff, 0x5f, 0xfe, 0xff, 0xff,
  0x78, 0xff, 0xff, 0xff, 0x49, 0xfe, 0xff, 0xff, 0x56, 0xf7, 0xff, 0xff,
  0x00, 0x00, 0x00, 0x02, 0x20, 0x00, 0x00, 0x00, 0x0d, 0x00, 0x00, 0x00,
  0x08, 0x00, 0x00, 0x00, 0x1c, 0x00, 0x00, 0x00, 0x0b, 0x00, 0x00, 0x00,
  0x63, 0x6f, 0x6e, 0x76, 0x31, 0x64, 0x2f, 0x62, 0x69, 0x61, 0x73, 0x00,
  0x01, 0x00, 0x00, 0x00, 0x08, 0x00, 0x00, 0x00, 0x94, 0xf6, 0xff, 0xff,
  0x50, 0x00, 0x00, 0x00, 0x04, 0x00, 0x00, 0x00, 0x08, 0x00, 0x00, 0x00,
  0x00, 0x00, 0x00, 0x00, 0x00, 0x00, 0x00, 0x00, 0x00, 0x00, 0x00, 0x00,
  0x00, 0x00, 0x00, 0x00, 0x00, 0x00, 0x00, 0x00, 0x00, 0x00, 0x00, 0x00,
  0x00, 0x00, 0x00, 0x00, 0x00, 0x00, 0x00, 0x00, 0x00, 0x00, 0x00, 0x00,
  0x00, 0x00, 0x00, 0x00, 0x00, 0x00, 0x00, 0x00, 0x00, 0x00, 0x00, 0x00,
  0x00, 0x00, 0x00, 0x00, 0x00, 0x00, 0x00, 0x00, 0x00, 0x00, 0x00, 0x00,
  0x00, 0x00, 0x00, 0x00, 0x00, 0x00, 0x00, 0x00, 0x08, 0x00, 0x00, 0x00,
  0x85, 0x35, 0x20, 0x3a, 0x48, 0xa5, 0x25, 0x3a, 0x9e, 0x49, 0x3b, 0x3a,
  0xe3, 0x41, 0x0f, 0x3a, 0xb8, 0x8f, 0x24, 0x3a, 0xdb, 0x12, 0x25, 0x3a,
  0xe7, 0x64, 0x29, 0x3a, 0xa3, 0x93, 0x0f, 0x3a, 0x16, 0xf8, 0xff, 0xff,
  0x04, 0x00, 0x00, 0x00, 0x70, 0x02, 0x00, 0x00, 0x21, 0xe6, 0x02, 0x24,
  0x17, 0xc5, 0x11, 0xc8, 0x00, 0x54, 0x47, 0xf1, 0x00, 0x23, 0xbc, 0x01,
  0xf0, 0x00, 0x02, 0x3f, 0x26, 0x03, 0x0f, 0xc8, 0x0f, 0x41, 0xf8, 0x44,
  0x07, 0x28, 0x0b, 0xf9, 0xdf, 0x23, 0x0a, 0x21, 0x03, 0x2a, 0x4a, 0xed,
  0x81, 0x04, 0xda, 0xce, 0xf6, 0x0d, 0x30, 0x34, 0x18, 0xef, 0xce, 0xfe,
  0x2a, 0x1d, 0xf5, 0x27, 0xdb, 0x11, 0x10, 0xdf, 0xdf, 0xf8, 0xee, 0x1c,
  0xee, 0xee, 0xb0, 0xf0, 0xab, 0x2b, 0x65, 0xcd, 0x01, 0x0e, 0xed, 0x3a,
  0x30, 0xd6, 0xea, 0x07, 0xff, 0x22, 0x1a, 0xdf, 0xfc, 0xf2, 0xd9, 0x0b,
  0x1b, 0xf8, 0x8c, 0x2f, 0x27, 0xf1, 0xd4, 0xee, 0xdd, 0x1f, 0xf2, 0x13,
  0x02, 0x10, 0x1c, 0xf5, 0x06, 0xf7, 0x03, 0x34, 0xe2, 0x09, 0xa2, 0x15,
  0xb5, 0xdf, 0x04, 0x14, 0x30, 0x55, 0x2d, 0xd0, 0x04, 0x4f, 0xb7, 0x01,
  0x35, 0xf8, 0xfb, 0x1d, 0x25, 0xeb, 0x4e, 0x13, 0x01, 0xea, 0x00, 0xfe,
  0x07, 0xbe, 0x1f, 0xec, 0x44, 0x76, 0xed, 0xbe, 0x26, 0x7f, 0xf4, 0x32,
  0x63, 0x76, 0x0e, 0xf7, 0x94, 0xb9, 0xeb, 0x0d, 0xf0, 0x08, 0x21, 0x19,
  0xd9, 0x3d, 0xad, 0x01, 0x0d, 0xd5, 0xda, 0x25, 0xf9, 0x29, 0xce, 0xc3,
  0x06, 0x0e, 0xfd, 0x07, 0x1d, 0x4e, 0x21, 0x7f, 0x56, 0xdd, 0x0f, 0xda,
  0xe0, 0xbd, 0x1b, 0x08, 0x36, 0x07, 0xbb, 0x49, 0x0b, 0xef, 0xdf, 0x04,
  0x01, 0x1c, 0x1a, 0x10, 0x0a, 0x50, 0xdf, 0xd7, 0x31, 0xe3, 0xe0, 0xe5,
  0x0f, 0x31, 0x03, 0xf1, 0x3a, 0xf8, 0xc8, 0xe1, 0x03, 0xdd, 0x26, 0x1d,
  0xce, 0x3c, 0xf3, 0x1e, 0xf4, 0x13, 0x2b, 0x32, 0xec, 0x10, 0x43, 0x58,
  0x4c, 0xc5, 0x0b, 0x2a, 0xe3, 0x34, 0xbf, 0xe3, 0x4f, 0x0c, 0xfb, 0x2b,
  0xd9, 0x31, 0x83, 0x5d, 0x1f, 0x03, 0xdd, 0xe5, 0x55, 0x8a, 0x88, 0xb7,
  0x1c, 0xfa, 0x20, 0x66, 0x4e, 0xd1, 0x26, 0xb2, 0x42, 0x9d, 0x23, 0xd2,
  0x15, 0xdc, 0xca, 0x4a, 0xad, 0xf3, 0x81, 0xd1, 0x18, 0x27, 0x4e, 0x14,
  0x02, 0x21, 0x58, 0x37, 0x3e, 0x4e, 0x2a, 0x27, 0x08, 0x0c, 0x36, 0xc1,
  0x14, 0x22, 0xd5, 0xfa, 0xbf, 0x5c, 0x20, 0x57, 0xc1, 0xea, 0xd7, 0xd2,
  0x4c, 0x35, 0x97, 0xd5, 0xf0, 0x1e, 0x05, 0xd3, 0xfd, 0xdf, 0xd8, 0xcd,
  0xb3, 0x06, 0x10, 0xe5, 0x0e, 0xf1, 0xef, 0xcb, 0x81, 0x26, 0xb7, 0x4f,
  0x35, 0xf7, 0x16, 0x00, 0xf7, 0x28, 0x54, 0x03, 0xf0, 0xc0, 0x36, 0x29,
  0xe3, 0xd1, 0xf7, 0xfb, 0xea, 0xfb, 0x2d, 0x03, 0x01, 0xfe, 0xee, 0x6a,
  0xaf, 0x45, 0x37, 0x14, 0x35, 0x0c, 0xec, 0x01, 0x27, 0x32, 0x00, 0xb8,
  0xff, 0x37, 0x0b, 0xbb, 0x20, 0x08, 0xf4, 0xec, 0xe6, 0x19, 0x3d, 0x9f,
  0xd0, 0x1f, 0x9e, 0x63, 0x6a, 0xd9, 0xac, 0x1d, 0x36, 0x2c, 0x47, 0x02,
  0x1e, 0xa3, 0xf9, 0x07, 0x3e, 0x19, 0x06, 0xd8, 0xde, 0x37, 0x03, 0xb5,
  0x41, 0xc9, 0x2d, 0x08, 0xf2, 0x0e, 0x10, 0xba, 0x0f, 0xce, 0xce, 0x59,
  0x09, 0x1d, 0x0a, 0x40, 0xf2, 0xd5, 0x04, 0xde, 0xfe, 0xdd, 0x0a, 0x16,
  0x12, 0xde, 0x23, 0xc4, 0x1b, 0xdf, 0xbe, 0xaf, 0x1a, 0xc2, 0x07, 0xef,
  0xf2, 0xf4, 0xd0, 0xde, 0x81, 0xd4, 0x22, 0x1a, 0xdf, 0xff, 0xce, 0xed,
  0x20, 0xe8, 0xe1, 0xb2, 0x21, 0xf4, 0x00, 0xdc, 0x36, 0x15, 0xf4, 0x29,
  0x1e, 0xe4, 0xe0, 0x23, 0xf3, 0x5e, 0xd2, 0x1c, 0x18, 0x24, 0xdf, 0xe6,
  0xe1, 0xf9, 0xfe, 0x29, 0xe2, 0xe9, 0xcf, 0x12, 0x28, 0x3e, 0x25, 0xd5,
  0xb8, 0x07, 0xbb, 0xf3, 0xed, 0xf2, 0x16, 0x1d, 0x09, 0x3b, 0xf9, 0x0c,
  0xee, 0xff, 0xca, 0xe7, 0xee, 0x06, 0xf3, 0x09, 0x05, 0x50, 0xf7, 0xf4,
  0x05, 0xd2, 0xd3, 0x24, 0x0d, 0xf6, 0x7f, 0xf6, 0x0b, 0x40, 0x5d, 0x4c,
  0x33, 0xda, 0xea, 0xd4, 0x12, 0xf4, 0x22, 0xed, 0x0f, 0xdf, 0xbf, 0xee,
  0x36, 0x5c, 0x1a, 0x37, 0xba, 0xf6, 0xc9, 0x2e, 0x0c, 0xdb, 0x2c, 0x50,
  0xe2, 0x53, 0xe9, 0x11, 0xf5, 0x16, 0xfe, 0x98, 0x18, 0x03, 0xc5, 0x27,
  0x5d, 0x19, 0x3c, 0x17, 0x21, 0x53, 0x3f, 0xc7, 0xeb, 0x2f, 0xf8, 0xf4,
  0xe1, 0xc3, 0xe8, 0x55, 0x10, 0x05, 0xd8, 0x16, 0xe3, 0xfe, 0xfc, 0xdd,
  0x96, 0xff, 0x39, 0x12, 0xff, 0xdc, 0xe2, 0x2e, 0x18, 0xf4, 0x59, 0x14,
  0xb9, 0x0d, 0x06, 0x0c, 0xe1, 0x4b, 0x2d, 0x05, 0x05, 0xe0, 0xfe, 0xe6,
  0xfc, 0x90, 0x25, 0xf3, 0x5a, 0x33, 0x28, 0xe7, 0xfe, 0x40, 0x7f, 0xb2,
  0xaf, 0xd8, 0x10, 0xd7, 0xee, 0xa6, 0xea, 0x25, 0x7a, 0xfa, 0xff, 0xff,
  0x00, 0x00, 0x00, 0x09, 0x48, 0x00, 0x00, 0x00, 0x0c, 0x00, 0x00, 0x00,
  0x08, 0x00, 0x00, 0x00, 0x50, 0x00, 0x00, 0x00, 0x31, 0x00, 0x00, 0x00,
  0x73, 0x65, 0x71, 0x75, 0x65, 0x6e, 0x74, 0x69, 0x61, 0x6c, 0x2f, 0x63,
  0x6f, 0x6e, 0x76, 0x31, 0x64, 0x2f, 0x63, 0x6f, 0x6e, 0x76, 0x31, 0x64,
  0x3b, 0x73, 0x65, 0x71, 0x75, 0x65, 0x6e, 0x74, 0x69, 0x61, 0x6c, 0x2f,
  0x63, 0x6f, 0x6e, 0x76, 0x31, 0x64, 0x2f, 0x63, 0x6f, 0x6e, 0x76, 0x31,
  0x64, 0x00, 0x00, 0x00, 0x04, 0x00, 0x00, 0x00, 0x08, 0x00, 0x00, 0x00,
  0x01, 0x00, 0x00, 0x00, 0x03, 0x00, 0x00, 0x00, 0x1a, 0x00, 0x00, 0x00,
  0xec, 0xf9, 0xff, 0xff, 0x50, 0x00, 0x00, 0x00, 0x04, 0x00, 0x00, 0x00,
  0x08, 0x00, 0x00, 0x00, 0x00, 0x00, 0x00, 0x00, 0x00, 0x00, 0x00, 0x00,
  0x00, 0x00, 0x00, 0x00, 0x00, 0x00, 0x00, 0x00, 0x00, 0x00, 0x00, 0x00,
  0x00, 0x00, 0x00, 0x00, 0x00, 0x00, 0x00, 0x00, 0x00, 0x00, 0x00, 0x00,
  0x00, 0x00, 0x00, 0x00, 0x00, 0x00, 0x00, 0x00, 0x00, 0x00, 0x00, 0x00,
  0x00, 0x00, 0x00, 0x00, 0x00, 0x00, 0x00, 0x00, 0x00, 0x00, 0x00, 0x00,
  0x00, 0x00, 0x00, 0x00, 0x00, 0x00, 0x00, 0x00, 0x00, 0x00, 0x00, 0x00,
  0x08, 0x00, 0x00, 0x00, 0x1f, 0x50, 0x8e, 0x3b, 0x6b, 0x24, 0x93, 0x3b,
  0xdf, 0x5d, 0xa6, 0x3b, 0x7e, 0x82, 0x7e, 0x3b, 0xdc, 0x2d, 0x92, 0x3b,
  0x59, 0xa2, 0x92, 0x3b, 0xd8, 0x78, 0x96, 0x3b, 0xba, 0x13, 0x7f, 0x3b,
  0x6e, 0xfb, 0xff, 0xff, 0x04, 0x00, 0x00, 0x00, 0x08, 0x00, 0x00, 0x00,
  0xff, 0xff, 0xff, 0xff, 0x60, 0x02, 0x00, 0x00, 0x6a, 0xfb, 0xff, 0xff,
  0x00, 0x00, 0x00, 0x02, 0x48, 0x00, 0x00, 0x00, 0x0b, 0x00, 0x00, 0x00,
  0x08, 0x00, 0x00, 0x00, 0x44, 0x00, 0x00, 0x00, 0x31, 0x00, 0x00, 0x00,
  0x73, 0x65, 0x71, 0x75, 0x65, 0x6e, 0x74, 0x69, 0x61, 0x6c, 0x2f, 0x66,
  0x6c, 0x61, 0x74, 0x74, 0x65, 0x6e, 0x2f, 0x43, 0x6f, 0x6e, 0x73, 0x74,
  0x3b, 0x73, 0x65, 0x71, 0x75, 0x65, 0x6e, 0x74, 0x69, 0x61, 0x6c, 0x2f,
  0x66, 0x6c, 0x61, 0x74, 0x74, 0x65, 0x6e, 0x2f, 0x43, 0x6f, 0x6e, 0x73,
  0x74, 0x00, 0x00, 0x00, 0x01, 0x00, 0x00, 0x00, 0x02, 0x00, 0x00, 0x00,
  0xa4, 0xfa, 0xff, 0xff, 0xde, 0xfb, 0xff, 0xff, 0x04, 0x00, 0x00, 0x00,
  0x0c, 0x00, 0x00, 0x00, 0xff, 0xff, 0xff, 0xff, 0x4b, 0x00, 0x00, 0x00,
  0x10, 0x00, 0x00, 0x00, 0xde, 0xfb, 0xff, 0xff, 0x00, 0x00, 0x00, 0x02,
  0x5c, 0x00, 0x00, 0x00, 0x0a, 0x00, 0x00, 0x00, 0x08, 0x00, 0x00, 0x00,
  0x58, 0x00, 0x00, 0x00, 0x45, 0x00, 0x00, 0x00, 0x73, 0x65, 0x71, 0x75,
  0x65, 0x6e, 0x74, 0x69, 0x61, 0x6c, 0x2f, 0x63, 0x6f, 0x6e, 0x76, 0x31,
  0x64, 0x5f, 0x31, 0x2f, 0x63, 0x6f, 0x6e, 0x76, 0x31, 0x64, 0x2f, 0x53,
  0x71, 0x75, 0x65, 0x65, 0x7a, 0x65, 0x3b, 0x73, 0x65, 0x71, 0x75, 0x65,
  0x6e, 0x74, 0x69, 0x61, 0x6c, 0x2f, 0x63, 0x6f, 0x6e, 0x76, 0x31, 0x64,
  0x5f, 0x31, 0x2f, 0x63, 0x6f, 0x6e, 0x76, 0x31, 0x64, 0x2f, 0x53, 0x71,
  0x75, 0x65, 0x65, 0x7a, 0x65, 0x00, 0x00, 0x00, 0x01, 0x00, 0x00, 0x00,
  0x03, 0x00, 0x00, 0x00, 0x2c, 0xfb, 0xff, 0xff, 0x66, 0xfc, 0xff, 0xff,
  0x04, 0x00, 0x00, 0x00, 0x0c, 0x00, 0x00, 0x00, 0xff, 0xff, 0xff, 0xff,
  0x4b, 0x00, 0x00, 0x00, 0x08, 0x00, 0x00, 0x00, 0x66, 0xfc, 0xff, 0xff,
  0x00, 0x00, 0x00, 0x02, 0x58, 0x00, 0x00, 0x00, 0x09, 0x00, 0x00, 0x00,
  0x08, 0x00, 0x00, 0x00, 0x54, 0x00, 0x00, 0x00, 0x41, 0x00, 0x00, 0x00,
  0x73, 0x65, 0x71, 0x75, 0x65, 0x6e, 0x74, 0x69, 0x61, 0x6c, 0x2f, 0x6d,
  0x61, 0x78, 0x5f, 0x70, 0x6f, 0x6f, 0x6c, 0x69, 0x6e, 0x67, 0x31, 0x64,
  0x2f, 0x53, 0x71, 0x75, 0x65, 0x65, 0x7a, 0x65, 0x3b, 0x73, 0x65, 0x71,
  0x75, 0x65, 0x6e, 0x74, 0x69, 0x61, 0x6c, 0x2f, 0x6d, 0x61, 0x78, 0x5f,
  0x70, 0x6f, 0x6f, 0x6c, 0x69, 0x6e, 0x67, 0x31, 0x64, 0x2f, 0x53, 0x71,
  0x75, 0x65, 0x65, 0x7a, 0x65, 0x00, 0x00, 0x00, 0x01, 0x00, 0x00, 0x00,
  0x03, 0x00, 0x00, 0x00, 0xb0, 0xfb, 0xff, 0xff, 0xea, 0xfc, 0xff, 0xff,
  0x04, 0x00, 0x00, 0x00, 0x04, 0x00, 0x00, 0x00, 0x02, 0x00, 0x00, 0x00,
  0xe2, 0xfc, 0xff, 0xff, 0x00, 0x00, 0x00, 0x02, 0x64, 0x00, 0x00, 0x00,
  0x08, 0x00, 0x00, 0x00, 0x08, 0x00, 0x00, 0x00, 0x5c, 0x00, 0x00, 0x00,
  0x4f, 0x00, 0x00, 0x00, 0x73, 0x65, 0x71, 0x75, 0x65, 0x6e, 0x74, 0x69,
  0x61, 0x6c, 0x2f, 0x6d, 0x61, 0x78, 0x5f, 0x70, 0x6f, 0x6f, 0x6c, 0x69,
  0x6e, 0x67, 0x31, 0x64, 0x2f, 0x45, 0x78, 0x70, 0x61, 0x6e, 0x64, 0x44,
  0x69, 0x6d, 0x73, 0x2f, 0x64, 0x69, 0x6d, 0x3b, 0x73, 0x65, 0x71, 0x75,
  0x65, 0x6e, 0x74, 0x69, 0x61, 0x6c, 0x2f, 0x6d, 0x61, 0x78, 0x5f, 0x70,
  0x6f, 0x6f, 0x6c, 0x69, 0x6e, 0x67, 0x31, 0x64, 0x2f, 0x45, 0x78, 0x70,
  0x61, 0x6e, 0x64, 0x44, 0x69, 0x6d, 0x73, 0x2f, 0x64, 0x69, 0x6d, 0x00,
  0x00, 0x00, 0x00, 0x00, 0x34, 0xfc, 0xff, 0xff, 0x6e, 0xfd, 0xff, 0xff,
  0x04, 0x00, 0x00, 0x00, 0x0c, 0x00, 0x00, 0x00, 0xff, 0xff, 0xff, 0xff,
  0x96, 0x00, 0x00, 0x00, 0x08, 0x00, 0x00, 0x00, 0x6e, 0xfd, 0xff, 0xff,
  0x00, 0x00, 0x00, 0x02, 0x58, 0x00, 0x00, 0x00, 0x07, 0x00, 0x00, 0x00,
  0x08, 0x00, 0x00, 0x00, 0x54, 0x00, 0x00, 0x00, 0x41, 0x00, 0x00, 0x00,
  0x73, 0x65, 0x71, 0x75, 0x65, 0x6e, 0x74, 0x69, 0x61, 0x6c, 0x2f, 0x63,
  0x6f, 0x6e, 0x76, 0x31, 0x64, 0x2f, 0x63, 0x6f, 0x6e, 0x76, 0x31, 0x64,
  0x2f, 0x53, 0x71, 0x75, 0x65, 0x65, 0x7a, 0x65, 0x3b, 0x73, 0x65, 0x71,
  0x75, 0x65, 0x6e, 0x74, 0x69, 0x61, 0x6c, 0x2f, 0x63, 0x6f, 0x6e, 0x76,
  0x31, 0x64, 0x2f, 0x63, 0x6f, 0x6e, 0x76, 0x31, 0x64, 0x2f, 0x53, 0x71,
  0x75, 0x65, 0x65, 0x7a, 0x65, 0x00, 0x00, 0x00, 0x01, 0x00, 0x00, 0x00,
  0x03, 0x00, 0x00, 0x00, 0xb8, 0xfc, 0xff, 0xff, 0xf2, 0xfd, 0xff, 0xff,
  0x04, 0x00, 0x00, 0x00, 0x04, 0x00, 0x00, 0x00, 0xfd, 0xff, 0xff, 0xff,
  0xea, 0xfd, 0xff, 0xff, 0x00, 0x00, 0x00, 0x02, 0x64, 0x00, 0x00, 0x00,
  0x06, 0x00, 0x00, 0x00, 0x08, 0x00, 0x00, 0x00, 0x5c, 0x00, 0x00, 0x00,
  0x4f, 0x00, 0x00, 0x00, 0x73, 0x65, 0x71, 0x75, 0x65, 0x6e, 0x74, 0x69,
  0x61, 0x6c, 0x2f, 0x63, 0x6f, 0x6e, 0x76, 0x31, 0x64, 0x2f, 0x63, 0x6f,
  0x6e, 0x76, 0x31, 0x64, 0x2f, 0x45, 0x78, 0x70, 0x61, 0x6e, 0x64, 0x44,
  0x69, 0x6d, 0x73, 0x2f, 0x64, 0x69, 0x6d, 0x3b, 0x73, 0x65, 0x71, 0x75,
  0x65, 0x6e, 0x74, 0x69, 0x61, 0x6c, 0x2f, 0x63, 0x6f, 0x6e, 0x76, 0x31,
  0x64, 0x2f, 0x63, 0x6f, 0x6e, 0x76, 0x31, 0x64, 0x2f, 0x45, 0x78, 0x70,
  0x61, 0x6e, 0x64, 0x44, 0x69, 0x6d, 0x73, 0x2f, 0x64, 0x69, 0x6d, 0x00,
  0x00, 0x00, 0x00, 0x00, 0x3c, 0xfd, 0xff, 0xff, 0x76, 0xfe, 0xff, 0xff,
  0x04, 0x00, 0x00, 0x00, 0x04, 0x00, 0x00, 0x00, 0x1a, 0x00, 0x00, 0x00,
  0x6e, 0xfe, 0xff, 0xff, 0x00, 0x00, 0x00, 0x02, 0x5c, 0x00, 0x00, 0x00,
  0x05, 0x00, 0x00, 0x00, 0x08, 0x00, 0x00, 0x00, 0x54, 0x00, 0x00, 0x00,
  0x45, 0x00, 0x00, 0x00, 0x73, 0x65, 0x71, 0x75, 0x65, 0x6e, 0x74, 0x69,
  0x61, 0x6c, 0x2f, 0x72, 0x65, 0x73, 0x68, 0x61, 0x70, 0x65, 0x2f, 0x52,
  0x65, 0x73, 0x68, 0x61, 0x70, 0x65, 0x2f, 0x73, 0x68, 0x61, 0x70, 0x65,
  0x2f, 0x32, 0x3b, 0x73, 0x65, 0x71, 0x75, 0x65, 0x6e, 0x74, 0x69, 0x61,
  0x6c, 0x2f, 0x72, 0x65, 0x73, 0x68, 0x61, 0x70, 0x65, 0x2f, 0x52, 0x65,
  0x73, 0x68, 0x61, 0x70, 0x65, 0x2f, 0x73, 0x68, 0x61, 0x70, 0x65, 0x2f,
  0x32, 0x00, 0x00, 0x00, 0x00, 0x00, 0x00, 0x00, 0xb8, 0xfd, 0xff, 0xff,
  0xf2, 0xfe, 0xff, 0xff, 0x04, 0x00, 0x00, 0x00, 0x04, 0x00, 0x00, 0x00,
  0x96, 0x00, 0x00, 0x00, 0xea, 0xfe, 0xff, 0xff, 0x00, 0x00, 0x00, 0x02,
  0x5c, 0x00, 0x00, 0x00, 0x04, 0x00, 0x00, 0x00, 0x08, 0x00, 0x00, 0x00,
  0x54, 0x00, 0x00, 0x00, 0x45, 0x00, 0x00, 0x00, 0x73, 0x65, 0x71, 0x75,
  0x65, 0x6e, 0x74, 0x69, 0x61, 0x6c, 0x2f, 0x72, 0x65, 0x73, 0x68, 0x61,
  0x70, 0x65, 0x2f, 0x52, 0x65, 0x73, 0x68, 0x61, 0x70, 0x65, 0x2f, 0x73,
  0x68, 0x61, 0x70, 0x65, 0x2f, 0x31, 0x3b, 0x73, 0x65, 0x71, 0x75, 0x65,
  0x6e, 0x74, 0x69, 0x61, 0x6c, 0x2f, 0x72, 0x65, 0x73, 0x68, 0x61, 0x70,
  0x65, 0x2f, 0x52, 0x65, 0x73, 0x68, 0x61, 0x70, 0x65, 0x2f, 0x73, 0x68,
  0x61, 0x70, 0x65, 0x2f, 0x31, 0x00, 0x00, 0x00, 0x00, 0x00, 0x00, 0x00,
  0x34, 0xfe, 0xff, 0xff, 0x6e, 0xff, 0xff, 0xff, 0x04, 0x00, 0x00, 0x00,
  0x04, 0x00, 0x00, 0x00, 0x01, 0x00, 0x00, 0x00, 0x66, 0xff, 0xff, 0xff,
  0x00, 0x00, 0x00, 0x02, 0x68, 0x00, 0x00, 0x00, 0x03, 0x00, 0x00, 0x00,
  0x08, 0x00, 0x00, 0x00, 0x68, 0x00, 0x00, 0x00, 0x51, 0x00, 0x00, 0x00,
  0x73, 0x65, 0x71, 0x75, 0x65, 0x6e, 0x74, 0x69, 0x61, 0x6c, 0x2f, 0x72,
  0x65, 0x73, 0x68, 0x61, 0x70, 0x65, 0x2f, 0x73, 0x74, 0x72, 0x69, 0x64,
  0x65, 0x64, 0x5f, 0x73, 0x6c, 0x69, 0x63, 0x65, 0x2f, 0x73, 0x74, 0x61,
  0x63, 0x6b, 0x5f, 0x31, 0x3b, 0x73, 0x65, 0x71, 0x75, 0x65, 0x6e, 0x74,
  0x69, 0x61, 0x6c, 0x2f, 0x72, 0x65, 0x73, 0x68, 0x61, 0x70, 0x65, 0x2f,
  0x73, 0x74, 0x72, 0x69, 0x64, 0x65, 0x64, 0x5f, 0x73, 0x6c, 0x69, 0x63,
  0x65, 0x2f, 0x73, 0x74, 0x61, 0x63, 0x6b, 0x5f, 0x31, 0x00, 0x00, 0x00,
  0x01, 0x00, 0x00, 0x00, 0x01, 0x00, 0x00, 0x00, 0x04, 0x00, 0x06, 0x00,
  0x04, 0x00, 0x00, 0x00, 0x00, 0x00, 0x06, 0x00, 0x08, 0x00, 0x04, 0x00,
  0x06, 0x00, 0x00, 0x00, 0x04, 0x00, 0x00, 0x00, 0x04, 0x00, 0x00, 0x00,
  0x00, 0x00, 0x00, 0x00, 0x00, 0x00, 0x0e, 0x00, 0x18, 0x00, 0x08, 0x00,
  0x07, 0x00, 0x0c, 0x00, 0x10, 0x00, 0x14, 0x00, 0x0e, 0x00, 0x00, 0x00,
  0x00, 0x00, 0x00, 0x02, 0x64, 0x00, 0x00, 0x00, 0x02, 0x00, 0x00, 0x00,
  0x08, 0x00, 0x00, 0x00, 0x60, 0x00, 0x00, 0x00, 0x4d, 0x00, 0x00, 0x00,
  0x73, 0x65, 0x71, 0x75, 0x65, 0x6e, 0x74, 0x69, 0x61, 0x6c, 0x2f, 0x72,
  0x65, 0x73, 0x68, 0x61, 0x70, 0x65, 0x2f, 0x73, 0x74, 0x72, 0x69, 0x64,
  0x65, 0x64, 0x5f, 0x73, 0x6c, 0x69, 0x63, 0x65, 0x2f, 0x73, 0x74, 0x61,
  0x63, 0x6b, 0x3b, 0x73, 0x65, 0x71, 0x75, 0x65, 0x6e, 0x74, 0x69, 0x61,
  0x6c, 0x2f, 0x72, 0x65, 0x73, 0x68, 0x61, 0x70, 0x65, 0x2f, 0x73, 0x74,
  0x72, 0x69, 0x64, 0x65, 0x64, 0x5f, 0x73, 0x6c, 0x69, 0x63, 0x65, 0x2f,
  0x73, 0x74, 0x61, 0x63, 0x6b, 0x00, 0x00, 0x00, 0x01, 0x00, 0x00, 0x00,
  0x01, 0x00, 0x00, 0x00, 0x64, 0xff, 0xff, 0xff, 0x14, 0x00, 0x1c, 0x00,
  0x08, 0x00, 0x07, 0x00, 0x0c, 0x00, 0x10, 0x00, 0x14, 0x00, 0x00, 0x00,
  0x00, 0x00, 0x18, 0x00, 0x14, 0x00, 0x00, 0x00, 0x00, 0x00, 0x00, 0x09,
  0x44, 0x00, 0x00, 0x00, 0x01, 0x00, 0x00, 0x00, 0x18, 0x00, 0x00, 0x00,
  0x50, 0x00, 0x00, 0x00, 0x04, 0x00, 0x00, 0x00, 0x02, 0x00, 0x00, 0x00,
  0xff, 0xff, 0xff, 0xff, 0x3c, 0x0f, 0x00, 0x00, 0x1f, 0x00, 0x00, 0x00,
  0x73, 0x65, 0x72, 0x76, 0x69, 0x6e, 0x67, 0x5f, 0x64, 0x65, 0x66, 0x61,
  0x75, 0x6c, 0x74, 0x5f, 0x72, 0x65, 0x73, 0x68, 0x61, 0x70, 0x65, 0x5f,
  0x69, 0x6e, 0x70, 0x75, 0x74, 0x3a, 0x30, 0x00, 0x02, 0x00, 0x00, 0x00,
  0x01, 0x00, 0x00, 0x00, 0x3c, 0x0f, 0x00, 0x00, 0x0c, 0x00, 0x0c, 0x00,
  0x00, 0x00, 0x00, 0x00, 0x04, 0x00, 0x08, 0x00, 0x0c, 0x00, 0x00, 0x00,
  0x14, 0x00, 0x00, 0x00, 0x04, 0x00, 0x00, 0x00, 0x01, 0x00, 0x00, 0x00,
  0x09, 0x00, 0x00, 0x00, 0x00, 0x00, 0x00, 0x00, 0x01, 0x00, 0x00, 0x00,
  0xa1, 0x18, 0x10, 0x3e, 0x04, 0x00, 0x04, 0x00, 0x04, 0x00, 0x00, 0x00
};
unsigned int mfcc_int8_tflite_len = 10392;
