unsigned char saved_tflite_model_mfe_tflite[] = {
  0x28, 0x00, 0x00, 0x00, 0x54, 0x46, 0x4c, 0x33, 0x00, 0x00, 0x00, 0x00,
  0x00, 0x00, 0x00, 0x00, 0x00, 0x00, 0x00, 0x00, 0x14, 0x00, 0x20, 0x00,
  0x04, 0x00, 0x08, 0x00, 0x0c, 0x00, 0x10, 0x00, 0x14, 0x00, 0x00, 0x00,
  0x18, 0x00, 0x1c, 0x00, 0x14, 0x00, 0x00, 0x00, 0x03, 0x00, 0x00, 0x00,
  0xcc, 0x27, 0x00, 0x00, 0xcc, 0x15, 0x00, 0x00, 0xb4, 0x15, 0x00, 0x00,
  0xb0, 0x00, 0x00, 0x00, 0x78, 0x00, 0x00, 0x00, 0x04, 0x00, 0x00, 0x00,
  0x01, 0x00, 0x00, 0x00, 0x04, 0x00, 0x00, 0x00, 0xee, 0xe6, 0xff, 0xff,
  0x40, 0x00, 0x00, 0x00, 0x1c, 0x00, 0x00, 0x00, 0x04, 0x00, 0x00, 0x00,
  0x0f, 0x00, 0x00, 0x00, 0x73, 0x65, 0x72, 0x76, 0x69, 0x6e, 0x67, 0x5f,
  0x64, 0x65, 0x66, 0x61, 0x75, 0x6c, 0x74, 0x00, 0x01, 0x00, 0x00, 0x00,
  0x04, 0x00, 0x00, 0x00, 0xbc, 0xff, 0xff, 0xff, 0x08, 0x00, 0x00, 0x00,
  0x22, 0x00, 0x00, 0x00, 0x06, 0x00, 0x00, 0x00, 0x79, 0x5f, 0x70, 0x72,
  0x65, 0x64, 0x00, 0x00, 0x01, 0x00, 0x00, 0x00, 0x04, 0x00, 0x00, 0x00,
  0xf2, 0xe6, 0xff, 0xff, 0x04, 0x00, 0x00, 0x00, 0x0d, 0x00, 0x00, 0x00,
  0x72, 0x65, 0x73, 0x68, 0x61, 0x70, 0x65, 0x5f, 0x69, 0x6e, 0x70, 0x75,
  0x74, 0x00, 0x00, 0x00, 0x01, 0x00, 0x00, 0x00, 0x0c, 0x00, 0x00, 0x00,
  0x08, 0x00, 0x0c, 0x00, 0x04, 0x00, 0x08, 0x00, 0x08, 0x00, 0x00, 0x00,
  0x08, 0x00, 0x00, 0x00, 0x24, 0x00, 0x00, 0x00, 0x13, 0x00, 0x00, 0x00,
  0x6d, 0x69, 0x6e, 0x5f, 0x72, 0x75, 0x6e, 0x74, 0x69, 0x6d, 0x65, 0x5f,
  0x76, 0x65, 0x72, 0x73, 0x69, 0x6f, 0x6e, 0x00, 0x25, 0x00, 0x00, 0x00,
  0xec, 0x14, 0x00, 0x00, 0xd8, 0x14, 0x00, 0x00, 0xbc, 0x14, 0x00, 0x00,
  0x68, 0x14, 0x00, 0x00, 0x34, 0x14, 0x00, 0x00, 0x20, 0x14, 0x00, 0x00,
  0x0c, 0x14, 0x00, 0x00, 0xf8, 0x13, 0x00, 0x00, 0xe4, 0x13, 0x00, 0x00,
  0xd0, 0x13, 0x00, 0x00, 0xac, 0x13, 0x00, 0x00, 0x98, 0x13, 0x00, 0x00,
  0x04, 0x0d, 0x00, 0x00, 0x10, 0x08, 0x00, 0x00, 0xfc, 0x01, 0x00, 0x00,
  0xd8, 0x01, 0x00, 0x00, 0xb4, 0x01, 0x00, 0x00, 0x90, 0x01, 0x00, 0x00,
  0x84, 0x01, 0x00, 0x00, 0x70, 0x01, 0x00, 0x00, 0x5c, 0x01, 0x00, 0x00,
  0x48, 0x01, 0x00, 0x00, 0x34, 0x01, 0x00, 0x00, 0x20, 0x01, 0x00, 0x00,
  0x0c, 0x01, 0x00, 0x00, 0xf8, 0x00, 0x00, 0x00, 0xe4, 0x00, 0x00, 0x00,
  0xd0, 0x00, 0x00, 0x00, 0xbc, 0x00, 0x00, 0x00, 0xa8, 0x00, 0x00, 0x00,
  0x94, 0x00, 0x00, 0x00, 0x80, 0x00, 0x00, 0x00, 0x6c, 0x00, 0x00, 0x00,
  0x58, 0x00, 0x00, 0x00, 0x44, 0x00, 0x00, 0x00, 0x30, 0x00, 0x00, 0x00,
  0x04, 0x00, 0x00, 0x00, 0xda, 0xe7, 0xff, 0xff, 0x04, 0x00, 0x00, 0x00,
  0x10, 0x00, 0x00, 0x00, 0x31, 0x2e, 0x31, 0x31, 0x2e, 0x30, 0x00, 0x00,
  0x00, 0x00, 0x00, 0x00, 0x00, 0x00, 0x00, 0x00, 0x00, 0x00, 0x00, 0x00,
  0x00, 0x00, 0x00, 0x00, 0x00, 0x00, 0x00, 0x00, 0xe8, 0xd9, 0xff, 0xff,
  0x00, 0x00, 0x00, 0x00, 0x00, 0x00, 0x00, 0x00, 0x00, 0x00, 0x00, 0x00,
  0xf8, 0xd9, 0xff, 0xff, 0x00, 0x00, 0x00, 0x00, 0x00, 0x00, 0x00, 0x00,
  0x00, 0x00, 0x00, 0x00, 0x08, 0xda, 0xff, 0xff, 0x00, 0x00, 0x00, 0x00,
  0x00, 0x00, 0x00, 0x00, 0x00, 0x00, 0x00, 0x00, 0x18, 0xda, 0xff, 0xff,
  0x00, 0x00, 0x00, 0x00, 0x00, 0x00, 0x00, 0x00, 0x00, 0x00, 0x00, 0x00,
  0x28, 0xda, 0xff, 0xff, 0x00, 0x00, 0x00, 0x00, 0x00, 0x00, 0x00, 0x00,
  0x00, 0x00, 0x00, 0x00, 0x38, 0xda, 0xff, 0xff, 0x00, 0x00, 0x00, 0x00,
  0x00, 0x00, 0x00, 0x00, 0x00, 0x00, 0x00, 0x00, 0x48, 0xda, 0xff, 0xff,
  0x00, 0x00, 0x00, 0x00, 0x00, 0x00, 0x00, 0x00, 0x00, 0x00, 0x00, 0x00,
  0x58, 0xda, 0xff, 0xff, 0x00, 0x00, 0x00, 0x00, 0x00, 0x00, 0x00, 0x00,
  0x00, 0x00, 0x00, 0x00, 0x68, 0xda, 0xff, 0xff, 0x00, 0x00, 0x00, 0x00,
  0x00, 0x00, 0x00, 0x00, 0x00, 0x00, 0x00, 0x00, 0x78, 0xda, 0xff, 0xff,
  0x00, 0x00, 0x00, 0x00, 0x00, 0x00, 0x00, 0x00, 0x00, 0x00, 0x00, 0x00,
  0x88, 0xda, 0xff, 0xff, 0x00, 0x00, 0x00, 0x00, 0x00, 0x00, 0x00, 0x00,
  0x00, 0x00, 0x00, 0x00, 0x98, 0xda, 0xff, 0xff, 0x00, 0x00, 0x00, 0x00,
  0x00, 0x00, 0x00, 0x00, 0x00, 0x00, 0x00, 0x00, 0xa8, 0xda, 0xff, 0xff,
  0x00, 0x00, 0x00, 0x00, 0x00, 0x00, 0x00, 0x00, 0x00, 0x00, 0x00, 0x00,
  0xb8, 0xda, 0xff, 0xff, 0x00, 0x00, 0x00, 0x00, 0x00, 0x00, 0x00, 0x00,
  0x00, 0x00, 0x00, 0x00, 0xc8, 0xda, 0xff, 0xff, 0x00, 0x00, 0x00, 0x00,
  0x00, 0x00, 0x00, 0x00, 0x00, 0x00, 0x00, 0x00, 0xd8, 0xda, 0xff, 0xff,
  0x00, 0x00, 0x00, 0x00, 0x00, 0x00, 0x00, 0x00, 0x00, 0x00, 0x00, 0x00,
  0xe8, 0xda, 0xff, 0xff, 0x00, 0x00, 0x00, 0x00, 0x00, 0x00, 0x00, 0x00,
  0x00, 0x00, 0x00, 0x00, 0xf8, 0xda, 0xff, 0xff, 0x00, 0x00, 0x00, 0x00,
  0x1a, 0xe9, 0xff, 0xff, 0x04, 0x00, 0x00, 0x00, 0x0c, 0x00, 0x00, 0x00,
  0xff, 0xff, 0xff, 0xff, 0x1a, 0x00, 0x00, 0x00, 0x10, 0x00, 0x00, 0x00,
  0x00, 0x00, 0x00, 0x00, 0x00, 0x00, 0x00, 0x00, 0x3a, 0xe9, 0xff, 0xff,
  0x04, 0x00, 0x00, 0x00, 0x0c, 0x00, 0x00, 0x00, 0xff, 0xff, 0xff, 0xff,
  0x1a, 0x00, 0x00, 0x00, 0x08, 0x00, 0x00, 0x00, 0x00, 0x00, 0x00, 0x00,
  0x00, 0x00, 0x00, 0x00, 0x5a, 0xe9, 0xff, 0xff, 0x04, 0x00, 0x00, 0x00,
  0x0c, 0x00, 0x00, 0x00, 0xff, 0xff, 0xff, 0xff, 0x34, 0x00, 0x00, 0x00,
  0x08, 0x00, 0x00, 0x00, 0x00, 0x00, 0x00, 0x00, 0x00, 0x00, 0x00, 0x00,
  0x7a, 0xe9, 0xff, 0xff, 0x04, 0x00, 0x00, 0x00, 0x00, 0x06, 0x00, 0x00,
  0x97, 0x3a, 0x1a, 0x3d, 0xd8, 0xcd, 0x0c, 0x3d, 0xc8, 0xc4, 0xfb, 0xbd,
  0x14, 0x88, 0xcf, 0x3d, 0xee, 0x77, 0x19, 0xbf, 0x2a, 0x81, 0x64, 0xbe,
  0x35, 0xec, 0x14, 0xbe, 0xf0, 0x84, 0x5b, 0xbe, 0x2d, 0x9a, 0x0b, 0x3e,
  0xed, 0xfd, 0xdd, 0xbc, 0xe6, 0xcb, 0x10, 0xbe, 0x69, 0x3f, 0xc9, 0x3e,
  0x52, 0x72, 0xca, 0xbc, 0x43, 0xd4, 0x6c, 0xbc, 0xf3, 0x32, 0x53, 0x3e,
  0xb2, 0x7d, 0xa0, 0xbe, 0x5a, 0x0e, 0x61, 0xbd, 0xd8, 0x9d, 0x4c, 0x3e,
  0x10, 0xfd, 0x66, 0xbe, 0xe1, 0x62, 0x1d, 0x3e, 0xe8, 0xc0, 0x62, 0xbc,
  0x4e, 0x4f, 0x36, 0xbf, 0x1c, 0x11, 0x1e, 0x3f, 0x86, 0x11, 0x23, 0x3e,
  0x53, 0x16, 0x68, 0xbe, 0x28, 0x1f, 0x21, 0x3d, 0x63, 0x4b, 0xa6, 0xbe,
  0xce, 0x9d, 0x9d, 0xbe, 0xc5, 0x8f, 0x01, 0xbe, 0xe9, 0xd8, 0xa3, 0x3e,
  0xd6, 0x95, 0xb6, 0xbc, 0x9d, 0xee, 0x54, 0x3e, 0x1a, 0xf1, 0x4a, 0xbe,
  0x09, 0x82, 0x50, 0xbe, 0xbb, 0x9f, 0x10, 0xbe, 0xe2, 0xd4, 0xa5, 0xbd,
  0xa0, 0x77, 0x44, 0xbe, 0x4e, 0xb4, 0xf2, 0x3d, 0x00, 0x62, 0x8e, 0x3e,
  0xbb, 0x3d, 0x34, 0xbe, 0xf1, 0x57, 0x02, 0x3e, 0x33, 0xcd, 0x00, 0x3e,
  0x9d, 0x0c, 0x64, 0xbe, 0xc8, 0xd6, 0x63, 0xbd, 0x64, 0xe5, 0x95, 0xbe,
  0xc9, 0x24, 0x04, 0x3f, 0x75, 0x81, 0xa3, 0x3d, 0x4f, 0xe7, 0x7f, 0xbe,
  0xbb, 0x08, 0x3d, 0xbe, 0xa8, 0x09, 0x11, 0xbe, 0xaf, 0xe0, 0x4f, 0xbe,
  0x30, 0x83, 0x30, 0xbc, 0xd8, 0xb5, 0xb7, 0x3e, 0xa5, 0x8c, 0x50, 0x3d,
  0x53, 0x31, 0xae, 0x3d, 0x33, 0xae, 0x8f, 0xbe, 0x4c, 0x97, 0x8f, 0xbe,
  0xd4, 0xcb, 0x28, 0x3d, 0xf3, 0x5a, 0x04, 0x3e, 0x5d, 0x63, 0xe9, 0x3d,
  0x5e, 0xc2, 0x6d, 0x3e, 0x3d, 0x1c, 0xe3, 0xba, 0x8d, 0x64, 0x4e, 0x3d,
  0xd8, 0xe0, 0x93, 0x3d, 0xd1, 0x70, 0x1d, 0xbe, 0x12, 0x60, 0xd6, 0x38,
  0xe9, 0x60, 0x65, 0xbd, 0xd4, 0x30, 0x2a, 0x3d, 0x3c, 0xac, 0x05, 0x3d,
  0x24, 0x94, 0x18, 0x3d, 0x50, 0xaf, 0x86, 0xbe, 0x96, 0xdc, 0xda, 0xbe,
  0x0d, 0x6d, 0x03, 0x3e, 0x38, 0x38, 0xa6, 0x3b, 0x88, 0xea, 0x2c, 0xbe,
  0xeb, 0xa9, 0x35, 0x3e, 0x22, 0x3d, 0x5a, 0x3d, 0x4a, 0xc8, 0xa0, 0x3d,
  0xc6, 0x95, 0x02, 0x3f, 0x4b, 0xc6, 0x2a, 0xbe, 0x94, 0xf9, 0x04, 0xbf,
  0x61, 0x87, 0x29, 0xbf, 0x12, 0x0c, 0x23, 0x3e, 0xe3, 0xaa, 0x7f, 0x3e,
  0x5e, 0xe5, 0x45, 0xbd, 0xc1, 0x3f, 0x98, 0xbe, 0x9a, 0x65, 0x25, 0x3d,
  0x0c, 0x4b, 0x07, 0x3e, 0x0c, 0x05, 0xa3, 0xbd, 0xa5, 0xe4, 0x6a, 0x3e,
  0x18, 0x66, 0xf5, 0xbd, 0x0e, 0x08, 0x4f, 0xbe, 0xdf, 0x2f, 0x49, 0xbf,
  0x01, 0x7f, 0x5c, 0x3e, 0x25, 0x53, 0x54, 0xbf, 0xb6, 0xda, 0x18, 0xbc,
  0x63, 0xe4, 0x40, 0x3e, 0x7d, 0x85, 0x78, 0x3e, 0x76, 0x55, 0x34, 0xbe,
  0x04, 0xf2, 0x10, 0x3d, 0x37, 0x9a, 0x17, 0x3e, 0x3f, 0xa8, 0xb1, 0xbe,
  0xdf, 0x54, 0x99, 0xbe, 0xc1, 0x0b, 0xa7, 0x3c, 0xdf, 0x5f, 0xb1, 0x3d,
  0x8b, 0x31, 0x97, 0xbd, 0xaf, 0x9c, 0x0a, 0xbe, 0xa3, 0x47, 0x91, 0xbe,
  0x96, 0x26, 0x6a, 0xbd, 0x51, 0xa7, 0x11, 0xbe, 0x35, 0x61, 0xcd, 0xbd,
  0x99, 0x5f, 0x03, 0x3e, 0xc2, 0xdb, 0xba, 0xbd, 0xe7, 0x29, 0xad, 0xbe,
  0x0e, 0xe2, 0x5a, 0x3e, 0xfd, 0xd0, 0xd2, 0x3e, 0x49, 0x72, 0x88, 0xbe,
  0x5f, 0x05, 0x79, 0x3e, 0x45, 0xd5, 0x0c, 0x3e, 0x6d, 0x28, 0x77, 0xbd,
  0x4f, 0x5d, 0x57, 0x3e, 0x58, 0x00, 0x73, 0xbe, 0x05, 0x1f, 0x92, 0xbd,
  0xe7, 0x73, 0xdf, 0xbe, 0x5c, 0x33, 0x89, 0xbd, 0xb6, 0x16, 0xcd, 0xbd,
  0xb9, 0x0c, 0x36, 0x3e, 0x72, 0xd3, 0x02, 0xbe, 0x5d, 0xe1, 0xec, 0x3d,
  0x82, 0x9b, 0xae, 0xbe, 0x17, 0xcc, 0x85, 0x3e, 0xbb, 0x18, 0x5e, 0x3d,
  0x2e, 0x77, 0x20, 0x3e, 0x96, 0x3f, 0xca, 0xbe, 0x9f, 0x95, 0x37, 0x3d,
  0x7b, 0xde, 0x08, 0x3e, 0xc7, 0x07, 0xe0, 0xbe, 0xc7, 0x20, 0x8b, 0xbe,
  0x35, 0x8d, 0xb0, 0x3d, 0xbe, 0x1d, 0xf5, 0x3d, 0x9c, 0x75, 0x83, 0x3e,
  0x0c, 0xe9, 0xb7, 0x3e, 0xac, 0xed, 0x59, 0x3e, 0x36, 0x45, 0xd2, 0xbd,
  0x3b, 0xba, 0x85, 0xbd, 0xdb, 0xb8, 0x96, 0x3e, 0x29, 0xc8, 0xb1, 0xbe,
  0x19, 0xa5, 0xfd, 0x3d, 0xe8, 0xbb, 0xbc, 0x3d, 0x2c, 0xa0, 0x50, 0xbe,
  0xeb, 0x74, 0xb1, 0x3e, 0xcd, 0xf7, 0x05, 0xbf, 0xc8, 0x5e, 0x8a, 0xbc,
  0x74, 0x2a, 0xbf, 0xbd, 0x72, 0xfd, 0x90, 0xbe, 0x0a, 0x77, 0xfb, 0xbd,
  0x5c, 0xf0, 0x1e, 0xbf, 0x56, 0xed, 0xb1, 0xbe, 0xeb, 0xcc, 0x48, 0x3d,
  0xd7, 0x47, 0xc8, 0x3e, 0x0a, 0xe1, 0xbb, 0xbd, 0xb5, 0x2a, 0xf7, 0x3d,
  0xe8, 0x42, 0x64, 0x3e, 0x88, 0xed, 0x70, 0xbe, 0xc1, 0x72, 0x8b, 0x3e,
  0xcd, 0x6a, 0xa7, 0x3d, 0xa8, 0x46, 0x61, 0x3c, 0x84, 0x35, 0x61, 0x3e,
  0x11, 0x09, 0x15, 0xbf, 0xbb, 0x97, 0x2d, 0xbe, 0x10, 0x38, 0x16, 0x3d,
  0xd7, 0x84, 0x03, 0xbd, 0x67, 0xd2, 0x63, 0x3e, 0x51, 0xe3, 0xb7, 0x3d,
  0x98, 0x63, 0x01, 0x3b, 0x38, 0x62, 0x2b, 0x3d, 0x3b, 0xcb, 0x8b, 0xbb,
  0x16, 0xf4, 0x46, 0x3e, 0x2c, 0xda, 0xc3, 0xbd, 0x56, 0x51, 0x0f, 0x3e,
  0xdb, 0xc5, 0x0c, 0x3e, 0x11, 0x3b, 0x76, 0x3e, 0x05, 0xa5, 0x85, 0xbe,
  0xf5, 0x45, 0xb4, 0xbc, 0xcf, 0xcc, 0xac, 0xbe, 0x70, 0x6e, 0x25, 0x3d,
  0xa9, 0x4e, 0xca, 0x3e, 0x6e, 0xf7, 0x8b, 0x3e, 0xe0, 0xd3, 0xeb, 0xbe,
  0x83, 0xc3, 0xcd, 0x3d, 0x0a, 0xdc, 0x42, 0xbc, 0x07, 0x31, 0x51, 0xbf,
  0xb1, 0x42, 0xba, 0xbd, 0xe4, 0xe8, 0xdb, 0xbd, 0xe5, 0x92, 0x50, 0x3e,
  0x3a, 0xa0, 0x36, 0x3d, 0xf4, 0xa7, 0x99, 0xbd, 0x5b, 0x0a, 0x64, 0xbe,
  0x3b, 0x40, 0x29, 0xbd, 0xc2, 0xab, 0xfd, 0x3d, 0x94, 0xf3, 0x23, 0xbe,
  0xf2, 0x96, 0xea, 0xbd, 0x0e, 0x62, 0xa8, 0xbe, 0x28, 0x9a, 0xdb, 0x3d,
  0xb3, 0x06, 0xe1, 0xbd, 0xff, 0xeb, 0xe2, 0x3c, 0xc9, 0x5e, 0x8c, 0x3d,
  0xe1, 0xda, 0x39, 0x3e, 0x11, 0x1b, 0x1a, 0xbe, 0xa8, 0xef, 0xaa, 0x3d,
  0xed, 0x57, 0x2b, 0x3e, 0xef, 0x05, 0x95, 0xbe, 0xab, 0x26, 0x83, 0xbd,
  0x1f, 0x6b, 0xda, 0x3d, 0x5e, 0xd3, 0xde, 0x3e, 0xb2, 0x41, 0x5a, 0xbe,
  0xe7, 0x63, 0xbd, 0x3d, 0x42, 0xe6, 0xb6, 0x3d, 0x39, 0xcc, 0x0f, 0x3e,
  0x97, 0xfd, 0xce, 0x3d, 0xe3, 0xdf, 0x5b, 0x3e, 0x53, 0x09, 0xf4, 0x3d,
  0xbd, 0x1d, 0xac, 0xbd, 0x2c, 0x0e, 0x70, 0xbe, 0xa4, 0x48, 0x07, 0xbf,
  0x96, 0xd8, 0x8b, 0x3e, 0xea, 0x82, 0x5d, 0x3d, 0x47, 0x69, 0x6f, 0x3d,
  0xdf, 0x91, 0x95, 0xbd, 0xdb, 0x47, 0x4b, 0xbe, 0x9d, 0x16, 0x07, 0x3f,
  0x57, 0x02, 0x38, 0x3e, 0x27, 0x98, 0x40, 0xbe, 0x85, 0xf0, 0xe5, 0xbd,
  0x70, 0x34, 0x1f, 0xbe, 0x22, 0x8c, 0xda, 0xbc, 0xe1, 0x5b, 0xc9, 0xbe,
  0xbc, 0xcf, 0x37, 0x3e, 0x91, 0x80, 0xc9, 0x3c, 0x1c, 0x23, 0x30, 0xbf,
  0x1f, 0x96, 0x49, 0xbe, 0x36, 0x22, 0x82, 0x3d, 0x1e, 0x3d, 0x31, 0xbe,
  0x77, 0x48, 0x69, 0xbe, 0xd6, 0x0f, 0x8e, 0xbc, 0xf3, 0x79, 0x8e, 0x3d,
  0xf6, 0xbe, 0x6e, 0xbe, 0xce, 0x72, 0x8f, 0x3e, 0x68, 0x20, 0x88, 0xbe,
  0x65, 0xc7, 0x89, 0xbe, 0x10, 0x03, 0x84, 0x3d, 0x39, 0x67, 0x04, 0x3f,
  0x06, 0xfc, 0xe4, 0x3d, 0x1a, 0xbf, 0x49, 0xbe, 0x3a, 0x6b, 0x0d, 0x3e,
  0xf6, 0x23, 0x1c, 0x3d, 0xe3, 0x1a, 0x5e, 0xbd, 0x59, 0xa5, 0x59, 0xbe,
  0x62, 0x3b, 0xab, 0xbe, 0x96, 0xeb, 0xc7, 0xbd, 0xcd, 0xd4, 0x82, 0xbe,
  0xf8, 0x0c, 0xdb, 0x3d, 0x77, 0x1f, 0x7f, 0xbe, 0x49, 0x22, 0xc7, 0x3e,
  0x18, 0x64, 0x5d, 0x3e, 0xac, 0x68, 0xa2, 0xbe, 0x65, 0xd6, 0xfa, 0x3d,
  0xbd, 0x2b, 0x81, 0x3e, 0x64, 0x97, 0x8d, 0x3e, 0xe5, 0x9d, 0x20, 0xbe,
  0xce, 0x14, 0x0a, 0x3e, 0xdf, 0x74, 0xee, 0xbd, 0x17, 0xc0, 0x0b, 0xbf,
  0x7f, 0xb7, 0x42, 0xbd, 0xdb, 0x3a, 0xd0, 0xbd, 0xe0, 0xe0, 0x04, 0xbe,
  0x7e, 0x0f, 0x1b, 0xbe, 0xf5, 0xe2, 0xfa, 0xbd, 0x33, 0xb4, 0xff, 0x3e,
  0xaa, 0x41, 0x61, 0x3e, 0xcb, 0x90, 0x3a, 0xbe, 0x66, 0x45, 0x5c, 0xbe,
  0xb8, 0xfd, 0x0b, 0xbe, 0x0e, 0x69, 0x77, 0xbe, 0x19, 0x2d, 0x59, 0xbd,
  0xfb, 0x8c, 0xaa, 0x3e, 0xf2, 0xe2, 0xa2, 0xbe, 0x68, 0x1b, 0xc2, 0x3d,
  0xa7, 0xa4, 0x2d, 0xbe, 0x28, 0x8f, 0x02, 0x3d, 0xa9, 0x69, 0xe0, 0xbd,
  0x1d, 0x44, 0x80, 0x3e, 0xae, 0x87, 0x84, 0xbe, 0x59, 0x9e, 0xac, 0xbc,
  0xaa, 0xfc, 0x4c, 0xbe, 0xa4, 0xcb, 0x12, 0x3e, 0xb8, 0x20, 0x10, 0xbe,
  0xe2, 0x1a, 0x95, 0x3e, 0xb5, 0xac, 0x52, 0xbe, 0x9b, 0xf4, 0x2b, 0x3e,
  0xf0, 0x9b, 0xad, 0xbe, 0x4f, 0xe9, 0x8d, 0xbe, 0x10, 0xc3, 0x65, 0x3e,
  0x64, 0x38, 0xac, 0xbe, 0xf4, 0x27, 0x26, 0x3d, 0xc0, 0x6a, 0x4e, 0xbc,
  0xe2, 0x8e, 0x01, 0xbf, 0xb9, 0xcb, 0x02, 0xbf, 0xad, 0x5c, 0x71, 0xbd,
  0x90, 0x4c, 0xc5, 0x3e, 0xb6, 0x14, 0x8a, 0xbe, 0x7d, 0x68, 0x9d, 0x3e,
  0xb7, 0x3f, 0x12, 0x3e, 0x8e, 0xb2, 0x84, 0xbd, 0x1b, 0x6a, 0xee, 0x3d,
  0x09, 0x3e, 0x00, 0x3e, 0x61, 0x56, 0x8a, 0x3d, 0x8b, 0x32, 0xd9, 0xbc,
  0x8d, 0x23, 0xb0, 0xbd, 0x4f, 0xb4, 0xe1, 0xbe, 0x47, 0x67, 0x65, 0xbe,
  0x53, 0x6f, 0xbd, 0x3d, 0x0e, 0xa3, 0xf0, 0x3d, 0xa4, 0x9e, 0x74, 0xbe,
  0x14, 0x79, 0x5f, 0x3d, 0xfd, 0xd2, 0x3c, 0xbd, 0xd5, 0xc7, 0x08, 0xbe,
  0xfe, 0x3f, 0x16, 0xbe, 0x3e, 0xfc, 0xc8, 0xbd, 0xd0, 0x07, 0x2e, 0x3d,
  0x57, 0x1e, 0xe9, 0xbd, 0x7c, 0x5b, 0xa1, 0x3e, 0x0a, 0x0d, 0x96, 0x3e,
  0x70, 0xeb, 0xc0, 0xbe, 0xd6, 0x7d, 0xca, 0x3b, 0x9c, 0x79, 0x51, 0xbd,
  0x37, 0x51, 0x44, 0x3e, 0x45, 0x27, 0x22, 0xbd, 0x91, 0x73, 0x10, 0x3e,
  0xcb, 0x54, 0x2a, 0xbe, 0x4a, 0x6d, 0x74, 0xbe, 0xdd, 0x49, 0x74, 0xbe,
  0xa9, 0x6c, 0x85, 0xbe, 0xf7, 0xb9, 0x2d, 0x3e, 0x8a, 0xf3, 0x37, 0xbe,
  0xc2, 0x2e, 0xe6, 0xbd, 0xb7, 0x45, 0x30, 0x3e, 0xea, 0x26, 0x84, 0xbe,
  0x5b, 0x90, 0x80, 0x3e, 0x4a, 0x25, 0x73, 0xbe, 0x12, 0x5e, 0x3f, 0xba,
  0x6a, 0x04, 0xa3, 0x3e, 0xf3, 0x8d, 0x9a, 0xbe, 0x71, 0x4e, 0x91, 0xbe,
  0x78, 0xaf, 0x81, 0xbe, 0xe7, 0x93, 0x8d, 0xbe, 0x2b, 0x52, 0x44, 0x3e,
  0xf5, 0xc1, 0xd5, 0x3c, 0xe2, 0x91, 0x6c, 0x3e, 0x8f, 0x37, 0xe9, 0x3d,
  0x04, 0x34, 0xfd, 0x3d, 0x8a, 0xe0, 0xc1, 0x3e, 0x05, 0x41, 0xb7, 0xbe,
  0x56, 0x2d, 0x11, 0x3e, 0x4d, 0x89, 0x7d, 0xbe, 0x52, 0xd1, 0x19, 0x3b,
  0xa4, 0xa4, 0x7b, 0x3d, 0xed, 0x5e, 0xb8, 0x3c, 0x94, 0xc8, 0x36, 0xbd,
  0x1a, 0xbe, 0x86, 0xbe, 0xa4, 0x31, 0x2b, 0xbe, 0x1a, 0xa7, 0x0a, 0xbf,
  0x9f, 0x69, 0x97, 0xbe, 0x81, 0x4d, 0x8b, 0x3e, 0x91, 0xed, 0xe1, 0x3e,
  0x87, 0x72, 0xbc, 0x3b, 0x35, 0x63, 0x2c, 0xbf, 0xed, 0xa2, 0xdb, 0xbe,
  0x18, 0x07, 0x16, 0xbe, 0xf9, 0x24, 0x1d, 0xbd, 0xde, 0x5a, 0x21, 0xbe,
  0xe1, 0xcb, 0xdf, 0xbe, 0xbe, 0x7c, 0x18, 0x3f, 0x80, 0xe9, 0xb7, 0xbe,
  0x00, 0x00, 0x00, 0x00, 0x8a, 0xef, 0xff, 0xff, 0x04, 0x00, 0x00, 0x00,
  0xe0, 0x04, 0x00, 0x00, 0xad, 0x46, 0xc2, 0xbe, 0x2c, 0x15, 0xaa, 0xbe,
  0x6f, 0x8c, 0xb3, 0x3d, 0x1c, 0x9c, 0xc7, 0x3e, 0xcf, 0x16, 0xa9, 0x3e,
  0x19, 0x98, 0x25, 0x3e, 0x0e, 0x1f, 0x55, 0x3e, 0x26, 0xb9, 0xa5, 0xbd,
  0xba, 0x17, 0x61, 0x3d, 0xc0, 0xaf, 0x81, 0xbe, 0xa4, 0x0d, 0xdf, 0x3d,
  0xaf, 0x3b, 0x50, 0x3e, 0x11, 0x66, 0xc5, 0x3e, 0xcc, 0x1b, 0x96, 0x3e,
  0x25, 0x08, 0x18, 0xbd, 0x31, 0x54, 0x30, 0xbd, 0x33, 0x8d, 0xa1, 0xbc,
  0x7b, 0x9f, 0xf2, 0xbd, 0x12, 0xca, 0x2b, 0xbe, 0x79, 0x74, 0x83, 0x3e,
  0x1a, 0xf1, 0x87, 0x3e, 0x48, 0x84, 0x61, 0xbe, 0x1a, 0x7f, 0x4e, 0x3e,
  0x7d, 0x13, 0x24, 0x3c, 0x08, 0x08, 0x9d, 0xbe, 0x7f, 0xb9, 0x3d, 0x3d,
  0xc9, 0x56, 0x9b, 0xbd, 0xef, 0xa8, 0x27, 0xbe, 0x4f, 0xe4, 0x8d, 0xbd,
  0xca, 0xd3, 0x52, 0x3e, 0xd5, 0x28, 0xd8, 0x3c, 0x46, 0xa5, 0xa1, 0xbc,
  0x18, 0xaa, 0x53, 0x3c, 0x2e, 0xd4, 0xf7, 0xbd, 0x83, 0xa8, 0x2c, 0xbc,
  0xba, 0x05, 0x9f, 0xbd, 0x9f, 0xf3, 0x73, 0x3e, 0x47, 0xc2, 0x02, 0xbe,
  0x03, 0x7f, 0x8f, 0x3e, 0xb8, 0x3e, 0x47, 0xbe, 0xb0, 0x72, 0x2d, 0xbe,
  0xfb, 0x17, 0x8c, 0xbe, 0x7b, 0xdd, 0x08, 0xbd, 0x7c, 0xf1, 0xcc, 0x3d,
  0x9e, 0xe6, 0xfc, 0xbd, 0xf8, 0xee, 0x19, 0xbe, 0xb7, 0x7b, 0x5b, 0x3e,
  0xf4, 0x2e, 0x9f, 0x3e, 0x03, 0xb1, 0xa4, 0x3e, 0xd2, 0xe6, 0x15, 0xbe,
  0x2b, 0x6d, 0x88, 0xbe, 0x8a, 0x8f, 0x96, 0x3e, 0x02, 0x85, 0xa0, 0xbe,
  0xf8, 0x09, 0x8d, 0xbe, 0xe4, 0x83, 0x93, 0xbd, 0xe9, 0x4b, 0x85, 0x3c,
  0xae, 0xcc, 0x8a, 0x3e, 0xa9, 0x58, 0x73, 0xbc, 0x05, 0x2a, 0x9a, 0x3b,
  0x2e, 0xb1, 0x78, 0x3d, 0x37, 0x0d, 0xb5, 0xbd, 0x99, 0x3c, 0xfe, 0x3d,
  0xe7, 0x63, 0x30, 0x3e, 0x44, 0x54, 0xf2, 0xbd, 0xc0, 0x53, 0x59, 0x3e,
  0x2a, 0x53, 0x21, 0xbd, 0x4e, 0x4a, 0x9a, 0xbd, 0xad, 0xdc, 0x57, 0xbd,
  0xed, 0x26, 0x43, 0x3e, 0x6b, 0x90, 0x90, 0xbe, 0xfc, 0x09, 0x01, 0xbe,
  0xff, 0xb0, 0xb3, 0xbe, 0x07, 0xad, 0x75, 0xbe, 0x78, 0x6f, 0xa0, 0x3e,
  0xca, 0x18, 0x46, 0xbe, 0xd7, 0xe3, 0x2a, 0x3d, 0x61, 0x18, 0xac, 0xbe,
  0x0d, 0x97, 0x53, 0x3e, 0x0f, 0x37, 0x5f, 0x3d, 0x05, 0x5c, 0xf5, 0xbb,
  0xff, 0xf8, 0xb9, 0x3e, 0x12, 0x51, 0x87, 0x3d, 0x0a, 0xec, 0x83, 0x3d,
  0xaa, 0x91, 0xd9, 0x3c, 0x4b, 0x64, 0x29, 0xbd, 0x7f, 0x9a, 0x3c, 0x3d,
  0x20, 0x71, 0x23, 0xbe, 0x05, 0xcd, 0x94, 0xbd, 0xbc, 0xab, 0x95, 0xbe,
  0x09, 0x64, 0xa7, 0xbe, 0x7c, 0x22, 0x8f, 0xbe, 0x56, 0x64, 0x0f, 0xbd,
  0x75, 0x3a, 0x72, 0x3e, 0x07, 0xe9, 0x90, 0xbd, 0x4d, 0x08, 0x96, 0x3e,
  0x30, 0xb8, 0x8f, 0x3d, 0xd7, 0xb3, 0x0f, 0xbe, 0xb8, 0x05, 0x58, 0xbe,
  0x18, 0xe7, 0xc5, 0xbd, 0x3f, 0x56, 0x2c, 0xbe, 0xf0, 0x3a, 0x49, 0x3e,
  0x13, 0xb9, 0x70, 0x3e, 0x24, 0x5c, 0xc2, 0x3d, 0x3b, 0x18, 0x70, 0xbd,
  0xc7, 0x98, 0xb2, 0xbd, 0xbb, 0x00, 0x7b, 0xbe, 0xf4, 0x05, 0x4f, 0xbe,
  0xa1, 0x65, 0x0e, 0x3e, 0xbf, 0x76, 0xa4, 0x3e, 0xc8, 0xaf, 0x00, 0xbd,
  0x3a, 0x8d, 0x6e, 0x3e, 0x01, 0xba, 0x4b, 0xbc, 0x99, 0x8f, 0x02, 0xbe,
  0x9b, 0x29, 0xc6, 0x3d, 0xbf, 0x87, 0x0d, 0xbc, 0xda, 0x35, 0x0b, 0x3e,
  0x81, 0x02, 0xe7, 0x3c, 0xa5, 0x1e, 0x79, 0xbd, 0x09, 0x53, 0xda, 0xbd,
  0xa4, 0x57, 0xbc, 0x3d, 0x50, 0x07, 0xa7, 0x3e, 0x01, 0x5a, 0x9c, 0x3e,
  0xee, 0xaf, 0x6c, 0xbd, 0xef, 0x63, 0x5d, 0x3e, 0x33, 0xf9, 0x4d, 0xbe,
  0xaa, 0xc0, 0x92, 0x3d, 0x2f, 0x92, 0x4f, 0x3e, 0x4d, 0x32, 0x84, 0x3d,
  0x88, 0x38, 0xc1, 0xbe, 0xe7, 0xae, 0xb3, 0x3d, 0xf2, 0xf5, 0x16, 0xbe,
  0x11, 0xe2, 0x98, 0x3d, 0xca, 0xe3, 0xb4, 0xbe, 0xda, 0x01, 0x55, 0xbe,
  0xe4, 0xf2, 0x3e, 0xbe, 0x3f, 0x97, 0x9d, 0x3d, 0x1d, 0x4c, 0xf2, 0xbd,
  0xca, 0x9b, 0x05, 0x3d, 0xde, 0x80, 0x64, 0x3e, 0xf9, 0x1d, 0x1e, 0xbe,
  0x9f, 0x9c, 0xae, 0x3e, 0x2e, 0x71, 0x8f, 0x3e, 0xea, 0xff, 0x85, 0xbd,
  0xec, 0x76, 0xe1, 0xbe, 0x65, 0x2b, 0x3f, 0x3e, 0x4f, 0x92, 0xb2, 0x3e,
  0x5d, 0xd6, 0x4e, 0x3e, 0x6e, 0xe8, 0xa7, 0x3e, 0xff, 0x0a, 0xa7, 0x3e,
  0xc1, 0x08, 0x98, 0x3e, 0x16, 0xed, 0x03, 0xba, 0x66, 0x2f, 0x91, 0xbd,
  0x2d, 0x44, 0x14, 0xbe, 0x4e, 0xda, 0x29, 0x3e, 0x07, 0xae, 0xa1, 0xbe,
  0xe0, 0xbf, 0x5b, 0x3e, 0x5c, 0xec, 0x8e, 0x3e, 0x37, 0xd8, 0x77, 0xbe,
  0x17, 0x85, 0x79, 0x3e, 0x47, 0x86, 0x40, 0x3e, 0x15, 0xbb, 0x11, 0xbe,
  0x33, 0x4a, 0x9b, 0xbe, 0x41, 0xa1, 0xc6, 0x3d, 0xc0, 0x08, 0xb8, 0xbe,
  0x48, 0x20, 0x8a, 0x3e, 0xf3, 0x5c, 0xba, 0x3d, 0x91, 0xa6, 0x84, 0x3d,
  0xb0, 0xa2, 0x15, 0xbe, 0xe8, 0xd6, 0xdf, 0xbe, 0x0f, 0x46, 0x98, 0x3e,
  0xb6, 0xc8, 0x20, 0x3e, 0x2c, 0xed, 0x11, 0x3e, 0xd5, 0x29, 0xf8, 0x3d,
  0xfb, 0x02, 0x9a, 0x3e, 0xa4, 0x59, 0x99, 0xbe, 0x4f, 0x24, 0xd4, 0xbc,
  0xe4, 0x85, 0x3d, 0xbe, 0x54, 0xa9, 0xb3, 0xbe, 0x61, 0x96, 0x28, 0xbe,
  0xa2, 0x02, 0x81, 0x3d, 0xb2, 0x99, 0x0e, 0x3d, 0x86, 0xd3, 0xb3, 0x3e,
  0x2e, 0x56, 0xc1, 0x3e, 0x0a, 0xb7, 0x6b, 0x3e, 0x34, 0x14, 0xc4, 0x3d,
  0xd9, 0x46, 0x80, 0xbe, 0x6d, 0x3f, 0xda, 0xbe, 0xcd, 0x6c, 0xfb, 0x3d,
  0xed, 0xa8, 0x04, 0xbe, 0xd2, 0x55, 0x9a, 0xbe, 0xf1, 0x69, 0x5f, 0x3d,
  0xf4, 0xa1, 0x05, 0x3e, 0x7c, 0xb3, 0x44, 0x3e, 0x31, 0x00, 0xfc, 0xbe,
  0x90, 0xec, 0x47, 0xbc, 0x20, 0xfc, 0x75, 0x3e, 0xd5, 0x39, 0x42, 0x3e,
  0xc9, 0xe1, 0x67, 0xbe, 0xa6, 0xf4, 0xfb, 0x3c, 0x62, 0x6d, 0x3c, 0xbe,
  0x38, 0x7f, 0xa9, 0xbe, 0xe6, 0x09, 0xf9, 0xbe, 0xd7, 0xe5, 0xdc, 0xbe,
  0xcf, 0x53, 0x70, 0xbd, 0x4f, 0x5d, 0xb0, 0x3c, 0xe2, 0x2a, 0x1d, 0x3e,
  0x36, 0x8c, 0x3e, 0x3d, 0x1f, 0x43, 0x3f, 0xbd, 0xfa, 0x77, 0x19, 0xbe,
  0xae, 0x01, 0xf3, 0xbd, 0x7f, 0x6e, 0xb1, 0xbd, 0x06, 0x67, 0x8c, 0x3e,
  0xef, 0x18, 0x0f, 0x3c, 0xce, 0x26, 0x86, 0xbd, 0x33, 0x86, 0xfa, 0x3d,
  0xaf, 0x60, 0x43, 0x3e, 0x9b, 0xba, 0xea, 0x3d, 0xe5, 0xa4, 0x90, 0x3d,
  0xe8, 0x08, 0x9b, 0x3e, 0xb2, 0xcb, 0x08, 0xbe, 0xc2, 0x5c, 0x07, 0xbe,
  0xe1, 0xf2, 0x3f, 0xbe, 0x08, 0x74, 0x9d, 0xbe, 0x95, 0xdc, 0x8d, 0xbe,
  0x96, 0xbc, 0x89, 0xbd, 0x8b, 0x1d, 0x97, 0x3e, 0x0e, 0x0e, 0xa5, 0x3d,
  0x82, 0xe3, 0x8a, 0x3e, 0x68, 0xb1, 0x47, 0xbe, 0x02, 0x03, 0x85, 0xbe,
  0x23, 0xdd, 0xde, 0xbd, 0x16, 0x5e, 0x02, 0xbe, 0x8d, 0x70, 0xa9, 0xbe,
  0x67, 0xd7, 0x58, 0xbe, 0x45, 0xc6, 0x7d, 0xbe, 0xc3, 0xb5, 0xa7, 0xbe,
  0xcb, 0x58, 0x2f, 0x3e, 0xc0, 0xef, 0xc0, 0xbe, 0x3f, 0x80, 0x4d, 0xbc,
  0x81, 0x18, 0x03, 0x3e, 0x39, 0x3f, 0xde, 0xbb, 0xbb, 0x08, 0x04, 0x3f,
  0x9c, 0xd3, 0xda, 0x3e, 0x97, 0x2a, 0x51, 0x3d, 0xb8, 0xdf, 0xa1, 0x3d,
  0x5f, 0x7d, 0xa0, 0xbe, 0xa4, 0x14, 0x86, 0xbe, 0x1b, 0x4b, 0xb1, 0x3d,
  0xd9, 0x85, 0xb8, 0x3e, 0x88, 0xa6, 0xd1, 0x3d, 0x90, 0x99, 0x59, 0x3e,
  0x6a, 0x77, 0x02, 0xbe, 0x72, 0x71, 0x00, 0x3e, 0xc0, 0xe7, 0x80, 0x3e,
  0xe6, 0xc7, 0x5e, 0x3e, 0xfd, 0x38, 0x1e, 0xbe, 0xae, 0x78, 0x4c, 0xbe,
  0xb4, 0x9e, 0x7d, 0xbe, 0x73, 0xb3, 0x36, 0xbe, 0xee, 0x43, 0x46, 0xbe,
  0xb9, 0x28, 0x10, 0xbe, 0x92, 0x06, 0x48, 0x3e, 0x31, 0x41, 0xef, 0xbd,
  0xbf, 0x16, 0xcc, 0xbe, 0x79, 0xf7, 0x6d, 0xbd, 0x22, 0x26, 0xa3, 0x3e,
  0xa4, 0x75, 0xa0, 0xbd, 0xb9, 0xf7, 0xe2, 0xbd, 0x04, 0xf6, 0xfa, 0x3d,
  0xda, 0x47, 0x52, 0xbe, 0xf9, 0x65, 0x8c, 0x3e, 0xdc, 0xf5, 0x91, 0xbe,
  0x0e, 0xe3, 0x3c, 0x3e, 0x84, 0x80, 0x61, 0x3e, 0xb6, 0xc2, 0x6c, 0x3e,
  0xa5, 0x7c, 0xc5, 0x3e, 0xf8, 0xd0, 0x8f, 0xbd, 0x65, 0xbc, 0xa0, 0x3c,
  0x26, 0x47, 0x78, 0x3d, 0x8f, 0x1f, 0x86, 0xbe, 0xd4, 0x0c, 0xc3, 0xbd,
  0xc9, 0xa3, 0x38, 0xbe, 0xea, 0xc4, 0x3b, 0xbe, 0x09, 0x34, 0xb0, 0xbd,
  0xbe, 0xec, 0x1c, 0x3b, 0xce, 0xd0, 0xa1, 0xbc, 0x6c, 0xd5, 0x3e, 0x3e,
  0x6e, 0xb3, 0xfb, 0xbd, 0x9c, 0x51, 0x3e, 0x3e, 0x0e, 0x45, 0xea, 0x3e,
  0x21, 0x84, 0xcc, 0x3e, 0x32, 0xfc, 0x57, 0x3e, 0x93, 0xe3, 0x80, 0x3c,
  0xcf, 0x46, 0xa8, 0xbe, 0x7c, 0x19, 0xfa, 0xbd, 0x4c, 0x0f, 0xc8, 0xbe,
  0x2a, 0x97, 0x30, 0x3d, 0x6e, 0xfd, 0x80, 0x3e, 0x1f, 0xbd, 0x0e, 0x3e,
  0xda, 0x7f, 0x9e, 0xbd, 0x72, 0x7f, 0xe8, 0x3e, 0x27, 0xe1, 0x95, 0xbd,
  0xb8, 0xa1, 0x5c, 0xbe, 0x5a, 0x48, 0xb5, 0xbd, 0x42, 0xa8, 0x34, 0xbe,
  0x2c, 0x03, 0xe0, 0xbd, 0x91, 0xc9, 0x7a, 0x3e, 0x6a, 0xd2, 0xcb, 0xbc,
  0xb6, 0xcf, 0x58, 0xbe, 0xa3, 0x80, 0x58, 0x3e, 0x6e, 0x61, 0x6b, 0xbe,
  0xb6, 0x5f, 0x59, 0x3d, 0x00, 0x00, 0x00, 0x00, 0x7a, 0xf4, 0xff, 0xff,
  0x04, 0x00, 0x00, 0x00, 0x80, 0x06, 0x00, 0x00, 0xea, 0xc3, 0x1a, 0x3e,
  0x4e, 0x6c, 0x5a, 0x3d, 0xcc, 0x97, 0x0d, 0xbe, 0x60, 0xb1, 0xc1, 0xbb,
  0x81, 0x52, 0x2b, 0xbc, 0x1e, 0x1d, 0xde, 0xbd, 0xfd, 0x66, 0x5e, 0x3d,
  0x68, 0xd5, 0xe0, 0x3d, 0xa7, 0x8d, 0x17, 0xbe, 0x67, 0xcb, 0x92, 0xbc,
  0x84, 0x8a, 0x7d, 0x3d, 0x2c, 0xd0, 0xef, 0x3c, 0x2f, 0x71, 0xa1, 0xbd,
  0xde, 0x3c, 0x87, 0xba, 0x94, 0x4b, 0x4a, 0xbd, 0x4f, 0x00, 0xaa, 0x3c,
  0xfc, 0x3b, 0x0f, 0x3e, 0x7b, 0xe6, 0x2a, 0xbe, 0x70, 0x2c, 0x36, 0x3c,
  0xb4, 0x01, 0x83, 0xbe, 0x8e, 0x6e, 0x11, 0x3e, 0x24, 0x0d, 0x72, 0xbf,
  0x89, 0x80, 0x74, 0x3a, 0x2c, 0xc2, 0x84, 0xba, 0x3c, 0x45, 0xa2, 0x3d,
  0x25, 0x77, 0xa2, 0xbd, 0x42, 0xe2, 0xe3, 0xbd, 0xf9, 0x0a, 0x27, 0x3d,
  0xe0, 0x8b, 0xca, 0x3c, 0x69, 0xa7, 0x91, 0x3d, 0x0e, 0x61, 0x81, 0xbd,
  0x29, 0x91, 0x79, 0x3e, 0x83, 0x0d, 0xdb, 0xbd, 0x1d, 0xa0, 0x0f, 0x3f,
  0xc1, 0xb8, 0x32, 0xbe, 0x04, 0xc7, 0x6f, 0xbc, 0x5f, 0x14, 0x69, 0x3e,
  0xfc, 0xe4, 0x16, 0xbe, 0xba, 0x3d, 0xdc, 0x3e, 0xc5, 0x79, 0xbd, 0x3d,
  0x4b, 0x2f, 0x3e, 0xbd, 0x5b, 0x27, 0xea, 0xbd, 0xba, 0xd6, 0x16, 0x3e,
  0x98, 0xe4, 0x6a, 0xbe, 0xd4, 0xc4, 0x49, 0xbe, 0xd8, 0xa9, 0xda, 0xbd,
  0xa8, 0x44, 0x41, 0x3e, 0x6e, 0x2f, 0x5d, 0xbf, 0x93, 0xbb, 0x66, 0xbb,
  0xdd, 0x2b, 0xbc, 0x3d, 0x00, 0xb6, 0x89, 0x3d, 0x60, 0x4c, 0xa1, 0xbc,
  0xd1, 0x70, 0x3a, 0xbd, 0xd9, 0xda, 0xe1, 0x3e, 0xad, 0x34, 0x6b, 0xbe,
  0xf1, 0x75, 0x0f, 0xbe, 0x03, 0x3a, 0x91, 0xbc, 0xb0, 0x47, 0xef, 0x3d,
  0x39, 0x96, 0xa2, 0xbe, 0xee, 0xa4, 0x0e, 0x3d, 0x90, 0x3d, 0x99, 0x3e,
  0x8a, 0x43, 0xd2, 0x3c, 0x69, 0xe3, 0x9c, 0x3d, 0xc4, 0xaf, 0xa1, 0xbe,
  0xee, 0x87, 0xe6, 0x3d, 0x86, 0x0a, 0xad, 0x3e, 0x31, 0x31, 0xef, 0x3e,
  0xd5, 0x6b, 0x9c, 0xbd, 0xce, 0xc3, 0x6b, 0x3d, 0x81, 0x60, 0x48, 0x3f,
  0x4f, 0x3d, 0xe3, 0xbe, 0xc0, 0x53, 0x03, 0xbe, 0x82, 0x3c, 0xd9, 0xbc,
  0xc8, 0x1c, 0x12, 0x3e, 0xd9, 0xd0, 0x57, 0x3e, 0xa2, 0x19, 0xf5, 0x3e,
  0xeb, 0xe2, 0xb5, 0x3c, 0x9b, 0xba, 0x61, 0xbe, 0x87, 0x10, 0x12, 0xbe,
  0xe3, 0x6f, 0xb3, 0xbe, 0xce, 0x9b, 0xb9, 0x3c, 0x12, 0x66, 0x8e, 0x3d,
  0x44, 0x4f, 0xa3, 0xbe, 0x0d, 0x68, 0x24, 0xbf, 0x73, 0xa8, 0xce, 0xbe,
  0xf0, 0x1e, 0xba, 0x3e, 0x36, 0x8f, 0x4b, 0x3e, 0x35, 0x40, 0x94, 0xbd,
  0x2d, 0x79, 0x0a, 0xbd, 0x30, 0x8a, 0x9f, 0xbe, 0xfc, 0xcf, 0xc2, 0xbd,
  0xc3, 0x80, 0xd3, 0x3e, 0x09, 0x65, 0x64, 0x3e, 0x5e, 0x5f, 0x47, 0xbe,
  0xcc, 0x33, 0x0c, 0x3e, 0x22, 0xdb, 0x91, 0x3e, 0x39, 0x1b, 0x90, 0x3e,
  0xce, 0xb7, 0x82, 0x3c, 0x5b, 0x56, 0x85, 0xbe, 0x3a, 0x57, 0x83, 0x3e,
  0x08, 0xe1, 0x58, 0xbe, 0x52, 0x77, 0x69, 0xbe, 0xec, 0x69, 0x84, 0x3f,
  0xfd, 0xc1, 0x60, 0x3e, 0x70, 0x8d, 0x12, 0xbd, 0xce, 0x59, 0x8d, 0xbe,
  0xd7, 0x50, 0x45, 0x3b, 0xfa, 0xc7, 0xee, 0x3b, 0x9c, 0xaa, 0xfd, 0xbd,
  0x39, 0x82, 0xad, 0xbe, 0xfb, 0x0f, 0x51, 0xbd, 0x19, 0xbf, 0x01, 0xbe,
  0xb9, 0x91, 0x7c, 0xbe, 0xbd, 0x56, 0x84, 0xbe, 0x4a, 0x3c, 0x90, 0x3d,
  0x1e, 0xeb, 0xc4, 0x3e, 0x62, 0x08, 0xb2, 0x3e, 0x7f, 0x80, 0x48, 0x3f,
  0x57, 0xbd, 0xdb, 0xbe, 0x25, 0xea, 0x90, 0xbb, 0x4c, 0xb5, 0x60, 0x3e,
  0x3a, 0x08, 0x43, 0xbe, 0xbb, 0x63, 0xf9, 0x3a, 0x0b, 0x03, 0x12, 0xbe,
  0x14, 0x47, 0x19, 0xbe, 0x4c, 0xf5, 0x84, 0x3e, 0x39, 0xfb, 0x80, 0x3e,
  0x2d, 0x8f, 0x35, 0xbf, 0x5e, 0x08, 0xd2, 0xbd, 0xca, 0x00, 0x2a, 0xbd,
  0xc7, 0x9a, 0x1b, 0xbe, 0xb3, 0x48, 0x1d, 0x3c, 0x66, 0xaf, 0x5d, 0x3e,
  0x42, 0x84, 0x5a, 0x3e, 0x2f, 0x8d, 0x2d, 0xbf, 0x3a, 0xa0, 0x50, 0x3e,
  0xfd, 0x47, 0x3f, 0xbe, 0x04, 0x53, 0xc7, 0xbe, 0xcc, 0xef, 0x9d, 0x3f,
  0x38, 0x99, 0x0c, 0xbf, 0x6d, 0xf4, 0x0a, 0x3e, 0xce, 0xe3, 0x28, 0x3c,
  0x0a, 0x5a, 0x39, 0xbe, 0x10, 0xb3, 0x0f, 0xbf, 0xc7, 0x06, 0xbb, 0x3e,
  0x6f, 0xab, 0xc1, 0xbd, 0xcf, 0x17, 0x2e, 0x3f, 0x6d, 0x51, 0x13, 0x3f,
  0x93, 0x5a, 0x5f, 0x3d, 0x4d, 0x9d, 0x0a, 0xbf, 0x61, 0x6d, 0x0a, 0xbe,
  0x93, 0x81, 0x53, 0xbe, 0x8d, 0xfa, 0x05, 0xbf, 0x3f, 0xe7, 0x47, 0xbd,
  0x82, 0xbc, 0xff, 0xbd, 0x86, 0x97, 0x8a, 0x3e, 0x78, 0xb1, 0xa2, 0x3d,
  0xbc, 0x6d, 0x02, 0x3f, 0x48, 0xd6, 0x00, 0xbe, 0xac, 0x27, 0xad, 0xbf,
  0x44, 0x93, 0xd0, 0x3d, 0x3d, 0x6c, 0xe4, 0xbe, 0x78, 0x1d, 0xa7, 0xbe,
  0x3c, 0xe2, 0xeb, 0xbf, 0x7f, 0x28, 0xb8, 0x3d, 0xa4, 0x49, 0xa0, 0x3c,
  0xa8, 0x44, 0x52, 0x3f, 0x73, 0xf0, 0x94, 0xbe, 0xc4, 0x0f, 0xbb, 0xbd,
  0x3a, 0x17, 0x64, 0x3b, 0x2f, 0xe4, 0x64, 0xbe, 0x6d, 0x97, 0xa6, 0xbf,
  0x11, 0x27, 0xae, 0x3e, 0x94, 0x28, 0xa4, 0x3e, 0x3d, 0x9e, 0x68, 0xbe,
  0x1d, 0x35, 0x1f, 0xbe, 0xb6, 0xd0, 0x1d, 0x3f, 0xe9, 0xa6, 0x51, 0x3e,
  0x28, 0x57, 0x23, 0xbe, 0x89, 0xeb, 0xe4, 0xbd, 0x35, 0x6b, 0x82, 0x3e,
  0x4f, 0xb7, 0x35, 0x3d, 0xd5, 0xdc, 0xcb, 0xbe, 0xf8, 0x07, 0x18, 0x3e,
  0xc3, 0x01, 0x43, 0xbd, 0x5e, 0xa7, 0xfe, 0xbc, 0x5a, 0x02, 0xf4, 0x3d,
  0x4c, 0xe1, 0x43, 0xbf, 0xee, 0x76, 0x31, 0xbe, 0x10, 0x22, 0xd4, 0x3e,
  0x63, 0x14, 0xd1, 0xbc, 0xa4, 0x3a, 0xf4, 0x3e, 0xdf, 0x27, 0x8e, 0x3e,
  0xf8, 0xf1, 0x2f, 0xbe, 0x19, 0xf7, 0x4d, 0xbe, 0xa6, 0x25, 0x53, 0x3e,
  0x0a, 0x78, 0xa3, 0x3e, 0xc5, 0x77, 0x92, 0xbf, 0x04, 0x9d, 0xde, 0x3e,
  0xeb, 0x83, 0xff, 0xbd, 0xa5, 0x7f, 0xc3, 0x3e, 0xd2, 0x4b, 0xc3, 0x3d,
  0xfc, 0x99, 0x1f, 0x3d, 0x90, 0xe4, 0x25, 0xbe, 0xaf, 0xde, 0xcb, 0x3e,
  0xd5, 0x62, 0xa3, 0xbe, 0xf2, 0x18, 0xf4, 0xbe, 0xb0, 0x25, 0xa7, 0x3e,
  0xfc, 0x0d, 0xfb, 0x3c, 0x20, 0xca, 0xf4, 0x3c, 0xfe, 0x1e, 0xfe, 0x3d,
  0xe0, 0x0a, 0x13, 0x3d, 0x90, 0x12, 0x7f, 0x3b, 0xb0, 0xa7, 0x64, 0x3d,
  0xbb, 0x8e, 0x26, 0x3d, 0x4c, 0x5f, 0xd8, 0x3d, 0x63, 0x00, 0x7e, 0x3d,
  0x2a, 0x0f, 0xa0, 0xbc, 0xcf, 0x38, 0xaf, 0xbd, 0x73, 0xe9, 0xf9, 0x3d,
  0x52, 0xd5, 0x85, 0xbd, 0x2e, 0x46, 0xa0, 0x3d, 0x4c, 0x56, 0xa0, 0xbd,
  0x77, 0x7e, 0x17, 0x3e, 0x12, 0x01, 0x93, 0xbd, 0xe0, 0xde, 0x87, 0xbd,
  0xdd, 0x6a, 0x05, 0xbe, 0x17, 0xad, 0x4a, 0x3e, 0xea, 0x8b, 0xd7, 0x3d,
  0x60, 0xa3, 0x5a, 0x3f, 0x1b, 0x77, 0xa3, 0x3d, 0x88, 0x91, 0x7c, 0x3d,
  0x56, 0x73, 0xde, 0x3c, 0x6f, 0x94, 0xb8, 0xbd, 0x76, 0x9b, 0x15, 0xbe,
  0x07, 0x21, 0x5a, 0xbc, 0xc0, 0x78, 0x9e, 0xbe, 0xd9, 0x44, 0xcb, 0x3d,
  0xf5, 0xf6, 0xcb, 0x3d, 0x82, 0x93, 0x03, 0xbe, 0x2e, 0xbc, 0xad, 0x3d,
  0xc8, 0xbd, 0xf9, 0xbe, 0x0d, 0x7d, 0x1b, 0xbd, 0x51, 0xcb, 0x0e, 0xbe,
  0xa8, 0xce, 0xa5, 0xbe, 0x05, 0x58, 0x5b, 0x3d, 0x19, 0xf2, 0x3d, 0xbe,
  0x28, 0x5d, 0x0d, 0xbe, 0xe0, 0x91, 0x8a, 0xbc, 0xc6, 0x41, 0x65, 0x3c,
  0x16, 0x09, 0x96, 0x3d, 0xe3, 0x48, 0x6a, 0xbd, 0xcc, 0x8a, 0xbb, 0xbd,
  0x8f, 0xa7, 0x21, 0x3e, 0x19, 0x4a, 0x2f, 0xbd, 0xed, 0x1f, 0x5e, 0x3f,
  0x15, 0xb3, 0x8d, 0x3d, 0xae, 0xf5, 0x04, 0xbe, 0x12, 0x3c, 0x09, 0x3e,
  0x5f, 0x37, 0x57, 0x3d, 0x54, 0x8f, 0x63, 0x3d, 0x5e, 0x15, 0xaa, 0xbe,
  0x4e, 0x76, 0x09, 0x3d, 0x1c, 0xa1, 0x8d, 0xbd, 0xca, 0x0e, 0x62, 0xba,
  0x60, 0xca, 0x0e, 0xbe, 0x18, 0xa5, 0x59, 0x3d, 0x7e, 0x14, 0xc4, 0x3d,
  0x37, 0x3e, 0xad, 0xbe, 0x3f, 0xa2, 0x7c, 0xbe, 0x93, 0x90, 0x8f, 0xbd,
  0x66, 0x5b, 0x74, 0x3e, 0xc3, 0xa8, 0x13, 0xbe, 0xb4, 0xf1, 0xb3, 0xbe,
  0x48, 0x4b, 0xd4, 0xbe, 0x5c, 0xe9, 0x73, 0x3e, 0x71, 0xba, 0x42, 0xbe,
  0xad, 0x4b, 0x4f, 0xbf, 0x38, 0x5a, 0x5b, 0x3e, 0x95, 0xd6, 0x71, 0xbd,
  0x8d, 0xed, 0xe0, 0xbd, 0x39, 0xc9, 0x96, 0xbe, 0xc8, 0x67, 0x78, 0xbb,
  0xa2, 0xd8, 0x7f, 0xbe, 0xb9, 0x8a, 0x0c, 0xbe, 0xeb, 0x5d, 0xcd, 0x3e,
  0xc2, 0xb8, 0x0f, 0x3e, 0x57, 0xc8, 0x9c, 0x3e, 0xfe, 0x87, 0x33, 0x3e,
  0xbb, 0xaa, 0x50, 0xbd, 0xd3, 0xf5, 0x00, 0x3e, 0xac, 0x82, 0x24, 0x3f,
  0xe4, 0x75, 0x6a, 0x3e, 0x78, 0xb4, 0x02, 0xbf, 0x07, 0xb7, 0x73, 0xbe,
  0xfd, 0x54, 0x0c, 0xbe, 0x7f, 0x94, 0xa3, 0x3c, 0x24, 0x24, 0xa1, 0x3c,
  0xb4, 0x10, 0x1e, 0x3e, 0x3e, 0x0b, 0x21, 0xbf, 0xff, 0xa9, 0x5c, 0xbe,
  0x6a, 0x72, 0x0d, 0x3e, 0xf3, 0x24, 0x0f, 0xbc, 0x80, 0xca, 0x66, 0xbe,
  0x6a, 0x99, 0xa4, 0xbe, 0x85, 0x3b, 0x7f, 0x3d, 0x7e, 0x44, 0xd3, 0x3d,
  0x10, 0x91, 0x88, 0xbe, 0xd2, 0xbc, 0xaf, 0xba, 0x57, 0xf3, 0x48, 0x3e,
  0xc3, 0xc2, 0x98, 0xbf, 0x91, 0x01, 0x62, 0xbe, 0xac, 0x2d, 0x57, 0x3e,
  0xda, 0x5c, 0x9e, 0xbc, 0xb7, 0xf3, 0x78, 0x3d, 0xc6, 0x15, 0x49, 0xbd,
  0x39, 0x75, 0x8e, 0x3e, 0xd0, 0x3c, 0xf5, 0x3d, 0x18, 0x81, 0x24, 0xbd,
  0x42, 0x82, 0x36, 0x3c, 0x2d, 0x8c, 0x23, 0x3e, 0x8b, 0x95, 0x91, 0x3e,
  0x7f, 0x6d, 0x8f, 0xbe, 0x94, 0x59, 0xe6, 0xbe, 0x81, 0xe1, 0xd4, 0xbe,
  0xe7, 0xa5, 0x10, 0xbf, 0xf6, 0x6c, 0x83, 0x3e, 0x43, 0x31, 0x22, 0x3e,
  0x86, 0xc5, 0x77, 0xbd, 0xd5, 0xc4, 0x54, 0x3e, 0xa2, 0x54, 0x47, 0x3d,
  0xc7, 0x3d, 0x90, 0x3e, 0x21, 0xbc, 0xaf, 0x3e, 0xd5, 0x77, 0x0e, 0xbf,
  0x33, 0xb2, 0x4f, 0xbe, 0xc1, 0x19, 0x60, 0x3f, 0xb7, 0x7c, 0x58, 0xbd,
  0xd9, 0x88, 0x7c, 0x3e, 0xcc, 0x42, 0x22, 0x3e, 0xda, 0xc7, 0x08, 0x3e,
  0x36, 0xfc, 0x3f, 0xbe, 0x19, 0x37, 0xcc, 0x3d, 0x35, 0xce, 0x21, 0x3f,
  0x4a, 0xc9, 0xe6, 0x3d, 0xde, 0xf4, 0x4d, 0x3e, 0x24, 0x8c, 0x42, 0x3e,
  0xe9, 0x78, 0x9b, 0xbf, 0x4e, 0x8b, 0x00, 0x3f, 0x8e, 0x27, 0x99, 0x3d,
  0x7f, 0x8a, 0xd3, 0x3d, 0x69, 0x90, 0xc9, 0x3d, 0xc9, 0x47, 0x02, 0x3f,
  0x7e, 0x8f, 0x29, 0xbe, 0x37, 0x04, 0x37, 0xbd, 0x81, 0xed, 0x08, 0xbf,
  0xc1, 0x63, 0x29, 0xbf, 0x42, 0x3a, 0x85, 0xbe, 0x0d, 0xea, 0xb3, 0x3e,
  0x6c, 0x7f, 0x30, 0x3e, 0xe4, 0xde, 0xd5, 0x3e, 0xc3, 0xa4, 0xc8, 0x3e,
  0x8f, 0xc6, 0x80, 0xbd, 0x93, 0x19, 0x8c, 0x3d, 0x66, 0x80, 0x83, 0xbe,
  0xc2, 0xac, 0x00, 0xbe, 0xc3, 0x14, 0x2b, 0xbf, 0x3b, 0xf9, 0x1c, 0xbc,
  0xe9, 0x80, 0xbf, 0x3f, 0x9c, 0x3a, 0xd5, 0x3d, 0x91, 0x0b, 0x31, 0x3e,
  0xf8, 0x46, 0xb6, 0x3e, 0x0a, 0xbd, 0xcb, 0x3f, 0x2a, 0x63, 0xb2, 0x3d,
  0x48, 0x96, 0x76, 0x3d, 0xdd, 0x23, 0x6a, 0xbf, 0x76, 0xef, 0x8a, 0x3e,
  0xb0, 0x96, 0xe9, 0x3c, 0x20, 0x2f, 0x90, 0x3d, 0xc6, 0x11, 0x10, 0x3d,
  0xdb, 0x06, 0xa8, 0x3f, 0xf6, 0x2d, 0x35, 0xbe, 0x06, 0x74, 0xbb, 0xbe,
  0x00, 0x1c, 0xbd, 0x3e, 0x4f, 0x3a, 0xef, 0x3d, 0x42, 0x51, 0x08, 0xbf,
  0x8e, 0xc0, 0xcf, 0xbc, 0xcc, 0xf6, 0xc5, 0x3d, 0x02, 0x6c, 0x08, 0x3e,
  0xd1, 0x64, 0xb2, 0xbe, 0x23, 0x9b, 0xb2, 0xbd, 0xbb, 0x2d, 0x76, 0x3e,
  0xf6, 0x8e, 0x85, 0xbe, 0x77, 0x90, 0xbf, 0x3d, 0x48, 0x13, 0x28, 0xbe,
  0x88, 0x24, 0x00, 0xbe, 0x60, 0x88, 0x16, 0x3f, 0xf8, 0x48, 0xa2, 0x3e,
  0xdc, 0x6f, 0xa2, 0xbe, 0x36, 0xe3, 0x05, 0xbe, 0xe0, 0x3c, 0xf6, 0xbe,
  0x84, 0x73, 0xb0, 0xbe, 0x01, 0xab, 0x90, 0x3e, 0x15, 0x7a, 0x32, 0x3e,
  0x8d, 0x9d, 0x5f, 0x3d, 0x9a, 0x62, 0xc5, 0xbe, 0xb9, 0xee, 0x90, 0x3f,
  0x27, 0xaa, 0x66, 0xbe, 0xff, 0x90, 0x60, 0x3e, 0x80, 0x1d, 0xdc, 0xbe,
  0x29, 0xdc, 0x14, 0xbe, 0xfd, 0x30, 0x7e, 0x3e, 0xcd, 0x6f, 0x2d, 0x3e,
  0xc6, 0x65, 0xb9, 0xbe, 0xaa, 0x6a, 0xb3, 0x3e, 0x16, 0x59, 0x07, 0x3f,
  0x17, 0xd2, 0x12, 0xbe, 0x00, 0x00, 0x00, 0x00, 0x0a, 0xfb, 0xff, 0xff,
  0x04, 0x00, 0x00, 0x00, 0x04, 0x00, 0x00, 0x00, 0xfd, 0xff, 0xff, 0xff,
  0x1a, 0xfb, 0xff, 0xff, 0x04, 0x00, 0x00, 0x00, 0x08, 0x00, 0x00, 0x00,
  0xff, 0xff, 0xff, 0xff, 0xd0, 0x00, 0x00, 0x00, 0x00, 0x00, 0x00, 0x00,
  0x00, 0x00, 0x00, 0x00, 0x00, 0x00, 0x00, 0x00, 0x3a, 0xfb, 0xff, 0xff,
  0x04, 0x00, 0x00, 0x00, 0x04, 0x00, 0x00, 0x00, 0x02, 0x00, 0x00, 0x00,
  0x4a, 0xfb, 0xff, 0xff, 0x04, 0x00, 0x00, 0x00, 0x04, 0x00, 0x00, 0x00,
  0x34, 0x00, 0x00, 0x00, 0x5a, 0xfb, 0xff, 0xff, 0x04, 0x00, 0x00, 0x00,
  0x04, 0x00, 0x00, 0x00, 0x0d, 0x00, 0x00, 0x00, 0x6a, 0xfb, 0xff, 0xff,
  0x04, 0x00, 0x00, 0x00, 0x04, 0x00, 0x00, 0x00, 0x00, 0x00, 0x00, 0x00,
  0x7a, 0xfb, 0xff, 0xff, 0x04, 0x00, 0x00, 0x00, 0x04, 0x00, 0x00, 0x00,
  0x01, 0x00, 0x00, 0x00, 0x8a, 0xfb, 0xff, 0xff, 0x04, 0x00, 0x00, 0x00,
  0x20, 0x00, 0x00, 0x00, 0x46, 0xb2, 0x4f, 0xbc, 0x0a, 0xb2, 0xf9, 0xbc,
  0xea, 0x28, 0x05, 0xbe, 0xaa, 0x36, 0xf8, 0xbe, 0x0e, 0xa1, 0x4b, 0xbc,
  0x8a, 0xec, 0x8b, 0xbe, 0xd7, 0x89, 0x7c, 0x3d, 0xcb, 0x12, 0xed, 0x3c,
  0x00, 0x00, 0x00, 0x00, 0xba, 0xfb, 0xff, 0xff, 0x04, 0x00, 0x00, 0x00,
  0x40, 0x00, 0x00, 0x00, 0x9b, 0xc1, 0xfa, 0x3d, 0x66, 0xb5, 0xcd, 0xbd,
  0x81, 0xaa, 0xae, 0x3e, 0xce, 0x7f, 0xbf, 0x3e, 0x7b, 0xca, 0x2a, 0x3e,
  0xd6, 0xd7, 0x10, 0x3e, 0x80, 0xa6, 0x9f, 0x3c, 0xba, 0xa1, 0x68, 0x3c,
  0xe4, 0x83, 0x0a, 0x3d, 0x64, 0xcc, 0x6d, 0xbb, 0xa7, 0xa2, 0x32, 0x3e,
  0xd3, 0x18, 0x11, 0x3e, 0x56, 0x51, 0x7d, 0x3e, 0xc7, 0x7a, 0x92, 0x3e,
  0xa5, 0xe9, 0xa2, 0x3e, 0xe5, 0xaf, 0x87, 0x3e, 0x00, 0x00, 0x00, 0x00,
  0x0a, 0xfc, 0xff, 0xff, 0x04, 0x00, 0x00, 0x00, 0x08, 0x00, 0x00, 0x00,
  0x87, 0x5f, 0xd0, 0xbd, 0x7c, 0x5f, 0xd0, 0x3d, 0x00, 0x00, 0x00, 0x00,
  0x08, 0xee, 0xff, 0xff, 0x00, 0x00, 0x00, 0x00, 0x00, 0x00, 0x00, 0x00,
  0x00, 0x00, 0x00, 0x00, 0x18, 0xee, 0xff, 0xff, 0x00, 0x00, 0x00, 0x00,
  0x00, 0x00, 0x00, 0x00, 0x00, 0x00, 0x00, 0x00, 0x0f, 0x00, 0x00, 0x00,
  0x4d, 0x4c, 0x49, 0x52, 0x20, 0x43, 0x6f, 0x6e, 0x76, 0x65, 0x72, 0x74,
  0x65, 0x64, 0x2e, 0x00, 0x01, 0x00, 0x00, 0x00, 0x14, 0x00, 0x00, 0x00,
  0x00, 0x00, 0x0e, 0x00, 0x18, 0x00, 0x04, 0x00, 0x08, 0x00, 0x0c, 0x00,
  0x10, 0x00, 0x14, 0x00, 0x0e, 0x00, 0x00, 0x00, 0x64, 0x04, 0x00, 0x00,
  0x58, 0x04, 0x00, 0x00, 0x4c, 0x04, 0x00, 0x00, 0x14, 0x00, 0x00, 0x00,
  0x04, 0x00, 0x00, 0x00, 0x04, 0x00, 0x00, 0x00, 0x6d, 0x61, 0x69, 0x6e,
  0x00, 0x00, 0x00, 0x00, 0x12, 0x00, 0x00, 0x00, 0xfc, 0x03, 0x00, 0x00,
  0x9c, 0x03, 0x00, 0x00, 0x48, 0x03, 0x00, 0x00, 0x20, 0x03, 0x00, 0x00,
  0xe0, 0x02, 0x00, 0x00, 0x80, 0x02, 0x00, 0x00, 0x58, 0x02, 0x00, 0x00,
  0x24, 0x02, 0x00, 0x00, 0xd4, 0x01, 0x00, 0x00, 0xac, 0x01, 0x00, 0x00,
  0x78, 0x01, 0x00, 0x00, 0x34, 0x01, 0x00, 0x00, 0x0c, 0x01, 0x00, 0x00,
  0xd8, 0x00, 0x00, 0x00, 0x98, 0x00, 0x00, 0x00, 0x70, 0x00, 0x00, 0x00,
  0x38, 0x00, 0x00, 0x00, 0x04, 0x00, 0x00, 0x00, 0x66, 0xfd, 0xff, 0xff,
  0x00, 0x00, 0x00, 0x09, 0x08, 0x00, 0x00, 0x00, 0x1c, 0x00, 0x00, 0x00,
  0x10, 0x00, 0x00, 0x00, 0x04, 0x00, 0x00, 0x00, 0xf6, 0xfc, 0xff, 0xff,
  0x00, 0x00, 0x80, 0x3f, 0x01, 0x00, 0x00, 0x00, 0x22, 0x00, 0x00, 0x00,
  0x01, 0x00, 0x00, 0x00, 0x21, 0x00, 0x00, 0x00, 0x96, 0xfd, 0xff, 0xff,
  0x00, 0x00, 0x00, 0x08, 0x07, 0x00, 0x00, 0x00, 0x18, 0x00, 0x00, 0x00,
  0x0c, 0x00, 0x00, 0x00, 0x04, 0x00, 0x00, 0x00, 0x0c, 0xef, 0xff, 0xff,
  0x01, 0x00, 0x00, 0x00, 0x21, 0x00, 0x00, 0x00, 0x03, 0x00, 0x00, 0x00,
  0x20, 0x00, 0x00, 0x00, 0x0b, 0x00, 0x00, 0x00, 0x01, 0x00, 0x00, 0x00,
  0x8a, 0xfd, 0xff, 0xff, 0x03, 0x00, 0x00, 0x00, 0x10, 0x00, 0x00, 0x00,
  0x04, 0x00, 0x00, 0x00, 0x01, 0x00, 0x00, 0x00, 0x20, 0x00, 0x00, 0x00,
  0x02, 0x00, 0x00, 0x00, 0x1f, 0x00, 0x00, 0x00, 0x09, 0x00, 0x00, 0x00,
  0xee, 0xfd, 0xff, 0xff, 0x00, 0x00, 0x00, 0x05, 0x06, 0x00, 0x00, 0x00,
  0x28, 0x00, 0x00, 0x00, 0x1c, 0x00, 0x00, 0x00, 0x04, 0x00, 0x00, 0x00,
  0xda, 0xfe, 0xff, 0xff, 0x01, 0x00, 0x00, 0x00, 0x02, 0x00, 0x00, 0x00,
  0x01, 0x00, 0x00, 0x00, 0x02, 0x00, 0x00, 0x00, 0x01, 0x00, 0x00, 0x00,
  0x1f, 0x00, 0x00, 0x00, 0x01, 0x00, 0x00, 0x00, 0x1e, 0x00, 0x00, 0x00,
  0x2a, 0xfe, 0xff, 0xff, 0x00, 0x00, 0x00, 0x34, 0x04, 0x00, 0x00, 0x00,
  0x18, 0x00, 0x00, 0x00, 0x0c, 0x00, 0x00, 0x00, 0x04, 0x00, 0x00, 0x00,
  0xa0, 0xef, 0xff, 0xff, 0x01, 0x00, 0x00, 0x00, 0x1e, 0x00, 0x00, 0x00,
  0x02, 0x00, 0x00, 0x00, 0x1d, 0x00, 0x00, 0x00, 0x08, 0x00, 0x00, 0x00,
  0x1a, 0xfe, 0xff, 0xff, 0x03, 0x00, 0x00, 0x00, 0x10, 0x00, 0x00, 0x00,
  0x04, 0x00, 0x00, 0x00, 0x01, 0x00, 0x00, 0x00, 0x1d, 0x00, 0x00, 0x00,
  0x02, 0x00, 0x00, 0x00, 0x1c, 0x00, 0x00, 0x00, 0x10, 0x00, 0x00, 0x00,
  0x7e, 0xfe, 0xff, 0xff, 0x00, 0x00, 0x00, 0x01, 0x05, 0x00, 0x00, 0x00,
  0x24, 0x00, 0x00, 0x00, 0x18, 0x00, 0x00, 0x00, 0x04, 0x00, 0x00, 0x00,
  0xcc, 0xfe, 0xff, 0xff, 0x00, 0x00, 0x00, 0x01, 0x01, 0x00, 0x00, 0x00,
  0x01, 0x00, 0x00, 0x00, 0x01, 0x00, 0x00, 0x00, 0x1c, 0x00, 0x00, 0x00,
  0x03, 0x00, 0x00, 0x00, 0x1b, 0x00, 0x00, 0x00, 0x0d, 0x00, 0x00, 0x00,
  0x02, 0x00, 0x00, 0x00, 0xbe, 0xfe, 0xff, 0xff, 0x00, 0x00, 0x00, 0x34,
  0x04, 0x00, 0x00, 0x00, 0x18, 0x00, 0x00, 0x00, 0x0c, 0x00, 0x00, 0x00,
  0x04, 0x00, 0x00, 0x00, 0x34, 0xf0, 0xff, 0xff, 0x01, 0x00, 0x00, 0x00,
  0x1b, 0x00, 0x00, 0x00, 0x02, 0x00, 0x00, 0x00, 0x1a, 0x00, 0x00, 0x00,
  0x0a, 0x00, 0x00, 0x00, 0xae, 0xfe, 0xff, 0xff, 0x03, 0x00, 0x00, 0x00,
  0x10, 0x00, 0x00, 0x00, 0x04, 0x00, 0x00, 0x00, 0x01, 0x00, 0x00, 0x00,
  0x1a, 0x00, 0x00, 0x00, 0x02, 0x00, 0x00, 0x00, 0x19, 0x00, 0x00, 0x00,
  0x0f, 0x00, 0x00, 0x00, 0x62, 0xfe, 0xff, 0xff, 0x00, 0x00, 0x00, 0x05,
  0x06, 0x00, 0x00, 0x00, 0x38, 0x00, 0x00, 0x00, 0x2c, 0x00, 0x00, 0x00,
  0x14, 0x00, 0x00, 0x00, 0x00, 0x00, 0x0e, 0x00, 0x14, 0x00, 0x00, 0x00,
  0x04, 0x00, 0x08, 0x00, 0x0c, 0x00, 0x10, 0x00, 0x0e, 0x00, 0x00, 0x00,
  0x01, 0x00, 0x00, 0x00, 0x02, 0x00, 0x00, 0x00, 0x01, 0x00, 0x00, 0x00,
  0x02, 0x00, 0x00, 0x00, 0x01, 0x00, 0x00, 0x00, 0x19, 0x00, 0x00, 0x00,
  0x01, 0x00, 0x00, 0x00, 0x18, 0x00, 0x00, 0x00, 0x5e, 0xff, 0xff, 0xff,
  0x00, 0x00, 0x00, 0x34, 0x04, 0x00, 0x00, 0x00, 0x18, 0x00, 0x00, 0x00,
  0x0c, 0x00, 0x00, 0x00, 0x04, 0x00, 0x00, 0x00, 0xd4, 0xf0, 0xff, 0xff,
  0x01, 0x00, 0x00, 0x00, 0x18, 0x00, 0x00, 0x00, 0x02, 0x00, 0x00, 0x00,
  0x17, 0x00, 0x00, 0x00, 0x08, 0x00, 0x00, 0x00, 0x4e, 0xff, 0xff, 0xff,
  0x03, 0x00, 0x00, 0x00, 0x10, 0x00, 0x00, 0x00, 0x04, 0x00, 0x00, 0x00,
  0x01, 0x00, 0x00, 0x00, 0x17, 0x00, 0x00, 0x00, 0x02, 0x00, 0x00, 0x00,
  0x16, 0x00, 0x00, 0x00, 0x0e, 0x00, 0x00, 0x00, 0xb2, 0xff, 0xff, 0xff,
  0x00, 0x00, 0x00, 0x01, 0x05, 0x00, 0x00, 0x00, 0x30, 0x00, 0x00, 0x00,
  0x24, 0x00, 0x00, 0x00, 0x10, 0x00, 0x00, 0x00, 0x0c, 0x00, 0x10, 0x00,
  0x00, 0x00, 0x08, 0x00, 0x0c, 0x00, 0x07, 0x00, 0x0c, 0x00, 0x00, 0x00,
  0x00, 0x00, 0x00, 0x01, 0x01, 0x00, 0x00, 0x00, 0x01, 0x00, 0x00, 0x00,
  0x01, 0x00, 0x00, 0x00, 0x16, 0x00, 0x00, 0x00, 0x03, 0x00, 0x00, 0x00,
  0x15, 0x00, 0x00, 0x00, 0x0c, 0x00, 0x00, 0x00, 0x03, 0x00, 0x00, 0x00,
  0x00, 0x00, 0x0e, 0x00, 0x18, 0x00, 0x08, 0x00, 0x0c, 0x00, 0x10, 0x00,
  0x07, 0x00, 0x14, 0x00, 0x0e, 0x00, 0x00, 0x00, 0x00, 0x00, 0x00, 0x34,
  0x04, 0x00, 0x00, 0x00, 0x18, 0x00, 0x00, 0x00, 0x0c, 0x00, 0x00, 0x00,
  0x04, 0x00, 0x00, 0x00, 0x84, 0xf1, 0xff, 0xff, 0x01, 0x00, 0x00, 0x00,
  0x15, 0x00, 0x00, 0x00, 0x02, 0x00, 0x00, 0x00, 0x14, 0x00, 0x00, 0x00,
  0x0a, 0x00, 0x00, 0x00, 0x00, 0x00, 0x0a, 0x00, 0x10, 0x00, 0x04, 0x00,
  0x08, 0x00, 0x0c, 0x00, 0x0a, 0x00, 0x00, 0x00, 0x03, 0x00, 0x00, 0x00,
  0x10, 0x00, 0x00, 0x00, 0x04, 0x00, 0x00, 0x00, 0x01, 0x00, 0x00, 0x00,
  0x14, 0x00, 0x00, 0x00, 0x02, 0x00, 0x00, 0x00, 0x00, 0x00, 0x00, 0x00,
  0x13, 0x00, 0x00, 0x00, 0xbe, 0xff, 0xff, 0xff, 0x00, 0x00, 0x00, 0x3b,
  0x02, 0x00, 0x00, 0x00, 0x24, 0x00, 0x00, 0x00, 0x18, 0x00, 0x00, 0x00,
  0x0c, 0x00, 0x00, 0x00, 0x00, 0x00, 0x06, 0x00, 0x08, 0x00, 0x04, 0x00,
  0x06, 0x00, 0x00, 0x00, 0x03, 0x00, 0x00, 0x00, 0x01, 0x00, 0x00, 0x00,
  0x13, 0x00, 0x00, 0x00, 0x03, 0x00, 0x00, 0x00, 0x12, 0x00, 0x00, 0x00,
  0x07, 0x00, 0x00, 0x00, 0x06, 0x00, 0x00, 0x00, 0x00, 0x00, 0x0e, 0x00,
  0x1a, 0x00, 0x08, 0x00, 0x0c, 0x00, 0x10, 0x00, 0x07, 0x00, 0x14, 0x00,
  0x0e, 0x00, 0x00, 0x00, 0x00, 0x00, 0x00, 0x20, 0x01, 0x00, 0x00, 0x00,
  0x2c, 0x00, 0x00, 0x00, 0x20, 0x00, 0x00, 0x00, 0x14, 0x00, 0x00, 0x00,
  0x00, 0x00, 0x0e, 0x00, 0x08, 0x00, 0x00, 0x00, 0x00, 0x00, 0x00, 0x00,
  0x00, 0x00, 0x04, 0x00, 0x0e, 0x00, 0x00, 0x00, 0x01, 0x00, 0x00, 0x00,
  0x01, 0x00, 0x00, 0x00, 0x12, 0x00, 0x00, 0x00, 0x04, 0x00, 0x00, 0x00,
  0x11, 0x00, 0x00, 0x00, 0x05, 0x00, 0x00, 0x00, 0x04, 0x00, 0x00, 0x00,
  0x04, 0x00, 0x00, 0x00, 0x00, 0x00, 0x0e, 0x00, 0x16, 0x00, 0x00, 0x00,
  0x08, 0x00, 0x0c, 0x00, 0x07, 0x00, 0x10, 0x00, 0x0e, 0x00, 0x00, 0x00,
  0x00, 0x00, 0x00, 0x37, 0x24, 0x00, 0x00, 0x00, 0x18, 0x00, 0x00, 0x00,
  0x0c, 0x00, 0x00, 0x00, 0x00, 0x00, 0x06, 0x00, 0x08, 0x00, 0x07, 0x00,
  0x06, 0x00, 0x00, 0x00, 0x00, 0x00, 0x00, 0x02, 0x01, 0x00, 0x00, 0x00,
  0x11, 0x00, 0x00, 0x00, 0x01, 0x00, 0x00, 0x00, 0x00, 0x00, 0x00, 0x00,
  0x01, 0x00, 0x00, 0x00, 0x22, 0x00, 0x00, 0x00, 0x01, 0x00, 0x00, 0x00,
  0x00, 0x00, 0x00, 0x00, 0x23, 0x00, 0x00, 0x00, 0x1c, 0x0d, 0x00, 0x00,
  0xd4, 0x0c, 0x00, 0x00, 0x8c, 0x0c, 0x00, 0x00, 0x58, 0x0c, 0x00, 0x00,
  0x00, 0x0c, 0x00, 0x00, 0x9c, 0x0b, 0x00, 0x00, 0x58, 0x0b, 0x00, 0x00,
  0x04, 0x0b, 0x00, 0x00, 0xbc, 0x0a, 0x00, 0x00, 0x74, 0x0a, 0x00, 0x00,
  0x2c, 0x0a, 0x00, 0x00, 0xe4, 0x09, 0x00, 0x00, 0x94, 0x09, 0x00, 0x00,
  0x44, 0x09, 0x00, 0x00, 0xf4, 0x08, 0x00, 0x00, 0xa4, 0x08, 0x00, 0x00,
  0x54, 0x08, 0x00, 0x00, 0x0c, 0x08, 0x00, 0x00, 0xc8, 0x07, 0x00, 0x00,
  0x78, 0x07, 0x00, 0x00, 0x18, 0x07, 0x00, 0x00, 0xa8, 0x06, 0x00, 0x00,
  0xe4, 0x05, 0x00, 0x00, 0x40, 0x05, 0x00, 0x00, 0xd0, 0x04, 0x00, 0x00,
  0x60, 0x04, 0x00, 0x00, 0xf8, 0x03, 0x00, 0x00, 0x84, 0x03, 0x00, 0x00,
  0xb4, 0x02, 0x00, 0x00, 0x08, 0x02, 0x00, 0x00, 0x94, 0x01, 0x00, 0x00,
  0x24, 0x01, 0x00, 0x00, 0xcc, 0x00, 0x00, 0x00, 0x5c, 0x00, 0x00, 0x00,
  0x04, 0x00, 0x00, 0x00, 0x84, 0xf3, 0xff, 0xff, 0x44, 0x00, 0x00, 0x00,
  0x23, 0x00, 0x00, 0x00, 0x1c, 0x00, 0x00, 0x00, 0x14, 0x00, 0x00, 0x00,
  0x04, 0x00, 0x00, 0x00, 0x02, 0x00, 0x00, 0x00, 0xff, 0xff, 0xff, 0xff,
  0x02, 0x00, 0x00, 0x00, 0x70, 0xf3, 0xff, 0xff, 0x19, 0x00, 0x00, 0x00,
  0x53, 0x74, 0x61, 0x74, 0x65, 0x66, 0x75, 0x6c, 0x50, 0x61, 0x72, 0x74,
  0x69, 0x74, 0x69, 0x6f, 0x6e, 0x65, 0x64, 0x43, 0x61, 0x6c, 0x6c, 0x3a,
  0x30, 0x00, 0x00, 0x00, 0x02, 0x00, 0x00, 0x00, 0x01, 0x00, 0x00, 0x00,
  0x02, 0x00, 0x00, 0x00, 0xd8, 0xf3, 0xff, 0xff, 0x5c, 0x00, 0x00, 0x00,
  0x22, 0x00, 0x00, 0x00, 0x1c, 0x00, 0x00, 0x00, 0x14, 0x00, 0x00, 0x00,
  0x04, 0x00, 0x00, 0x00, 0x02, 0x00, 0x00, 0x00, 0xff, 0xff, 0xff, 0xff,
  0x02, 0x00, 0x00, 0x00, 0xc4, 0xf3, 0xff, 0xff, 0x32, 0x00, 0x00, 0x00,
  0x73, 0x65, 0x71, 0x75, 0x65, 0x6e, 0x74, 0x69, 0x61, 0x6c, 0x2f, 0x79,
  0x5f, 0x70, 0x72, 0x65, 0x64, 0x2f, 0x4d, 0x61, 0x74, 0x4d, 0x75, 0x6c,
  0x3b, 0x73, 0x65, 0x71, 0x75, 0x65, 0x6e, 0x74, 0x69, 0x61, 0x6c, 0x2f,
  0x79, 0x5f, 0x70, 0x72, 0x65, 0x64, 0x2f, 0x42, 0x69, 0x61, 0x73, 0x41,
  0x64, 0x64, 0x00, 0x00, 0x02, 0x00, 0x00, 0x00, 0x01, 0x00, 0x00, 0x00,
  0x02, 0x00, 0x00, 0x00, 0x44, 0xf4, 0xff, 0xff, 0x44, 0x00, 0x00, 0x00,
  0x21, 0x00, 0x00, 0x00, 0x1c, 0x00, 0x00, 0x00, 0x14, 0x00, 0x00, 0x00,
  0x04, 0x00, 0x00, 0x00, 0x02, 0x00, 0x00, 0x00, 0xff, 0xff, 0xff, 0xff,
  0xd0, 0x00, 0x00, 0x00, 0x30, 0xf4, 0xff, 0xff, 0x1a, 0x00, 0x00, 0x00,
  0x73, 0x65, 0x71, 0x75, 0x65, 0x6e, 0x74, 0x69, 0x61, 0x6c, 0x2f, 0x66,
  0x6c, 0x61, 0x74, 0x74, 0x65, 0x6e, 0x2f, 0x52, 0x65, 0x73, 0x68, 0x61,
  0x70, 0x65, 0x00, 0x00, 0x02, 0x00, 0x00, 0x00, 0x01, 0x00, 0x00, 0x00,
  0xd0, 0x00, 0x00, 0x00, 0x98, 0xf4, 0xff, 0xff, 0x54, 0x00, 0x00, 0x00,
  0x20, 0x00, 0x00, 0x00, 0x24, 0x00, 0x00, 0x00, 0x1c, 0x00, 0x00, 0x00,
  0x04, 0x00, 0x00, 0x00, 0x04, 0x00, 0x00, 0x00, 0xff, 0xff, 0xff, 0xff,
  0x0d, 0x00, 0x00, 0x00, 0x01, 0x00, 0x00, 0x00, 0x10, 0x00, 0x00, 0x00,
  0x8c, 0xf4, 0xff, 0xff, 0x22, 0x00, 0x00, 0x00, 0x73, 0x65, 0x71, 0x75,
  0x65, 0x6e, 0x74, 0x69, 0x61, 0x6c, 0x2f, 0x6d, 0x61, 0x78, 0x5f, 0x70,
  0x6f, 0x6f, 0x6c, 0x69, 0x6e, 0x67, 0x31, 0x64, 0x5f, 0x31, 0x2f, 0x4d,
  0x61, 0x78, 0x50, 0x6f, 0x6f, 0x6c, 0x00, 0x00, 0x04, 0x00, 0x00, 0x00,
  0x01, 0x00, 0x00, 0x00, 0x0d, 0x00, 0x00, 0x00, 0x01, 0x00, 0x00, 0x00,
  0x10, 0x00, 0x00, 0x00, 0x04, 0xf5, 0xff, 0xff, 0x58, 0x00, 0x00, 0x00,
  0x1f, 0x00, 0x00, 0x00, 0x24, 0x00, 0x00, 0x00, 0x1c, 0x00, 0x00, 0x00,
  0x04, 0x00, 0x00, 0x00, 0x04, 0x00, 0x00, 0x00, 0xff, 0xff, 0xff, 0xff,
  0x1a, 0x00, 0x00, 0x00, 0x01, 0x00, 0x00, 0x00, 0x10, 0x00, 0x00, 0x00,
  0xf8, 0xf4, 0xff, 0xff, 0x25, 0x00, 0x00, 0x00, 0x73, 0x65, 0x71, 0x75,
  0x65, 0x6e, 0x74, 0x69, 0x61, 0x6c, 0x2f, 0x6d, 0x61, 0x78, 0x5f, 0x70,
  0x6f, 0x6f, 0x6c, 0x69, 0x6e, 0x67, 0x31, 0x64, 0x5f, 0x31, 0x2f, 0x45,
  0x78, 0x70, 0x61, 0x6e, 0x64, 0x44, 0x69, 0x6d, 0x73, 0x00, 0x00, 0x00,
  0x04, 0x00, 0x00, 0x00, 0x01, 0x00, 0x00, 0x00, 0x1a, 0x00, 0x00, 0x00,
  0x01, 0x00, 0x00, 0x00, 0x10, 0x00, 0x00, 0x00, 0x74, 0xf5, 0xff, 0xff,
  0x94, 0x00, 0x00, 0x00, 0x1e, 0x00, 0x00, 0x00, 0x20, 0x00, 0x00, 0x00,
  0x18, 0x00, 0x00, 0x00, 0x04, 0x00, 0x00, 0x00, 0x03, 0x00, 0x00, 0x00,
  0xff, 0xff, 0xff, 0xff, 0x1a, 0x00, 0x00, 0x00, 0x10, 0x00, 0x00, 0x00,
  0x64, 0xf5, 0xff, 0xff, 0x65, 0x00, 0x00, 0x00, 0x73, 0x65, 0x71, 0x75,
  0x65, 0x6e, 0x74, 0x69, 0x61, 0x6c, 0x2f, 0x63, 0x6f, 0x6e, 0x76, 0x31,
  0x64, 0x5f, 0x31, 0x2f, 0x52, 0x65, 0x6c, 0x75, 0x3b, 0x73, 0x65, 0x71,
  0x75, 0x65, 0x6e, 0x74, 0x69, 0x61, 0x6c, 0x2f, 0x63, 0x6f, 0x6e, 0x76,
  0x31, 0x64, 0x5f, 0x31, 0x2f, 0x42, 0x69, 0x61, 0x73, 0x41, 0x64, 0x64,
  0x3b, 0x73, 0x65, 0x71, 0x75, 0x65, 0x6e, 0x74, 0x69, 0x61, 0x6c, 0x2f,
  0x63, 0x6f, 0x6e, 0x76, 0x31, 0x64, 0x5f, 0x31, 0x2f, 0x43, 0x6f, 0x6e,
  0x76, 0x31, 0x44, 0x2f, 0x53, 0x71, 0x75, 0x65, 0x65, 0x7a, 0x65, 0x3b,
  0x63, 0x6f, 0x6e, 0x76, 0x31, 0x64, 0x5f, 0x31, 0x2f, 0x62, 0x69, 0x61,
  0x73, 0x00, 0x00, 0x00, 0x03, 0x00, 0x00, 0x00, 0x01, 0x00, 0x00, 0x00,
  0x1a, 0x00, 0x00, 0x00, 0x10, 0x00, 0x00, 0x00, 0x1c, 0xf6, 0xff, 0xff,
  0xb4, 0x00, 0x00, 0x00, 0x1d, 0x00, 0x00, 0x00, 0x24, 0x00, 0x00, 0x00,
  0x1c, 0x00, 0x00, 0x00, 0x04, 0x00, 0x00, 0x00, 0x04, 0x00, 0x00, 0x00,
  0xff, 0xff, 0xff, 0xff, 0x01, 0x00, 0x00, 0x00, 0x1a, 0x00, 0x00, 0x00,
  0x10, 0x00, 0x00, 0x00, 0x10, 0xf6, 0xff, 0xff, 0x80, 0x00, 0x00, 0x00,
  0x73, 0x65, 0x71, 0x75, 0x65, 0x6e, 0x74, 0x69, 0x61, 0x6c, 0x2f, 0x63,
  0x6f, 0x6e, 0x76, 0x31, 0x64, 0x5f, 0x31, 0x2f, 0x52, 0x65, 0x6c, 0x75,
  0x3b, 0x73, 0x65, 0x71, 0x75, 0x65, 0x6e, 0x74, 0x69, 0x61, 0x6c, 0x2f,
  0x63, 0x6f, 0x6e, 0x76, 0x31, 0x64, 0x5f, 0x31, 0x2f, 0x42, 0x69, 0x61,
  0x73, 0x41, 0x64, 0x64, 0x3b, 0x73, 0x65, 0x71, 0x75, 0x65, 0x6e, 0x74,
  0x69, 0x61, 0x6c, 0x2f, 0x63, 0x6f, 0x6e, 0x76, 0x31, 0x64, 0x5f, 0x31,
  0x2f, 0x43, 0x6f, 0x6e, 0x76, 0x31, 0x44, 0x2f, 0x53, 0x71, 0x75, 0x65,
  0x65, 0x7a, 0x65, 0x3b, 0x63, 0x6f, 0x6e, 0x76, 0x31, 0x64, 0x5f, 0x31,
  0x2f, 0x62, 0x69, 0x61, 0x73, 0x3b, 0x73, 0x65, 0x71, 0x75, 0x65, 0x6e,
  0x74, 0x69, 0x61, 0x6c, 0x2f, 0x63, 0x6f, 0x6e, 0x76, 0x31, 0x64, 0x5f,
  0x31, 0x2f, 0x43, 0x6f, 0x6e, 0x76, 0x31, 0x44, 0x00, 0x00, 0x00, 0x00,
  0x04, 0x00, 0x00, 0x00, 0x01, 0x00, 0x00, 0x00, 0x01, 0x00, 0x00, 0x00,
  0x1a, 0x00, 0x00, 0x00, 0x10, 0x00, 0x00, 0x00, 0xe8, 0xf6, 0xff, 0xff,
  0x58, 0x00, 0x00, 0x00, 0x1c, 0x00, 0x00, 0x00, 0x24, 0x00, 0x00, 0x00,
  0x1c, 0x00, 0x00, 0x00, 0x04, 0x00, 0x00, 0x00, 0x04, 0x00, 0x00, 0x00,
  0xff, 0xff, 0xff, 0xff, 0x01, 0x00, 0x00, 0x00, 0x1a, 0x00, 0x00, 0x00,
  0x08, 0x00, 0x00, 0x00, 0xdc, 0xf6, 0xff, 0xff, 0x25, 0x00, 0x00, 0x00,
  0x73, 0x65, 0x71, 0x75, 0x65, 0x6e, 0x74, 0x69, 0x61, 0x6c, 0x2f, 0x63,
  0x6f, 0x6e, 0x76, 0x31, 0x64, 0x5f, 0x31, 0x2f, 0x43, 0x6f, 0x6e, 0x76,
  0x31, 0x44, 0x2f, 0x45, 0x78, 0x70, 0x61, 0x6e, 0x64, 0x44, 0x69, 0x6d,
  0x73, 0x00, 0x00, 0x00, 0x04, 0x00, 0x00, 0x00, 0x01, 0x00, 0x00, 0x00,
  0x01, 0x00, 0x00, 0x00, 0x1a, 0x00, 0x00, 0x00, 0x08, 0x00, 0x00, 0x00,
  0x58, 0xf7, 0xff, 0xff, 0x50, 0x00, 0x00, 0x00, 0x1b, 0x00, 0x00, 0x00,
  0x20, 0x00, 0x00, 0x00, 0x18, 0x00, 0x00, 0x00, 0x04, 0x00, 0x00, 0x00,
  0x03, 0x00, 0x00, 0x00, 0xff, 0xff, 0xff, 0xff, 0x1a, 0x00, 0x00, 0x00,
  0x08, 0x00, 0x00, 0x00, 0x48, 0xf7, 0xff, 0xff, 0x21, 0x00, 0x00, 0x00,
  0x73, 0x65, 0x71, 0x75, 0x65, 0x6e, 0x74, 0x69, 0x61, 0x6c, 0x2f, 0x6d,
  0x61, 0x78, 0x5f, 0x70, 0x6f, 0x6f, 0x6c, 0x69, 0x6e, 0x67, 0x31, 0x64,
  0x2f, 0x53, 0x71, 0x75, 0x65, 0x65, 0x7a, 0x65, 0x31, 0x00, 0x00, 0x00,
  0x03, 0x00, 0x00, 0x00, 0x01, 0x00, 0x00, 0x00, 0x1a, 0x00, 0x00, 0x00,
  0x08, 0x00, 0x00, 0x00, 0xbc, 0xf7, 0xff, 0xff, 0x54, 0x00, 0x00, 0x00,
  0x1a, 0x00, 0x00, 0x00, 0x24, 0x00, 0x00, 0x00, 0x1c, 0x00, 0x00, 0x00,
  0x04, 0x00, 0x00, 0x00, 0x04, 0x00, 0x00, 0x00, 0xff, 0xff, 0xff, 0xff,
  0x1a, 0x00, 0x00, 0x00, 0x01, 0x00, 0x00, 0x00, 0x08, 0x00, 0x00, 0x00,
  0xb0, 0xf7, 0xff, 0xff, 0x20, 0x00, 0x00, 0x00, 0x73, 0x65, 0x71, 0x75,
  0x65, 0x6e, 0x74, 0x69, 0x61, 0x6c, 0x2f, 0x6d, 0x61, 0x78, 0x5f, 0x70,
  0x6f, 0x6f, 0x6c, 0x69, 0x6e, 0x67, 0x31, 0x64, 0x2f, 0x4d, 0x61, 0x78,
  0x50, 0x6f, 0x6f, 0x6c, 0x00, 0x00, 0x00, 0x00, 0x04, 0x00, 0x00, 0x00,
  0x01, 0x00, 0x00, 0x00, 0x1a, 0x00, 0x00, 0x00, 0x01, 0x00, 0x00, 0x00,
  0x08, 0x00, 0x00, 0x00, 0x28, 0xf8, 0xff, 0xff, 0x54, 0x00, 0x00, 0x00,
  0x19, 0x00, 0x00, 0x00, 0x24, 0x00, 0x00, 0x00, 0x1c, 0x00, 0x00, 0x00,
  0x04, 0x00, 0x00, 0x00, 0x04, 0x00, 0x00, 0x00, 0xff, 0xff, 0xff, 0xff,
  0x34, 0x00, 0x00, 0x00, 0x01, 0x00, 0x00, 0x00, 0x08, 0x00, 0x00, 0x00,
  0x1c, 0xf8, 0xff, 0xff, 0x23, 0x00, 0x00, 0x00, 0x73, 0x65, 0x71, 0x75,
  0x65, 0x6e, 0x74, 0x69, 0x61, 0x6c, 0x2f, 0x6d, 0x61, 0x78, 0x5f, 0x70,
  0x6f, 0x6f, 0x6c, 0x69, 0x6e, 0x67, 0x31, 0x64, 0x2f, 0x45, 0x78, 0x70,
  0x61, 0x6e, 0x64, 0x44, 0x69, 0x6d, 0x73, 0x00, 0x04, 0x00, 0x00, 0x00,
  0x01, 0x00, 0x00, 0x00, 0x34, 0x00, 0x00, 0x00, 0x01, 0x00, 0x00, 0x00,
  0x08, 0x00, 0x00, 0x00, 0x94, 0xf8, 0xff, 0xff, 0x8c, 0x00, 0x00, 0x00,
  0x18, 0x00, 0x00, 0x00, 0x20, 0x00, 0x00, 0x00, 0x18, 0x00, 0x00, 0x00,
  0x04, 0x00, 0x00, 0x00, 0x03, 0x00, 0x00, 0x00, 0xff, 0xff, 0xff, 0xff,
  0x34, 0x00, 0x00, 0x00, 0x08, 0x00, 0x00, 0x00, 0x84, 0xf8, 0xff, 0xff,
  0x5d, 0x00, 0x00, 0x00, 0x73, 0x65, 0x71, 0x75, 0x65, 0x6e, 0x74, 0x69,
  0x61, 0x6c, 0x2f, 0x63, 0x6f, 0x6e, 0x76, 0x31, 0x64, 0x2f, 0x52, 0x65,
  0x6c, 0x75, 0x3b, 0x73, 0x65, 0x71, 0x75, 0x65, 0x6e, 0x74, 0x69, 0x61,
  0x6c, 0x2f, 0x63, 0x6f, 0x6e, 0x76, 0x31, 0x64, 0x2f, 0x42, 0x69, 0x61,
  0x73, 0x41, 0x64, 0x64, 0x3b, 0x73, 0x65, 0x71, 0x75, 0x65, 0x6e, 0x74,
  0x69, 0x61, 0x6c, 0x2f, 0x63, 0x6f, 0x6e, 0x76, 0x31, 0x64, 0x2f, 0x43,
  0x6f, 0x6e, 0x76, 0x31, 0x44, 0x2f, 0x53, 0x71, 0x75, 0x65, 0x65, 0x7a,
  0x65, 0x3b, 0x63, 0x6f, 0x6e, 0x76, 0x31, 0x64, 0x2f, 0x62, 0x69, 0x61,
  0x73, 0x00, 0x00, 0x00, 0x03, 0x00, 0x00, 0x00, 0x01, 0x00, 0x00, 0x00,
  0x34, 0x00, 0x00, 0x00, 0x08, 0x00, 0x00, 0x00, 0x34, 0xf9, 0xff, 0xff,
  0xa8, 0x00, 0x00, 0x00, 0x17, 0x00, 0x00, 0x00, 0x24, 0x00, 0x00, 0x00,
  0x1c, 0x00, 0x00, 0x00, 0x04, 0x00, 0x00, 0x00, 0x04, 0x00, 0x00, 0x00,
  0xff, 0xff, 0xff, 0xff, 0x01, 0x00, 0x00, 0x00, 0x34, 0x00, 0x00, 0x00,
  0x08, 0x00, 0x00, 0x00, 0x28, 0xf9, 0xff, 0xff, 0x76, 0x00, 0x00, 0x00,
  0x73, 0x65, 0x71, 0x75, 0x65, 0x6e, 0x74, 0x69, 0x61, 0x6c, 0x2f, 0x63,
  0x6f, 0x6e, 0x76, 0x31, 0x64, 0x2f, 0x52, 0x65, 0x6c, 0x75, 0x3b, 0x73,
  0x65, 0x71, 0x75, 0x65, 0x6e, 0x74, 0x69, 0x61, 0x6c, 0x2f, 0x63, 0x6f,
  0x6e, 0x76, 0x31, 0x64, 0x2f, 0x42, 0x69, 0x61, 0x73, 0x41, 0x64, 0x64,
  0x3b, 0x73, 0x65, 0x71, 0x75, 0x65, 0x6e, 0x74, 0x69, 0x61, 0x6c, 0x2f,
  0x63, 0x6f, 0x6e, 0x76, 0x31, 0x64, 0x2f, 0x43, 0x6f, 0x6e, 0x76, 0x31,
  0x44, 0x2f, 0x53, 0x71, 0x75, 0x65, 0x65, 0x7a, 0x65, 0x3b, 0x63, 0x6f,
  0x6e, 0x76, 0x31, 0x64, 0x2f, 0x62, 0x69, 0x61, 0x73, 0x3b, 0x73, 0x65,
  0x71, 0x75, 0x65, 0x6e, 0x74, 0x69, 0x61, 0x6c, 0x2f, 0x63, 0x6f, 0x6e,
  0x76, 0x31, 0x64, 0x2f, 0x43, 0x6f, 0x6e, 0x76, 0x31, 0x44, 0x00, 0x00,
  0x04, 0x00, 0x00, 0x00, 0x01, 0x00, 0x00, 0x00, 0x01, 0x00, 0x00, 0x00,
  0x34, 0x00, 0x00, 0x00, 0x08, 0x00, 0x00, 0x00, 0xf4, 0xf9, 0xff, 0xff,
  0x54, 0x00, 0x00, 0x00, 0x16, 0x00, 0x00, 0x00, 0x24, 0x00, 0x00, 0x00,
  0x1c, 0x00, 0x00, 0x00, 0x04, 0x00, 0x00, 0x00, 0x04, 0x00, 0x00, 0x00,
  0xff, 0xff, 0xff, 0xff, 0x01, 0x00, 0x00, 0x00, 0x34, 0x00, 0x00, 0x00,
  0x0d, 0x00, 0x00, 0x00, 0xe8, 0xf9, 0xff, 0xff, 0x23, 0x00, 0x00, 0x00,
  0x73, 0x65, 0x71, 0x75, 0x65, 0x6e, 0x74, 0x69, 0x61, 0x6c, 0x2f, 0x63,
  0x6f, 0x6e, 0x76, 0x31, 0x64, 0x2f, 0x43, 0x6f, 0x6e, 0x76, 0x31, 0x44,
  0x2f, 0x45, 0x78, 0x70, 0x61, 0x6e, 0x64, 0x44, 0x69, 0x6d, 0x73, 0x00,
  0x04, 0x00, 0x00, 0x00, 0x01, 0x00, 0x00, 0x00, 0x01, 0x00, 0x00, 0x00,
  0x34, 0x00, 0x00, 0x00, 0x0d, 0x00, 0x00, 0x00, 0x60, 0xfa, 0xff, 0xff,
  0x48, 0x00, 0x00, 0x00, 0x15, 0x00, 0x00, 0x00, 0x20, 0x00, 0x00, 0x00,
  0x18, 0x00, 0x00, 0x00, 0x04, 0x00, 0x00, 0x00, 0x03, 0x00, 0x00, 0x00,
  0xff, 0xff, 0xff, 0xff, 0x34, 0x00, 0x00, 0x00, 0x0d, 0x00, 0x00, 0x00,
  0x50, 0xfa, 0xff, 0xff, 0x1a, 0x00, 0x00, 0x00, 0x73, 0x65, 0x71, 0x75,
  0x65, 0x6e, 0x74, 0x69, 0x61, 0x6c, 0x2f, 0x72, 0x65, 0x73, 0x68, 0x61,
  0x70, 0x65, 0x2f, 0x52, 0x65, 0x73, 0x68, 0x61, 0x70, 0x65, 0x00, 0x00,
  0x03, 0x00, 0x00, 0x00, 0x01, 0x00, 0x00, 0x00, 0x34, 0x00, 0x00, 0x00,
  0x0d, 0x00, 0x00, 0x00, 0xc2, 0xfb, 0xff, 0xff, 0x00, 0x00, 0x00, 0x02,
  0x3c, 0x00, 0x00, 0x00, 0x14, 0x00, 0x00, 0x00, 0x0c, 0x00, 0x00, 0x00,
  0x04, 0x00, 0x00, 0x00, 0x9c, 0xfa, 0xff, 0xff, 0x20, 0x00, 0x00, 0x00,
  0x73, 0x65, 0x71, 0x75, 0x65, 0x6e, 0x74, 0x69, 0x61, 0x6c, 0x2f, 0x72,
  0x65, 0x73, 0x68, 0x61, 0x70, 0x65, 0x2f, 0x52, 0x65, 0x73, 0x68, 0x61,
  0x70, 0x65, 0x2f, 0x73, 0x68, 0x61, 0x70, 0x65, 0x00, 0x00, 0x00, 0x00,
  0x01, 0x00, 0x00, 0x00, 0x03, 0x00, 0x00, 0x00, 0xae, 0xfc, 0xff, 0xff,
  0x00, 0x00, 0x00, 0x02, 0x13, 0x00, 0x00, 0x00, 0x0c, 0x00, 0x00, 0x00,
  0x04, 0x00, 0x00, 0x00, 0xe4, 0xfa, 0xff, 0xff, 0x20, 0x00, 0x00, 0x00,
  0x73, 0x65, 0x71, 0x75, 0x65, 0x6e, 0x74, 0x69, 0x61, 0x6c, 0x2f, 0x72,
  0x65, 0x73, 0x68, 0x61, 0x70, 0x65, 0x2f, 0x73, 0x74, 0x72, 0x69, 0x64,
  0x65, 0x64, 0x5f, 0x73, 0x6c, 0x69, 0x63, 0x65, 0x00, 0x00, 0x00, 0x00,
  0x4e, 0xfc, 0xff, 0xff, 0x00, 0x00, 0x00, 0x02, 0x34, 0x00, 0x00, 0x00,
  0x12, 0x00, 0x00, 0x00, 0x0c, 0x00, 0x00, 0x00, 0x04, 0x00, 0x00, 0x00,
  0x28, 0xfb, 0xff, 0xff, 0x18, 0x00, 0x00, 0x00, 0x73, 0x65, 0x71, 0x75,
  0x65, 0x6e, 0x74, 0x69, 0x61, 0x6c, 0x2f, 0x72, 0x65, 0x73, 0x68, 0x61,
  0x70, 0x65, 0x2f, 0x53, 0x68, 0x61, 0x70, 0x65, 0x00, 0x00, 0x00, 0x00,
  0x01, 0x00, 0x00, 0x00, 0x02, 0x00, 0x00, 0x00, 0x92, 0xfc, 0xff, 0xff,
  0x00, 0x00, 0x00, 0x02, 0x3c, 0x00, 0x00, 0x00, 0x11, 0x00, 0x00, 0x00,
  0x0c, 0x00, 0x00, 0x00, 0x04, 0x00, 0x00, 0x00, 0x6c, 0xfb, 0xff, 0xff,
  0x22, 0x00, 0x00, 0x00, 0x73, 0x65, 0x71, 0x75, 0x65, 0x6e, 0x74, 0x69,
  0x61, 0x6c, 0x2f, 0x63, 0x6f, 0x6e, 0x76, 0x31, 0x64, 0x5f, 0x31, 0x2f,
  0x43, 0x6f, 0x6e, 0x76, 0x31, 0x44, 0x2f, 0x53, 0x71, 0x75, 0x65, 0x65,
  0x7a, 0x65, 0x00, 0x00, 0x01, 0x00, 0x00, 0x00, 0x03, 0x00, 0x00, 0x00,
  0xde, 0xfc, 0xff, 0xff, 0x00, 0x00, 0x00, 0x02, 0x3c, 0x00, 0x00, 0x00,
  0x10, 0x00, 0x00, 0x00, 0x0c, 0x00, 0x00, 0x00, 0x04, 0x00, 0x00, 0x00,
  0xb8, 0xfb, 0xff, 0xff, 0x20, 0x00, 0x00, 0x00, 0x73, 0x65, 0x71, 0x75,
  0x65, 0x6e, 0x74, 0x69, 0x61, 0x6c, 0x2f, 0x6d, 0x61, 0x78, 0x5f, 0x70,
  0x6f, 0x6f, 0x6c, 0x69, 0x6e, 0x67, 0x31, 0x64, 0x2f, 0x53, 0x71, 0x75,
  0x65, 0x65, 0x7a, 0x65, 0x00, 0x00, 0x00, 0x00, 0x01, 0x00, 0x00, 0x00,
  0x03, 0x00, 0x00, 0x00, 0x2a, 0xfd, 0xff, 0xff, 0x00, 0x00, 0x00, 0x02,
  0x3c, 0x00, 0x00, 0x00, 0x0f, 0x00, 0x00, 0x00, 0x0c, 0x00, 0x00, 0x00,
  0x04, 0x00, 0x00, 0x00, 0x04, 0xfc, 0xff, 0xff, 0x20, 0x00, 0x00, 0x00,
  0x73, 0x65, 0x71, 0x75, 0x65, 0x6e, 0x74, 0x69, 0x61, 0x6c, 0x2f, 0x63,
  0x6f, 0x6e, 0x76, 0x31, 0x64, 0x2f, 0x43, 0x6f, 0x6e, 0x76, 0x31, 0x44,
  0x2f, 0x53, 0x71, 0x75, 0x65, 0x65, 0x7a, 0x65, 0x00, 0x00, 0x00, 0x00,
  0x01, 0x00, 0x00, 0x00, 0x03, 0x00, 0x00, 0x00, 0xae, 0xfc, 0xff, 0xff,
  0x34, 0x00, 0x00, 0x00, 0x0e, 0x00, 0x00, 0x00, 0x0c, 0x00, 0x00, 0x00,
  0x04, 0x00, 0x00, 0x00, 0x4c, 0xfc, 0xff, 0xff, 0x1a, 0x00, 0x00, 0x00,
  0x73, 0x65, 0x71, 0x75, 0x65, 0x6e, 0x74, 0x69, 0x61, 0x6c, 0x2f, 0x63,
  0x6f, 0x6e, 0x76, 0x31, 0x64, 0x5f, 0x31, 0x2f, 0x43, 0x6f, 0x6e, 0x76,
  0x31, 0x44, 0x00, 0x00, 0x04, 0x00, 0x00, 0x00, 0x10, 0x00, 0x00, 0x00,
  0x01, 0x00, 0x00, 0x00, 0x03, 0x00, 0x00, 0x00, 0x08, 0x00, 0x00, 0x00,
  0xfa, 0xfc, 0xff, 0xff, 0x34, 0x00, 0x00, 0x00, 0x0d, 0x00, 0x00, 0x00,
  0x0c, 0x00, 0x00, 0x00, 0x04, 0x00, 0x00, 0x00, 0x98, 0xfc, 0xff, 0xff,
  0x18, 0x00, 0x00, 0x00, 0x73, 0x65, 0x71, 0x75, 0x65, 0x6e, 0x74, 0x69,
  0x61, 0x6c, 0x2f, 0x63, 0x6f, 0x6e, 0x76, 0x31, 0x64, 0x2f, 0x43, 0x6f,
  0x6e, 0x76, 0x31, 0x44, 0x00, 0x00, 0x00, 0x00, 0x04, 0x00, 0x00, 0x00,
  0x08, 0x00, 0x00, 0x00, 0x01, 0x00, 0x00, 0x00, 0x03, 0x00, 0x00, 0x00,
  0x0d, 0x00, 0x00, 0x00, 0x46, 0xfd, 0xff, 0xff, 0x34, 0x00, 0x00, 0x00,
  0x0c, 0x00, 0x00, 0x00, 0x0c, 0x00, 0x00, 0x00, 0x04, 0x00, 0x00, 0x00,
  0xe4, 0xfc, 0xff, 0xff, 0x18, 0x00, 0x00, 0x00, 0x73, 0x65, 0x71, 0x75,
  0x65, 0x6e, 0x74, 0x69, 0x61, 0x6c, 0x2f, 0x79, 0x5f, 0x70, 0x72, 0x65,
  0x64, 0x2f, 0x4d, 0x61, 0x74, 0x4d, 0x75, 0x6c, 0x00, 0x00, 0x00, 0x00,
  0x02, 0x00, 0x00, 0x00, 0x02, 0x00, 0x00, 0x00, 0xd0, 0x00, 0x00, 0x00,
  0xf2, 0xfe, 0xff, 0xff, 0x00, 0x00, 0x00, 0x02, 0x0b, 0x00, 0x00, 0x00,
  0x0c, 0x00, 0x00, 0x00, 0x04, 0x00, 0x00, 0x00, 0x28, 0xfd, 0xff, 0xff,
  0x27, 0x00, 0x00, 0x00, 0x73, 0x65, 0x71, 0x75, 0x65, 0x6e, 0x74, 0x69,
  0x61, 0x6c, 0x2f, 0x63, 0x6f, 0x6e, 0x76, 0x31, 0x64, 0x2f, 0x43, 0x6f,
  0x6e, 0x76, 0x31, 0x44, 0x2f, 0x45, 0x78, 0x70, 0x61, 0x6e, 0x64, 0x44,
  0x69, 0x6d, 0x73, 0x2f, 0x64, 0x69, 0x6d, 0x00, 0x96, 0xfe, 0xff, 0xff,
  0x00, 0x00, 0x00, 0x02, 0x34, 0x00, 0x00, 0x00, 0x0a, 0x00, 0x00, 0x00,
  0x0c, 0x00, 0x00, 0x00, 0x04, 0x00, 0x00, 0x00, 0x70, 0xfd, 0xff, 0xff,
  0x18, 0x00, 0x00, 0x00, 0x73, 0x65, 0x71, 0x75, 0x65, 0x6e, 0x74, 0x69,
  0x61, 0x6c, 0x2f, 0x66, 0x6c, 0x61, 0x74, 0x74, 0x65, 0x6e, 0x2f, 0x43,
  0x6f, 0x6e, 0x73, 0x74, 0x00, 0x00, 0x00, 0x00, 0x01, 0x00, 0x00, 0x00,
  0x02, 0x00, 0x00, 0x00, 0x7a, 0xff, 0xff, 0xff, 0x00, 0x00, 0x00, 0x02,
  0x09, 0x00, 0x00, 0x00, 0x0c, 0x00, 0x00, 0x00, 0x04, 0x00, 0x00, 0x00,
  0xb0, 0xfd, 0xff, 0xff, 0x27, 0x00, 0x00, 0x00, 0x73, 0x65, 0x71, 0x75,
  0x65, 0x6e, 0x74, 0x69, 0x61, 0x6c, 0x2f, 0x6d, 0x61, 0x78, 0x5f, 0x70,
  0x6f, 0x6f, 0x6c, 0x69, 0x6e, 0x67, 0x31, 0x64, 0x2f, 0x45, 0x78, 0x70,
  0x61, 0x6e, 0x64, 0x44, 0x69, 0x6d, 0x73, 0x2f, 0x64, 0x69, 0x6d, 0x00,
  0xbe, 0xff, 0xff, 0xff, 0x00, 0x00, 0x00, 0x02, 0x08, 0x00, 0x00, 0x00,
  0x0c, 0x00, 0x00, 0x00, 0x04, 0x00, 0x00, 0x00, 0xf4, 0xfd, 0xff, 0xff,
  0x22, 0x00, 0x00, 0x00, 0x73, 0x65, 0x71, 0x75, 0x65, 0x6e, 0x74, 0x69,
  0x61, 0x6c, 0x2f, 0x72, 0x65, 0x73, 0x68, 0x61, 0x70, 0x65, 0x2f, 0x52,
  0x65, 0x73, 0x68, 0x61, 0x70, 0x65, 0x2f, 0x73, 0x68, 0x61, 0x70, 0x65,
  0x2f, 0x31, 0x00, 0x00, 0x00, 0x00, 0x0e, 0x00, 0x14, 0x00, 0x00, 0x00,
  0x07, 0x00, 0x08, 0x00, 0x0c, 0x00, 0x10, 0x00, 0x0e, 0x00, 0x00, 0x00,
  0x00, 0x00, 0x00, 0x02, 0x07, 0x00, 0x00, 0x00, 0x0c, 0x00, 0x00, 0x00,
  0x04, 0x00, 0x00, 0x00, 0x44, 0xfe, 0xff, 0xff, 0x22, 0x00, 0x00, 0x00,
  0x73, 0x65, 0x71, 0x75, 0x65, 0x6e, 0x74, 0x69, 0x61, 0x6c, 0x2f, 0x72,
  0x65, 0x73, 0x68, 0x61, 0x70, 0x65, 0x2f, 0x52, 0x65, 0x73, 0x68, 0x61,
  0x70, 0x65, 0x2f, 0x73, 0x68, 0x61, 0x70, 0x65, 0x2f, 0x32, 0x00, 0x00,
  0xae, 0xff, 0xff, 0xff, 0x00, 0x00, 0x00, 0x02, 0x40, 0x00, 0x00, 0x00,
  0x06, 0x00, 0x00, 0x00, 0x0c, 0x00, 0x00, 0x00, 0x04, 0x00, 0x00, 0x00,
  0x88, 0xfe, 0xff, 0xff, 0x26, 0x00, 0x00, 0x00, 0x73, 0x65, 0x71, 0x75,
  0x65, 0x6e, 0x74, 0x69, 0x61, 0x6c, 0x2f, 0x72, 0x65, 0x73, 0x68, 0x61,
  0x70, 0x65, 0x2f, 0x73, 0x74, 0x72, 0x69, 0x64, 0x65, 0x64, 0x5f, 0x73,
  0x6c, 0x69, 0x63, 0x65, 0x2f, 0x73, 0x74, 0x61, 0x63, 0x6b, 0x00, 0x00,
  0x01, 0x00, 0x00, 0x00, 0x01, 0x00, 0x00, 0x00, 0x00, 0x00, 0x0e, 0x00,
  0x18, 0x00, 0x08, 0x00, 0x07, 0x00, 0x0c, 0x00, 0x10, 0x00, 0x14, 0x00,
  0x0e, 0x00, 0x00, 0x00, 0x00, 0x00, 0x00, 0x02, 0x44, 0x00, 0x00, 0x00,
  0x05, 0x00, 0x00, 0x00, 0x0c, 0x00, 0x00, 0x00, 0x04, 0x00, 0x00, 0x00,
  0xe8, 0xfe, 0xff, 0xff, 0x28, 0x00, 0x00, 0x00, 0x73, 0x65, 0x71, 0x75,
  0x65, 0x6e, 0x74, 0x69, 0x61, 0x6c, 0x2f, 0x72, 0x65, 0x73, 0x68, 0x61,
  0x70, 0x65, 0x2f, 0x73, 0x74, 0x72, 0x69, 0x64, 0x65, 0x64, 0x5f, 0x73,
  0x6c, 0x69, 0x63, 0x65, 0x2f, 0x73, 0x74, 0x61, 0x63, 0x6b, 0x5f, 0x31,
  0x00, 0x00, 0x00, 0x00, 0x01, 0x00, 0x00, 0x00, 0x01, 0x00, 0x00, 0x00,
  0x9a, 0xff, 0xff, 0xff, 0x24, 0x00, 0x00, 0x00, 0x04, 0x00, 0x00, 0x00,
  0x0c, 0x00, 0x00, 0x00, 0x04, 0x00, 0x00, 0x00, 0x38, 0xff, 0xff, 0xff,
  0x0b, 0x00, 0x00, 0x00, 0x63, 0x6f, 0x6e, 0x76, 0x31, 0x64, 0x2f, 0x62,
  0x69, 0x61, 0x73, 0x00, 0x01, 0x00, 0x00, 0x00, 0x08, 0x00, 0x00, 0x00,
  0xca, 0xff, 0xff, 0xff, 0x28, 0x00, 0x00, 0x00, 0x03, 0x00, 0x00, 0x00,
  0x0c, 0x00, 0x00, 0x00, 0x04, 0x00, 0x00, 0x00, 0x68, 0xff, 0xff, 0xff,
  0x0d, 0x00, 0x00, 0x00, 0x63, 0x6f, 0x6e, 0x76, 0x31, 0x64, 0x5f, 0x31,
  0x2f, 0x62, 0x69, 0x61, 0x73, 0x00, 0x00, 0x00, 0x01, 0x00, 0x00, 0x00,
  0x10, 0x00, 0x00, 0x00, 0x00, 0x00, 0x0e, 0x00, 0x14, 0x00, 0x04, 0x00,
  0x00, 0x00, 0x08, 0x00, 0x0c, 0x00, 0x10, 0x00, 0x0e, 0x00, 0x00, 0x00,
  0x24, 0x00, 0x00, 0x00, 0x02, 0x00, 0x00, 0x00, 0x0c, 0x00, 0x00, 0x00,
  0x04, 0x00, 0x00, 0x00, 0xac, 0xff, 0xff, 0xff, 0x0b, 0x00, 0x00, 0x00,
  0x79, 0x5f, 0x70, 0x72, 0x65, 0x64, 0x2f, 0x62, 0x69, 0x61, 0x73, 0x00,
  0x01, 0x00, 0x00, 0x00, 0x02, 0x00, 0x00, 0x00, 0x14, 0x00, 0x18, 0x00,
  0x04, 0x00, 0x00, 0x00, 0x08, 0x00, 0x0c, 0x00, 0x10, 0x00, 0x00, 0x00,
  0x00, 0x00, 0x14, 0x00, 0x14, 0x00, 0x00, 0x00, 0x4c, 0x00, 0x00, 0x00,
  0x01, 0x00, 0x00, 0x00, 0x20, 0x00, 0x00, 0x00, 0x18, 0x00, 0x00, 0x00,
  0x04, 0x00, 0x00, 0x00, 0x02, 0x00, 0x00, 0x00, 0xff, 0xff, 0xff, 0xff,
  0xa4, 0x02, 0x00, 0x00, 0x04, 0x00, 0x04, 0x00, 0x04, 0x00, 0x00, 0x00,
  0x1f, 0x00, 0x00, 0x00, 0x73, 0x65, 0x72, 0x76, 0x69, 0x6e, 0x67, 0x5f,
  0x64, 0x65, 0x66, 0x61, 0x75, 0x6c, 0x74, 0x5f, 0x72, 0x65, 0x73, 0x68,
  0x61, 0x70, 0x65, 0x5f, 0x69, 0x6e, 0x70, 0x75, 0x74, 0x3a, 0x30, 0x00,
  0x02, 0x00, 0x00, 0x00, 0x01, 0x00, 0x00, 0x00, 0xa4, 0x02, 0x00, 0x00,
  0x09, 0x00, 0x00, 0x00, 0xa4, 0x00, 0x00, 0x00, 0x88, 0x00, 0x00, 0x00,
  0x78, 0x00, 0x00, 0x00, 0x68, 0x00, 0x00, 0x00, 0x58, 0x00, 0x00, 0x00,
  0x44, 0x00, 0x00, 0x00, 0x28, 0x00, 0x00, 0x00, 0x14, 0x00, 0x00, 0x00,
  0x04, 0x00, 0x00, 0x00, 0x8c, 0xff, 0xff, 0xff, 0x00, 0x00, 0x00, 0x19,
  0x19, 0x00, 0x00, 0x00, 0xe4, 0xff, 0xff, 0xff, 0x00, 0x00, 0x00, 0x09,
  0x09, 0x00, 0x00, 0x00, 0x09, 0x00, 0x00, 0x00, 0xa8, 0xff, 0xff, 0xff,
  0x00, 0x00, 0x00, 0x11, 0x11, 0x00, 0x00, 0x00, 0x0c, 0x00, 0x10, 0x00,
  0x07, 0x00, 0x00, 0x00, 0x08, 0x00, 0x0c, 0x00, 0x0c, 0x00, 0x00, 0x00,
  0x00, 0x00, 0x00, 0x03, 0x05, 0x00, 0x00, 0x00, 0x03, 0x00, 0x00, 0x00,
  0xd0, 0xff, 0xff, 0xff, 0x00, 0x00, 0x00, 0x46, 0x46, 0x00, 0x00, 0x00,
  0xdc, 0xff, 0xff, 0xff, 0x00, 0x00, 0x00, 0x16, 0x16, 0x00, 0x00, 0x00,
  0xe8, 0xff, 0xff, 0xff, 0x00, 0x00, 0x00, 0x53, 0x53, 0x00, 0x00, 0x00,
  0xf4, 0xff, 0xff, 0xff, 0x00, 0x00, 0x00, 0x2d, 0x2d, 0x00, 0x00, 0x00,
  0x0c, 0x00, 0x0c, 0x00, 0x07, 0x00, 0x00, 0x00, 0x00, 0x00, 0x08, 0x00,
  0x0c, 0x00, 0x00, 0x00, 0x00, 0x00, 0x00, 0x4d, 0x4d, 0x00, 0x00, 0x00
};
unsigned int saved_tflite_model_mfe_tflite_len = 10416;
