unsigned char mfcc_flattened_tflite[] = {
  0x28, 0x00, 0x00, 0x00, 0x54, 0x46, 0x4c, 0x33, 0x00, 0x00, 0x00, 0x00,
  0x00, 0x00, 0x00, 0x00, 0x00, 0x00, 0x00, 0x00, 0x14, 0x00, 0x20, 0x00,
  0x04, 0x00, 0x08, 0x00, 0x0c, 0x00, 0x10, 0x00, 0x14, 0x00, 0x00, 0x00,
  0x18, 0x00, 0x1c, 0x00, 0x14, 0x00, 0x00, 0x00, 0x03, 0x00, 0x00, 0x00,
  0xcc, 0x27, 0x00, 0x00, 0xcc, 0x15, 0x00, 0x00, 0xb4, 0x15, 0x00, 0x00,
  0xb0, 0x00, 0x00, 0x00, 0x78, 0x00, 0x00, 0x00, 0x04, 0x00, 0x00, 0x00,
  0x01, 0x00, 0x00, 0x00, 0x04, 0x00, 0x00, 0x00, 0xee, 0xe6, 0xff, 0xff,
  0x40, 0x00, 0x00, 0x00, 0x1c, 0x00, 0x00, 0x00, 0x04, 0x00, 0x00, 0x00,
  0x0f, 0x00, 0x00, 0x00, 0x73, 0x65, 0x72, 0x76, 0x69, 0x6e, 0x67, 0x5f,
  0x64, 0x65, 0x66, 0x61, 0x75, 0x6c, 0x74, 0x00, 0x01, 0x00, 0x00, 0x00,
  0x04, 0x00, 0x00, 0x00, 0xbc, 0xff, 0xff, 0xff, 0x08, 0x00, 0x00, 0x00,
  0x22, 0x00, 0x00, 0x00, 0x06, 0x00, 0x00, 0x00, 0x79, 0x5f, 0x70, 0x72,
  0x65, 0x64, 0x00, 0x00, 0x01, 0x00, 0x00, 0x00, 0x04, 0x00, 0x00, 0x00,
  0xf2, 0xe6, 0xff, 0xff, 0x04, 0x00, 0x00, 0x00, 0x0d, 0x00, 0x00, 0x00,
  0x72, 0x65, 0x73, 0x68, 0x61, 0x70, 0x65, 0x5f, 0x69, 0x6e, 0x70, 0x75,
  0x74, 0x00, 0x00, 0x00, 0x01, 0x00, 0x00, 0x00, 0x0c, 0x00, 0x00, 0x00,
  0x08, 0x00, 0x0c, 0x00, 0x04, 0x00, 0x08, 0x00, 0x08, 0x00, 0x00, 0x00,
  0x08, 0x00, 0x00, 0x00, 0x24, 0x00, 0x00, 0x00, 0x13, 0x00, 0x00, 0x00,
  0x6d, 0x69, 0x6e, 0x5f, 0x72, 0x75, 0x6e, 0x74, 0x69, 0x6d, 0x65, 0x5f,
  0x76, 0x65, 0x72, 0x73, 0x69, 0x6f, 0x6e, 0x00, 0x25, 0x00, 0x00, 0x00,
  0xec, 0x14, 0x00, 0x00, 0xd8, 0x14, 0x00, 0x00, 0xbc, 0x14, 0x00, 0x00,
  0x68, 0x14, 0x00, 0x00, 0x34, 0x14, 0x00, 0x00, 0x20, 0x14, 0x00, 0x00,
  0x0c, 0x14, 0x00, 0x00, 0xf8, 0x13, 0x00, 0x00, 0xe4, 0x13, 0x00, 0x00,
  0xd0, 0x13, 0x00, 0x00, 0xac, 0x13, 0x00, 0x00, 0x98, 0x13, 0x00, 0x00,
  0x04, 0x0d, 0x00, 0x00, 0x10, 0x08, 0x00, 0x00, 0xfc, 0x01, 0x00, 0x00,
  0xd8, 0x01, 0x00, 0x00, 0xb4, 0x01, 0x00, 0x00, 0x90, 0x01, 0x00, 0x00,
  0x84, 0x01, 0x00, 0x00, 0x70, 0x01, 0x00, 0x00, 0x5c, 0x01, 0x00, 0x00,
  0x48, 0x01, 0x00, 0x00, 0x34, 0x01, 0x00, 0x00, 0x20, 0x01, 0x00, 0x00,
  0x0c, 0x01, 0x00, 0x00, 0xf8, 0x00, 0x00, 0x00, 0xe4, 0x00, 0x00, 0x00,
  0xd0, 0x00, 0x00, 0x00, 0xbc, 0x00, 0x00, 0x00, 0xa8, 0x00, 0x00, 0x00,
  0x94, 0x00, 0x00, 0x00, 0x80, 0x00, 0x00, 0x00, 0x6c, 0x00, 0x00, 0x00,
  0x58, 0x00, 0x00, 0x00, 0x44, 0x00, 0x00, 0x00, 0x30, 0x00, 0x00, 0x00,
  0x04, 0x00, 0x00, 0x00, 0xda, 0xe7, 0xff, 0xff, 0x04, 0x00, 0x00, 0x00,
  0x10, 0x00, 0x00, 0x00, 0x31, 0x2e, 0x31, 0x31, 0x2e, 0x30, 0x00, 0x00,
  0x00, 0x00, 0x00, 0x00, 0x00, 0x00, 0x00, 0x00, 0x00, 0x00, 0x00, 0x00,
  0x00, 0x00, 0x00, 0x00, 0x00, 0x00, 0x00, 0x00, 0xe8, 0xd9, 0xff, 0xff,
  0x00, 0x00, 0x00, 0x00, 0x00, 0x00, 0x00, 0x00, 0x00, 0x00, 0x00, 0x00,
  0xf8, 0xd9, 0xff, 0xff, 0x00, 0x00, 0x00, 0x00, 0x00, 0x00, 0x00, 0x00,
  0x00, 0x00, 0x00, 0x00, 0x08, 0xda, 0xff, 0xff, 0x00, 0x00, 0x00, 0x00,
  0x00, 0x00, 0x00, 0x00, 0x00, 0x00, 0x00, 0x00, 0x18, 0xda, 0xff, 0xff,
  0x00, 0x00, 0x00, 0x00, 0x00, 0x00, 0x00, 0x00, 0x00, 0x00, 0x00, 0x00,
  0x28, 0xda, 0xff, 0xff, 0x00, 0x00, 0x00, 0x00, 0x00, 0x00, 0x00, 0x00,
  0x00, 0x00, 0x00, 0x00, 0x38, 0xda, 0xff, 0xff, 0x00, 0x00, 0x00, 0x00,
  0x00, 0x00, 0x00, 0x00, 0x00, 0x00, 0x00, 0x00, 0x48, 0xda, 0xff, 0xff,
  0x00, 0x00, 0x00, 0x00, 0x00, 0x00, 0x00, 0x00, 0x00, 0x00, 0x00, 0x00,
  0x58, 0xda, 0xff, 0xff, 0x00, 0x00, 0x00, 0x00, 0x00, 0x00, 0x00, 0x00,
  0x00, 0x00, 0x00, 0x00, 0x68, 0xda, 0xff, 0xff, 0x00, 0x00, 0x00, 0x00,
  0x00, 0x00, 0x00, 0x00, 0x00, 0x00, 0x00, 0x00, 0x78, 0xda, 0xff, 0xff,
  0x00, 0x00, 0x00, 0x00, 0x00, 0x00, 0x00, 0x00, 0x00, 0x00, 0x00, 0x00,
  0x88, 0xda, 0xff, 0xff, 0x00, 0x00, 0x00, 0x00, 0x00, 0x00, 0x00, 0x00,
  0x00, 0x00, 0x00, 0x00, 0x98, 0xda, 0xff, 0xff, 0x00, 0x00, 0x00, 0x00,
  0x00, 0x00, 0x00, 0x00, 0x00, 0x00, 0x00, 0x00, 0xa8, 0xda, 0xff, 0xff,
  0x00, 0x00, 0x00, 0x00, 0x00, 0x00, 0x00, 0x00, 0x00, 0x00, 0x00, 0x00,
  0xb8, 0xda, 0xff, 0xff, 0x00, 0x00, 0x00, 0x00, 0x00, 0x00, 0x00, 0x00,
  0x00, 0x00, 0x00, 0x00, 0xc8, 0xda, 0xff, 0xff, 0x00, 0x00, 0x00, 0x00,
  0x00, 0x00, 0x00, 0x00, 0x00, 0x00, 0x00, 0x00, 0xd8, 0xda, 0xff, 0xff,
  0x00, 0x00, 0x00, 0x00, 0x00, 0x00, 0x00, 0x00, 0x00, 0x00, 0x00, 0x00,
  0xe8, 0xda, 0xff, 0xff, 0x00, 0x00, 0x00, 0x00, 0x00, 0x00, 0x00, 0x00,
  0x00, 0x00, 0x00, 0x00, 0xf8, 0xda, 0xff, 0xff, 0x00, 0x00, 0x00, 0x00,
  0x1a, 0xe9, 0xff, 0xff, 0x04, 0x00, 0x00, 0x00, 0x0c, 0x00, 0x00, 0x00,
  0xff, 0xff, 0xff, 0xff, 0x1a, 0x00, 0x00, 0x00, 0x10, 0x00, 0x00, 0x00,
  0x00, 0x00, 0x00, 0x00, 0x00, 0x00, 0x00, 0x00, 0x3a, 0xe9, 0xff, 0xff,
  0x04, 0x00, 0x00, 0x00, 0x0c, 0x00, 0x00, 0x00, 0xff, 0xff, 0xff, 0xff,
  0x1a, 0x00, 0x00, 0x00, 0x08, 0x00, 0x00, 0x00, 0x00, 0x00, 0x00, 0x00,
  0x00, 0x00, 0x00, 0x00, 0x5a, 0xe9, 0xff, 0xff, 0x04, 0x00, 0x00, 0x00,
  0x0c, 0x00, 0x00, 0x00, 0xff, 0xff, 0xff, 0xff, 0x34, 0x00, 0x00, 0x00,
  0x08, 0x00, 0x00, 0x00, 0x00, 0x00, 0x00, 0x00, 0x00, 0x00, 0x00, 0x00,
  0x7a, 0xe9, 0xff, 0xff, 0x04, 0x00, 0x00, 0x00, 0x00, 0x06, 0x00, 0x00,
  0x0b, 0x32, 0x72, 0x3e, 0xd6, 0x02, 0xa2, 0xbe, 0xb8, 0x03, 0x98, 0x3d,
  0xe4, 0xd5, 0x8c, 0x3d, 0x06, 0x32, 0x96, 0x3e, 0xa8, 0x41, 0xb7, 0xbd,
  0x3f, 0x05, 0x90, 0xbc, 0xaa, 0x79, 0xc0, 0xbc, 0x2e, 0x0a, 0x21, 0xbd,
  0xfd, 0x19, 0x93, 0xbc, 0x82, 0x4c, 0xa2, 0x3e, 0xcc, 0xe8, 0x99, 0xbd,
  0x0c, 0x08, 0x1b, 0xbe, 0x2b, 0x35, 0x95, 0x3e, 0xc8, 0xf7, 0xb4, 0xbb,
  0x08, 0xec, 0x1a, 0xbe, 0x32, 0xf9, 0x99, 0xbe, 0x83, 0xc0, 0xad, 0xbe,
  0xcc, 0x4e, 0x52, 0xbe, 0x50, 0x83, 0xb0, 0xbe, 0x1c, 0x4e, 0xfa, 0xbe,
  0xed, 0x37, 0xc2, 0x3c, 0xd3, 0xae, 0xec, 0xbd, 0x13, 0xa9, 0xa2, 0xbe,
  0x97, 0xeb, 0x22, 0xbe, 0xb1, 0x86, 0x07, 0xbf, 0x3a, 0xa2, 0x4a, 0x3e,
  0x2d, 0x43, 0x4a, 0xbe, 0x48, 0x40, 0x7f, 0x3e, 0x91, 0xb4, 0x0d, 0x3e,
  0x6d, 0x72, 0x83, 0x3e, 0xfe, 0x4f, 0x25, 0x3e, 0x62, 0x72, 0xb9, 0xbe,
  0x96, 0xc9, 0xa5, 0x3c, 0x06, 0x77, 0x29, 0xbe, 0x52, 0x91, 0x12, 0xbf,
  0x79, 0xc7, 0x6d, 0xbe, 0xc7, 0x31, 0xf3, 0x3d, 0x68, 0x6f, 0xe6, 0x3d,
  0xed, 0x94, 0x2c, 0xbe, 0xa7, 0x3d, 0x6c, 0x3e, 0x04, 0xe7, 0xdc, 0xbe,
  0x6b, 0x92, 0x19, 0xbe, 0x32, 0xba, 0x86, 0x3e, 0x26, 0xa8, 0xfa, 0x3e,
  0x7c, 0xbb, 0x5c, 0xbe, 0x71, 0x6f, 0x5b, 0xbd, 0x7f, 0x51, 0x9f, 0xbe,
  0x34, 0xb9, 0x10, 0x3a, 0xa3, 0x77, 0xbc, 0x3d, 0x82, 0x32, 0x97, 0xbd,
  0xd9, 0x8b, 0xaa, 0xbe, 0xfc, 0x14, 0xb2, 0x3e, 0x8a, 0x89, 0xec, 0x3d,
  0xe0, 0x9e, 0x7e, 0xbe, 0x2b, 0x70, 0x7e, 0xbe, 0x48, 0x89, 0x28, 0xbe,
  0x5e, 0x83, 0xdd, 0x3e, 0xf0, 0x20, 0x5b, 0xbf, 0x2c, 0x4d, 0xad, 0x3e,
  0xb8, 0xa0, 0x19, 0xbf, 0x93, 0xf0, 0x2f, 0xbf, 0x37, 0x37, 0x86, 0xbe,
  0x64, 0x52, 0x3b, 0x3e, 0x0f, 0x84, 0xe0, 0xbe, 0x03, 0x3b, 0x9b, 0x3e,
  0xdb, 0x76, 0x84, 0x3e, 0x15, 0x04, 0x57, 0xbe, 0xbf, 0x1e, 0xa0, 0x3e,
  0x57, 0x51, 0xfb, 0xbe, 0xb6, 0x1f, 0x85, 0xbd, 0xe3, 0x3c, 0x22, 0x3e,
  0x64, 0x72, 0x16, 0xbe, 0x3b, 0xd8, 0x0f, 0xbd, 0x90, 0x91, 0xb7, 0xbe,
  0xc5, 0x3b, 0x5b, 0xbf, 0xe2, 0x51, 0xbf, 0x3d, 0xc0, 0x44, 0xc0, 0x3e,
  0x72, 0xfc, 0x17, 0x3e, 0x6b, 0x5b, 0xfa, 0x3d, 0x00, 0xa0, 0xb8, 0xbe,
  0x5b, 0x1a, 0x25, 0xbe, 0xa4, 0x18, 0x7a, 0xbe, 0x8e, 0x04, 0x8d, 0xbe,
  0x77, 0xcc, 0xa3, 0xbe, 0xc8, 0x17, 0x04, 0x3e, 0x38, 0x52, 0xea, 0x3d,
  0xd9, 0xca, 0xbf, 0xbe, 0xcc, 0xec, 0xc0, 0xbd, 0xd6, 0x36, 0x84, 0xbe,
  0xad, 0x1c, 0x90, 0xbd, 0x65, 0xc9, 0x62, 0xbe, 0xe2, 0x07, 0x9a, 0xbe,
  0x70, 0xf8, 0x3a, 0xbe, 0x6a, 0xa3, 0x3b, 0x3e, 0xd4, 0xd1, 0xc6, 0xbc,
  0xde, 0x31, 0x3e, 0x3d, 0x85, 0xbf, 0x99, 0x3d, 0x02, 0xdf, 0xa6, 0xbe,
  0x41, 0x44, 0xa8, 0x3d, 0x91, 0x53, 0x0f, 0xbe, 0x3e, 0x92, 0x17, 0xbe,
  0x63, 0xa2, 0x3b, 0x3e, 0xf3, 0x2b, 0x58, 0xbe, 0xef, 0x80, 0x2e, 0x3e,
  0x3e, 0x5a, 0x5c, 0x3a, 0x6f, 0xc2, 0x33, 0x3d, 0xf2, 0xe7, 0xa7, 0xbe,
  0xce, 0x87, 0xc8, 0xbd, 0xda, 0xc5, 0x38, 0x3e, 0x47, 0x98, 0xdb, 0x3b,
  0x34, 0x0d, 0x76, 0x3e, 0x42, 0x7a, 0xbf, 0xbd, 0x1e, 0x76, 0x18, 0x3e,
  0xcb, 0x47, 0x42, 0x3e, 0x68, 0x25, 0x43, 0xbe, 0x82, 0x8e, 0xb5, 0x3d,
  0x62, 0x1e, 0x72, 0x3d, 0xe6, 0x31, 0xa6, 0x3d, 0xda, 0xdf, 0xc5, 0xbe,
  0x7f, 0x48, 0x1f, 0x3e, 0x93, 0x04, 0x26, 0x3e, 0x37, 0x35, 0x8c, 0x3d,
  0x8b, 0x18, 0x85, 0x3e, 0xba, 0x65, 0x55, 0x3e, 0x90, 0x9f, 0x0a, 0x3e,
  0xd7, 0x0e, 0x8d, 0xbe, 0x3d, 0x59, 0x67, 0x3e, 0x2c, 0x1f, 0x5d, 0x3e,
  0x1a, 0xf2, 0xa3, 0xbe, 0xd0, 0xa5, 0xf3, 0xbd, 0xfe, 0x4c, 0xc8, 0x3e,
  0x31, 0x0b, 0xcb, 0xbd, 0xab, 0xd4, 0x13, 0xbf, 0x09, 0x11, 0xde, 0xbe,
  0x3a, 0xa8, 0xae, 0xbe, 0x8d, 0xd8, 0x84, 0xbd, 0xe0, 0x3e, 0x73, 0xbe,
  0xaa, 0xe7, 0x9c, 0xbe, 0xc8, 0x9f, 0x57, 0x3d, 0xb9, 0xaf, 0x8e, 0xbe,
  0x60, 0x5a, 0x79, 0x3e, 0x74, 0x1f, 0x6a, 0x3e, 0x57, 0xd0, 0xcd, 0xbd,
  0x50, 0x1f, 0x15, 0x3e, 0xa7, 0x76, 0xc0, 0x3e, 0x64, 0x3a, 0x93, 0xbe,
  0xe7, 0x34, 0x6a, 0xbe, 0x81, 0xce, 0xa3, 0xbe, 0x17, 0x04, 0x76, 0x3e,
  0x1b, 0x48, 0x09, 0x3e, 0xdb, 0x89, 0x0e, 0xbe, 0xe9, 0x86, 0x29, 0x3c,
  0x5a, 0x1c, 0xc9, 0x3e, 0x76, 0x49, 0xad, 0xbe, 0x7c, 0xdd, 0x27, 0xbe,
  0xb7, 0x22, 0x6a, 0xbe, 0x3b, 0xa8, 0xcd, 0xbd, 0x68, 0xee, 0xfd, 0x3d,
  0xed, 0x27, 0xdc, 0x3c, 0xcd, 0xb0, 0x8f, 0xbd, 0x82, 0x44, 0x19, 0x3e,
  0x0d, 0x2e, 0x91, 0xbe, 0x80, 0xff, 0xca, 0xbc, 0xb2, 0xd3, 0x26, 0xbd,
  0xfd, 0xcc, 0x2e, 0x3e, 0x19, 0x13, 0x7b, 0x3d, 0xc6, 0xdf, 0xcc, 0xba,
  0x36, 0x71, 0x64, 0x3e, 0x25, 0x68, 0x13, 0xbe, 0x2b, 0xcd, 0xca, 0x3d,
  0x51, 0x23, 0x88, 0x3d, 0xb1, 0xf4, 0x53, 0xbe, 0xa0, 0xa4, 0x17, 0x3e,
  0x7f, 0xe1, 0x9d, 0xbe, 0xe9, 0xf3, 0x3a, 0xbd, 0xf3, 0x2f, 0x54, 0xbc,
  0xb8, 0xf7, 0x35, 0x3e, 0xba, 0xcb, 0xd0, 0xbe, 0x73, 0xc1, 0xaf, 0x3e,
  0x21, 0x52, 0xda, 0xbd, 0xac, 0x15, 0xfd, 0xbd, 0xf8, 0xf3, 0x41, 0xbe,
  0xe5, 0x51, 0x08, 0xbe, 0x3e, 0x04, 0x41, 0xbd, 0x00, 0x66, 0x94, 0xbd,
  0x9d, 0x49, 0x15, 0xbe, 0xcf, 0x9d, 0x0d, 0xbe, 0x2c, 0xe6, 0x4b, 0xbd,
  0xae, 0x8b, 0x73, 0x3d, 0xb4, 0x77, 0xab, 0x3e, 0xd9, 0x69, 0xa0, 0xbd,
  0xf6, 0x8a, 0x66, 0xbe, 0xd5, 0xb6, 0xa4, 0x3e, 0xfd, 0x1b, 0x5f, 0xbd,
  0x3f, 0xc4, 0x79, 0x3e, 0x23, 0x6d, 0x60, 0xbd, 0xd1, 0xa9, 0x69, 0x3e,
  0xec, 0xe3, 0x61, 0xbe, 0xa8, 0x22, 0xde, 0xbc, 0x38, 0x0c, 0xbf, 0x3c,
  0xd1, 0xf4, 0x94, 0x3e, 0x56, 0x4a, 0xab, 0xbe, 0xc3, 0xcd, 0x66, 0xbd,
  0x7c, 0xe8, 0xa5, 0xbe, 0xd2, 0x7a, 0x1e, 0x3d, 0xce, 0x4e, 0xd9, 0x3c,
  0x27, 0x42, 0x02, 0x3e, 0xa1, 0x67, 0xcb, 0xbe, 0x4a, 0x56, 0x80, 0xbe,
  0x91, 0x0f, 0xc7, 0xbc, 0x5c, 0x1e, 0x80, 0xbe, 0x49, 0xc4, 0xfd, 0xbd,
  0xe2, 0x4c, 0x83, 0x3e, 0xec, 0xdd, 0x0e, 0xbe, 0x81, 0xdc, 0x0f, 0xbf,
  0x57, 0x82, 0x63, 0x3e, 0xc9, 0x13, 0x10, 0x3e, 0x72, 0x0a, 0x27, 0xbe,
  0xb8, 0x90, 0x69, 0xbd, 0xd4, 0x86, 0x8a, 0xbe, 0xf2, 0x58, 0x86, 0xbe,
  0xf7, 0x9f, 0x1f, 0xbe, 0x91, 0xa7, 0x75, 0x3c, 0xc3, 0x38, 0xc4, 0x3d,
  0xb4, 0xeb, 0x74, 0xbe, 0xc4, 0x40, 0xcd, 0xbe, 0xb4, 0x0d, 0xfd, 0x3e,
  0xbf, 0xc8, 0x8c, 0x3e, 0x27, 0x4d, 0xcf, 0xbd, 0xef, 0x64, 0x69, 0x3e,
  0x54, 0xda, 0x6c, 0x3e, 0xd6, 0x9a, 0xb3, 0xbe, 0xa8, 0x4e, 0xbd, 0xbe,
  0xbb, 0x32, 0x65, 0xbd, 0x89, 0x4a, 0xbf, 0x3d, 0x59, 0xd8, 0xc1, 0x3c,
  0xba, 0xcd, 0xad, 0xbd, 0x70, 0x80, 0xe4, 0x3b, 0x4a, 0x69, 0x9c, 0xbe,
  0x0f, 0x57, 0xa8, 0x3d, 0x52, 0x39, 0x21, 0x3e, 0xc2, 0xce, 0x05, 0x3e,
  0x82, 0x58, 0xb6, 0x3d, 0xd3, 0xe2, 0x92, 0xbe, 0xef, 0xef, 0x35, 0x3d,
  0x50, 0x03, 0x23, 0x3e, 0xaa, 0x72, 0xcb, 0xbd, 0xe8, 0x90, 0xf7, 0xbc,
  0x34, 0x68, 0x47, 0x3e, 0xa8, 0x28, 0x3d, 0xbe, 0xc8, 0xa3, 0x89, 0xbe,
  0xe8, 0xf4, 0x81, 0xbe, 0xc3, 0xfe, 0x92, 0x3e, 0xee, 0xa7, 0x6a, 0x3e,
  0x38, 0x18, 0xa4, 0xbe, 0x3c, 0xca, 0x06, 0xbe, 0x1f, 0xe4, 0xb2, 0xbe,
  0x19, 0x38, 0x2a, 0xbe, 0xe6, 0x93, 0x98, 0x3e, 0xa0, 0x34, 0xb7, 0xbe,
  0xd1, 0x0a, 0xd0, 0xbe, 0xe9, 0x70, 0xca, 0x3d, 0x25, 0xf7, 0x7a, 0xbe,
  0xcb, 0x7f, 0x8b, 0x3d, 0x7d, 0x73, 0xbb, 0x3e, 0x00, 0x71, 0x88, 0xbd,
  0x7c, 0xe3, 0x96, 0xbe, 0xc1, 0xef, 0x86, 0x3e, 0xa6, 0xb5, 0xec, 0xbe,
  0x9c, 0xbf, 0x6a, 0xbd, 0xde, 0x83, 0x57, 0xbb, 0xe6, 0x22, 0x50, 0xbd,
  0x3b, 0x35, 0x3f, 0x3e, 0x3d, 0x2c, 0x32, 0x3e, 0x16, 0x22, 0x7a, 0x3b,
  0x7f, 0xc5, 0xf3, 0xbd, 0x53, 0xfa, 0x6f, 0xbb, 0xc0, 0xcd, 0xea, 0xbd,
  0x27, 0x6a, 0xc7, 0x3c, 0xf4, 0x94, 0x3e, 0xbd, 0x2c, 0x4f, 0x0e, 0x3e,
  0x1a, 0x80, 0xdb, 0xbe, 0xf3, 0xec, 0xef, 0xbe, 0xf3, 0x4d, 0x87, 0x3d,
  0xa0, 0x53, 0x81, 0xbd, 0x89, 0x8a, 0x6c, 0xbe, 0x35, 0x7c, 0x11, 0xbe,
  0xba, 0x5c, 0xd5, 0xbb, 0xf7, 0x4a, 0x6f, 0xbe, 0xb2, 0x4a, 0x61, 0xbc,
  0x15, 0x37, 0x29, 0x3d, 0x46, 0xf2, 0xce, 0xbc, 0x9f, 0x71, 0x84, 0xbe,
  0x4c, 0x20, 0x4e, 0x3e, 0x86, 0x01, 0x9f, 0x3d, 0x8a, 0x59, 0x8e, 0xbe,
  0xc5, 0x1d, 0x2b, 0xbe, 0x37, 0x4a, 0x6f, 0xbe, 0x26, 0x5b, 0x1b, 0x3e,
  0x63, 0x0f, 0x84, 0xbe, 0x6a, 0xce, 0x38, 0xbd, 0x6f, 0xee, 0xe7, 0x3d,
  0x94, 0x2e, 0xd0, 0xbd, 0x97, 0xad, 0x4c, 0xbd, 0x66, 0x9d, 0xe6, 0xbd,
  0x1e, 0xbc, 0xff, 0xbd, 0xde, 0x3d, 0xa1, 0x3d, 0xa8, 0xb0, 0x43, 0x3d,
  0x88, 0x6e, 0x44, 0x3e, 0x34, 0xfe, 0xbb, 0xbd, 0x28, 0xbf, 0x6a, 0xbd,
  0x04, 0xd0, 0x6f, 0x3a, 0x42, 0xac, 0xc9, 0xbe, 0xd8, 0xd6, 0x42, 0xbe,
  0x9a, 0x71, 0x6f, 0x3e, 0x3c, 0xd7, 0xb1, 0xbd, 0x43, 0xdf, 0x11, 0x3f,
  0x30, 0x5b, 0x9d, 0x3e, 0x08, 0x63, 0xc2, 0x3c, 0x83, 0x01, 0xda, 0x3d,
  0xbf, 0x28, 0x2e, 0xbe, 0xfc, 0x1a, 0xc4, 0xbe, 0x05, 0x2e, 0xcc, 0x3d,
  0x4c, 0x7c, 0x6c, 0xbe, 0x71, 0x9d, 0xeb, 0xbd, 0x7e, 0xd2, 0xc2, 0xbe,
  0x58, 0x94, 0x16, 0x3e, 0x89, 0x20, 0x52, 0x3e, 0xaa, 0xa1, 0xf0, 0x3d,
  0x98, 0xb4, 0x4b, 0x3e, 0xda, 0xf6, 0x27, 0x3e, 0xac, 0xd2, 0x31, 0xbe,
  0x9e, 0x4d, 0x00, 0xbd, 0x74, 0xca, 0xe9, 0x3e, 0xdb, 0xed, 0x04, 0xbe,
  0xca, 0xda, 0x37, 0xbe, 0xd4, 0x92, 0x48, 0x3e, 0x31, 0x8f, 0x7a, 0xbe,
  0x60, 0xba, 0xfa, 0x3b, 0x6c, 0x2b, 0x64, 0xbe, 0x28, 0x14, 0x49, 0x3e,
  0xb1, 0x76, 0x4f, 0x3e, 0x4f, 0x37, 0x86, 0x3d, 0xc7, 0x3e, 0x2c, 0xbe,
  0xdd, 0x57, 0xeb, 0xbd, 0x48, 0x67, 0x61, 0xbe, 0xe4, 0xc7, 0x8a, 0x3e,
  0x45, 0xb4, 0x9f, 0x3e, 0x91, 0x4d, 0x92, 0xbc, 0xe7, 0xd1, 0x4f, 0xbb,
  0x18, 0x17, 0x5c, 0x3e, 0x97, 0xe0, 0x68, 0xbe, 0xda, 0xb1, 0xce, 0x3d,
  0x1c, 0x71, 0x5f, 0x3d, 0x1a, 0xe9, 0x1a, 0x3e, 0xb6, 0x73, 0x4f, 0xbd,
  0x35, 0x49, 0xb0, 0xbe, 0x24, 0x6f, 0x89, 0xbd, 0x81, 0x5f, 0x8f, 0xbc,
  0x2a, 0x6e, 0x6a, 0x3d, 0xbc, 0x5d, 0x69, 0xbe, 0xe8, 0x48, 0x81, 0xbe,
  0x70, 0x0b, 0x05, 0x3e, 0xfc, 0xea, 0x81, 0x3e, 0x3c, 0xd4, 0x19, 0x3e,
  0x00, 0x33, 0x19, 0x3e, 0xcc, 0x6a, 0x23, 0xbe, 0x70, 0x08, 0x14, 0x3e,
  0xac, 0xcb, 0x9f, 0x3e, 0xab, 0x17, 0x33, 0xbe, 0x34, 0x50, 0x3b, 0x3e,
  0x73, 0xd1, 0x35, 0xbe, 0x24, 0x13, 0x6a, 0xbe, 0xee, 0x55, 0xa8, 0x3a,
  0x24, 0x8d, 0xb3, 0x3d, 0xb5, 0x6f, 0x1a, 0xbe, 0x6e, 0x0b, 0x7b, 0x3e,
  0x3f, 0xad, 0x70, 0xbd, 0x0c, 0x21, 0x83, 0x3e, 0x11, 0xf9, 0xc0, 0x3e,
  0x1a, 0x25, 0xb2, 0xbe, 0x76, 0x4c, 0x29, 0xbe, 0xf7, 0x1b, 0x72, 0x3d,
  0x00, 0x00, 0x00, 0x00, 0x8a, 0xef, 0xff, 0xff, 0x04, 0x00, 0x00, 0x00,
  0xe0, 0x04, 0x00, 0x00, 0x91, 0x2e, 0x54, 0xbe, 0x31, 0x84, 0xed, 0xbd,
  0x64, 0x90, 0xb1, 0x3c, 0x0e, 0xce, 0x1b, 0x3e, 0xd8, 0x88, 0xdf, 0xbd,
  0x89, 0xec, 0x0c, 0x3e, 0x1d, 0xb9, 0x83, 0xbe, 0x95, 0xc7, 0xec, 0xbd,
  0xee, 0x7a, 0x96, 0x3d, 0x67, 0x67, 0x2f, 0xbe, 0x03, 0x3c, 0x2a, 0x3e,
  0x2f, 0x73, 0x42, 0xbe, 0x47, 0x62, 0x7b, 0x3e, 0xec, 0x51, 0x51, 0xbd,
  0x56, 0x4b, 0x55, 0x3e, 0x63, 0x28, 0xbc, 0xbd, 0x2c, 0x12, 0x6e, 0xbe,
  0xc0, 0xb7, 0x22, 0x3e, 0x94, 0x5a, 0x0d, 0x3e, 0x5e, 0x40, 0x4c, 0x3e,
  0x6a, 0x94, 0x18, 0xbe, 0x62, 0xfb, 0x49, 0xbe, 0x31, 0xde, 0xd2, 0xbd,
  0x58, 0xcf, 0x2a, 0x3e, 0x4e, 0x83, 0x78, 0x3d, 0x12, 0xca, 0xa1, 0x3e,
  0x94, 0xf2, 0xed, 0xbd, 0xfe, 0x28, 0x41, 0xbe, 0x95, 0x7a, 0x58, 0xbc,
  0x1d, 0x89, 0x38, 0x3e, 0x4f, 0xe0, 0x05, 0x3e, 0xf5, 0xc3, 0xda, 0x3c,
  0xdd, 0x62, 0x5e, 0x3e, 0x1d, 0x68, 0x4b, 0xbe, 0x6e, 0x6c, 0x92, 0xbe,
  0x67, 0x91, 0xf1, 0x3c, 0xd0, 0x4a, 0x63, 0x3e, 0xec, 0x55, 0x32, 0xbc,
  0x17, 0x54, 0xaf, 0x3d, 0x5d, 0xfa, 0x07, 0x3e, 0x97, 0xca, 0x88, 0xbe,
  0x19, 0x41, 0x45, 0x3e, 0x25, 0xdf, 0x0e, 0x3e, 0xb4, 0x50, 0x6b, 0x3e,
  0x29, 0xf8, 0xe7, 0x3e, 0x8b, 0xf8, 0xab, 0x3e, 0xb8, 0x7c, 0x90, 0xbe,
  0xc7, 0xb0, 0xee, 0xbb, 0x17, 0x16, 0xaa, 0xbd, 0x59, 0x55, 0x50, 0xbc,
  0xc1, 0xf9, 0x29, 0xbe, 0x10, 0x45, 0x8a, 0xbe, 0xd8, 0xc8, 0xb2, 0x3c,
  0x81, 0x86, 0x7e, 0x3e, 0xd6, 0xfe, 0xc4, 0x3e, 0x91, 0xce, 0x52, 0xbd,
  0xbc, 0xb3, 0x37, 0x3e, 0x03, 0xdb, 0xe6, 0x3d, 0x32, 0x7a, 0xb8, 0x3e,
  0x65, 0x97, 0x43, 0xbe, 0xfa, 0x7e, 0x38, 0xbe, 0x90, 0x8b, 0x8e, 0xbe,
  0x0e, 0xbe, 0x95, 0x3c, 0x1d, 0x7c, 0xe2, 0xbe, 0xe7, 0x95, 0x9c, 0xbe,
  0xa9, 0xef, 0xae, 0xbe, 0x70, 0xea, 0x8e, 0xbd, 0xef, 0xd1, 0x83, 0x3e,
  0xc1, 0x1b, 0x2b, 0x3d, 0xd1, 0x98, 0x88, 0x3e, 0x47, 0xdd, 0xcd, 0xbd,
  0x49, 0x0b, 0xc6, 0x3d, 0x39, 0xe7, 0x31, 0xbd, 0x15, 0xb6, 0xc0, 0x3e,
  0x14, 0x7e, 0x9e, 0x3e, 0xd1, 0xee, 0x1c, 0xbe, 0xe2, 0x61, 0x6c, 0x3e,
  0x7c, 0xdc, 0xa0, 0xbe, 0xb3, 0x8c, 0x1b, 0xbd, 0xe4, 0x41, 0x60, 0x3e,
  0x1a, 0x9e, 0x3e, 0xbe, 0x27, 0xba, 0xe2, 0xbe, 0x3b, 0xc0, 0x9b, 0xbe,
  0xb5, 0xfd, 0x6b, 0x3e, 0xdc, 0xe1, 0x70, 0xbe, 0x5e, 0x3d, 0xd3, 0xbe,
  0x4e, 0x3c, 0xc0, 0xbe, 0xa2, 0xdd, 0xcc, 0xbe, 0x7a, 0xab, 0x25, 0xbd,
  0x5f, 0xc1, 0xb6, 0xbe, 0xf0, 0x17, 0x59, 0xbe, 0xd2, 0x11, 0x12, 0xbe,
  0x48, 0x0d, 0x94, 0x3e, 0x39, 0x19, 0x56, 0xbe, 0xcd, 0x70, 0x76, 0xbe,
  0x2a, 0xeb, 0xfb, 0x3d, 0x22, 0xe2, 0xa0, 0xbd, 0x41, 0x7e, 0x85, 0xbe,
  0x6c, 0xf6, 0xdb, 0xbd, 0xec, 0xea, 0x8a, 0xbe, 0x6a, 0x22, 0x10, 0xbe,
  0x9b, 0x58, 0x41, 0xbd, 0xcd, 0xaf, 0x01, 0xbe, 0x12, 0x21, 0x8d, 0xbe,
  0xd5, 0xbe, 0xaa, 0x3e, 0x9f, 0x9f, 0x7a, 0x3e, 0x46, 0x51, 0x26, 0xbc,
  0x3b, 0xd5, 0xc5, 0x3d, 0xd7, 0xce, 0x37, 0x3d, 0x11, 0xe9, 0xa8, 0xbe,
  0x27, 0xcb, 0xfa, 0x3d, 0xd8, 0x67, 0x93, 0xbe, 0x6e, 0xf9, 0x92, 0xbe,
  0x96, 0xaf, 0xa8, 0xbe, 0x49, 0xaa, 0x1b, 0xbe, 0x89, 0xe1, 0x45, 0xbe,
  0x9d, 0x91, 0x01, 0xbf, 0xf0, 0x2b, 0xd3, 0xbd, 0x58, 0x1a, 0xeb, 0xba,
  0xf9, 0x6f, 0x26, 0xbd, 0x01, 0xee, 0x16, 0xbd, 0x3a, 0x29, 0x16, 0xbe,
  0x02, 0xd5, 0x62, 0xbe, 0x26, 0x61, 0xa6, 0x3e, 0x6e, 0x91, 0x81, 0x3e,
  0x6c, 0x37, 0xb3, 0xbd, 0x48, 0x09, 0x05, 0x3d, 0xaa, 0xeb, 0x4d, 0xbe,
  0xd0, 0xda, 0x25, 0xbe, 0xe3, 0x02, 0xd3, 0xbd, 0x99, 0x20, 0x44, 0xbe,
  0x45, 0xc1, 0x30, 0xbe, 0xd0, 0x0d, 0x86, 0xbe, 0xa4, 0xd6, 0xec, 0x3d,
  0x91, 0x1f, 0x50, 0x3e, 0xd1, 0xa5, 0x87, 0xbe, 0xbc, 0x84, 0x00, 0xbe,
  0xc3, 0x46, 0x1e, 0xbe, 0x91, 0x47, 0x37, 0xbe, 0x8c, 0x56, 0x2c, 0xbe,
  0xab, 0x78, 0xa2, 0xbc, 0x2a, 0x4e, 0x91, 0x3d, 0x99, 0x5f, 0x95, 0x3d,
  0x31, 0xe4, 0xbf, 0xbe, 0xea, 0xb7, 0xd9, 0xbe, 0x8b, 0x94, 0xa7, 0xbe,
  0x73, 0xd5, 0x21, 0xbd, 0x12, 0xb4, 0xb7, 0xbe, 0x76, 0xbb, 0xdb, 0xbb,
  0xd1, 0x63, 0x98, 0x3e, 0x55, 0x81, 0x9c, 0x3e, 0x4f, 0x93, 0x33, 0x3e,
  0xb0, 0xa4, 0x8c, 0x3e, 0xb9, 0x1e, 0x4a, 0xbd, 0xc1, 0x3d, 0x29, 0x3e,
  0xbc, 0x33, 0x96, 0x3c, 0x07, 0x6e, 0xa1, 0x3e, 0xdd, 0x03, 0x57, 0x3e,
  0x4c, 0xfc, 0x7f, 0xbe, 0x85, 0xe7, 0x9a, 0x3e, 0x59, 0x3a, 0x05, 0x3e,
  0xaa, 0x6d, 0xe2, 0xbe, 0xdd, 0x93, 0xd2, 0xbe, 0x68, 0xc6, 0x7d, 0xbe,
  0xd6, 0x5c, 0xe3, 0x3e, 0x43, 0x14, 0x61, 0x3d, 0x63, 0x75, 0x44, 0x3e,
  0x00, 0xce, 0x85, 0x3d, 0x65, 0x5f, 0xe0, 0x3e, 0x71, 0x37, 0x73, 0xbe,
  0x95, 0x54, 0xc5, 0xbd, 0x94, 0xe5, 0x60, 0x3e, 0xc8, 0x95, 0x23, 0x3e,
  0x03, 0x14, 0x23, 0x3e, 0xc3, 0x0b, 0xdd, 0xbb, 0xd8, 0x8f, 0x8d, 0x3e,
  0x39, 0xd9, 0xfa, 0xba, 0xb5, 0x6b, 0xf5, 0xbe, 0x57, 0xbf, 0x11, 0x3d,
  0x90, 0x95, 0x39, 0xbe, 0xf9, 0xdd, 0x76, 0x3c, 0x46, 0x80, 0xae, 0x3d,
  0xc9, 0x30, 0x62, 0x3e, 0xb3, 0xae, 0xee, 0x3d, 0x1c, 0xb4, 0xfd, 0xbe,
  0x35, 0x2e, 0x94, 0x3d, 0xa5, 0x4c, 0x00, 0x3e, 0x31, 0xaa, 0x3d, 0x3d,
  0x5e, 0xbb, 0x8f, 0x3e, 0xe9, 0x04, 0x64, 0xbe, 0x72, 0x88, 0x79, 0x3d,
  0x59, 0x77, 0x3f, 0x3d, 0x16, 0x66, 0xbd, 0xbd, 0x99, 0x41, 0x90, 0xbd,
  0xb6, 0x0d, 0xe6, 0x3e, 0x9b, 0x63, 0xa5, 0x3e, 0x0d, 0x19, 0xaf, 0x3e,
  0x1a, 0x78, 0x7e, 0x3d, 0xc8, 0xb3, 0xe8, 0xbc, 0x66, 0x27, 0xfc, 0xbd,
  0xfe, 0x10, 0x18, 0x3e, 0x20, 0x3f, 0x49, 0x3e, 0x56, 0x3c, 0x9c, 0xbe,
  0xdc, 0x67, 0x41, 0xbd, 0x46, 0x66, 0xc0, 0xbd, 0x73, 0x99, 0x28, 0x3e,
  0xce, 0x9c, 0x69, 0xbe, 0xb4, 0xea, 0x4d, 0xbe, 0xc4, 0x1a, 0x5f, 0xbe,
  0x1b, 0x23, 0x4e, 0x3d, 0xa5, 0x9c, 0xc2, 0xbe, 0xea, 0x7a, 0xce, 0xbd,
  0xc0, 0xf7, 0x57, 0xbe, 0xba, 0xb2, 0x3d, 0xbe, 0x6a, 0xa5, 0x7a, 0x3d,
  0x44, 0x92, 0x66, 0xbc, 0x94, 0x32, 0x0c, 0x3e, 0xff, 0x67, 0x9d, 0x3e,
  0x8b, 0xa1, 0x21, 0xbe, 0x4b, 0xbd, 0x39, 0x3d, 0x94, 0xd8, 0x31, 0x3e,
  0x4c, 0x69, 0xd4, 0x3d, 0xf7, 0xb9, 0xb6, 0x3b, 0xa5, 0xd3, 0xbd, 0x3e,
  0xea, 0x70, 0x64, 0x3e, 0xae, 0xdf, 0x60, 0x3c, 0xae, 0xe7, 0x4d, 0x3e,
  0x63, 0xfe, 0x6e, 0x3d, 0xf6, 0xcc, 0xe9, 0xbd, 0x50, 0x29, 0x58, 0x3c,
  0x67, 0x57, 0xf6, 0xbc, 0xd6, 0xd7, 0x13, 0x3e, 0xac, 0x2d, 0x14, 0xbe,
  0x6b, 0x34, 0xdc, 0xbe, 0x30, 0xd2, 0x7b, 0x3e, 0x9f, 0x30, 0x0b, 0xbe,
  0x76, 0xed, 0x18, 0xba, 0x14, 0xbe, 0xbc, 0xbe, 0x75, 0xfd, 0xf8, 0xbd,
  0x9b, 0x29, 0x99, 0x3d, 0xe5, 0xfe, 0xaf, 0x3d, 0x92, 0x33, 0x86, 0x3e,
  0x3d, 0x59, 0x69, 0x3e, 0x7f, 0x6c, 0x81, 0xbe, 0x53, 0x61, 0x1c, 0xbd,
  0xd5, 0x8f, 0x59, 0x3d, 0x10, 0x59, 0xd9, 0x3e, 0x54, 0x3c, 0x20, 0x3e,
  0xd9, 0xcb, 0x3b, 0x3e, 0xe1, 0x47, 0x0a, 0x3e, 0x7a, 0xf5, 0x90, 0x3d,
  0x1d, 0x7d, 0xd4, 0xbd, 0x02, 0xf3, 0xf0, 0xbd, 0x0c, 0xcc, 0x01, 0x3e,
  0xbf, 0x4d, 0xfd, 0x3d, 0x01, 0x6d, 0x3f, 0xbe, 0x5c, 0x73, 0x91, 0x3e,
  0x65, 0x11, 0x3b, 0xbe, 0x0f, 0x0d, 0x8e, 0x3c, 0x6c, 0x40, 0xb4, 0xbe,
  0x1a, 0x45, 0x1d, 0x3e, 0xcb, 0x8b, 0x69, 0xbe, 0xdb, 0x1b, 0xac, 0xbd,
  0x8c, 0x0d, 0xbf, 0xbe, 0xf9, 0xf6, 0x97, 0x3d, 0xb8, 0x2b, 0x6a, 0xbd,
  0xde, 0xfa, 0xad, 0x3d, 0x4f, 0xd8, 0xca, 0x3e, 0x34, 0xdd, 0x03, 0xbd,
  0x25, 0x79, 0x8e, 0xbd, 0x2f, 0x4b, 0x80, 0xbd, 0x38, 0x3f, 0xaa, 0x3c,
  0x99, 0x7a, 0x9b, 0xbd, 0xb7, 0xac, 0x4d, 0xbd, 0x9a, 0xac, 0x2d, 0xbe,
  0x7e, 0x89, 0x08, 0x3e, 0xc3, 0xe4, 0x9f, 0x3d, 0x4b, 0x00, 0x7e, 0x3e,
  0x16, 0x93, 0x53, 0xbe, 0x76, 0xc9, 0x99, 0x3e, 0x85, 0xad, 0x72, 0xbd,
  0x2a, 0xdb, 0x5d, 0x3c, 0x6b, 0xc4, 0x5f, 0x3e, 0x02, 0xdb, 0x97, 0xbd,
  0x03, 0xe8, 0xc4, 0x3c, 0x2d, 0xcf, 0xc4, 0x3d, 0x84, 0x15, 0xa6, 0x3d,
  0x8e, 0x5b, 0x86, 0x3d, 0x63, 0xf5, 0x0c, 0xbe, 0x95, 0x86, 0xad, 0x3e,
  0xe9, 0x24, 0x8a, 0x3d, 0xd5, 0x0b, 0xa4, 0x3e, 0xb0, 0xc6, 0x36, 0xbe,
  0xa9, 0x8a, 0xbe, 0x3e, 0xd0, 0x12, 0x3f, 0x3d, 0x9d, 0x28, 0xb4, 0xbd,
  0x78, 0x57, 0x2f, 0x3d, 0x31, 0x2c, 0x4f, 0x3e, 0xaf, 0x22, 0x38, 0x3d,
  0x84, 0x94, 0xc9, 0xbd, 0x1c, 0x63, 0xad, 0x3d, 0xe7, 0xc8, 0x9e, 0xbe,
  0x85, 0x1c, 0xb5, 0xbe, 0xe3, 0x1e, 0x5f, 0xbe, 0x1c, 0x20, 0x0c, 0x3e,
  0xfd, 0xf0, 0xeb, 0xbc, 0x53, 0x05, 0x0d, 0x3e, 0x05, 0xee, 0xa7, 0x3e,
  0x46, 0x6f, 0x3a, 0x3e, 0x0a, 0x7b, 0x6b, 0x3d, 0xba, 0x6c, 0x11, 0xbd,
  0x4a, 0xea, 0xf4, 0x3d, 0x00, 0x00, 0x00, 0x00, 0x7a, 0xf4, 0xff, 0xff,
  0x04, 0x00, 0x00, 0x00, 0x80, 0x06, 0x00, 0x00, 0x46, 0x2a, 0x8c, 0x3d,
  0xf8, 0x47, 0x80, 0x3d, 0x04, 0x4c, 0xb9, 0x3d, 0x20, 0x5e, 0xc1, 0x3d,
  0xc2, 0x30, 0xba, 0xbd, 0x3d, 0x00, 0x81, 0x3c, 0x01, 0x77, 0x8b, 0xbd,
  0x71, 0xcc, 0x01, 0x3e, 0x7b, 0xfa, 0xb0, 0xbc, 0x71, 0x22, 0x8c, 0xbd,
  0x08, 0xdc, 0xf8, 0xbd, 0x8d, 0xd1, 0x62, 0xbd, 0xd7, 0x3a, 0x68, 0xbd,
  0x42, 0xb9, 0xc4, 0x3c, 0xce, 0xa8, 0x2e, 0x3d, 0x59, 0x6a, 0xd2, 0x3d,
  0x91, 0xcf, 0xb4, 0xbd, 0x9d, 0xe3, 0xf3, 0xbd, 0xc7, 0x46, 0x23, 0x3e,
  0xec, 0xb0, 0x02, 0xbe, 0xb0, 0x5a, 0x66, 0xbc, 0x58, 0xf3, 0x08, 0x3d,
  0x1b, 0x5a, 0xff, 0x3c, 0x91, 0xc0, 0x1d, 0xbd, 0x32, 0xa7, 0x54, 0xbf,
  0x77, 0xf5, 0x31, 0x3e, 0xff, 0xe0, 0xe7, 0xbd, 0x59, 0xdc, 0xb2, 0x3d,
  0xa1, 0x47, 0x17, 0x3e, 0x72, 0x92, 0x96, 0x3d, 0x17, 0x55, 0xc3, 0x3d,
  0xa5, 0x2d, 0xaf, 0x3c, 0xed, 0x70, 0x7c, 0xbb, 0x8c, 0x53, 0xae, 0x3e,
  0xdb, 0x75, 0x69, 0x3e, 0xd1, 0x0d, 0x1d, 0x3e, 0x04, 0x72, 0xb8, 0xbd,
  0x6d, 0x87, 0x00, 0x3e, 0x48, 0xd8, 0x5f, 0xbe, 0x4a, 0xc6, 0x77, 0x3d,
  0x8a, 0x68, 0x08, 0xbd, 0xb9, 0x72, 0x46, 0xbe, 0x29, 0x1b, 0xa8, 0xbd,
  0x14, 0xc4, 0x73, 0x3d, 0x65, 0x12, 0xdd, 0x3c, 0xe6, 0xb9, 0xb5, 0xbd,
  0xa2, 0xe7, 0xfa, 0xba, 0x3a, 0x9a, 0xa1, 0xbc, 0x14, 0x23, 0x2d, 0x3e,
  0x8d, 0xe5, 0x88, 0x3e, 0x01, 0xb0, 0xbf, 0x3e, 0xa3, 0x35, 0xb6, 0xbe,
  0xa1, 0x3c, 0x9b, 0xbe, 0xa2, 0x79, 0xb8, 0x3e, 0xa2, 0x7c, 0x8e, 0x3e,
  0x34, 0xbf, 0x2d, 0xbd, 0x31, 0x59, 0xa3, 0xbe, 0x15, 0x47, 0x6c, 0x3e,
  0x31, 0x04, 0x68, 0x3d, 0xdb, 0x14, 0x4b, 0x3e, 0x31, 0xe2, 0xe3, 0xbc,
  0xf9, 0x4b, 0x81, 0xbc, 0xcf, 0x09, 0x9b, 0x3d, 0xa8, 0x50, 0xba, 0xbd,
  0x7f, 0xc0, 0xae, 0x3d, 0x6e, 0x01, 0x16, 0xbe, 0x4f, 0x1d, 0xb9, 0xbe,
  0xa8, 0xe7, 0xe3, 0x3b, 0x5e, 0xc3, 0x7c, 0x3d, 0xb6, 0xee, 0xd0, 0x3d,
  0x7f, 0x3d, 0x79, 0x3e, 0xb3, 0xb1, 0x2c, 0x3e, 0x50, 0x43, 0x94, 0xbd,
  0x1e, 0x58, 0x0a, 0xbc, 0x14, 0x2e, 0xf0, 0xbd, 0x44, 0x46, 0x8c, 0xbd,
  0x7b, 0x2a, 0x66, 0xbd, 0x71, 0xe9, 0xb8, 0x3e, 0xb9, 0x84, 0xd9, 0x3c,
  0xd4, 0x6c, 0xc1, 0xbd, 0xa5, 0xb9, 0x0e, 0x3e, 0xa7, 0xae, 0xdf, 0x3e,
  0x6c, 0xff, 0x9a, 0x3f, 0xb3, 0x00, 0x75, 0x3e, 0xa6, 0x81, 0x02, 0x3e,
  0x61, 0x2c, 0x7d, 0xbd, 0xf3, 0xf5, 0x3d, 0x3f, 0xc0, 0x5a, 0x28, 0xbe,
  0x7a, 0x7b, 0x6b, 0x3d, 0xb6, 0x10, 0xba, 0x3d, 0x6e, 0x38, 0xfb, 0xbd,
  0x3c, 0x88, 0x08, 0xbf, 0x0f, 0xc4, 0x18, 0x3e, 0x33, 0x7b, 0x81, 0xbd,
  0x19, 0x46, 0x60, 0x3e, 0x7f, 0xc5, 0x5d, 0xbd, 0x6f, 0xc5, 0x37, 0x3f,
  0x6f, 0x87, 0xbc, 0xbd, 0x38, 0x54, 0x91, 0x3e, 0x5b, 0xc6, 0x9d, 0x3e,
  0xc0, 0xf6, 0x57, 0xbe, 0x05, 0xa5, 0x95, 0xbd, 0x56, 0x77, 0x11, 0x3d,
  0x32, 0x66, 0xba, 0xbd, 0xa8, 0x77, 0xab, 0x3e, 0x3e, 0x2d, 0xcb, 0xbe,
  0x85, 0x3e, 0x84, 0xbe, 0xc4, 0xbe, 0x27, 0x3e, 0xe8, 0xa2, 0xd3, 0x3d,
  0x55, 0x8a, 0xe0, 0xbd, 0xb5, 0xb7, 0x1f, 0xbe, 0x7f, 0x9b, 0x49, 0xbe,
  0xa5, 0x0e, 0xe5, 0xbd, 0x0d, 0x54, 0x1c, 0x3e, 0x52, 0xc3, 0x91, 0xbe,
  0xcc, 0x2b, 0x3f, 0x3f, 0xb3, 0x09, 0x83, 0x3a, 0xa4, 0x5d, 0xc7, 0xbd,
  0x9b, 0xa1, 0x88, 0xbf, 0xf9, 0xce, 0xa2, 0x3d, 0xcb, 0x2d, 0xb5, 0xbe,
  0x19, 0x58, 0x23, 0x3f, 0xcf, 0xf0, 0x1b, 0xbe, 0x40, 0xd7, 0x92, 0xbe,
  0x4b, 0x19, 0x17, 0x3d, 0x2c, 0x72, 0x16, 0xbd, 0x8b, 0xfb, 0xae, 0x3d,
  0x44, 0x40, 0xb4, 0xbd, 0x31, 0x4c, 0x33, 0xbf, 0x8c, 0x7e, 0xcf, 0x3c,
  0xff, 0xd0, 0xf7, 0xbe, 0xfe, 0xf6, 0x09, 0xbd, 0x0e, 0x10, 0x80, 0x3e,
  0xa0, 0xe0, 0x89, 0xbe, 0xa9, 0xfc, 0x6a, 0xbd, 0x82, 0x50, 0x0d, 0x3e,
  0xc1, 0xd0, 0x02, 0xbf, 0xdd, 0x70, 0x11, 0x3d, 0x33, 0xc3, 0x9d, 0x3e,
  0x3a, 0x78, 0xd6, 0x3e, 0x55, 0xfc, 0xfa, 0x3d, 0x37, 0x88, 0x3c, 0x3e,
  0x35, 0x98, 0x3d, 0xbe, 0x66, 0xd0, 0x6d, 0x3e, 0x5b, 0x36, 0x20, 0x3e,
  0x1a, 0xc3, 0x94, 0x3d, 0x04, 0x50, 0xd3, 0xbe, 0xea, 0x18, 0x27, 0xbe,
  0xd7, 0xbd, 0x73, 0x3d, 0xb9, 0xb0, 0x0f, 0x3e, 0x54, 0x88, 0x5f, 0x3d,
  0xce, 0x16, 0x24, 0x3e, 0xbe, 0x3c, 0x9a, 0xbd, 0x92, 0xc8, 0x93, 0x3d,
  0x8d, 0xe1, 0x55, 0x3e, 0x97, 0xa5, 0xa0, 0xbb, 0xd2, 0x0a, 0x33, 0x3d,
  0xb2, 0x03, 0x02, 0x3d, 0x83, 0x50, 0x72, 0xbd, 0xb2, 0x3e, 0xac, 0x3d,
  0x73, 0xa1, 0x48, 0xbf, 0x0c, 0xf4, 0x56, 0x3e, 0xa5, 0xf4, 0xaa, 0x3f,
  0x84, 0xdb, 0x55, 0xbe, 0x7e, 0xd2, 0xf9, 0x3e, 0x49, 0x93, 0x16, 0xbe,
  0x8c, 0x26, 0x0c, 0x3f, 0xf5, 0xa8, 0x6c, 0xbe, 0x0d, 0x7a, 0x53, 0xbe,
  0xc5, 0xf7, 0xd2, 0x3d, 0x57, 0x88, 0x29, 0x3d, 0x9c, 0x99, 0xc1, 0xbe,
  0xfd, 0xce, 0xe1, 0x3d, 0xb7, 0x57, 0xd8, 0x3d, 0x9e, 0x4e, 0x27, 0x3e,
  0x3d, 0x54, 0x60, 0x3e, 0x93, 0x21, 0x49, 0x3e, 0x89, 0xa8, 0x85, 0x3e,
  0x53, 0xcc, 0x17, 0x3e, 0xa6, 0x34, 0x88, 0x3f, 0x7b, 0x68, 0xa4, 0xbd,
  0x04, 0xd1, 0x5e, 0xbe, 0xe0, 0x26, 0xbc, 0x3e, 0xa1, 0xf7, 0xe7, 0xbe,
  0xe2, 0xb8, 0x02, 0x3f, 0x5d, 0x8f, 0x5a, 0x3e, 0x8d, 0x3b, 0xb3, 0x3e,
  0xfe, 0xfd, 0x82, 0x3f, 0x10, 0x59, 0xaa, 0x3d, 0xeb, 0x19, 0x90, 0xbe,
  0xe2, 0x37, 0x03, 0x3e, 0xa9, 0x5f, 0x89, 0x3c, 0x6f, 0x62, 0x9a, 0xbe,
  0x11, 0x4f, 0xa6, 0xbe, 0xf6, 0x52, 0x10, 0x3f, 0x19, 0xf8, 0x5b, 0x3c,
  0xa6, 0x47, 0x3b, 0x3d, 0xa7, 0xcb, 0xd3, 0x3d, 0x0d, 0xea, 0xec, 0xbd,
  0xc1, 0xf1, 0xde, 0xbd, 0xac, 0xd0, 0x2d, 0xbd, 0xa6, 0xda, 0x9d, 0x3d,
  0x80, 0xe5, 0x07, 0xbe, 0xfa, 0x9b, 0xf5, 0x3e, 0xce, 0x62, 0x79, 0x3c,
  0x17, 0x48, 0x0b, 0x3e, 0x3a, 0x36, 0xb2, 0x3e, 0xae, 0xc3, 0x06, 0xbe,
  0xbd, 0x9f, 0xa8, 0x3d, 0x76, 0xf9, 0xd1, 0x3c, 0xec, 0x12, 0xb2, 0x3d,
  0x06, 0x36, 0xe4, 0xbd, 0x4c, 0x32, 0x9a, 0xbc, 0x0d, 0x81, 0x61, 0x3d,
  0x81, 0x5d, 0xb3, 0x3d, 0x25, 0x60, 0x99, 0x3d, 0x85, 0x4b, 0xbb, 0xbd,
  0x54, 0x5e, 0xe3, 0xbb, 0x7f, 0x2c, 0x5d, 0xbb, 0x2a, 0x08, 0x49, 0xbd,
  0x1a, 0xc7, 0x6a, 0x3d, 0x07, 0xfe, 0x9a, 0xbb, 0x11, 0x8f, 0xdf, 0xbd,
  0x68, 0xbc, 0x89, 0x3c, 0x67, 0x19, 0x80, 0x3c, 0x17, 0x19, 0x83, 0xbd,
  0x21, 0x22, 0x62, 0xbe, 0x6e, 0x74, 0x38, 0x3e, 0x4a, 0x3b, 0x6c, 0x3d,
  0xa2, 0x97, 0xc3, 0x3c, 0x95, 0x9e, 0xfd, 0x3d, 0xf3, 0xa0, 0xbb, 0x3c,
  0x52, 0xee, 0x33, 0x3f, 0xb8, 0xf1, 0x51, 0xbd, 0x09, 0x77, 0xc3, 0xbd,
  0x93, 0xa8, 0x9b, 0x3d, 0x73, 0x50, 0x8c, 0xbc, 0xa9, 0x88, 0x1e, 0x3d,
  0xdf, 0x59, 0x7d, 0xbd, 0xa8, 0x19, 0x07, 0xbe, 0x0e, 0xd3, 0x05, 0x3e,
  0xf9, 0x60, 0x3e, 0xbe, 0x8a, 0x4c, 0x59, 0xbe, 0xb2, 0x78, 0x60, 0xbe,
  0x64, 0x7f, 0x04, 0x3d, 0xb7, 0xd2, 0xa4, 0x3d, 0x34, 0xe0, 0xbd, 0x3d,
  0x0d, 0x76, 0x65, 0x3e, 0xd0, 0x68, 0x25, 0x3e, 0xfd, 0x8d, 0x4e, 0xbc,
  0x96, 0x4d, 0x10, 0xbe, 0xb3, 0xc4, 0x7f, 0xbc, 0xfe, 0xef, 0xe6, 0xbb,
  0xc3, 0xbb, 0xa9, 0x3d, 0x04, 0x45, 0x06, 0x3e, 0xc9, 0xdb, 0xa0, 0xbd,
  0x21, 0xe6, 0xad, 0xbe, 0xc2, 0xf7, 0xbb, 0xbe, 0xf3, 0x50, 0xd0, 0xbe,
  0xe7, 0xb1, 0x66, 0x3e, 0xe5, 0xdf, 0xab, 0x3d, 0xfb, 0x7f, 0xb2, 0xbe,
  0xf2, 0x2e, 0x2d, 0xbe, 0xc9, 0x4f, 0xa3, 0xbd, 0x9c, 0xe2, 0x98, 0x3e,
  0xd9, 0xce, 0x88, 0xbe, 0xcc, 0x80, 0xd9, 0xbd, 0x31, 0x2c, 0x74, 0xbe,
  0x7c, 0xbb, 0x23, 0x3e, 0x59, 0x30, 0x74, 0xbd, 0xf7, 0x4b, 0xa8, 0xbd,
  0x1d, 0x52, 0x17, 0xbe, 0x2e, 0x4d, 0xf5, 0x3c, 0xd2, 0x4d, 0xfd, 0x3c,
  0xb0, 0xde, 0xd1, 0x3e, 0x28, 0x22, 0x0a, 0xbd, 0x64, 0x1e, 0x4a, 0x3d,
  0x61, 0xbd, 0xb0, 0x3d, 0x4c, 0x77, 0xcf, 0xbe, 0xf1, 0x2f, 0xea, 0xbd,
  0xef, 0x3a, 0x41, 0x3d, 0xab, 0x3d, 0x53, 0xbe, 0xe1, 0xf7, 0xd1, 0xbd,
  0x97, 0x28, 0xb2, 0x3d, 0xac, 0x77, 0x8c, 0x3d, 0xd3, 0x14, 0xc2, 0xbe,
  0x71, 0x39, 0x47, 0xbd, 0x8d, 0xc8, 0x86, 0x3e, 0xb9, 0x92, 0x0e, 0x3e,
  0x6b, 0xcb, 0xc1, 0xbe, 0x61, 0x50, 0x84, 0xbf, 0xa2, 0xff, 0x43, 0xbd,
  0x4a, 0x96, 0x1a, 0xbd, 0x96, 0x1f, 0xb9, 0xbd, 0x63, 0xe4, 0x54, 0xbf,
  0xc3, 0xb7, 0xdc, 0x3d, 0xf1, 0xda, 0xa6, 0x3b, 0x1f, 0x1a, 0x19, 0xbd,
  0x89, 0x89, 0x24, 0xbe, 0xc9, 0x77, 0xcc, 0x3e, 0xb5, 0x15, 0xae, 0xbd,
  0xd4, 0x21, 0x51, 0x3c, 0x94, 0xac, 0x9b, 0xbe, 0x21, 0x4b, 0x46, 0xbd,
  0x6a, 0x6c, 0x5d, 0xbf, 0x70, 0x85, 0x06, 0xbe, 0xfb, 0x6f, 0x15, 0xbe,
  0xb3, 0xf1, 0xac, 0xbe, 0xcd, 0xf4, 0x9a, 0xbd, 0x5e, 0x83, 0x1d, 0x3e,
  0xf1, 0xfe, 0x04, 0xbe, 0x2a, 0xa6, 0xcc, 0x3d, 0x11, 0x17, 0x26, 0xbe,
  0xa3, 0xe0, 0xfc, 0x3e, 0x79, 0x3a, 0x52, 0x3e, 0xd5, 0x0c, 0x97, 0xbe,
  0x9d, 0x77, 0xaf, 0xbd, 0xd0, 0x96, 0x11, 0xbd, 0x5f, 0xf9, 0x5c, 0x3e,
  0xd7, 0xfd, 0x6f, 0xbc, 0x3f, 0xe4, 0x90, 0x3e, 0xbd, 0x72, 0x80, 0xbe,
  0x83, 0x6c, 0xad, 0x3e, 0xa0, 0xc0, 0x4a, 0xbf, 0x71, 0xbb, 0x41, 0xbd,
  0x9d, 0xf0, 0x9f, 0xbd, 0xb3, 0x05, 0x6b, 0x3f, 0x0d, 0x4c, 0x33, 0x3e,
  0x69, 0x98, 0x8d, 0x3e, 0x1c, 0xba, 0xed, 0xbe, 0xd8, 0xc4, 0xe4, 0x3c,
  0x64, 0x13, 0x84, 0x3e, 0x6b, 0x0e, 0xb8, 0x3c, 0x30, 0x85, 0x8e, 0x3c,
  0x47, 0xee, 0x07, 0xbd, 0xbb, 0xcc, 0xfe, 0x3d, 0xe1, 0x67, 0x39, 0x3f,
  0x82, 0x2d, 0xbf, 0x3d, 0x59, 0x52, 0x1b, 0x3f, 0x90, 0x49, 0x31, 0x3c,
  0x73, 0x2b, 0x8a, 0xbe, 0x59, 0x9c, 0xa1, 0x3e, 0x9a, 0xc6, 0xef, 0x3d,
  0x2c, 0xbd, 0x21, 0xbe, 0x46, 0xf9, 0x28, 0x3f, 0xa4, 0xf6, 0x41, 0xbe,
  0x9c, 0x85, 0x9a, 0xbe, 0x40, 0x62, 0x95, 0xbe, 0xeb, 0x98, 0x06, 0x3e,
  0x46, 0x54, 0x7a, 0x3c, 0xc7, 0xc6, 0x9a, 0x3e, 0xa4, 0xcc, 0xbf, 0xbd,
  0x7c, 0xa0, 0xeb, 0xbd, 0x23, 0xf4, 0x4c, 0xbe, 0x64, 0xd3, 0x83, 0x3e,
  0x56, 0x16, 0x9d, 0x3e, 0xd9, 0xae, 0x7d, 0xbe, 0xdb, 0xdd, 0xf1, 0xbd,
  0xdc, 0x86, 0x4e, 0xbe, 0x89, 0x25, 0x97, 0xbd, 0x1b, 0x61, 0x12, 0x3e,
  0x38, 0x7c, 0xb6, 0xbd, 0x05, 0xa7, 0x8b, 0xbe, 0xbc, 0x7b, 0xf9, 0xbd,
  0x77, 0x30, 0x9d, 0xbd, 0xcf, 0x0c, 0x08, 0x3e, 0x30, 0xea, 0x83, 0x3d,
  0xac, 0x75, 0x9f, 0xbe, 0xa9, 0xf5, 0x38, 0x3f, 0x19, 0xec, 0x4d, 0xbe,
  0xbc, 0xcf, 0x9b, 0xbf, 0x51, 0x6d, 0x82, 0x3e, 0x8a, 0xa9, 0x01, 0xbf,
  0x1f, 0xc0, 0x74, 0x3e, 0x43, 0x80, 0x07, 0xbf, 0x28, 0x29, 0x49, 0x3c,
  0xab, 0x2b, 0xb6, 0x3e, 0xd8, 0xb2, 0xb1, 0xbd, 0x79, 0x3c, 0xf1, 0xbd,
  0x2a, 0x5b, 0xbf, 0x3e, 0x0f, 0xb2, 0xd9, 0x3d, 0xe8, 0xde, 0x27, 0xbe,
  0x78, 0x5d, 0x5c, 0x3d, 0x12, 0xe6, 0x9b, 0xbd, 0xb6, 0xb7, 0xee, 0xbe,
  0xcf, 0x66, 0x1f, 0xbe, 0xf9, 0xa3, 0x92, 0xbe, 0xba, 0x7a, 0x9a, 0xbf,
  0x6c, 0x39, 0xf9, 0xbb, 0x5e, 0x10, 0x44, 0x3e, 0x30, 0x7c, 0x02, 0xbf,
  0xe7, 0xe3, 0x30, 0x3f, 0x4c, 0x7e, 0xb8, 0xbe, 0x05, 0xcf, 0xb6, 0xbe,
  0x96, 0x71, 0x7b, 0xbe, 0xc0, 0xa7, 0x7e, 0xbf, 0x94, 0x06, 0x89, 0x3d,
  0x29, 0x09, 0xb1, 0x3e, 0x1c, 0xfc, 0xfb, 0xbd, 0x43, 0x43, 0x51, 0xbe,
  0x63, 0x8c, 0xbc, 0xbc, 0x55, 0x9d, 0x0d, 0x3e, 0x7b, 0x7e, 0xa8, 0xbe,
  0xff, 0xb3, 0x19, 0xbe, 0xe6, 0x98, 0x63, 0x3c, 0x68, 0x3a, 0xdb, 0xbd,
  0xce, 0x79, 0x97, 0x3e, 0x42, 0x22, 0x7f, 0x3e, 0xa5, 0x46, 0xfa, 0x3d,
  0x9b, 0x22, 0x25, 0xbd, 0xa4, 0x50, 0x3b, 0x3d, 0x38, 0xe4, 0x0c, 0xbf,
  0x5d, 0xad, 0x34, 0xbe, 0x4d, 0xc3, 0x8b, 0xbe, 0x01, 0xcb, 0x9b, 0xbe,
  0x7a, 0x11, 0x06, 0xbe, 0x00, 0x00, 0x00, 0x00, 0x0a, 0xfb, 0xff, 0xff,
  0x04, 0x00, 0x00, 0x00, 0x04, 0x00, 0x00, 0x00, 0xfd, 0xff, 0xff, 0xff,
  0x1a, 0xfb, 0xff, 0xff, 0x04, 0x00, 0x00, 0x00, 0x08, 0x00, 0x00, 0x00,
  0xff, 0xff, 0xff, 0xff, 0xd0, 0x00, 0x00, 0x00, 0x00, 0x00, 0x00, 0x00,
  0x00, 0x00, 0x00, 0x00, 0x00, 0x00, 0x00, 0x00, 0x3a, 0xfb, 0xff, 0xff,
  0x04, 0x00, 0x00, 0x00, 0x04, 0x00, 0x00, 0x00, 0x02, 0x00, 0x00, 0x00,
  0x4a, 0xfb, 0xff, 0xff, 0x04, 0x00, 0x00, 0x00, 0x04, 0x00, 0x00, 0x00,
  0x34, 0x00, 0x00, 0x00, 0x5a, 0xfb, 0xff, 0xff, 0x04, 0x00, 0x00, 0x00,
  0x04, 0x00, 0x00, 0x00, 0x0d, 0x00, 0x00, 0x00, 0x6a, 0xfb, 0xff, 0xff,
  0x04, 0x00, 0x00, 0x00, 0x04, 0x00, 0x00, 0x00, 0x00, 0x00, 0x00, 0x00,
  0x7a, 0xfb, 0xff, 0xff, 0x04, 0x00, 0x00, 0x00, 0x04, 0x00, 0x00, 0x00,
  0x01, 0x00, 0x00, 0x00, 0x8a, 0xfb, 0xff, 0xff, 0x04, 0x00, 0x00, 0x00,
  0x20, 0x00, 0x00, 0x00, 0x0a, 0xcf, 0xfa, 0x3d, 0xc5, 0x8e, 0x23, 0xbe,
  0xf6, 0xca, 0x12, 0x3e, 0x97, 0xf0, 0x92, 0x3d, 0x49, 0xef, 0x8d, 0xbe,
  0x18, 0x0b, 0xd0, 0x3c, 0xce, 0x20, 0x01, 0xbe, 0x81, 0x5a, 0xa6, 0xbc,
  0x00, 0x00, 0x00, 0x00, 0xba, 0xfb, 0xff, 0xff, 0x04, 0x00, 0x00, 0x00,
  0x40, 0x00, 0x00, 0x00, 0x1c, 0x71, 0x85, 0xbd, 0xea, 0xb1, 0xf4, 0x3b,
  0x49, 0xba, 0x28, 0x3d, 0x87, 0xda, 0xf8, 0x3e, 0x95, 0x24, 0xcc, 0xbc,
  0xdd, 0xed, 0x23, 0x3e, 0xc1, 0x4e, 0x41, 0xbd, 0x69, 0x2f, 0x9a, 0x3d,
  0x1e, 0xc2, 0xa3, 0x3e, 0xea, 0xa6, 0x67, 0x3d, 0xc6, 0xdf, 0xfb, 0xbc,
  0x90, 0xbd, 0xec, 0x3b, 0xaa, 0xad, 0xd0, 0xbd, 0x92, 0x22, 0x66, 0xbd,
  0xeb, 0x5a, 0x00, 0xbd, 0x1a, 0xb3, 0x35, 0xbd, 0x00, 0x00, 0x00, 0x00,
  0x0a, 0xfc, 0xff, 0xff, 0x04, 0x00, 0x00, 0x00, 0x08, 0x00, 0x00, 0x00,
  0x5e, 0xc3, 0x9a, 0xbd, 0x59, 0xc3, 0x9a, 0x3d, 0x00, 0x00, 0x00, 0x00,
  0x08, 0xee, 0xff, 0xff, 0x00, 0x00, 0x00, 0x00, 0x00, 0x00, 0x00, 0x00,
  0x00, 0x00, 0x00, 0x00, 0x18, 0xee, 0xff, 0xff, 0x00, 0x00, 0x00, 0x00,
  0x00, 0x00, 0x00, 0x00, 0x00, 0x00, 0x00, 0x00, 0x0f, 0x00, 0x00, 0x00,
  0x4d, 0x4c, 0x49, 0x52, 0x20, 0x43, 0x6f, 0x6e, 0x76, 0x65, 0x72, 0x74,
  0x65, 0x64, 0x2e, 0x00, 0x01, 0x00, 0x00, 0x00, 0x14, 0x00, 0x00, 0x00,
  0x00, 0x00, 0x0e, 0x00, 0x18, 0x00, 0x04, 0x00, 0x08, 0x00, 0x0c, 0x00,
  0x10, 0x00, 0x14, 0x00, 0x0e, 0x00, 0x00, 0x00, 0x64, 0x04, 0x00, 0x00,
  0x58, 0x04, 0x00, 0x00, 0x4c, 0x04, 0x00, 0x00, 0x14, 0x00, 0x00, 0x00,
  0x04, 0x00, 0x00, 0x00, 0x04, 0x00, 0x00, 0x00, 0x6d, 0x61, 0x69, 0x6e,
  0x00, 0x00, 0x00, 0x00, 0x12, 0x00, 0x00, 0x00, 0xfc, 0x03, 0x00, 0x00,
  0x9c, 0x03, 0x00, 0x00, 0x48, 0x03, 0x00, 0x00, 0x20, 0x03, 0x00, 0x00,
  0xe0, 0x02, 0x00, 0x00, 0x80, 0x02, 0x00, 0x00, 0x58, 0x02, 0x00, 0x00,
  0x24, 0x02, 0x00, 0x00, 0xd4, 0x01, 0x00, 0x00, 0xac, 0x01, 0x00, 0x00,
  0x78, 0x01, 0x00, 0x00, 0x34, 0x01, 0x00, 0x00, 0x0c, 0x01, 0x00, 0x00,
  0xd8, 0x00, 0x00, 0x00, 0x98, 0x00, 0x00, 0x00, 0x70, 0x00, 0x00, 0x00,
  0x38, 0x00, 0x00, 0x00, 0x04, 0x00, 0x00, 0x00, 0x66, 0xfd, 0xff, 0xff,
  0x00, 0x00, 0x00, 0x09, 0x08, 0x00, 0x00, 0x00, 0x1c, 0x00, 0x00, 0x00,
  0x10, 0x00, 0x00, 0x00, 0x04, 0x00, 0x00, 0x00, 0xf6, 0xfc, 0xff, 0xff,
  0x00, 0x00, 0x80, 0x3f, 0x01, 0x00, 0x00, 0x00, 0x22, 0x00, 0x00, 0x00,
  0x01, 0x00, 0x00, 0x00, 0x21, 0x00, 0x00, 0x00, 0x96, 0xfd, 0xff, 0xff,
  0x00, 0x00, 0x00, 0x08, 0x07, 0x00, 0x00, 0x00, 0x18, 0x00, 0x00, 0x00,
  0x0c, 0x00, 0x00, 0x00, 0x04, 0x00, 0x00, 0x00, 0x0c, 0xef, 0xff, 0xff,
  0x01, 0x00, 0x00, 0x00, 0x21, 0x00, 0x00, 0x00, 0x03, 0x00, 0x00, 0x00,
  0x20, 0x00, 0x00, 0x00, 0x0b, 0x00, 0x00, 0x00, 0x01, 0x00, 0x00, 0x00,
  0x8a, 0xfd, 0xff, 0xff, 0x03, 0x00, 0x00, 0x00, 0x10, 0x00, 0x00, 0x00,
  0x04, 0x00, 0x00, 0x00, 0x01, 0x00, 0x00, 0x00, 0x20, 0x00, 0x00, 0x00,
  0x02, 0x00, 0x00, 0x00, 0x1f, 0x00, 0x00, 0x00, 0x09, 0x00, 0x00, 0x00,
  0xee, 0xfd, 0xff, 0xff, 0x00, 0x00, 0x00, 0x05, 0x06, 0x00, 0x00, 0x00,
  0x28, 0x00, 0x00, 0x00, 0x1c, 0x00, 0x00, 0x00, 0x04, 0x00, 0x00, 0x00,
  0xda, 0xfe, 0xff, 0xff, 0x01, 0x00, 0x00, 0x00, 0x02, 0x00, 0x00, 0x00,
  0x01, 0x00, 0x00, 0x00, 0x02, 0x00, 0x00, 0x00, 0x01, 0x00, 0x00, 0x00,
  0x1f, 0x00, 0x00, 0x00, 0x01, 0x00, 0x00, 0x00, 0x1e, 0x00, 0x00, 0x00,
  0x2a, 0xfe, 0xff, 0xff, 0x00, 0x00, 0x00, 0x34, 0x04, 0x00, 0x00, 0x00,
  0x18, 0x00, 0x00, 0x00, 0x0c, 0x00, 0x00, 0x00, 0x04, 0x00, 0x00, 0x00,
  0xa0, 0xef, 0xff, 0xff, 0x01, 0x00, 0x00, 0x00, 0x1e, 0x00, 0x00, 0x00,
  0x02, 0x00, 0x00, 0x00, 0x1d, 0x00, 0x00, 0x00, 0x08, 0x00, 0x00, 0x00,
  0x1a, 0xfe, 0xff, 0xff, 0x03, 0x00, 0x00, 0x00, 0x10, 0x00, 0x00, 0x00,
  0x04, 0x00, 0x00, 0x00, 0x01, 0x00, 0x00, 0x00, 0x1d, 0x00, 0x00, 0x00,
  0x02, 0x00, 0x00, 0x00, 0x1c, 0x00, 0x00, 0x00, 0x10, 0x00, 0x00, 0x00,
  0x7e, 0xfe, 0xff, 0xff, 0x00, 0x00, 0x00, 0x01, 0x05, 0x00, 0x00, 0x00,
  0x24, 0x00, 0x00, 0x00, 0x18, 0x00, 0x00, 0x00, 0x04, 0x00, 0x00, 0x00,
  0xcc, 0xfe, 0xff, 0xff, 0x00, 0x00, 0x00, 0x01, 0x01, 0x00, 0x00, 0x00,
  0x01, 0x00, 0x00, 0x00, 0x01, 0x00, 0x00, 0x00, 0x1c, 0x00, 0x00, 0x00,
  0x03, 0x00, 0x00, 0x00, 0x1b, 0x00, 0x00, 0x00, 0x0d, 0x00, 0x00, 0x00,
  0x02, 0x00, 0x00, 0x00, 0xbe, 0xfe, 0xff, 0xff, 0x00, 0x00, 0x00, 0x34,
  0x04, 0x00, 0x00, 0x00, 0x18, 0x00, 0x00, 0x00, 0x0c, 0x00, 0x00, 0x00,
  0x04, 0x00, 0x00, 0x00, 0x34, 0xf0, 0xff, 0xff, 0x01, 0x00, 0x00, 0x00,
  0x1b, 0x00, 0x00, 0x00, 0x02, 0x00, 0x00, 0x00, 0x1a, 0x00, 0x00, 0x00,
  0x0a, 0x00, 0x00, 0x00, 0xae, 0xfe, 0xff, 0xff, 0x03, 0x00, 0x00, 0x00,
  0x10, 0x00, 0x00, 0x00, 0x04, 0x00, 0x00, 0x00, 0x01, 0x00, 0x00, 0x00,
  0x1a, 0x00, 0x00, 0x00, 0x02, 0x00, 0x00, 0x00, 0x19, 0x00, 0x00, 0x00,
  0x0f, 0x00, 0x00, 0x00, 0x62, 0xfe, 0xff, 0xff, 0x00, 0x00, 0x00, 0x05,
  0x06, 0x00, 0x00, 0x00, 0x38, 0x00, 0x00, 0x00, 0x2c, 0x00, 0x00, 0x00,
  0x14, 0x00, 0x00, 0x00, 0x00, 0x00, 0x0e, 0x00, 0x14, 0x00, 0x00, 0x00,
  0x04, 0x00, 0x08, 0x00, 0x0c, 0x00, 0x10, 0x00, 0x0e, 0x00, 0x00, 0x00,
  0x01, 0x00, 0x00, 0x00, 0x02, 0x00, 0x00, 0x00, 0x01, 0x00, 0x00, 0x00,
  0x02, 0x00, 0x00, 0x00, 0x01, 0x00, 0x00, 0x00, 0x19, 0x00, 0x00, 0x00,
  0x01, 0x00, 0x00, 0x00, 0x18, 0x00, 0x00, 0x00, 0x5e, 0xff, 0xff, 0xff,
  0x00, 0x00, 0x00, 0x34, 0x04, 0x00, 0x00, 0x00, 0x18, 0x00, 0x00, 0x00,
  0x0c, 0x00, 0x00, 0x00, 0x04, 0x00, 0x00, 0x00, 0xd4, 0xf0, 0xff, 0xff,
  0x01, 0x00, 0x00, 0x00, 0x18, 0x00, 0x00, 0x00, 0x02, 0x00, 0x00, 0x00,
  0x17, 0x00, 0x00, 0x00, 0x08, 0x00, 0x00, 0x00, 0x4e, 0xff, 0xff, 0xff,
  0x03, 0x00, 0x00, 0x00, 0x10, 0x00, 0x00, 0x00, 0x04, 0x00, 0x00, 0x00,
  0x01, 0x00, 0x00, 0x00, 0x17, 0x00, 0x00, 0x00, 0x02, 0x00, 0x00, 0x00,
  0x16, 0x00, 0x00, 0x00, 0x0e, 0x00, 0x00, 0x00, 0xb2, 0xff, 0xff, 0xff,
  0x00, 0x00, 0x00, 0x01, 0x05, 0x00, 0x00, 0x00, 0x30, 0x00, 0x00, 0x00,
  0x24, 0x00, 0x00, 0x00, 0x10, 0x00, 0x00, 0x00, 0x0c, 0x00, 0x10, 0x00,
  0x00, 0x00, 0x08, 0x00, 0x0c, 0x00, 0x07, 0x00, 0x0c, 0x00, 0x00, 0x00,
  0x00, 0x00, 0x00, 0x01, 0x01, 0x00, 0x00, 0x00, 0x01, 0x00, 0x00, 0x00,
  0x01, 0x00, 0x00, 0x00, 0x16, 0x00, 0x00, 0x00, 0x03, 0x00, 0x00, 0x00,
  0x15, 0x00, 0x00, 0x00, 0x0c, 0x00, 0x00, 0x00, 0x03, 0x00, 0x00, 0x00,
  0x00, 0x00, 0x0e, 0x00, 0x18, 0x00, 0x08, 0x00, 0x0c, 0x00, 0x10, 0x00,
  0x07, 0x00, 0x14, 0x00, 0x0e, 0x00, 0x00, 0x00, 0x00, 0x00, 0x00, 0x34,
  0x04, 0x00, 0x00, 0x00, 0x18, 0x00, 0x00, 0x00, 0x0c, 0x00, 0x00, 0x00,
  0x04, 0x00, 0x00, 0x00, 0x84, 0xf1, 0xff, 0xff, 0x01, 0x00, 0x00, 0x00,
  0x15, 0x00, 0x00, 0x00, 0x02, 0x00, 0x00, 0x00, 0x14, 0x00, 0x00, 0x00,
  0x0a, 0x00, 0x00, 0x00, 0x00, 0x00, 0x0a, 0x00, 0x10, 0x00, 0x04, 0x00,
  0x08, 0x00, 0x0c, 0x00, 0x0a, 0x00, 0x00, 0x00, 0x03, 0x00, 0x00, 0x00,
  0x10, 0x00, 0x00, 0x00, 0x04, 0x00, 0x00, 0x00, 0x01, 0x00, 0x00, 0x00,
  0x14, 0x00, 0x00, 0x00, 0x02, 0x00, 0x00, 0x00, 0x00, 0x00, 0x00, 0x00,
  0x13, 0x00, 0x00, 0x00, 0xbe, 0xff, 0xff, 0xff, 0x00, 0x00, 0x00, 0x3b,
  0x02, 0x00, 0x00, 0x00, 0x24, 0x00, 0x00, 0x00, 0x18, 0x00, 0x00, 0x00,
  0x0c, 0x00, 0x00, 0x00, 0x00, 0x00, 0x06, 0x00, 0x08, 0x00, 0x04, 0x00,
  0x06, 0x00, 0x00, 0x00, 0x03, 0x00, 0x00, 0x00, 0x01, 0x00, 0x00, 0x00,
  0x13, 0x00, 0x00, 0x00, 0x03, 0x00, 0x00, 0x00, 0x12, 0x00, 0x00, 0x00,
  0x07, 0x00, 0x00, 0x00, 0x06, 0x00, 0x00, 0x00, 0x00, 0x00, 0x0e, 0x00,
  0x1a, 0x00, 0x08, 0x00, 0x0c, 0x00, 0x10, 0x00, 0x07, 0x00, 0x14, 0x00,
  0x0e, 0x00, 0x00, 0x00, 0x00, 0x00, 0x00, 0x20, 0x01, 0x00, 0x00, 0x00,
  0x2c, 0x00, 0x00, 0x00, 0x20, 0x00, 0x00, 0x00, 0x14, 0x00, 0x00, 0x00,
  0x00, 0x00, 0x0e, 0x00, 0x08, 0x00, 0x00, 0x00, 0x00, 0x00, 0x00, 0x00,
  0x00, 0x00, 0x04, 0x00, 0x0e, 0x00, 0x00, 0x00, 0x01, 0x00, 0x00, 0x00,
  0x01, 0x00, 0x00, 0x00, 0x12, 0x00, 0x00, 0x00, 0x04, 0x00, 0x00, 0x00,
  0x11, 0x00, 0x00, 0x00, 0x05, 0x00, 0x00, 0x00, 0x04, 0x00, 0x00, 0x00,
  0x04, 0x00, 0x00, 0x00, 0x00, 0x00, 0x0e, 0x00, 0x16, 0x00, 0x00, 0x00,
  0x08, 0x00, 0x0c, 0x00, 0x07, 0x00, 0x10, 0x00, 0x0e, 0x00, 0x00, 0x00,
  0x00, 0x00, 0x00, 0x37, 0x24, 0x00, 0x00, 0x00, 0x18, 0x00, 0x00, 0x00,
  0x0c, 0x00, 0x00, 0x00, 0x00, 0x00, 0x06, 0x00, 0x08, 0x00, 0x07, 0x00,
  0x06, 0x00, 0x00, 0x00, 0x00, 0x00, 0x00, 0x02, 0x01, 0x00, 0x00, 0x00,
  0x11, 0x00, 0x00, 0x00, 0x01, 0x00, 0x00, 0x00, 0x00, 0x00, 0x00, 0x00,
  0x01, 0x00, 0x00, 0x00, 0x22, 0x00, 0x00, 0x00, 0x01, 0x00, 0x00, 0x00,
  0x00, 0x00, 0x00, 0x00, 0x23, 0x00, 0x00, 0x00, 0x1c, 0x0d, 0x00, 0x00,
  0xd4, 0x0c, 0x00, 0x00, 0x8c, 0x0c, 0x00, 0x00, 0x58, 0x0c, 0x00, 0x00,
  0x00, 0x0c, 0x00, 0x00, 0x9c, 0x0b, 0x00, 0x00, 0x58, 0x0b, 0x00, 0x00,
  0x04, 0x0b, 0x00, 0x00, 0xbc, 0x0a, 0x00, 0x00, 0x74, 0x0a, 0x00, 0x00,
  0x2c, 0x0a, 0x00, 0x00, 0xe4, 0x09, 0x00, 0x00, 0x94, 0x09, 0x00, 0x00,
  0x44, 0x09, 0x00, 0x00, 0xf4, 0x08, 0x00, 0x00, 0xa4, 0x08, 0x00, 0x00,
  0x54, 0x08, 0x00, 0x00, 0x0c, 0x08, 0x00, 0x00, 0xc8, 0x07, 0x00, 0x00,
  0x78, 0x07, 0x00, 0x00, 0x18, 0x07, 0x00, 0x00, 0xa8, 0x06, 0x00, 0x00,
  0xe4, 0x05, 0x00, 0x00, 0x40, 0x05, 0x00, 0x00, 0xd0, 0x04, 0x00, 0x00,
  0x60, 0x04, 0x00, 0x00, 0xf8, 0x03, 0x00, 0x00, 0x84, 0x03, 0x00, 0x00,
  0xb4, 0x02, 0x00, 0x00, 0x08, 0x02, 0x00, 0x00, 0x94, 0x01, 0x00, 0x00,
  0x24, 0x01, 0x00, 0x00, 0xcc, 0x00, 0x00, 0x00, 0x5c, 0x00, 0x00, 0x00,
  0x04, 0x00, 0x00, 0x00, 0x84, 0xf3, 0xff, 0xff, 0x44, 0x00, 0x00, 0x00,
  0x23, 0x00, 0x00, 0x00, 0x1c, 0x00, 0x00, 0x00, 0x14, 0x00, 0x00, 0x00,
  0x04, 0x00, 0x00, 0x00, 0x02, 0x00, 0x00, 0x00, 0xff, 0xff, 0xff, 0xff,
  0x02, 0x00, 0x00, 0x00, 0x70, 0xf3, 0xff, 0xff, 0x19, 0x00, 0x00, 0x00,
  0x53, 0x74, 0x61, 0x74, 0x65, 0x66, 0x75, 0x6c, 0x50, 0x61, 0x72, 0x74,
  0x69, 0x74, 0x69, 0x6f, 0x6e, 0x65, 0x64, 0x43, 0x61, 0x6c, 0x6c, 0x3a,
  0x30, 0x00, 0x00, 0x00, 0x02, 0x00, 0x00, 0x00, 0x01, 0x00, 0x00, 0x00,
  0x02, 0x00, 0x00, 0x00, 0xd8, 0xf3, 0xff, 0xff, 0x5c, 0x00, 0x00, 0x00,
  0x22, 0x00, 0x00, 0x00, 0x1c, 0x00, 0x00, 0x00, 0x14, 0x00, 0x00, 0x00,
  0x04, 0x00, 0x00, 0x00, 0x02, 0x00, 0x00, 0x00, 0xff, 0xff, 0xff, 0xff,
  0x02, 0x00, 0x00, 0x00, 0xc4, 0xf3, 0xff, 0xff, 0x32, 0x00, 0x00, 0x00,
  0x73, 0x65, 0x71, 0x75, 0x65, 0x6e, 0x74, 0x69, 0x61, 0x6c, 0x2f, 0x79,
  0x5f, 0x70, 0x72, 0x65, 0x64, 0x2f, 0x4d, 0x61, 0x74, 0x4d, 0x75, 0x6c,
  0x3b, 0x73, 0x65, 0x71, 0x75, 0x65, 0x6e, 0x74, 0x69, 0x61, 0x6c, 0x2f,
  0x79, 0x5f, 0x70, 0x72, 0x65, 0x64, 0x2f, 0x42, 0x69, 0x61, 0x73, 0x41,
  0x64, 0x64, 0x00, 0x00, 0x02, 0x00, 0x00, 0x00, 0x01, 0x00, 0x00, 0x00,
  0x02, 0x00, 0x00, 0x00, 0x44, 0xf4, 0xff, 0xff, 0x44, 0x00, 0x00, 0x00,
  0x21, 0x00, 0x00, 0x00, 0x1c, 0x00, 0x00, 0x00, 0x14, 0x00, 0x00, 0x00,
  0x04, 0x00, 0x00, 0x00, 0x02, 0x00, 0x00, 0x00, 0xff, 0xff, 0xff, 0xff,
  0xd0, 0x00, 0x00, 0x00, 0x30, 0xf4, 0xff, 0xff, 0x1a, 0x00, 0x00, 0x00,
  0x73, 0x65, 0x71, 0x75, 0x65, 0x6e, 0x74, 0x69, 0x61, 0x6c, 0x2f, 0x66,
  0x6c, 0x61, 0x74, 0x74, 0x65, 0x6e, 0x2f, 0x52, 0x65, 0x73, 0x68, 0x61,
  0x70, 0x65, 0x00, 0x00, 0x02, 0x00, 0x00, 0x00, 0x01, 0x00, 0x00, 0x00,
  0xd0, 0x00, 0x00, 0x00, 0x98, 0xf4, 0xff, 0xff, 0x54, 0x00, 0x00, 0x00,
  0x20, 0x00, 0x00, 0x00, 0x24, 0x00, 0x00, 0x00, 0x1c, 0x00, 0x00, 0x00,
  0x04, 0x00, 0x00, 0x00, 0x04, 0x00, 0x00, 0x00, 0xff, 0xff, 0xff, 0xff,
  0x0d, 0x00, 0x00, 0x00, 0x01, 0x00, 0x00, 0x00, 0x10, 0x00, 0x00, 0x00,
  0x8c, 0xf4, 0xff, 0xff, 0x22, 0x00, 0x00, 0x00, 0x73, 0x65, 0x71, 0x75,
  0x65, 0x6e, 0x74, 0x69, 0x61, 0x6c, 0x2f, 0x6d, 0x61, 0x78, 0x5f, 0x70,
  0x6f, 0x6f, 0x6c, 0x69, 0x6e, 0x67, 0x31, 0x64, 0x5f, 0x31, 0x2f, 0x4d,
  0x61, 0x78, 0x50, 0x6f, 0x6f, 0x6c, 0x00, 0x00, 0x04, 0x00, 0x00, 0x00,
  0x01, 0x00, 0x00, 0x00, 0x0d, 0x00, 0x00, 0x00, 0x01, 0x00, 0x00, 0x00,
  0x10, 0x00, 0x00, 0x00, 0x04, 0xf5, 0xff, 0xff, 0x58, 0x00, 0x00, 0x00,
  0x1f, 0x00, 0x00, 0x00, 0x24, 0x00, 0x00, 0x00, 0x1c, 0x00, 0x00, 0x00,
  0x04, 0x00, 0x00, 0x00, 0x04, 0x00, 0x00, 0x00, 0xff, 0xff, 0xff, 0xff,
  0x1a, 0x00, 0x00, 0x00, 0x01, 0x00, 0x00, 0x00, 0x10, 0x00, 0x00, 0x00,
  0xf8, 0xf4, 0xff, 0xff, 0x25, 0x00, 0x00, 0x00, 0x73, 0x65, 0x71, 0x75,
  0x65, 0x6e, 0x74, 0x69, 0x61, 0x6c, 0x2f, 0x6d, 0x61, 0x78, 0x5f, 0x70,
  0x6f, 0x6f, 0x6c, 0x69, 0x6e, 0x67, 0x31, 0x64, 0x5f, 0x31, 0x2f, 0x45,
  0x78, 0x70, 0x61, 0x6e, 0x64, 0x44, 0x69, 0x6d, 0x73, 0x00, 0x00, 0x00,
  0x04, 0x00, 0x00, 0x00, 0x01, 0x00, 0x00, 0x00, 0x1a, 0x00, 0x00, 0x00,
  0x01, 0x00, 0x00, 0x00, 0x10, 0x00, 0x00, 0x00, 0x74, 0xf5, 0xff, 0xff,
  0x94, 0x00, 0x00, 0x00, 0x1e, 0x00, 0x00, 0x00, 0x20, 0x00, 0x00, 0x00,
  0x18, 0x00, 0x00, 0x00, 0x04, 0x00, 0x00, 0x00, 0x03, 0x00, 0x00, 0x00,
  0xff, 0xff, 0xff, 0xff, 0x1a, 0x00, 0x00, 0x00, 0x10, 0x00, 0x00, 0x00,
  0x64, 0xf5, 0xff, 0xff, 0x65, 0x00, 0x00, 0x00, 0x73, 0x65, 0x71, 0x75,
  0x65, 0x6e, 0x74, 0x69, 0x61, 0x6c, 0x2f, 0x63, 0x6f, 0x6e, 0x76, 0x31,
  0x64, 0x5f, 0x31, 0x2f, 0x52, 0x65, 0x6c, 0x75, 0x3b, 0x73, 0x65, 0x71,
  0x75, 0x65, 0x6e, 0x74, 0x69, 0x61, 0x6c, 0x2f, 0x63, 0x6f, 0x6e, 0x76,
  0x31, 0x64, 0x5f, 0x31, 0x2f, 0x42, 0x69, 0x61, 0x73, 0x41, 0x64, 0x64,
  0x3b, 0x73, 0x65, 0x71, 0x75, 0x65, 0x6e, 0x74, 0x69, 0x61, 0x6c, 0x2f,
  0x63, 0x6f, 0x6e, 0x76, 0x31, 0x64, 0x5f, 0x31, 0x2f, 0x43, 0x6f, 0x6e,
  0x76, 0x31, 0x44, 0x2f, 0x53, 0x71, 0x75, 0x65, 0x65, 0x7a, 0x65, 0x3b,
  0x63, 0x6f, 0x6e, 0x76, 0x31, 0x64, 0x5f, 0x31, 0x2f, 0x62, 0x69, 0x61,
  0x73, 0x00, 0x00, 0x00, 0x03, 0x00, 0x00, 0x00, 0x01, 0x00, 0x00, 0x00,
  0x1a, 0x00, 0x00, 0x00, 0x10, 0x00, 0x00, 0x00, 0x1c, 0xf6, 0xff, 0xff,
  0xb4, 0x00, 0x00, 0x00, 0x1d, 0x00, 0x00, 0x00, 0x24, 0x00, 0x00, 0x00,
  0x1c, 0x00, 0x00, 0x00, 0x04, 0x00, 0x00, 0x00, 0x04, 0x00, 0x00, 0x00,
  0xff, 0xff, 0xff, 0xff, 0x01, 0x00, 0x00, 0x00, 0x1a, 0x00, 0x00, 0x00,
  0x10, 0x00, 0x00, 0x00, 0x10, 0xf6, 0xff, 0xff, 0x80, 0x00, 0x00, 0x00,
  0x73, 0x65, 0x71, 0x75, 0x65, 0x6e, 0x74, 0x69, 0x61, 0x6c, 0x2f, 0x63,
  0x6f, 0x6e, 0x76, 0x31, 0x64, 0x5f, 0x31, 0x2f, 0x52, 0x65, 0x6c, 0x75,
  0x3b, 0x73, 0x65, 0x71, 0x75, 0x65, 0x6e, 0x74, 0x69, 0x61, 0x6c, 0x2f,
  0x63, 0x6f, 0x6e, 0x76, 0x31, 0x64, 0x5f, 0x31, 0x2f, 0x42, 0x69, 0x61,
  0x73, 0x41, 0x64, 0x64, 0x3b, 0x73, 0x65, 0x71, 0x75, 0x65, 0x6e, 0x74,
  0x69, 0x61, 0x6c, 0x2f, 0x63, 0x6f, 0x6e, 0x76, 0x31, 0x64, 0x5f, 0x31,
  0x2f, 0x43, 0x6f, 0x6e, 0x76, 0x31, 0x44, 0x2f, 0x53, 0x71, 0x75, 0x65,
  0x65, 0x7a, 0x65, 0x3b, 0x63, 0x6f, 0x6e, 0x76, 0x31, 0x64, 0x5f, 0x31,
  0x2f, 0x62, 0x69, 0x61, 0x73, 0x3b, 0x73, 0x65, 0x71, 0x75, 0x65, 0x6e,
  0x74, 0x69, 0x61, 0x6c, 0x2f, 0x63, 0x6f, 0x6e, 0x76, 0x31, 0x64, 0x5f,
  0x31, 0x2f, 0x43, 0x6f, 0x6e, 0x76, 0x31, 0x44, 0x00, 0x00, 0x00, 0x00,
  0x04, 0x00, 0x00, 0x00, 0x01, 0x00, 0x00, 0x00, 0x01, 0x00, 0x00, 0x00,
  0x1a, 0x00, 0x00, 0x00, 0x10, 0x00, 0x00, 0x00, 0xe8, 0xf6, 0xff, 0xff,
  0x58, 0x00, 0x00, 0x00, 0x1c, 0x00, 0x00, 0x00, 0x24, 0x00, 0x00, 0x00,
  0x1c, 0x00, 0x00, 0x00, 0x04, 0x00, 0x00, 0x00, 0x04, 0x00, 0x00, 0x00,
  0xff, 0xff, 0xff, 0xff, 0x01, 0x00, 0x00, 0x00, 0x1a, 0x00, 0x00, 0x00,
  0x08, 0x00, 0x00, 0x00, 0xdc, 0xf6, 0xff, 0xff, 0x25, 0x00, 0x00, 0x00,
  0x73, 0x65, 0x71, 0x75, 0x65, 0x6e, 0x74, 0x69, 0x61, 0x6c, 0x2f, 0x63,
  0x6f, 0x6e, 0x76, 0x31, 0x64, 0x5f, 0x31, 0x2f, 0x43, 0x6f, 0x6e, 0x76,
  0x31, 0x44, 0x2f, 0x45, 0x78, 0x70, 0x61, 0x6e, 0x64, 0x44, 0x69, 0x6d,
  0x73, 0x00, 0x00, 0x00, 0x04, 0x00, 0x00, 0x00, 0x01, 0x00, 0x00, 0x00,
  0x01, 0x00, 0x00, 0x00, 0x1a, 0x00, 0x00, 0x00, 0x08, 0x00, 0x00, 0x00,
  0x58, 0xf7, 0xff, 0xff, 0x50, 0x00, 0x00, 0x00, 0x1b, 0x00, 0x00, 0x00,
  0x20, 0x00, 0x00, 0x00, 0x18, 0x00, 0x00, 0x00, 0x04, 0x00, 0x00, 0x00,
  0x03, 0x00, 0x00, 0x00, 0xff, 0xff, 0xff, 0xff, 0x1a, 0x00, 0x00, 0x00,
  0x08, 0x00, 0x00, 0x00, 0x48, 0xf7, 0xff, 0xff, 0x21, 0x00, 0x00, 0x00,
  0x73, 0x65, 0x71, 0x75, 0x65, 0x6e, 0x74, 0x69, 0x61, 0x6c, 0x2f, 0x6d,
  0x61, 0x78, 0x5f, 0x70, 0x6f, 0x6f, 0x6c, 0x69, 0x6e, 0x67, 0x31, 0x64,
  0x2f, 0x53, 0x71, 0x75, 0x65, 0x65, 0x7a, 0x65, 0x31, 0x00, 0x00, 0x00,
  0x03, 0x00, 0x00, 0x00, 0x01, 0x00, 0x00, 0x00, 0x1a, 0x00, 0x00, 0x00,
  0x08, 0x00, 0x00, 0x00, 0xbc, 0xf7, 0xff, 0xff, 0x54, 0x00, 0x00, 0x00,
  0x1a, 0x00, 0x00, 0x00, 0x24, 0x00, 0x00, 0x00, 0x1c, 0x00, 0x00, 0x00,
  0x04, 0x00, 0x00, 0x00, 0x04, 0x00, 0x00, 0x00, 0xff, 0xff, 0xff, 0xff,
  0x1a, 0x00, 0x00, 0x00, 0x01, 0x00, 0x00, 0x00, 0x08, 0x00, 0x00, 0x00,
  0xb0, 0xf7, 0xff, 0xff, 0x20, 0x00, 0x00, 0x00, 0x73, 0x65, 0x71, 0x75,
  0x65, 0x6e, 0x74, 0x69, 0x61, 0x6c, 0x2f, 0x6d, 0x61, 0x78, 0x5f, 0x70,
  0x6f, 0x6f, 0x6c, 0x69, 0x6e, 0x67, 0x31, 0x64, 0x2f, 0x4d, 0x61, 0x78,
  0x50, 0x6f, 0x6f, 0x6c, 0x00, 0x00, 0x00, 0x00, 0x04, 0x00, 0x00, 0x00,
  0x01, 0x00, 0x00, 0x00, 0x1a, 0x00, 0x00, 0x00, 0x01, 0x00, 0x00, 0x00,
  0x08, 0x00, 0x00, 0x00, 0x28, 0xf8, 0xff, 0xff, 0x54, 0x00, 0x00, 0x00,
  0x19, 0x00, 0x00, 0x00, 0x24, 0x00, 0x00, 0x00, 0x1c, 0x00, 0x00, 0x00,
  0x04, 0x00, 0x00, 0x00, 0x04, 0x00, 0x00, 0x00, 0xff, 0xff, 0xff, 0xff,
  0x34, 0x00, 0x00, 0x00, 0x01, 0x00, 0x00, 0x00, 0x08, 0x00, 0x00, 0x00,
  0x1c, 0xf8, 0xff, 0xff, 0x23, 0x00, 0x00, 0x00, 0x73, 0x65, 0x71, 0x75,
  0x65, 0x6e, 0x74, 0x69, 0x61, 0x6c, 0x2f, 0x6d, 0x61, 0x78, 0x5f, 0x70,
  0x6f, 0x6f, 0x6c, 0x69, 0x6e, 0x67, 0x31, 0x64, 0x2f, 0x45, 0x78, 0x70,
  0x61, 0x6e, 0x64, 0x44, 0x69, 0x6d, 0x73, 0x00, 0x04, 0x00, 0x00, 0x00,
  0x01, 0x00, 0x00, 0x00, 0x34, 0x00, 0x00, 0x00, 0x01, 0x00, 0x00, 0x00,
  0x08, 0x00, 0x00, 0x00, 0x94, 0xf8, 0xff, 0xff, 0x8c, 0x00, 0x00, 0x00,
  0x18, 0x00, 0x00, 0x00, 0x20, 0x00, 0x00, 0x00, 0x18, 0x00, 0x00, 0x00,
  0x04, 0x00, 0x00, 0x00, 0x03, 0x00, 0x00, 0x00, 0xff, 0xff, 0xff, 0xff,
  0x34, 0x00, 0x00, 0x00, 0x08, 0x00, 0x00, 0x00, 0x84, 0xf8, 0xff, 0xff,
  0x5d, 0x00, 0x00, 0x00, 0x73, 0x65, 0x71, 0x75, 0x65, 0x6e, 0x74, 0x69,
  0x61, 0x6c, 0x2f, 0x63, 0x6f, 0x6e, 0x76, 0x31, 0x64, 0x2f, 0x52, 0x65,
  0x6c, 0x75, 0x3b, 0x73, 0x65, 0x71, 0x75, 0x65, 0x6e, 0x74, 0x69, 0x61,
  0x6c, 0x2f, 0x63, 0x6f, 0x6e, 0x76, 0x31, 0x64, 0x2f, 0x42, 0x69, 0x61,
  0x73, 0x41, 0x64, 0x64, 0x3b, 0x73, 0x65, 0x71, 0x75, 0x65, 0x6e, 0x74,
  0x69, 0x61, 0x6c, 0x2f, 0x63, 0x6f, 0x6e, 0x76, 0x31, 0x64, 0x2f, 0x43,
  0x6f, 0x6e, 0x76, 0x31, 0x44, 0x2f, 0x53, 0x71, 0x75, 0x65, 0x65, 0x7a,
  0x65, 0x3b, 0x63, 0x6f, 0x6e, 0x76, 0x31, 0x64, 0x2f, 0x62, 0x69, 0x61,
  0x73, 0x00, 0x00, 0x00, 0x03, 0x00, 0x00, 0x00, 0x01, 0x00, 0x00, 0x00,
  0x34, 0x00, 0x00, 0x00, 0x08, 0x00, 0x00, 0x00, 0x34, 0xf9, 0xff, 0xff,
  0xa8, 0x00, 0x00, 0x00, 0x17, 0x00, 0x00, 0x00, 0x24, 0x00, 0x00, 0x00,
  0x1c, 0x00, 0x00, 0x00, 0x04, 0x00, 0x00, 0x00, 0x04, 0x00, 0x00, 0x00,
  0xff, 0xff, 0xff, 0xff, 0x01, 0x00, 0x00, 0x00, 0x34, 0x00, 0x00, 0x00,
  0x08, 0x00, 0x00, 0x00, 0x28, 0xf9, 0xff, 0xff, 0x76, 0x00, 0x00, 0x00,
  0x73, 0x65, 0x71, 0x75, 0x65, 0x6e, 0x74, 0x69, 0x61, 0x6c, 0x2f, 0x63,
  0x6f, 0x6e, 0x76, 0x31, 0x64, 0x2f, 0x52, 0x65, 0x6c, 0x75, 0x3b, 0x73,
  0x65, 0x71, 0x75, 0x65, 0x6e, 0x74, 0x69, 0x61, 0x6c, 0x2f, 0x63, 0x6f,
  0x6e, 0x76, 0x31, 0x64, 0x2f, 0x42, 0x69, 0x61, 0x73, 0x41, 0x64, 0x64,
  0x3b, 0x73, 0x65, 0x71, 0x75, 0x65, 0x6e, 0x74, 0x69, 0x61, 0x6c, 0x2f,
  0x63, 0x6f, 0x6e, 0x76, 0x31, 0x64, 0x2f, 0x43, 0x6f, 0x6e, 0x76, 0x31,
  0x44, 0x2f, 0x53, 0x71, 0x75, 0x65, 0x65, 0x7a, 0x65, 0x3b, 0x63, 0x6f,
  0x6e, 0x76, 0x31, 0x64, 0x2f, 0x62, 0x69, 0x61, 0x73, 0x3b, 0x73, 0x65,
  0x71, 0x75, 0x65, 0x6e, 0x74, 0x69, 0x61, 0x6c, 0x2f, 0x63, 0x6f, 0x6e,
  0x76, 0x31, 0x64, 0x2f, 0x43, 0x6f, 0x6e, 0x76, 0x31, 0x44, 0x00, 0x00,
  0x04, 0x00, 0x00, 0x00, 0x01, 0x00, 0x00, 0x00, 0x01, 0x00, 0x00, 0x00,
  0x34, 0x00, 0x00, 0x00, 0x08, 0x00, 0x00, 0x00, 0xf4, 0xf9, 0xff, 0xff,
  0x54, 0x00, 0x00, 0x00, 0x16, 0x00, 0x00, 0x00, 0x24, 0x00, 0x00, 0x00,
  0x1c, 0x00, 0x00, 0x00, 0x04, 0x00, 0x00, 0x00, 0x04, 0x00, 0x00, 0x00,
  0xff, 0xff, 0xff, 0xff, 0x01, 0x00, 0x00, 0x00, 0x34, 0x00, 0x00, 0x00,
  0x0d, 0x00, 0x00, 0x00, 0xe8, 0xf9, 0xff, 0xff, 0x23, 0x00, 0x00, 0x00,
  0x73, 0x65, 0x71, 0x75, 0x65, 0x6e, 0x74, 0x69, 0x61, 0x6c, 0x2f, 0x63,
  0x6f, 0x6e, 0x76, 0x31, 0x64, 0x2f, 0x43, 0x6f, 0x6e, 0x76, 0x31, 0x44,
  0x2f, 0x45, 0x78, 0x70, 0x61, 0x6e, 0x64, 0x44, 0x69, 0x6d, 0x73, 0x00,
  0x04, 0x00, 0x00, 0x00, 0x01, 0x00, 0x00, 0x00, 0x01, 0x00, 0x00, 0x00,
  0x34, 0x00, 0x00, 0x00, 0x0d, 0x00, 0x00, 0x00, 0x60, 0xfa, 0xff, 0xff,
  0x48, 0x00, 0x00, 0x00, 0x15, 0x00, 0x00, 0x00, 0x20, 0x00, 0x00, 0x00,
  0x18, 0x00, 0x00, 0x00, 0x04, 0x00, 0x00, 0x00, 0x03, 0x00, 0x00, 0x00,
  0xff, 0xff, 0xff, 0xff, 0x34, 0x00, 0x00, 0x00, 0x0d, 0x00, 0x00, 0x00,
  0x50, 0xfa, 0xff, 0xff, 0x1a, 0x00, 0x00, 0x00, 0x73, 0x65, 0x71, 0x75,
  0x65, 0x6e, 0x74, 0x69, 0x61, 0x6c, 0x2f, 0x72, 0x65, 0x73, 0x68, 0x61,
  0x70, 0x65, 0x2f, 0x52, 0x65, 0x73, 0x68, 0x61, 0x70, 0x65, 0x00, 0x00,
  0x03, 0x00, 0x00, 0x00, 0x01, 0x00, 0x00, 0x00, 0x34, 0x00, 0x00, 0x00,
  0x0d, 0x00, 0x00, 0x00, 0xc2, 0xfb, 0xff, 0xff, 0x00, 0x00, 0x00, 0x02,
  0x3c, 0x00, 0x00, 0x00, 0x14, 0x00, 0x00, 0x00, 0x0c, 0x00, 0x00, 0x00,
  0x04, 0x00, 0x00, 0x00, 0x9c, 0xfa, 0xff, 0xff, 0x20, 0x00, 0x00, 0x00,
  0x73, 0x65, 0x71, 0x75, 0x65, 0x6e, 0x74, 0x69, 0x61, 0x6c, 0x2f, 0x72,
  0x65, 0x73, 0x68, 0x61, 0x70, 0x65, 0x2f, 0x52, 0x65, 0x73, 0x68, 0x61,
  0x70, 0x65, 0x2f, 0x73, 0x68, 0x61, 0x70, 0x65, 0x00, 0x00, 0x00, 0x00,
  0x01, 0x00, 0x00, 0x00, 0x03, 0x00, 0x00, 0x00, 0xae, 0xfc, 0xff, 0xff,
  0x00, 0x00, 0x00, 0x02, 0x13, 0x00, 0x00, 0x00, 0x0c, 0x00, 0x00, 0x00,
  0x04, 0x00, 0x00, 0x00, 0xe4, 0xfa, 0xff, 0xff, 0x20, 0x00, 0x00, 0x00,
  0x73, 0x65, 0x71, 0x75, 0x65, 0x6e, 0x74, 0x69, 0x61, 0x6c, 0x2f, 0x72,
  0x65, 0x73, 0x68, 0x61, 0x70, 0x65, 0x2f, 0x73, 0x74, 0x72, 0x69, 0x64,
  0x65, 0x64, 0x5f, 0x73, 0x6c, 0x69, 0x63, 0x65, 0x00, 0x00, 0x00, 0x00,
  0x4e, 0xfc, 0xff, 0xff, 0x00, 0x00, 0x00, 0x02, 0x34, 0x00, 0x00, 0x00,
  0x12, 0x00, 0x00, 0x00, 0x0c, 0x00, 0x00, 0x00, 0x04, 0x00, 0x00, 0x00,
  0x28, 0xfb, 0xff, 0xff, 0x18, 0x00, 0x00, 0x00, 0x73, 0x65, 0x71, 0x75,
  0x65, 0x6e, 0x74, 0x69, 0x61, 0x6c, 0x2f, 0x72, 0x65, 0x73, 0x68, 0x61,
  0x70, 0x65, 0x2f, 0x53, 0x68, 0x61, 0x70, 0x65, 0x00, 0x00, 0x00, 0x00,
  0x01, 0x00, 0x00, 0x00, 0x02, 0x00, 0x00, 0x00, 0x92, 0xfc, 0xff, 0xff,
  0x00, 0x00, 0x00, 0x02, 0x3c, 0x00, 0x00, 0x00, 0x11, 0x00, 0x00, 0x00,
  0x0c, 0x00, 0x00, 0x00, 0x04, 0x00, 0x00, 0x00, 0x6c, 0xfb, 0xff, 0xff,
  0x22, 0x00, 0x00, 0x00, 0x73, 0x65, 0x71, 0x75, 0x65, 0x6e, 0x74, 0x69,
  0x61, 0x6c, 0x2f, 0x63, 0x6f, 0x6e, 0x76, 0x31, 0x64, 0x5f, 0x31, 0x2f,
  0x43, 0x6f, 0x6e, 0x76, 0x31, 0x44, 0x2f, 0x53, 0x71, 0x75, 0x65, 0x65,
  0x7a, 0x65, 0x00, 0x00, 0x01, 0x00, 0x00, 0x00, 0x03, 0x00, 0x00, 0x00,
  0xde, 0xfc, 0xff, 0xff, 0x00, 0x00, 0x00, 0x02, 0x3c, 0x00, 0x00, 0x00,
  0x10, 0x00, 0x00, 0x00, 0x0c, 0x00, 0x00, 0x00, 0x04, 0x00, 0x00, 0x00,
  0xb8, 0xfb, 0xff, 0xff, 0x20, 0x00, 0x00, 0x00, 0x73, 0x65, 0x71, 0x75,
  0x65, 0x6e, 0x74, 0x69, 0x61, 0x6c, 0x2f, 0x6d, 0x61, 0x78, 0x5f, 0x70,
  0x6f, 0x6f, 0x6c, 0x69, 0x6e, 0x67, 0x31, 0x64, 0x2f, 0x53, 0x71, 0x75,
  0x65, 0x65, 0x7a, 0x65, 0x00, 0x00, 0x00, 0x00, 0x01, 0x00, 0x00, 0x00,
  0x03, 0x00, 0x00, 0x00, 0x2a, 0xfd, 0xff, 0xff, 0x00, 0x00, 0x00, 0x02,
  0x3c, 0x00, 0x00, 0x00, 0x0f, 0x00, 0x00, 0x00, 0x0c, 0x00, 0x00, 0x00,
  0x04, 0x00, 0x00, 0x00, 0x04, 0xfc, 0xff, 0xff, 0x20, 0x00, 0x00, 0x00,
  0x73, 0x65, 0x71, 0x75, 0x65, 0x6e, 0x74, 0x69, 0x61, 0x6c, 0x2f, 0x63,
  0x6f, 0x6e, 0x76, 0x31, 0x64, 0x2f, 0x43, 0x6f, 0x6e, 0x76, 0x31, 0x44,
  0x2f, 0x53, 0x71, 0x75, 0x65, 0x65, 0x7a, 0x65, 0x00, 0x00, 0x00, 0x00,
  0x01, 0x00, 0x00, 0x00, 0x03, 0x00, 0x00, 0x00, 0xae, 0xfc, 0xff, 0xff,
  0x34, 0x00, 0x00, 0x00, 0x0e, 0x00, 0x00, 0x00, 0x0c, 0x00, 0x00, 0x00,
  0x04, 0x00, 0x00, 0x00, 0x4c, 0xfc, 0xff, 0xff, 0x1a, 0x00, 0x00, 0x00,
  0x73, 0x65, 0x71, 0x75, 0x65, 0x6e, 0x74, 0x69, 0x61, 0x6c, 0x2f, 0x63,
  0x6f, 0x6e, 0x76, 0x31, 0x64, 0x5f, 0x31, 0x2f, 0x43, 0x6f, 0x6e, 0x76,
  0x31, 0x44, 0x00, 0x00, 0x04, 0x00, 0x00, 0x00, 0x10, 0x00, 0x00, 0x00,
  0x01, 0x00, 0x00, 0x00, 0x03, 0x00, 0x00, 0x00, 0x08, 0x00, 0x00, 0x00,
  0xfa, 0xfc, 0xff, 0xff, 0x34, 0x00, 0x00, 0x00, 0x0d, 0x00, 0x00, 0x00,
  0x0c, 0x00, 0x00, 0x00, 0x04, 0x00, 0x00, 0x00, 0x98, 0xfc, 0xff, 0xff,
  0x18, 0x00, 0x00, 0x00, 0x73, 0x65, 0x71, 0x75, 0x65, 0x6e, 0x74, 0x69,
  0x61, 0x6c, 0x2f, 0x63, 0x6f, 0x6e, 0x76, 0x31, 0x64, 0x2f, 0x43, 0x6f,
  0x6e, 0x76, 0x31, 0x44, 0x00, 0x00, 0x00, 0x00, 0x04, 0x00, 0x00, 0x00,
  0x08, 0x00, 0x00, 0x00, 0x01, 0x00, 0x00, 0x00, 0x03, 0x00, 0x00, 0x00,
  0x0d, 0x00, 0x00, 0x00, 0x46, 0xfd, 0xff, 0xff, 0x34, 0x00, 0x00, 0x00,
  0x0c, 0x00, 0x00, 0x00, 0x0c, 0x00, 0x00, 0x00, 0x04, 0x00, 0x00, 0x00,
  0xe4, 0xfc, 0xff, 0xff, 0x18, 0x00, 0x00, 0x00, 0x73, 0x65, 0x71, 0x75,
  0x65, 0x6e, 0x74, 0x69, 0x61, 0x6c, 0x2f, 0x79, 0x5f, 0x70, 0x72, 0x65,
  0x64, 0x2f, 0x4d, 0x61, 0x74, 0x4d, 0x75, 0x6c, 0x00, 0x00, 0x00, 0x00,
  0x02, 0x00, 0x00, 0x00, 0x02, 0x00, 0x00, 0x00, 0xd0, 0x00, 0x00, 0x00,
  0xf2, 0xfe, 0xff, 0xff, 0x00, 0x00, 0x00, 0x02, 0x0b, 0x00, 0x00, 0x00,
  0x0c, 0x00, 0x00, 0x00, 0x04, 0x00, 0x00, 0x00, 0x28, 0xfd, 0xff, 0xff,
  0x27, 0x00, 0x00, 0x00, 0x73, 0x65, 0x71, 0x75, 0x65, 0x6e, 0x74, 0x69,
  0x61, 0x6c, 0x2f, 0x63, 0x6f, 0x6e, 0x76, 0x31, 0x64, 0x2f, 0x43, 0x6f,
  0x6e, 0x76, 0x31, 0x44, 0x2f, 0x45, 0x78, 0x70, 0x61, 0x6e, 0x64, 0x44,
  0x69, 0x6d, 0x73, 0x2f, 0x64, 0x69, 0x6d, 0x00, 0x96, 0xfe, 0xff, 0xff,
  0x00, 0x00, 0x00, 0x02, 0x34, 0x00, 0x00, 0x00, 0x0a, 0x00, 0x00, 0x00,
  0x0c, 0x00, 0x00, 0x00, 0x04, 0x00, 0x00, 0x00, 0x70, 0xfd, 0xff, 0xff,
  0x18, 0x00, 0x00, 0x00, 0x73, 0x65, 0x71, 0x75, 0x65, 0x6e, 0x74, 0x69,
  0x61, 0x6c, 0x2f, 0x66, 0x6c, 0x61, 0x74, 0x74, 0x65, 0x6e, 0x2f, 0x43,
  0x6f, 0x6e, 0x73, 0x74, 0x00, 0x00, 0x00, 0x00, 0x01, 0x00, 0x00, 0x00,
  0x02, 0x00, 0x00, 0x00, 0x7a, 0xff, 0xff, 0xff, 0x00, 0x00, 0x00, 0x02,
  0x09, 0x00, 0x00, 0x00, 0x0c, 0x00, 0x00, 0x00, 0x04, 0x00, 0x00, 0x00,
  0xb0, 0xfd, 0xff, 0xff, 0x27, 0x00, 0x00, 0x00, 0x73, 0x65, 0x71, 0x75,
  0x65, 0x6e, 0x74, 0x69, 0x61, 0x6c, 0x2f, 0x6d, 0x61, 0x78, 0x5f, 0x70,
  0x6f, 0x6f, 0x6c, 0x69, 0x6e, 0x67, 0x31, 0x64, 0x2f, 0x45, 0x78, 0x70,
  0x61, 0x6e, 0x64, 0x44, 0x69, 0x6d, 0x73, 0x2f, 0x64, 0x69, 0x6d, 0x00,
  0xbe, 0xff, 0xff, 0xff, 0x00, 0x00, 0x00, 0x02, 0x08, 0x00, 0x00, 0x00,
  0x0c, 0x00, 0x00, 0x00, 0x04, 0x00, 0x00, 0x00, 0xf4, 0xfd, 0xff, 0xff,
  0x22, 0x00, 0x00, 0x00, 0x73, 0x65, 0x71, 0x75, 0x65, 0x6e, 0x74, 0x69,
  0x61, 0x6c, 0x2f, 0x72, 0x65, 0x73, 0x68, 0x61, 0x70, 0x65, 0x2f, 0x52,
  0x65, 0x73, 0x68, 0x61, 0x70, 0x65, 0x2f, 0x73, 0x68, 0x61, 0x70, 0x65,
  0x2f, 0x31, 0x00, 0x00, 0x00, 0x00, 0x0e, 0x00, 0x14, 0x00, 0x00, 0x00,
  0x07, 0x00, 0x08, 0x00, 0x0c, 0x00, 0x10, 0x00, 0x0e, 0x00, 0x00, 0x00,
  0x00, 0x00, 0x00, 0x02, 0x07, 0x00, 0x00, 0x00, 0x0c, 0x00, 0x00, 0x00,
  0x04, 0x00, 0x00, 0x00, 0x44, 0xfe, 0xff, 0xff, 0x22, 0x00, 0x00, 0x00,
  0x73, 0x65, 0x71, 0x75, 0x65, 0x6e, 0x74, 0x69, 0x61, 0x6c, 0x2f, 0x72,
  0x65, 0x73, 0x68, 0x61, 0x70, 0x65, 0x2f, 0x52, 0x65, 0x73, 0x68, 0x61,
  0x70, 0x65, 0x2f, 0x73, 0x68, 0x61, 0x70, 0x65, 0x2f, 0x32, 0x00, 0x00,
  0xae, 0xff, 0xff, 0xff, 0x00, 0x00, 0x00, 0x02, 0x40, 0x00, 0x00, 0x00,
  0x06, 0x00, 0x00, 0x00, 0x0c, 0x00, 0x00, 0x00, 0x04, 0x00, 0x00, 0x00,
  0x88, 0xfe, 0xff, 0xff, 0x26, 0x00, 0x00, 0x00, 0x73, 0x65, 0x71, 0x75,
  0x65, 0x6e, 0x74, 0x69, 0x61, 0x6c, 0x2f, 0x72, 0x65, 0x73, 0x68, 0x61,
  0x70, 0x65, 0x2f, 0x73, 0x74, 0x72, 0x69, 0x64, 0x65, 0x64, 0x5f, 0x73,
  0x6c, 0x69, 0x63, 0x65, 0x2f, 0x73, 0x74, 0x61, 0x63, 0x6b, 0x00, 0x00,
  0x01, 0x00, 0x00, 0x00, 0x01, 0x00, 0x00, 0x00, 0x00, 0x00, 0x0e, 0x00,
  0x18, 0x00, 0x08, 0x00, 0x07, 0x00, 0x0c, 0x00, 0x10, 0x00, 0x14, 0x00,
  0x0e, 0x00, 0x00, 0x00, 0x00, 0x00, 0x00, 0x02, 0x44, 0x00, 0x00, 0x00,
  0x05, 0x00, 0x00, 0x00, 0x0c, 0x00, 0x00, 0x00, 0x04, 0x00, 0x00, 0x00,
  0xe8, 0xfe, 0xff, 0xff, 0x28, 0x00, 0x00, 0x00, 0x73, 0x65, 0x71, 0x75,
  0x65, 0x6e, 0x74, 0x69, 0x61, 0x6c, 0x2f, 0x72, 0x65, 0x73, 0x68, 0x61,
  0x70, 0x65, 0x2f, 0x73, 0x74, 0x72, 0x69, 0x64, 0x65, 0x64, 0x5f, 0x73,
  0x6c, 0x69, 0x63, 0x65, 0x2f, 0x73, 0x74, 0x61, 0x63, 0x6b, 0x5f, 0x31,
  0x00, 0x00, 0x00, 0x00, 0x01, 0x00, 0x00, 0x00, 0x01, 0x00, 0x00, 0x00,
  0x9a, 0xff, 0xff, 0xff, 0x24, 0x00, 0x00, 0x00, 0x04, 0x00, 0x00, 0x00,
  0x0c, 0x00, 0x00, 0x00, 0x04, 0x00, 0x00, 0x00, 0x38, 0xff, 0xff, 0xff,
  0x0b, 0x00, 0x00, 0x00, 0x63, 0x6f, 0x6e, 0x76, 0x31, 0x64, 0x2f, 0x62,
  0x69, 0x61, 0x73, 0x00, 0x01, 0x00, 0x00, 0x00, 0x08, 0x00, 0x00, 0x00,
  0xca, 0xff, 0xff, 0xff, 0x28, 0x00, 0x00, 0x00, 0x03, 0x00, 0x00, 0x00,
  0x0c, 0x00, 0x00, 0x00, 0x04, 0x00, 0x00, 0x00, 0x68, 0xff, 0xff, 0xff,
  0x0d, 0x00, 0x00, 0x00, 0x63, 0x6f, 0x6e, 0x76, 0x31, 0x64, 0x5f, 0x31,
  0x2f, 0x62, 0x69, 0x61, 0x73, 0x00, 0x00, 0x00, 0x01, 0x00, 0x00, 0x00,
  0x10, 0x00, 0x00, 0x00, 0x00, 0x00, 0x0e, 0x00, 0x14, 0x00, 0x04, 0x00,
  0x00, 0x00, 0x08, 0x00, 0x0c, 0x00, 0x10, 0x00, 0x0e, 0x00, 0x00, 0x00,
  0x24, 0x00, 0x00, 0x00, 0x02, 0x00, 0x00, 0x00, 0x0c, 0x00, 0x00, 0x00,
  0x04, 0x00, 0x00, 0x00, 0xac, 0xff, 0xff, 0xff, 0x0b, 0x00, 0x00, 0x00,
  0x79, 0x5f, 0x70, 0x72, 0x65, 0x64, 0x2f, 0x62, 0x69, 0x61, 0x73, 0x00,
  0x01, 0x00, 0x00, 0x00, 0x02, 0x00, 0x00, 0x00, 0x14, 0x00, 0x18, 0x00,
  0x04, 0x00, 0x00, 0x00, 0x08, 0x00, 0x0c, 0x00, 0x10, 0x00, 0x00, 0x00,
  0x00, 0x00, 0x14, 0x00, 0x14, 0x00, 0x00, 0x00, 0x4c, 0x00, 0x00, 0x00,
  0x01, 0x00, 0x00, 0x00, 0x20, 0x00, 0x00, 0x00, 0x18, 0x00, 0x00, 0x00,
  0x04, 0x00, 0x00, 0x00, 0x02, 0x00, 0x00, 0x00, 0xff, 0xff, 0xff, 0xff,
  0xa4, 0x02, 0x00, 0x00, 0x04, 0x00, 0x04, 0x00, 0x04, 0x00, 0x00, 0x00,
  0x1f, 0x00, 0x00, 0x00, 0x73, 0x65, 0x72, 0x76, 0x69, 0x6e, 0x67, 0x5f,
  0x64, 0x65, 0x66, 0x61, 0x75, 0x6c, 0x74, 0x5f, 0x72, 0x65, 0x73, 0x68,
  0x61, 0x70, 0x65, 0x5f, 0x69, 0x6e, 0x70, 0x75, 0x74, 0x3a, 0x30, 0x00,
  0x02, 0x00, 0x00, 0x00, 0x01, 0x00, 0x00, 0x00, 0xa4, 0x02, 0x00, 0x00,
  0x09, 0x00, 0x00, 0x00, 0xa4, 0x00, 0x00, 0x00, 0x88, 0x00, 0x00, 0x00,
  0x78, 0x00, 0x00, 0x00, 0x68, 0x00, 0x00, 0x00, 0x58, 0x00, 0x00, 0x00,
  0x44, 0x00, 0x00, 0x00, 0x28, 0x00, 0x00, 0x00, 0x14, 0x00, 0x00, 0x00,
  0x04, 0x00, 0x00, 0x00, 0x8c, 0xff, 0xff, 0xff, 0x00, 0x00, 0x00, 0x19,
  0x19, 0x00, 0x00, 0x00, 0xe4, 0xff, 0xff, 0xff, 0x00, 0x00, 0x00, 0x09,
  0x09, 0x00, 0x00, 0x00, 0x09, 0x00, 0x00, 0x00, 0xa8, 0xff, 0xff, 0xff,
  0x00, 0x00, 0x00, 0x11, 0x11, 0x00, 0x00, 0x00, 0x0c, 0x00, 0x10, 0x00,
  0x07, 0x00, 0x00, 0x00, 0x08, 0x00, 0x0c, 0x00, 0x0c, 0x00, 0x00, 0x00,
  0x00, 0x00, 0x00, 0x03, 0x05, 0x00, 0x00, 0x00, 0x03, 0x00, 0x00, 0x00,
  0xd0, 0xff, 0xff, 0xff, 0x00, 0x00, 0x00, 0x46, 0x46, 0x00, 0x00, 0x00,
  0xdc, 0xff, 0xff, 0xff, 0x00, 0x00, 0x00, 0x16, 0x16, 0x00, 0x00, 0x00,
  0xe8, 0xff, 0xff, 0xff, 0x00, 0x00, 0x00, 0x53, 0x53, 0x00, 0x00, 0x00,
  0xf4, 0xff, 0xff, 0xff, 0x00, 0x00, 0x00, 0x2d, 0x2d, 0x00, 0x00, 0x00,
  0x0c, 0x00, 0x0c, 0x00, 0x07, 0x00, 0x00, 0x00, 0x00, 0x00, 0x08, 0x00,
  0x0c, 0x00, 0x00, 0x00, 0x00, 0x00, 0x00, 0x4d, 0x4d, 0x00, 0x00, 0x00
};
unsigned int mfcc_flattened_tflite_len = 10416;
